[PAD]
[UNK]
[CLS]
[SEP]
[MASK]
!
"
#
$
%
&
'
(
)
*
+
,
-
.
/
0
1
2
3
4
5
6
7
8
9
:
;
<
=
>
?
@
A
B
C
D
E
F
G
H
I
J
K
L
M
N
O
P
Q
R
S
T
U
V
W
X
Y
Z
[
\
]
^
_
`
a
b
c
d
e
f
g
h
i
j
k
l
m
n
o
p
q
r
s
t
u
v
w
x
y
z
{
|
}
~

£
§
¨
©
«
¬
­
®
°
±
²
³
´
µ
·
¹
º
»
¼
½
¾
¿
À
Á
Ä
Å
Ç
È
É
Ê
Î
Ï
Ñ
Ó
Ô
Ö
×
Ø
Û
Ü
ß
à
á
â
ã
ä
å
æ
ç
è
é
ê
ë
í
î
ï
ñ
ó
ô
ö
÷
ø
û
ü
ā
ă
č
ē
ě
ğ
Ĥ
ĥ
ħ
ī
İ
ı
Ĺ
ĺ
Ľ
ł
ń
ō
œ
Ŕ
ŕ
Ś
ś
Ş
ş
Š
š
ū
ŭ
Ű
Ž
ž
Ƈ
ƒ
ƥ
Ʀ
ǁ
ǆ
ǈ
Ǌ
ǎ
Ǐ
ǐ
Ǒ
ǒ
Ǔ
ǘ
Ǡ
ǡ
ǣ
Ǥ
Ǧ
Ǫ
ȇ
Ȉ
ȍ
Ȏ
ȑ
ȕ
Ș
ȥ
Ȧ
ɑ
ɒ
ə
ɛ
ɪ
ɽ
ʁ
ʇ
ʉ
ʌ
ʐ
ʒ
ʘ
ʠ
ʡ
ʤ
ʥ
ʦ
ʪ
ʮ
ʷ
ˆ
ˈ
ˉ
ˌ
ˍ
˚
̀
̂
̋
̌
̛
̡
̥
̦
;
Α
Δ
Ε
Κ
Π
Φ
Ω
ά
έ
ή
ί
α
β
γ
δ
ε
ζ
η
θ
ι
κ
λ
μ
ν
ξ
ο
π
ρ
ς
σ
τ
υ
φ
χ
ψ
ω
ϊ
ό
ύ
ώ
ϐ
Ϙ
Ϡ
ϡ
Ϥ
ϥ
Ϧ
Ͽ
А
Б
В
Г
Д
Е
З
И
К
Л
М
Н
О
П
Р
С
Т
У
Ф
Х
Ч
Ш
Щ
Ю
Я
а
б
в
г
д
е
ж
з
и
й
к
л
м
н
о
п
р
с
т
у
ф
ц
ч
ш
щ
ъ
ы
ь
э
ю
я
ѐ
ѓ
є
ї
ј
ѝ
џ
Ѡ
ѣ
Ѥ
ѥ
Ѧ
Ѫ
ҁ
҇
Ґ
ґ
Ғ
Ҙ
Ҡ
Ҥ
Ҧ
Ӂ
Ӈ
ӊ
ӏ
ӑ
Ә
Ӡ
ӡ
ӣ
ӥ
Ӧ
Ө
ԇ
Ԋ
ԍ
Ԙ
ԟ
Ԡ
ԥ
Ԧ
Հ
ա
ե
յ
ն
ր
ְ
ֲ
ִ
ֵ
ֶ
ַ
ָ
ֹ
ֻ
ּ
ׁ
ׂ
א
ב
ג
ד
ה
ו
ז
ח
ט
י
ך
כ
ל
ם
מ
ן
נ
ס
ע
פ
צ
ק
ר
ש
ת
״
،
؛
؟
ء
آ
أ
ؤ
إ
ئ
ا
ب
ة
ت
ث
ج
ح
خ
د
ذ
ر
ز
س
ش
ص
ض
ط
ظ
ع
غ
ـ
ف
ق
ل
م
ن
ه
و
ى
ي
ً
ٌ
ٍ
َ
ُ
ِ
ّ
ْ
٠
١
٢
٣
٤
٥
٦
٧
٨
٩
٪
٭
ٰ
ٱ
ٶ
پ
چ
ڇ
ڎ
ڕ
ژ
ڤ
ڦ
ڨ
ک
گ
ڵ
ھ
ۀ
ہ
ۆ
ۈ
ۊ
ی
ێ
ې
۔
ە
ۚ
۞
ۥ
ۦ
۩
۰
۱
۲
۳
۷
۸
ܐ
ܒ
ܘ
ܝ
ܠ
ܩ
ܪ
݇
݊
ݒ
ݠ
ݥ
ݦ
ޥ
ަ
ޮ
߇
ߎ
ߑ
ߠ
ߥ
ߦ
ং
ব
ল
া
ท
ย
ไ
ລ
ວ
າ
་
ག
ད
བ
ཡ
ི
ོ
ა
თ
ი
ლ
რ
უ
ქ
ᇣ
ᇦ
ማ
ር
ት
ኛ
አ
ግ
ᓦ
ខ
ម
រ
ែ
្
ᥝ
ᥠ
ᦌ
ᦣ
ế
ệ
ἄ
ἐ
ἔ
Ἑ
ἡ
ἤ
ἱ
ὄ
ὅ
ὰ
ὴ
ὶ
ὸ
ό
ᾶ
ῆ
ῴ
ῶ
​
‌
‍
‎
‏
–
—
‘
’
‚
“
”
„
•
…
‬
‮
″
‹
›
‼
⁄
₁
₂
₃
₤
€
ℓ
Ω
←
∆
∙
∷
≈
≡
□
►
▼
◀
◄
◊
●
◦
☿
♣
❊
》
㇍
㇡
㇤
㈦
㑦
㠆
㠍
㠐
㠑
㠞
㠥
㠦
㥝
㥠
㦓
㦣
䇏
䇑
䇤
䇦
䌇
䏇
䑇
䒦
䝿
䠈
䠏
䠟
䠡
䠣
䠦
䤠
䥝
䥠
䥦
䦣
中
再
凝
処
動
勧
告
呠
坁
坊
坎
坏
坐
坑
坓
坘
坝
坟
坠
坡
坣
坤
坦
坿
堁
堆
堈
堊
堍
堎
堏
堐
堑
堓
堟
堠
堡
堣
堤
堥
堦
夑
奝
妣
宊
宠
康
建
懑
懓
懠
懤
懦
戥
抑
护
报
抦
揇
摦
撦
教
文
最
栆
栈
栌
栏
栓
栝
栠
校
栦
椠
椢
椥
楝
楠
楡
楮
榏
榓
榣
榦
殉
神
粵
者
語
資
運
集
국
동
어
이
한


























































































































































































﴾
﴿
﻿
１
２
５
７
##ە
##ک
##ی
##ا
##ن
##د
##و
##ف
##ر
##م
##ت
##ۆ
##ز
##ب
##گ
##ش
##ج
##ێ
##پ
##ل
##ڕ
##ع
##س
##ڵ
##9
##2
##6
##1
##5
##7
##ـ
##ه
##چ
##ق
##‌
##ط
##ة
##ح
##خ
##ژ
##ئ
##0
##8
##3
##ڤ
##غ
##َ
##e
##o
##ِ
##ُ
##ى
##أ
##a
##n
##i
##l
##4
##B
##D
##P
##Q
##p
##G
##Y
##v
##d
##ّ
##u
##s
##ذ
##❊
##°
##ؤ
##t
##g
##إ
##ض
##U
##r
##x
##ْ
##m
##q
##L
##C
##y
##ص
##b
##k
##h
##c
##ٌ
##×
##z
##ü
##‮
##٥
##٠
##ظ
##E
##T
##w
##ً
##f
##M
##W
##A
##ş
##ث
##آ
##٢
##٩
##J
##O
##I
##S
##H
##٣
##N
##Z
##j
##ٍ
##å
##١
##ρ
##ά
##τ
##ο
##ς
##ء
##F
##X
##V
##٤
##ä
##K
##ö
##в
##т
##о
##р
##î
##٨
##π
##º
##​
##Ǧ
##û
##٧
##ç
##R
##я
##ʇ
##ᦣ
##ı
##ğ
##٦
##‎
##
##
##
##
##
##
##
##
##
##
##
##ê
##İ
##
##
##
##
##
##
##è
##é
##а
##
##
##
##ማ
##ር
##ኛ
##í
##µ
##
##
##
##
##
##
##
##
##
##
##
##
##
##
##
##
##
##
##
##ѐ
##у
##с
##к
##и
##й
##Ǡ
##ߦ
##ś
##ń
##ѣ
##
##
##
##
##´
##ٶ
##ó
##ψ
##ι
##Å
##Ʀ
##ʦ
##ј
##П
##б
##
##ß
##У
##Р
##Д
##С
##К
##А
##Я
##Ö
##
##
##
##
##
##
##
##е
##€
##ۦ
##Î
##
##ω
##
##м
##н
##л
##á
##ٰ
##Ω
##◦
##‬
##
##
##₂
##ē
##‍
##Ϥ
##ν
##ώ
##μ
##η
##
##
##
##
##ø
##æ
##
##ҁ
##Ԡ
##ᥝ
##ô
##۷
##
##
##ł
##Ґ
##ა
##რ
##თ
##უ
##ლ
##ი
##д
##
##
##‏
##া
##ং
##ল
##®
##ȥ
##
##
##
##
##
##ā
##¬
##ھ
##ь
##
##
##
##
##ٱ
##ท
##ย
##˚
##מ
##ו
##א
##ל
##ã
##
##ǆ
##θ
##
##
##
##ὰ
##
##
##λ
##
##
##
##
##
##
##
##
##נ
##۸
##۰
##ޥ
##
##
##
##
##
##
##
##
##
##
##
##
##Ǥ
##ڎ
##ū
##ר
##ב
##ן
##י
##ד
##ō
##³
##ĺ
##
##α
##υ
##ῶ
##Ê
##¹
##Ѡ
##ᥠ
##
##្
##ម
##ែ
##រ
##à
##ּ
##ַ
##ת
##ф
##ы
##۞
##
##
##₃
##з
##ъ
##σ
##
##ָ
##ׁ
##
##ש
##ם
##
##
##ʥ
##
##
##Ȧ
##
##Ä
##Δ
##
##ۥ
##φ
##ό
##←
##
##ۊ
##
##
##
##ԟ
##ч
##
##
##ế
##
##ц
##ʷ
##ñ
##۱
##
##
##
##п
##ύ
##ε
##ִ
##ְ
##ߥ
##ަ
##κ
##Ş
##
##
##Ϧ
##∆
##Φ
##ϥ
##◀
##ï
##ա
##յ
##ե
##ր
##ն
##Ϡ
##ƥ
##
##
##ƒ
##
##
##г
##
##Ç
##
##ϡ
##ܪ
##ܒ
##ܝ
##ܠ
##
##Ԧ
##ᾶ
##۲
##
##Ѧ
##
##ה
##š
##
##ǐ
##ŭ
##Ǌ
##ʠ
##ֹ
##Ԙ
##ό
##
##
##ī
##ə
##
##
##ግ
##
##
##
##ŕ
##Ҙ
##ߑ
##ӥ
##
##
##ע
##
##χ
##ῆ
##â
##
##Ô
##É
##È
##ʡ
##
##
##
##Ӈ
##ϐ
##
##⁄
##
##
##●
##
##♣
##
##ш
##ߎ
##ʌ
##ʒ
##າ
##ວ
##ח
##₁
##М
##И
##Л
##ὴ
##̀
##
##
##ܐ
##ڨ
##ۈ
##ἱ
##ג
##Ϙ
##ȑ
##Ҡ
##ོ
##ད
##▼
##Е
##О
##В
##﻿
##ɪ
##이
##
##ޮ
##
##ί
##β
##δ
##Ҧ
##ׂ
##ֵ
##̌
##Ñ
##
##
##ž
##ѥ
##
##
##ю
##ԥ
##э
##ܘ
##Ï
##
##̂
##̋
##Ǒ
##џ
##γ
##
##כ
##
##ή
##ي
##
##Ѫ
##Ø
##ۀ
##ہ
##ʮ
##ξ
##
##
##☿
##ὶ
##҇
##ֲ
##ֻ
##Ә
##č
##ᇣ
##
##
##
##Ü
##Ω
##Ӂ
##ǒ
##ֶ
##
##ז
##ק
##ӣ
##ὸ
##Ƈ
##߇
##ˉ
##̥
##ᇦ
##ི
##ག
##ȕ
##ǈ
##פ
##
##㇤
##ϊ
##ԇ
##ă
##
##ס
##ט
##
##ë
##ӡ
##Ǔ
##Ԋ
##ǣ
##ݒ
##۳
##ݦ
##ї
##
##Ȏ
##œ
##
##국
##어
##ӊ
##²
##щ
##έ
##
##Ǐ
##ѓ
##ῴ
##
##Š
##ệ
##Û
##ې
##Ш
##ان
##ەو
##ەر
##ەک
##ەی
##ار
##وو
لە
##انی
##او
##ەن
##ای
##ەم
##ست
بە
##رد
##ات
##ەت
##ێک
##ێت
##ام
##نی
##ەوە
##دا
##ەڵ
ئەو
##ری
بۆ
دە
کە
##یی
##ێن
##اری
سەر
##ین
کو
##ەکانی
##ەب
##اس
##اڵ
##ێر
##ەند
##یان
ئەم
بەر
##شت
##ێو
کورد
##ەکان
##اد
هەر
##اک
##از
##ەتی
##ێکی
کۆ
له
خۆ
##کرد
##اب
##ێم
##ەل
پێ
##ۆر
##ەوەی
##یر
##کی
##ەش
##مان
##ەز
##سەر
##راو
##ەد
##ەکی
دەک
##ەری
##سی
##تی
##اند
کرد
##وون
##ستی
##ستان
##ون
یەک
ڕۆ
##ەڕ
##گەی
##شی
بک
##لی
ناو
##ێز
##رێت
##اق
خو
کوردستان
دی
##انە
##انەی
##ەکەی
##ووە
ئە
هەم
##اش
##اتی
##ەنگ
##وم
##ەیە
به
##ایی
ئی
هەڵ
دەب
20
کۆم
##ەنی
سی
دەر
دو
##ەخ
##ۆک
##ال
##گر
##ەکە
ڕۆژ
##یش
##ەوت
##رو
گو
##ێراق
ڕا
##بەر
##ۆن
دەست
بەڵ
##وان
کار
##ۆی
پێش
##ەنج
لەو
دا
عێراق
##رۆ
##ەه
لەسەر
##ەس
##دی
##ێژ
دوو
ئا
##ێی
##اسی
##ور
بوو
##ەست
هاو
##اڵی
وەک
پار
هەو
لەگ
خۆی
زۆر
##ییە
##کردنی
ئەوەی
##ارد
##زی
##گەر
##وک
##را
##ارە
ئام
##امی
##ایە
که
نو
##ێش
##یل
هەموو
لەگەڵ
##ڕی
##اوی
##ێست
##کردن
هەرێم
کەس
##اوە
لەم
##می
پەی
پەر
لای
##کە
##رین
##ەیەکی
ئەنج
##هێن
##شتی
جی
بەش
##ێب
##ەوه
##مانی
##وانی
##ایەتی
نی
دەبێت
من
حک
بەڵام
ڕوو
گر
بەه
کۆمەڵ
##ید
201
##نام
بێ
چەند
##ارەی
##تر
##گای
دەکات
هی
##ەف
##ەمان
##ەق
##ازی
تا
##ۆڕ
##گەیاند
خەڵ
نێو
نا
ئەوە
##یست
حکوم
سو
##اف
##ڵات
##دو
##ەدا
##بوو
##ەندی
بن
##دار
لێ
وەز
##ۆکی
##ەین
هەیە
یان
بو
تۆ
ئێست
##ایب
بەڕ
زی
ئێم
##گرت
##گی
کات
##ەیەک
بێت
##ڕۆ
##ووی
پێو
##کەوت
ئەگەر
لەن
ڕێک
نەب
##نە
##ەیان
دەس
##بوون
##ژی
##رس
##راوە
##ەمی
داو
##یە
##ۆری
##دە
مو
##گە
##ڵی
بکات
##رسی
##دانی
ڕێ
##خو
##دان
هیچ
هێز
##زب
ئیس
##وت
فەر
##ەور
##است
##اتر
##اریی
هەڵب
##وە
##ەها
ئاز
هەرو
کەم
##ادی
##ەلی
##لای
##ەکرد
ساڵ
سیاسی
##ێتی
درو
##هات
##دەو
##ۆز
هەرێمی
وڵات
پێک
##نەوەی
##ووری
هات
##ینی
##ۆت
ئای
وەر
لەک
دوای
ئاس
مان
بوون
سەرۆک
دەو
خۆیان
##ەج
لەب
گوتی
سەرۆکی
چون
##ژارد
گەور
با
##یستی
##خۆ
کاری
ئێستا
یاس
نییە
200
شێو
می
##ییەکان
سیاس
##ێنی
##اتە
تایب
ئاو
شار
پەرل
ئێر
دەکەن
##یری
دروست
کێش
هەول
مرۆ
##کا
بار
ناوچ
بەو
بڕی
##ستانی
##وونی
بەد
بڵ
تێ
لەبەر
##جی
لایەن
##ێند
پەیو
دەڵ
تور
بکەن
##ەتە
##چی
بەسەر
تر
هەڵبژارد
بەک
بد
##ەرم
هەروەها
دەسەڵ
تەنی
چاو
کەر
##پی
##اژ
##وار
##ییەکانی
##ۆڵ
##کو
##زانی
داب
مرۆڤ
##ەیی
ڕای
نەت
##یت
##گیر
هەب
##دەک
##حم
##گری
لەلای
دەنگ
##ێتەوە
هەولێر
##ۆم
##وور
زیاتر
نەک
چونکە
##لێم
##ووس
##ێری
حکومەتی
سەرب
جیه
##ۆل
تەنیا
##داری
##ەپ
##کەی
##وب
بەم
##الی
پێویست
##کاری
##یزب
ئەنجام
##ود
ال
لەه
##ۆش
هە
ئێمە
ڕۆژنام
##نەوە
تەو
19
دەد
بب
هون
داد
##کر
پارێز
ئەند
ئیسل
ڕێکخ
ساڵی
سلێم
##ەوێت
کۆن
بەپ
ئاماد
در
جێ
##گو
##اوەی
ماف
ڕاب
ڕاگەیاند
بەت
##یانی
پاش
ئێران
ژن
جۆر
یاری
##ەکانیان
##وس
ئۆ
##ۆنی
زان
##اران
شو
ناک
نە
تورکی
گۆڕ
##ادا
مام
##ەتەوە
سلێمانی
##زم
یەکەم
حیزب
بیر
ڕاست
دەکرێت
کر
ژم
##تان
ئاماژ
پی
کوردی
بەرپ
دەوڵ
کردووە
بووە
##زان
##کردنەوەی
بەره
تاو
##کات
نێوان
##وکر
دان
یەکێتی
##تو
##ەوەو
دەگ
خەڵکی
باش
لەپ
##هێنانی
گرن
هەند
پرۆ
بۆیە
##ەبی
پۆ
ئار
##ێکدا
10
بەڕێو
لەد
فیل
دڵ
نەخ
ئەنجوم
تایبەت
##وەر
کوردستانی
دەت
لی
ئەوان
باو
##رێن
پێی
ئەر
ئەمەری
##ردنی
خۆش
##اکانی
##ێڕ
لەلایەن
بەردەو
##ەمم
لەناو
پێن
تی
شاری
وە
مە
##راوی
لەئ
هێن
##امبەر
لێک
##اندنی
##وی
شت
تاک
##ایەت
ڕەو
##ێنەر
##چاو
باس
##ەوی
##دوو
نیشت
ڕۆژی
چوار
خوێند
کۆت
نزی
بەن
دەڵێت
عەر
پارتی
##گا
ئەنجومەنی
بەب
ڕایگەیاند
سن
##اغ
مندا
بەخ
ئەن
##پەڕ
##ەکه
دەسەڵات
پەرلەمان
##فر
نم
بکرێت
باب
##ارەت
خاو
##وری
##ێل
ئاب
بر
##ارەسەر
کەرک
قس
عەب
##انەوە
بڕ
مێژ
##ڕۆژ
شی
##مەر
هەندێک
ئاش
##پەر
بەردەوام
جار
##ردوو
ئەمری
##کراو
یانەی
بەل
حکومەت
خەڵک
یا
##ژم
##اندا
جیاو
##ووم
سێ
##شن
##تە
گەی
دەی
##ەمانی
چارەسەر
شەڕ
##داو
دەرب
وت
دۆ
##ەبەر
گەر
هەز
گوت
تورکیا
وەکو
##دەم
##چێت
##اکی
بگ
ئەمڕۆ
بی
چی
تیر
##کار
##ڵاتی
یەکێک
قور
بەهۆی
داوای
باڵ
ئین
پل
##ەنگی
##خی
##بوونی
##هەڵ
پێشمەر
بەڵکو
تری
##ێنێت
دام
ناب
بەرهەم
##ەشی
دیک
کۆتایی
ماڵ
##شک
ڕی
لەس
##نەی
دێم
گشتی
##ێشت
##اع
سەد
ئێو
##وڵ
پرسی
بەرامبەر
##ەمەد
##ترین
تون
تەن
هەوڵ
##استی
تێک
سەب
ئەک
##اه
##پانی
گەل
نوو
کەرکوک
##ەستی
11
سوپ
ناوی
ئەمە
تۆم
ئازاد
تەم
دانی
##زگ
منداڵ
گۆڕان
باز
##دەی
12
مەس
دێموکر
##حمەد
پەیوەند
پڕۆژ
شان
ئاژ
بەغ
##ارەتی
##بانی
هەردوو
بڵاو
ئەحمەد
ئیسلامی
مەب
شوێن
##ەکاندا
2010
زۆری
نوێ
##ەیر
دەم
ئەندام
مەر
نەتەوەی
##ەکەدا
ئەمەریکا
دەستی
عەبدو
پاڵ
##حەمەد
هەی
داهات
##شتن
هۆی
##ەع
کردنی
##انه
ئەی
بەدەست
##تەر
لەڕ
عێراقی
سەرکەوت
چۆن
چەندین
ئەمەش
بز
ژیان
ئەڵ
##ۆست
ئازادی
ئەل
بکەین
بری
شێ
کاتێک
تو
بەئ
##نیش
نوێنەر
زانی
دای
ملی
ڕابردوو
بەرەو
وێن
لەوە
گۆ
2011
فەرمان
هەزار
##بێت
هەڵبژاردن
##ەگ
چەک
##ایش
##بار
شەه
##ەتا
ڕو
وەزارەتی
##روپ
سین
وەزیر
عەلی
بەپێی
گرت
وەزیری
خوا
سەبارەت
##ووت
پەیام
گون
##شتر
نەو
لەنێو
##بوونەوەی
پەرلەمانی
##ەوانی
پێویستە
##ێبەج
بەرز
بوونی
##ێڵ
چال
گەڕ
ژیانی
##قی
ئەد
##ۆناغ
ژمارەی
بارزانی
##انسی
##انگ
##ەکەیان
فر
دژ
##انیش
هەڵو
بەکار
بەشی
پەروەر
هێر
ماوەی
##فی
##ەندە
لەش
سیست
نات
بەغدا
یەکگرت
بەشداری
##ینە
ست
##یەکان
هەمیش
##00
پشت
##خان
##بەی
پەیوەندی
خزم
##انەوەی
داع
##ول
کەل
مافی
پڕ
##وانێت
##ونی
درێژ
جێبەج
پرۆس
##ورد
##کۆ
نیشتمانی
گۆر
هۆک
محەمەد
##مە
پۆلی
##اوو
جیاواز
گوتیشی
سەرکرد
##راون
دووەم
گرنگ
جیهانی
##ییەوە
##پەی
##شتنی
کەوت
ناس
##دایە
هەبێت
##گەری
##ایەکی
داعش
دامەز
بەتایب
دیاری
ئەوەش
##ییەکی
ڕۆشن
##ەفت
تەواو
جەم
پیاو
سوری
ئاماژەی
##ینەوەی
تەق
دەن
##چوو
نەبێت
بەرنام
##اقی
##کرا
چاک
دار
##ڵا
توان
14
##اپ
##حی
قۆناغ
##لا
##گرن
نزیک
بنەم
##ەکردنی
ڕوون
##خست
ئەوانەی
موس
ماد
##یشاند
وا
بڕیار
پیر
دیکە
15
نەد
زین
دەیان
ڕاپ
##ەلا
شۆڕ
ئەوا
خان
##ئاو
باسی
کاتی
پێشک
##ایان
هەمان
دەکەین
لاو
##ینەوە
مامۆست
قوت
##ێنن
##تێب
##کردەوە
لیژ
خست
##اکان
##ۆشی
##ot
##یانە
##ییان
##گیری
ئایا
##لم
##توگ
لێر
##وز
دنی
گف
دەرەوەی
##ێنێ
مەد
2012
دژی
ئەوەیە
ئەمریکا
لێد
خۆپ
شەهید
دیم
ڕەنگ
##بی
پارێزگ
مەت
##جەم
دەکرد
کردوو
دوور
##ێکە
##ژەو
ئیسلام
ئەب
##اندن
بەوە
یاسای
##وانن
بەرپرس
تاوان
##ەخت
ماو
##گەیەن
کۆمپانی
بەلام
ڕۆژنامەن
نووس
هەنگ
17
کتێب
هێزەکانی
18
گشت
##وود
خاڵ
##ایەوە
##ارم
کچ
نام
کەن
##ەبەری
##چوون
16
##بک
ڕەخ
کور
قوتاب
خولی
##رێ
هاوو
##ێرد
##پێک
توانی
##ێتە
##ێد
##کت
هەن
ئیم
بەرپرسی
##ۆزی
ڕۆشنب
ئۆپ
##ند
ئابووری
فیلمی
هەست
ڕژ
##خواز
2009
سەرچاو
##li
خاوەن
بین
##سیۆن
ژێر
##جار
گفتوگ
ئەز
##ەیت
یاریی
واتە
##ەوان
جیهان
پەیامن
هونەرم
ئاژانسی
##ێژی
پەن
##گرتنی
باوەڕ
##ەکانیش
ئامان
##ایەی
##رێتەوە
لیستی
لەر
پشتی
ئاستی
عەرەب
##اتەوە
بەشدار
##ێمی
بەشێو
دەوڵەتی
##ۆس
بخ
دەوڵەت
##ردن
زمان
تایبەتی
کراوە
ئاگ
##نا
پارێزگای
تێدا
##دەوڵ
##ەران
ول
کۆماری
نووسەر
ناز
##انەت
نەبوو
ئەندامی
هاوپەی
خرا
کێشەی
13
دوا
##یانەی
تەند
بڕیاری
سینەم
گەورە
گەرم
بەهێز
ئەف
مەک
ئاڵ
گەش
کردن
جەل
##چوونی
سەربەخ
دەسەڵاتی
وەڵ
ڕاد
فیلم
داواک
ڕێگەی
تیرۆری
بەج
##بەری
##انیان
ئەویش
نەوت
کەو
##افی
بت
کۆنگر
حیزبی
هێزی
نەم
بەرژەو
هێرش
##ارەکانی
ڕێکخراو
2014
##جە
نەخۆش
مەسەل
گەلی
##ەزی
پێکهات
##ابوو
پێشکەش
زمانی
برین
##امان
ژنان
##سان
##ایشی
##ایه
ڕزگ
##کەر
نەه
ئەس
نوێی
تەندرو
2008
ناوب
میل
بواری
##ەکەمان
بۆی
دەدات
##عر
دەخ
نیی
خۆم
فی
حەم
ئافر
دیکەی
قوربانی
شک
بەرگری
##سا
ڕووداو
هەمیشە
کۆمەڵایەتی
مێژوو
##ایەتیی
نیش
خزمەت
دواتر
ڕە
گەنج
##پرس
خەب
ملیۆن
جۆرە
مانگ
##خانەی
کام
حەس
یەکگرتوو
خۆپیشاند
سەرەت
ڕێژ
##وا
لەبارەی
##کاریی
پاراست
خۆمان
نێودەوڵ
داهاتوو
تەنانەت
##نج
فید
عەرەبی
##یستیڤ
وڵاتانی
ڕووی
##شدا
مەبەست
##ئەوەی
هەل
تۆمار
##ەنە
##وونە
دین
##لە
ڕێز
کۆب
هەواڵی
پیش
پرۆسەی
تەواوی
بەس
هێشت
##ها
بەع
##دوای
ده
##دەد
سەرەکی
ئەمنی
بانگ
##گوز
کرا
هەواڵ
30
چالاک
##دەب
بابەت
##ارێکی
جگە
حکووم
##ەختی
دەنگی
سەردانی
قەر
فیستیڤ
سیاسیی
زیاد
گەیشت
##گرتن
##شە
مەز
##ێتیی
##خۆی
لەنێوان
مانگی
ناڕ
##ڤی
تاز
ڕاستی
سز
##شەمم
لەوەی
ئەنف
هونەر
##کەوتن
سوریا
خۆر
##ینەی
ئەنجامی
بینی
##ەرانی
پێشمەرگە
##ابی
بدات
پێویستی
دەز
جا
حزب
25
نەکرد
خوێن
دەزان
کوژ
هاوب
ئاشکر
هونەری
نای
بود
کی
نەتەوەیی
##an
##اخ
##ۆرت
##om
##رگ
##ژێر
##وای
##uot
##وانین
تێی
ئەوروپ
##لان
##ێوەی
ڕەش
سەی
وڵاتی
##ێوە
پێنج
گۆرانی
ساز
سیاسەت
فەل
##ێـ
ڕێگای
quot
چاود
##ودۆ
بای
سوپای
##ar
لێکۆڵ
سەرجەم
##ەمبەر
لەت
##گومان
تەل
ئۆت
سەرۆکایەتی
ئاگاد
ڕۆژهەڵ
ئێمه
جەماو
گە
ئەزم
هەبوو
##ایت
دابەش
یە
سەع
##یم
ئافرەت
شەر
کەسێک
##وڕ
دەبین
تاڵ
مۆ
هاوکاری
کراو
خراپ
##دەکات
خول
کاک
زۆربەی
کرێک
##ەون
چاوەڕ
دەستگیر
پێم
کەسی
بچ
هەرچ
بەگ
بەتایبەتی
کردەوە
##el
هونەرمەند
##انەدا
خێز
شیع
دکت
##ەکەم
##ێچ
هەفت
##ادر
دێت
##مانە
##ۆژ
ڕێکخراوی
##کردووە
##ێنە
##رِ
ڕۆژئاو
دانیشت
بەریت
لێدوان
ئەوه
##که
بەڕێز
بێگومان
موسڵ
عەبدول
بارودۆ
##جەی
لێی
دەڵێن
لەچ
پاراستنی
بدەن
##گرێت
ئەنفال
توو
##هێنان
##ەموو
توندو
##ەدە
بەریتانی
بریندار
##ارانی
جوان
##ەکەش
هاوکات
سەرباز
باک
##ڕینی
بەبێ
##تری
21
تەر
حوک
شتێک
دوێنێ
هەڵبژاردنی
##یەکانی
مال
وات
ڕۆڵی
گەورەی
تێیدا
باشت
##انس
جەلال
##ۆیی
خوار
فڕ
جێی
بەڕاستی
##ەسەند
مار
##فت
ئۆتۆم
پاک
##ەکردن
##ۆژی
شۆڕش
##ەقام
دەکەم
بەدی
##ووسی
لێب
وایە
توێژ
وش
چین
حەسەن
لەهەر
##یەک
بازرگ
شوێنی
بەڕێوەبەری
دۆل
کوردستاندا
دیار
پەروەرد
فیدر
##اتری
##ڕەو
سەرم
بەشێک
جو
بەناوی
##اجی
یاسایی
میس
بەشێکی
##دەر
##داوە
2013
سرو
دکتۆر
جێگری
بەز
شاع
یاسا
نابێت
داوە
##وایە
ئاست
هاوڕ
زەوی
##بە
ئەست
ناوەڕ
##دەمی
دەبێتە
تە
##عی
##ارێز
هێزە
پێغ
چەکدار
هەوڵی
ناوخۆ
ستر
##ِی
##خود
تەندروستی
##ومەر
هاوپەیمانی
##ێین
مێژووی
##مەند
بارەی
خۆیدا
پشتیوانی
دایک
##اڕ
کان
ئیتر
هێشتا
##ەخش
ڕاو
ڕەس
شەڕی
##بن
ترس
چار
##ەقی
ڕۆشنبیری
میدی
##ەڕەش
کل
##en
خوارد
سەربازی
هەژ
کەچی
##گێڕ
گیانی
##چە
ئۆپۆز
شەو
قەیر
جێبەجێک
سێی
##ووه
داگیر
سەرچ
22
خاوەنی
##ەکانمان
گرنگی
کۆبوون
##ران
##نامەی
لیژنەی
##ەزای
پێد
نووسین
کاریگەر
##ێگەی
هەنگاو
یاخود
##سانی
##یاندا
نێودەوڵەتی
##یراق
ئاشکرا
##ەبانی
ورد
نەی
پاشان
##سیۆنی
24
دەدەن
##ێستی
دامەزر
##تەری
ناوچەی
##er
##ێس
دابین
گەڵ
دۆز
ئاک
کۆمەڵگای
##ەلام
نوێنەرانی
##ەدان
ئەت
##ەوێ
ڕێب
##واری
برد
توندوتی
وای
##ێرەی
لا
دیموکر
دێموکراسی
پەیامنێر
کۆمەڵێک
ئاسایشی
دەهێن
23
ئەڵمانی
عوس
##ڤان
یەکێتیی
خۆشەو
ڕۆژنامەنووس
##یس
پێشو
##ێکیش
باشترین
##کۆی
هەڵەب
دەسەل
هەتا
دەبن
##یدی
##وەری
##ەکەت
تائ
پرسیار
مەدەنی
کۆبوونەوەی
پێشتر
مەترسی
بەی
دروستکردنی
زانیاری
تورک
##سپ
##on
تیرۆر
خێر
ئۆتۆمب
ئەندامانی
هەڵس
##ۆچ
تێب
پۆلیسی
##ساڵ
com
باڵای
نزیکەی
مەکت
##ێنم
لایەنە
##بد
##رائ
جەنگ
##انەش
##ردا
چیر
##یەوە
کردو
باشتر
هاتووە
##ادەی
##خستنی
دیارە
پاس
ژمارەیەک
پـ
لەکات
قۆناغی
دێموکراتی
سیاسەتی
بەشێوەیەکی
##ووک
حاڵ
وەزیرانی
نین
پرس
شێوەی
ڕوونی
یارم
##ەکانەوە
ڕۆژهەڵاتی
دەگەڕ
##چەی
##گه
سال
##ۆتەوە
دڵنی
لەکاتی
ڕۆڵ
ڕاگەیاندنی
مەحم
##بڕ
یاریزانی
پر
##ەڵی
##استەی
ڕاگەیاندن
نمایش
پێیان
##کراوە
ڕێژەی
پۆلیس
##ەژ
##انێکی
ڕەنگە
##اکە
دەری
ئامانج
ڕژێمی
وەرز
پڕۆژەی
نر
چاودێری
##دانەوەی
##پەڕی
##اوه
ژمار
دەچێت
زەر
حوس
##بینی
##انەیە
##هەوێت
##بەڕ
باری
##وباری
مالی
کاریگەری
ئاشتی
##elli
میر
خەڵاتی
هۆکاری
##ایەک
سۆ
بازرگانی
دەستەی
##ەوتن
helli
hellip
##ەکەیدا
##کێش
##گار
##کردنەوە
دهۆک
شاعیر
داوا
دەتوانێت
یەکەمی
##ەرە
لایەنی
چاپ
ئاین
کێ
عێراقدا
بکەم
نیو
بەرژەوەندی
هەروەک
فیستیڤاڵی
پێشنی
مەبەستی
##کان
بزووت
گەرمیان
گیر
گەند
ناکات
بەیەک
##ـت
سای
##ارەکان
خەل
پرۆژ
##ارو
سنووری
27
پەرلەمانت
مالکی
##ەمین
ڕابردوودا
نووسی
دارایی
ناد
کارەب
##رە
##ەنجام
هۆ
##بارەی
ئامادەب
##مەت
لێپرس
ئەوروپا
دێ
ملم
وەڵام
بەوەی
توند
جیاوازی
26
ئیسرائ
کردنەوەی
##سەف
هەڕەش
##ائ
تاڵەبانی
یاریزان
لەق
پێغەمبەر
##ێستا
##له
##ێنەری
مەکتەبی
فری
دوژم
##تۆ
کاند
کۆمەڵگەی
199
##نان
##ەیەدا
خوێندن
لەژێر
ستراتی
بزوت
ڕزگار
لێرەدا
28
##وپ
کوڕ
ئێستاش
مست
ڕێکخست
بەعس
بەیان
##ییەک
دەش
دیارد
پارت
##il
لەدەست
فەره
##ڵاتیان
شەش
##زیش
ئید
کردوە
ناوبراو
##ێنێتەوە
کەئ
کۆنت
خودی
بەرهەمی
مەی
بم
شێعر
بل
مامەڵ
##کەوتنی
لەخ
خەری
تەمەن
##سەری
بەرنامەی
##جۆر
ناوەندی
سەری
ڕاپۆرت
##راوان
سەن
ناچ
نیە
فەلسەف
##کری
کاتژم
سەردەم
پۆست
دەزگای
##ێکیان
ڕەگ
فەرەن
هەستی
وتی
##اڵە
مەلا
##ەمە
بەڕێوەبەر
توانای
نه
کەی
##بون
ناکرێت
لەع
کورت
تاکو
ئێوە
جارێکی
گەورەت
جێگەی
زۆ
بۆم
پێچ
دوایی
دەکاتەوە
##خۆش
دەڕ
هاوبەش
##چێوەی
##ەفا
##زە
کەری
##ۆتە
ئیر
ولات
ڕۆژنامەی
گفتوگۆ
##ازیی
##اریان
نموونە
تۆپی
بەست
##کانی
##تیار
لەدوای
تەلەف
##این
شتێکی
کاروباری
##سیا
گروپ
چەم
##اتوو
ئەرکی
ڕاستەو
##وچ
##لەی
قەڵ
نوس
دەکەوێت
هەڵوێست
لەیەک
ئاسایی
پێکهێنانی
شێخ
سون
##ایانی
بریت
##اون
##تەوە
ئاسایش
پەناب
وڵاتە
خەبات
چونکه
##هێنەر
بیست
تەک
نوری
##جا
میلل
سەیر
دەربارەی
بەتایبەت
بەند
##گەیەنێت
عەق
##برا
چارەسەری
##ەپێ
ژین
دیال
زانستی
خوای
یارمەتی
##ەکو
##پارێز
عوسمان
دەچ
کۆبانی
مالیکی
بەمەب
بۆئەوەی
لەپێن
لەبەردەم
##ایینی
##ەوتی
کارێکی
##اره
بۆچی
##نه
بەڕێوە
نازان
ئۆپۆزسیۆن
ڕەز
ڕەت
##ادە
گشتیی
سەرکردایەتی
قادر
زانست
کۆمپانیای
پایت
فڕۆک
بەناو
##پێ
##انێک
مامۆستا
##گیز
ململان
پێکەوە
ڕاپەڕ
29
شانۆ
بەچ
##عری
##زانین
کەب
سام
ئیت
چالاکی
2007
##اچ
##ed
پزیش
دەتوانن
نەتەوە
کۆمەڵگ
##ناک
##فەر
##ەستە
تریش
ئاوێن
##وه
ڕاستەق
بودجەی
##بارە
##ایک
پلەی
پێشمەرگەی
##وژ
##ەکاری
سەرکەوتنی
بەردەم
##بکات
بەمەبەستی
چارەن
وەرب
##or
بەریتانیا
ئەمساڵ
لەساڵی
هەڵبژاردەی
بزان
##ییەکەی
##رم
مەسەلەی
##ـی
کارەس
##زیک
ساڵح
##انێ
زیندانی
شەمم
هەیه
ئابوری
مت
دەرەوە
##شین
##اگ
هەرگیز
##ۆڤ
##ەنەوە
وەزیران
موو
تووشی
ناوچە
گوند
بدرێت
##عود
ڕووبەڕ
حکوومەتی
##یروان
شارۆچ
کاتژمێر
##ەکەوە
حوسێن
سە
##ابوون
##دین
مەحمود
کاب
چارەسەرکردنی
لەکاتێکدا
هەبووە
پەک
بڕو
ئیسرائیل
پش
میسر
باڵی
بزووتنەوەی
شێر
زانکۆی
نەوتی
خۆت
ماڵی
ژمارە
هەشت
سیستەمی
##es
دەق
پشتگیری
ئاگادار
##پێش
بان
##غان
کۆمەل
شێوە
سەرەتای
لەکورد
دنیا
کشت
کۆی
وی
ئەنجامدانی
پەسەند
عەبدوڵ
دەبینی
هێم
ئەوەشی
نەبووە
##دۆ
##ەڵب
##نیشان
قسەی
شێوەیەکی
ئینگ
عومەر
##ارێک
نیشتی
##در
شێوەیەک
گومان
##بو
لەی
دادگای
##ەدی
مافەکانی
خەی
وێنە
##ردو
خەر
بەدا
ناوچەکە
وەرگرت
##براه
حس
##خوازی
بەدو
بەرِ
لیست
نەتەو
دەسەڵاتدار
ئیسپانی
جێبەجێ
بەرپرسانی
ئێرانی
تاب
کەسێکی
ئەرک
##ییەی
زوو
گرفت
سەردەمی
وه
پیرۆز
سوود
##زەی
سەرەک
دۆلار
هەمو
پشک
نیشان
ڕێککەوتن
واقی
##اما
##ینەو
هێنا
ئایینی
##بووە
مستەفا
نوێنەری
##روپی
هەرچەندە
##رانی
هەڤ
پەیمان
سک
ساڵە
ڕێو
لەوێ
دراو
کشتوک
پارێزگاری
نێت
لەماوەی
هەیەو
یاد
سەل
بون
##ابێت
گوڵ
خۆپیشاندان
##is
گروو
بزوتنەوەی
ئەنجووم
پێگەی
##ۆلی
ئۆب
شاند
کۆمەڵگا
وەزارەت
بەختیار
حوکم
سەرک
هێ
ببێتە
##ەندیی
مەرج
وەف
##وێن
##کرت
هەفتەی
زۆرین
نیشتمانیی
فێر
فرۆ
جێبەجێکردنی
##نیان
ناوەڕاست
خەم
بابەتی
سەو
تەمەنی
ناسی
##ۆیە
##ur
تاران
بیان
موح
چەو
بەرێو
لیژن
##ما
##ایەد
دامەزراندنی
##ەبوو
قەو
سووری
سنوور
ژی
خۆشی
لەبەرامبەر
ڕەخنە
هیو
هاوسەر
ڕێگە
بەرچاو
تۆمەت
07
نارد
ئەمریک
حەز
##نەت
هاووڵاتی
##اشی
ئارام
ڕۆژانە
##ییه
##ەمەنی
ئیبراه
بکاتەوە
تێبینی
دووپ
دادەن
ئوم
یەکتر
##ەزایی
ڕێگ
ئاینی
زیان
ئەوانیش
جەماوەر
##حک
##دەکرێت
بگەڕ
ڕازی
سەرن
بەکارهێنانی
داخ
##اته
##et
ئاماژە
نوێنەران
گواست
##ۆتۆ
##ێران
هەرچی
بێد
نەبوونی
پێدا
##زمی
کردبوو
خێزان
##ەندا
بنەمای
##ەوەر
31
##ەته
##at
##ەوانەی
خوارەوە
##ێنین
خزمەتگوز
خواست
چاوی
هاوڵاتی
ئەدەبی
##ووتی
پەیامنێری
##اکەی
چۆنی
##ەشق
##شیان
لەهەموو
تەنها
##ەڕوو
لەلایەکی
دەکرێن
##دەست
سکرت
تائێستا
ئال
گۆڤ
داواکاری
##اندنەوەی
چەپ
دیکەش
کارە
##کێ
کێشە
##هێنەری
##ەتێکی
یەکی
ئۆتۆمبێل
کۆبوونەو
##بین
پەنج
##اح
##ەلە
##کەری
باوک
##انبەر
##یچ
بیری
##تات
کەسایەتی
##ایم
بارودۆخی
##ێنەوە
##تن
ئاخ
سێیەم
دووەمی
چیرۆک
سەرکەوتن
کۆمەڵەی
نیگەر
کارو
##ەکانە
دەدرێت
تاوەکو
قسە
گۆڕینی
ڕەم
جوانی
خەباتی
##ay
##رینی
جۆراو
##پەرشتی
بال
کۆنفر
کردووه
##خانە
گۆڵ
نەز
ئیبراهیم
خاڵی
ڕۆشنبیر
عەل
سیاسییەکان
ئەمانە
##کەن
بایەخ
دیکتات
کوشتنی
مرۆڤی
ڕەوشی
##گەڕ
دینار
دەورو
سوور
کاندید
##دای
مۆد
کوت
کەواتە
سەردان
وەردە
هۆشی
هەڵوێستی
گوز
زانیاریی
ئاسمانی
کلی
لەمەو
کەسانی
گونج
##گرە
دوژمن
گوێ
وێنەی
##گاری
ەوە
ئەنجوومەنی
ئەڵڵا
دەستوور
ببێت
عەبدوڵڵا
مانای
ئاوی
ناش
وەرگرتنی
مل
##هر
##دەن
شێواز
ڕۆژێک
وەڵامی
فیدراڵ
پسپ
ئاراستەی
جەنگی
ستەم
فار
##ووەو
سایتی
کەریم
ڕادی
جەست
ڕاستەوخۆ
وەبەر
بەرپرسیار
فەی
##رۆز
نەخۆشی
بنی
ڕۆژنامەوانی
مەسعود
چاکس
تاری
##مەوە
##ووڵ
لەز
##ژین
لەخۆ
دادگ
دەرکەوت
فەرمی
##ەکەو
مس
جەماوەری
ژمارەیەکی
حەوت
کۆنترۆ
ئاوێنەنی
سەرنج
فەرم
دۆخ
خەو
پاب
ڕۆمان
##هێشت
بەق
##ەممەد
##شەممە
وس
##دەکەن
برِی
تاقی
198
توندوتیژی
جەن
سوو
جۆری
##انت
دەستنیشان
ئەوەندە
زیاتری
جۆرێک
فراوان
بهێنێت
نەج
سەف
##واز
خۆشەویستی
##لات
دەستووری
لاواز
بارودۆخ
##in
ڕژێم
کۆنگرەی
##ترە
09
پێشمەرگ
دەگرێت
شارەوانی
نیشتەج
کول
ئیدی
کری
ht
ئینگلی
##لۆ
گیان
سوید
##وانیت
ئێمەش
##ودی
##بۆ
شەهیدان
ئەڵمانیا
##ێزی
دەرهێنانی
کەمال
دەبێتەوە
کورسی
شێوازی
##ۆرتی
##ەزیز
ئامادە
گرنگە
##دەستی
##ەتیی
کیمی
باشووری
کراون
نموون
دیکه
ئایین
##ent
هۆڵ
##ێرن
لێو
50
کاتێکدا
جێگای
##ارەدا
##ویەتی
شەقام
##ەشدا
##ەکر
خانە
بۆن
بکرێن
دەستیان
یەکێکە
تێگەی
منیش
پێداوی
##خانی
پاڵەوان
پێشوو
##ۆف
خوێندنەوەی
تەرخان
بووم
وان
لەئێست
نهێنی
لەکوردستان
##راوانی
سەرەڕ
فەرمانبەر
##گەل
نائ
##اج
لەوانە
##حکوم
##ردی
سـ
01
##پە
نیشتیمانی
تازە
قورئ
##حمان
کەسانەی
ناوخۆی
یەکەمین
بەرانبەر
دەف
بەیاننام
شۆڕشی
##ەبێژی
کارەکانی
08
لەسەرەت
دەسەلات
##اڤ
ببین
##ەمەن
بارە
کردووەو
مەل
##ەپێدانی
مادەی
داڕ
دەرف
گەشت
بەداخ
ئەدەب
ئاگر
ئارەز
لەدەر
بۆیان
سزای
خاکی
##ازان
پۆستی
ڕێنم
ئاوێنەنیوز
##ەیش
ئەمەریکی
چەکی
دەقی
##کەس
##بان
ئامادەی
سپ
ئەوانە
ناوەند
سەرچاوەی
زانکۆ
فۆتۆ
##گۆ
کۆبون
##اریش
بگرێت
سەربەخۆ
وئ
04
##ڕە
##ەیەکدا
02
مۆڵ
بەرەی
کوشت
##ەکار
##ەوەیە
گوێرەی
03
##لو
##ەکانم
ئۆباما
06
دڵی
هەڵەبجە
تێپەڕ
##روو
##شەی
گفتوگۆی
بەڵگ
پڕۆژە
کەه
بێک
دەزانن
بیروب
دووبارە
سینەمایی
بەجێ
سەپ
##گۆڕ
خوێنەر
##بهێن
سروشتی
دەنگدان
ئامانجی
سەرپەرشتی
گروپی
شای
داک
##ەڤ
##کاران
##ستە
مەن
کۆمەڵی
05
باشە
پەیوەندییەکانی
ئەمەریک
قەز
##وات
گەورەترین
ئێستای
##دەشت
زەو
نیشتمان
شێوەیە
لێدوانێکی
مایەی
ئاسان
خوێندنی
حاجی
بەدوای
ناتوانێت
کارکردن
زا
بەکورد
فراک
##ەلاح
##ژیی
##ەکات
##امە
بونی
ناوچەکانی
سکرتێری
خاک
##نەو
ئەش
##اکرد
##یەتی
چوارچێوەی
ئاه
##ەمەند
سەرەتا
##ەدەر
##ایدا
بریتی
وب
##ەکانیدا
##ەنجامی
##ێڕی
کۆمار
گەندەڵی
##ێـکی
دەزگ
کارگ
سەیری
باشی
وشەی
##ۆلۆژی
ڕەگەز
تاکە
لەمبارەی
سەرس
کەمتر
تێدایە
میو
بچوو
بخو
دەتوانین
بۆیه
40
دەزانێت
جەژ
لەڕێگەی
##اکەوت
بگرن
##اندووە
تێکۆش
چوون
ئۆک
##ڕا
لەشاری
##حاڵ
ڕاوێژ
چاوەڕوانی
لەپێناو
ون
دەخو
لایەنگ
##ەندەی
هەریەک
بڕیارە
ڕون
هز
مەسی
##شەممه
ویل
ئاشکرای
تێکەڵ
##ەغ
##تد
سەرکەوتوو
##رای
فش
##ۆمەڵ
دڵس
##ڕەوی
گەم
علی
##نەتەوەی
##بەست
لەج
کۆڵ
نەن
ماند
مەج
گێڕ
الم
بکەنەوە
ئیدارەی
بچێت
سەدان
ڕۆژئاوای
ڕزگاری
پەیوەندیی
ملیار
شەری
دابڕ
##ێدی
هێزێکی
##ەدانی
##یرە
##اوەو
گەرمی
میللەت
قورس
کەڵ
##ۆکەی
یەکگرتووەکان
گۆران
هێناوە
##هاتی
مین
لەڕووی
کوردو
گوم
سەرمایەد
##ووەتەوە
##اید
##تەو
پێکرد
سیستمی
سەنگ
خۆیەوە
عەزیز
بۆتە
ئێوه
بڵاوی
نەر
بدەین
سپی
دانیشتن
پاڵپ
ئەمرۆ
سەربەخۆیی
پێشکەوت
لەعیراق
سێک
تش
تاوانبار
شەممە
197
پێناو
پارەی
ئاسی
دەبوو
نرخی
##ەول
##ڵاو
بازاڕ
بەردەوامی
خورم
ئینجا
لایەک
##فتی
لەل
بنەماڵ
تەماش
لەخو
##ment
سۆر
هاوپەیمان
تاوتو
شێعری
سۆسی
##سن
دەروونی
کۆچ
هاوڵاتیان
خوێندکار
کتێبی
ڕۆژئاوا
بۆچوون
هەینی
دامەزراو
##تووری
بکە
داهاتووی
ئاسمان
باخ
ویست
لەگەل
هۆکار
پێشووی
ئەمین
ژنانی
سەرەڕای
##ەدەغ
ئەزموون
نێونەتەوەی
هۆش
وەس
##بوڵ
تەئ
بیانی
باوکی
سوپاسی
سروشت
ناچار
دایە
قەب
قەزای
##اسایی
کانی
##ەبوونی
##بکەن
هاتنی
##ەکەشی
شارەز
پەڕ
##ەدەست
چینی
هەموویان
بەداخەوە
یادی
سەرق
ڕەوانەی
ئیتالی
بەرِێو
##کس
##ێڕای
##مەد
##خت
دەبینین
##وڵات
سع
لەدایک
شوب
نەف
ئاشت
دەستکەوت
##چاوی
سیم
##اکردنی
بانگەش
##al
سەید
قەدەغ
دەردەک
سەدەی
واز
وەست
140
خزمەتی
هتد
بس
##ـتی
دەرئ
##کێی
هاند
سووریا
##بر
موسڵمان
دەگەڕێتەوە
##شم
ناحی
نان
داهاتوودا
##اعید
دادگا
##ماع
دیدار
دز
##ەکەین
سنوری
##زیکی
گۆڕانکاری
سەعید
مەترس
ڕەه
بەلای
منداڵان
دابن
یارییەکانی
مۆر
کۆل
لێژ
ئازار
ئەخ
بەگشتی
##ڤەر
##ریان
##دەچێت
##کەکانی
ئێراق
سەرهەڵ
بەیانی
##وئ
ئەمریکی
زۆرینەی
بڵێین
##گیرێت
وڵاتەکەی
هاوش
دنیای
##تەرن
ڕەفت
پایتەختی
بەسەردا
واقیع
##ww
مرۆڤایەتی
مێژوویی
یش
مۆن
بەخۆ
متمان
بەڕێوەب
ئەندا
ئاڕ
پێویسته
100
پەنا
58
خۆتان
ڕۆژنامەنوس
ڕاستە
شتی
ئەکتەر
ڕێکخراوە
www
نییەو
##ینا
سەرچاوە
گەشتی
##ووچ
لاد
پەیدا
دۆست
##وست
ئەگەری
##باری
##ۆرم
هەولێری
ئێستادا
پێناس
بەڵێن
##ەتر
تیرۆریست
##ڕن
بەوەش
هاوکار
کۆبانێ
##ەکدا
بابەتە
##گەیەکی
سەربەخۆی
دەنووس
تەس
##زا
##کراون
##بردنی
هەور
کوڕی
بەگو
خانەق
ڕاپەڕین
ئەزموونی
کەرتی
چۆنیەتی
زۆرێک
لەوەش
کون
پەل
هێرشی
##سەی
لەهەمان
نێچ
##یەکی
هەڵبژ
ماوەیەکی
هێند
هەموومان
ڕەزام
##انەو
##سک
##مەن
بوونە
##توانی
##دەخ
##وول
##ایل
##وسی
ناتوان
##اتن
هێڵی
هاوکاریی
گەرد
کوردستانە
شارستانی
بەخو
پیشەس
پێمان
ئۆپۆزی
##بکرێت
گرێب
کۆمی
پەلام
جیا
گووتی
خەون
##وق
بێب
شارۆچکەی
نرخ
جیاجی
##ەخانەی
بنەڕ
یەکل
مەزن
##زای
عیراق
کەسوک
ناکەن
دانانی
##کردۆتەوە
##نگ
تیرۆریستی
تیش
کێشەکانی
خودا
##بێ
بەتەو
کوردستانیش
بەدوادا
نار
خۆشەویست
کوشتن
لەبەرئەوەی
لەهەرێمی
دۆسی
کۆمەڵگە
##ۆپ
سیاسییەکانی
سەدام
ڕاشی
کارەبا
فەرەنسا
##اسم
کوردە
سەم
##دەدات
کەش
پێشوازی
ماڵپەڕی
تاوانی
گۆل
مەع
کارمەند
ڕاک
##زاد
##کردنە
ماوە
##ندا
##ڕین
##سێ
ناوەر
نێونەتەوەیی
ئێمەی
نیگەرانی
##ێوی
هەزاران
ئامادەیی
یەکسانی
35
##ریش
خەریکی
##ەشەوە
ئەوانه
شارە
چییە
بەهەمان
پارچ
دەمان
##شینی
##ێنرێت
درێژەی
دەیهەوێت
##وەو
لێپرسراوی
##رێژ
##ێـک
ڕووبەڕووی
ڤی
دەستپێک
واتا
دەتوانیت
تاق
##ەتان
ئەوکات
ململانێی
##لەتی
پاڵەوانی
ئیمان
##وێ
وەرزش
گەیشتن
لەدی
##گرافی
لەئێستادا
##دەه
##مەتی
یەکگرتووەکانی
##ail
##راوەکان
ئارامی
##خۆشی
ئەوانی
##ێننەوە
##نیشانی
پێشێل
ڕیزب
بەڕێوەبەرایەتی
##رێنەوە
فیستیڤاڵ
ماددەی
نەبوون
##ir
##وێنی
##توری
گرین
##ۆگ
ئینگلیزی
چوو
##ەکا
ڕود
فەرمانی
ئیش
نووسینی
دژایەتی
هەڵوەش
کردووەتەوە
ئاگاداری
کاریگەریی
##ارییە
##لۆم
##هیر
هیچی
##حمد
عەقڵ
موحەممەد
عب
هەرە
پەروەردەی
سەنتەری
پەروەردگار
تەئکی
دەتوان
داواکاریی
##ماعیل
##چەر
پێشان
تشرینی
ڕووبەر
ئاڵۆز
سینەمای
برو
دەرچ
##لام
##ەتدا
بێدەنگ
##اورد
هاتوچ
نەوەی
##ییەتی
##ایەن
هاوبەشی
##کوکی
کەناڵی
واش
##ۆڵی
ئەڤ
لەپەر
مەزه
جین
##ێگای
بکەیت
کۆش
گەڕانەوەی
مانەوەی
پشکنی
ڕوان
##ێکەوە
بەجۆر
دەزگا
##ۆرگ
لەدا
##یدا
لێکۆڵینەوە
بەرش
لەکار
##am
وتیشی
ئەوی
##رۆش
ڕاپۆرتی
بڵێم
تێڕ
خۆیەتی
هەمووی
بەبەر
##راوه
تێر
مێ
شەرم
نەیت
کش
کێشەکان
پەکەکە
زنج
##تا
نێچیر
مزگ
ڕێگا
نەکردووە
قەت
##رید
دەکەوێتە
ڕێی
کارەسات
گوندی
کارب
زە
دیاریکراو
کەت
لێرە
مور
پابەند
##امەی
تەلەفزی
جیهاندا
##گاکانی
شانۆی
گونجاو
##کراوی
ئەگەرچی
کوردستانەوە
سیناری
نەیتوانی
دەدا
حوز
کەرکووک
مەڵب
ناتوانن
کەناڵ
##لێک
نەیان
دەزانین
هەری
ناه
##دارە
قەیرانی
گوتەبێژی
##as
لێکۆڵینەوەی
قی
بووه
عەم
گەیاند
00
سات
بیت
##ویست
##گەکانی
ڕاشیگەیاند
هەڵبژاردنەکان
##ماندا
بووەو
##انەکانی
##مار
##وش
شەق
دیموکراتی
نەوش
مردن
##وف
سەندی
سەرت
##وویەتی
هەت
##ion
##انەیان
##هێناوە
نوسەر
##نامە
ڕەخنەی
کۆمۆنی
هەرب
ئیست
پیل
خانوو
وەه
##انا
بهێنن
دەوێت
##ییەت
نەخۆشخانەی
ئەلع
بڵێ
تابل
##ڕانی
##یند
##بیر
##اماد
ئەردۆ
##ەوا
گرتووە
##بونی
کەسە
##ۆزب
دۆخی
##لیم
بوە
کۆنترۆڵ
هیواد
چاوپێک
45
شەوی
دور
زار
ئاوێنە
لەبواری
ڕەخن
گۆڕانکاریی
##ەسپ
هۆڵی
نوسین
##تیل
هێندە
خەرج
##اسەری
##ێلی
دابەشکردنی
لوب
کشتوکاڵ
بنکەی
میانەی
مەرگ
چەوس
##هێنا
کۆنە
ستراتیژی
تیپی
##کیان
هەڵبژاردنەکانی
باران
بگرە
کەلار
##ۆکە
##tp
زیندوو
کاتێ
سووت
خوێنی
هێنانی
خورماتوو
جەختی
فەرماندەی
سیستەم
کەوا
##ۆمی
هاوڕێ
دایکی
ئەسەد
سەرچاوەیەکی
##ییەکاندا
تەندروست
بەهاو
کۆمیت
شاخ
وەها
http
حکوومەت
وڵاته
پێشبینی
سەردەشت
کران
##مێکی
ڕێکەوت
بەنی
دەهێنێت
هاش
بوار
کاروان
شکست
دێموکرات
ئەنجامد
ئازادیی
لەگەڵدا
##ۆکانی
سبەی
ئەمرِ
سەرچاوەیەک
##بوونەوە
##ۆنەی
هەڵمەت
##ەبوون
لاب
بچووک
##راوەکانی
واب
قازان
تەنگ
لەچوار
جارێک
جەخت
حەمە
مێش
وەل
سەوز
سور
کەمی
دیپ
##کوژ
سەرل
پەیوەندید
##ستانە
هیوای
بپارێز
##ەکەیە
تۆمەتبار
##ووەتە
مەه
ئەنجامدا
هاوس
هەڤاڵ
نەکراوە
بکرێ
دروو
مامۆستای
##پەرست
2003
پەروەردە
##ەیه
##‌دا
##ییانە
میواند
وێڕای
بەردەوامە
##ەڵات
##ێنت
هەنگاوی
ئاد
##ینەوه
بتوانێت
پێچەوانەی
پیرۆزب
دواکەوت
##day
ئیئ
باشوور
ئێوارەی
لەکۆ
بڕیارد
نەوشیروان
جۆراوجۆر
تۆپ
لەچەند
منداڵی
ڕەوتی
کەپ
##رێتە
##ەماڵ
ئەه
یەکتری
بەرد
شیو
سەرەتایی
پەیوەست
هاوڕێی
ساڵانی
کاتدا
سەخت
لەبار
دووپات
##ut
بتوانن
حوکمی
on
##ەقیق
شەپ
##ەوانەوە
شۆر
دانیشتوانی
ئەمڕ
قبوڵ
چاکسازی
نێچیرڤان
دێتە
زۆرترین
بەهیچ
ژوور
خەیاڵ
خانەقین
ڕەسمی
##ەکاریی
بەرەنگ
ماوەیەک
ساڵەی
تەقینەوەی
##بێژ
##یانه
ئیسماعیل
بەهەر
داکۆکی
جگه
ڕاس
##ۆتایی
دۆزینەوەی
ڕێکخستنی
میلی
فارس
دواجار
ناکۆکی
وتوو
##ناو
لایەنەکانی
##ەشت
وەرگێڕ
##کران
##ازە
پێشکەوتن
تار
دەوروبەری
بەح
باڵا
دادپەر
حەق
علیە
##کردەوه
##ەیەی
گەوره
تەش
خستە
ئۆس
ڕیزبەندی
##فە
##کای
ڕۆژنامە
##کردوە
سەقام
##باران
سامان
کردەوه
درۆ
لەناوچ
##ec
##رالی
ساد
##حمەت
دەکەنەوە
ڕیز
جامی
##گەیشت
موزیکی
فوئ
نابێ
جەنابی
##اداشت
بەرژەوەند
کردە
ڕِ
##لاتی
کۆری
##تۆن
ئامێر
هەڵبژێرد
بەڵێنی
سعودی
سەرو
هەڵەبج
داهاتی
بکرێتەوە
گری
بەپێچ
عەبدوڵا
لەجی
##ژو
دیکتاتۆری
خالی
پرسیاری
دڵسۆز
دابینکردنی
هیوا
حەی
موزیک
##اوەڕ
لاوان
بەڵێ
##اوەکانی
بەرج
هەردوولا
ڕووناک
##کردنیان
فوئاد
ڕوسیا
فیلمه
کرێکار
ساڵێک
کابینەی
ڕۆی
##ناس
##گەریی
##الیزم
##دال
ناڕەزایی
پزیشکی
##اود
ئەبێت
ناکۆک
سنور
سوپاس
نازانم
##اندان
##مەندی
کۆنفرانس
ئەکات
چەکدارانی
حوزەیر
شـ
نوسی
بەشداریی
نەکات
چەکداری
کورتە
##اوەر
ڕێنمایی
ئەیل
##ەکێ
ڕادە
گەندەڵ
ئەمه
چیرۆکی
نۆ
##یانەوە
لەوانەیە
کوێ
##دەکاتەوە
ئاڵو
##با
تای
نادی
##ێکردنی
نەتەوەیەک
گەلەکەمان
هەرچەند
ئایدی
##ێڵن
سەلاح
ئەوەیان
سوت
##اڕی
جەع
نەری
شوبات
نەهێشت
##رن
##ەکەن
کەموک
بەرهەمهێنانی
بەدەر
سەلمان
##ەکێش
ڕایان
##ەدین
وتار
##دێکی
حیزبە
##دوا
##چون
تیایدا
مەجید
بەڕێوەچوو
سوێند
ئەنجومەن
پاڵپشتی
خزمەتگوزاری
جێگیر
خواردن
بڕوای
چر
سەعات
هێمن
پارە
##دانە
سەلام
مح
ڕۆژانی
کۆمەڵە
پۆل
##ەوەش
گۆڤاری
خەس
پێدانی
لاپەڕ
ئینسان
خەت
کەمپ
لۆ
##گرین
دڕ
ئیسپانیا
شارەکانی
ترەوە
ئەمرِۆ
قوتابی
بەهەموو
بەگوێرەی
گل
پێوە
حی
ئاخر
##غانستان
باسە
فەرهەنگی
وپ
حزبە
##رۆڤ
##ەرک
##امەت
خۆیاندا
لایەکی
ئۆپۆزیسیۆن
پێت
ئێز
چاپکردن
89
خەڵات
##ـک
##ەرێکی
لەپێش
ئاهەنگ
گوتم
##اهەنگی
##اوان
ئاراست
##ۆساید
چیتر
بانگەو
##ۆکان
ڕۆژە
##ەفی
ئەندامێکی
##ۆرک
ئاوەدان
32
پارتە
صلی
سم
##تین
زۆرب
196
##ونج
لێیان
ڕیش
سەرکوت
لەبیر
دراوە
##ِن
پلانی
یاریگای
ڕابرد
بەجۆرێک
قوڵ
##وویی
دەگوت
##le
سۆز
کاڵ
ئافرەتان
##لەمانی
کۆمپانیا
گەلانی
##ێیت
لەندەن
##وزی
جاران
هاووڵاتیان
##بیری
دەرهێنەر
جەمال
بکەوێت
کوردەکان
دەدەین
دینی
ئایندەی
لەسەرەتای
زاڵ
کاتەی
بزانن
##مەی
لقی
زەم
کۆچی
کردبێت
##ەرز
ئەوەندەی
##ەزایەتی
هەموار
وال
##اوەکان
دەریا
ڕۆحی
دەستب
##روست
سۆران
فاک
##سە
##یب
مەدرید
##بیا
##ێرانی
بودج
لەسەری
خێزانی
ڕێکخراوەکانی
بۆش
بەعسی
هونەرمەندی
##ەزان
کەرکوکی
##نەکانی
نوێنەرایەتی
##گوت
دەرگای
##ژمار
یۆن
وەرزی
ناوە
گۆش
بۆر
دەرمان
بەراورد
میوانداری
##چن
##لەمان
زۆریان
نەهات
سیروان
لەدژی
##انەن
دەکەیت
گرووپ
سەرۆکایەتیی
34
کیل
##ۆنە
بووین
گەورەیە
بریتییە
دەخاتە
خۆڵ
##هان
شوێنێکی
عاد
جۆره
بچوک
##ووەکان
نەماوە
قاعید
دواتری
لێن
هەمووان
دانو
گواستنەوەی
دل
وسلم
کوردیش
سارد
##لین
موڵ
پێشانگای
باشوری
بەخۆی
ئێک
هاتوون
تۆڵ
ڕەزامەندی
##ەواری
خۆراک
دەوڵەمەند
##شیکردەوە
دەوری
پیرۆزبایی
فەڕ
وم
بەری
بێز
##رەت
شیعە
2006
وەسف
گەرمیانی
##راوەو
ژنی
##ex
##ییەکە
کۆیل
لەبەغ
برا
توێژینەوەی
جن
زانا
لایەنەکان
سەرەوە
بەڵگەی
وەکوو
دەگێڕ
دەزگاکانی
کۆکردنەوەی
بەشار
تردا
دەیانهەوێت
سێش
بەکارد
##فری
فەرهەنگ
##سو
ناوداری
ئاوا
تک
کۆمەڵایەت
گوایە
دابەز
هەڵسەنگ
دادوەری
ئەخل
ئەمج
بارەیەوە
سکاڵ
واد
نەکەن
دیموکراسی
یوس
هەلومەر
کەسوکاری
##شەوە
زیندان
بۆچوونی
##ەکەس
زۆرە
نیم
##قە
دەستور
قایم
تێدە
##زین
زیر
تەمم
گول
لێژنەی
ڕەوش
تەکن
دەکاتە
##ۆته
کچە
ناوخۆیی
##‌و
بکوژ
ڕیزی
دەستپ
بەدەستهێنانی
##نەک
##گرتووە
گرتن
36
دەگاتە
##ەمبەری
لێکەوت
ئێ
ناونیشانی
هاتە
ئایند
درام
ڕێکەوتن
##ەتەوه
هەڕەشەی
##ارن
چاوپێکەوتن
نەخش
ئەکادی
درووست
ئابووریی
ڕۆح
ئەفغانستان
دەبات
پێکهاتەی
هەروا
##ck
میهر
پیشەسازی
جەستەی
دەبینێت
دەسەلاتی
باوەڕی
هێزه
پایتەخت
بەشداربوو
##گەه
زۆرجار
بەمەش
دادوەر
دووبار
##ەوێتەوە
پەس
ناحیەی
تەی
##یشدا
##راوەی
##رەو
##ەکانت
ئومێد
دەرواز
##خس
ئامر
##ەکیان
پێب
باکووری
هاوڵاتیانی
لوت
##are
گرفتی
ڕۆژهەڵات
دیکەوە
ڕاکێش
تێن
##مدا
درا
دزی
مێرد
بەخش
تەکنی
هەڵد
گیانیان
بلاو
##ارین
ئاید
##ۆچوونی
دانیشتنی
گەلێک
کۆمەلایەتی
##ێیە
بگۆڕ
##ێمان
خراپی
##کردنەو
دەردەکەوێت
سوک
حاک
ئاژەڵ
هێندەی
##کەم
پیاوان
سەرنجی
##ەسمی
##ڕێت
وتو
##کاتە
##ێرت
کاتە
پای
نیشانەی
دەرەکی
دادگایی
قار
##لاَ
نەورۆز
##بدات
##اهی
##امەتی
دیسان
##ئەو
##ێرە
بەخشی
سەرش
باڵیۆزی
دۆزەخ
لەمەوبەر
پاری
بۆت
نمون
ڕاستەقینەی
پەرت
پێشەوە
خستەڕوو
لەکۆتایی
لایەنێک
مەو
دەل
پێشنیاز
تابلۆی
پاشەک
مافە
ئیمار
ڕوونیکردەوە
##یه
پرۆگر
ڕایدە
##ڕیت
سێب
##چاری
خود
وەلی
لەچوارچێوەی
لەوبارەی
بۆمب
خالید
قوتابخانەی
وێست
##سین
##ێستیڤ
دەڵێم
کرێکاران
##ەنسی
قەرز
##کەکان
##مه
قوتابخان
60
پەراو
قەیران
33
##os
##ُم
بدۆز
لێرەوە
نووسەری
##هەل
زیانی
re
ئەکەن
هەناس
شاندی
ڕاگرتنی
چەندە
جاری
نیشاند
لەمان
ئێس
کاریان
میکانی
##ودەز
هاتن
ئاماژەیە
ئامادەبوونی
##اسانی
##بخ
بناغ
##جۆرە
دەرچوو
کەمکردنەوەی
ڕێگری
دیاردەی
قان
دواتریش
ناح
##ەرو
##ەتەکانی
گەیاندنی
دەه
ئەوسا
دەژین
خۆرئاو
باکوری
لەمێژ
لەسن
میراود
##he
کشتوکاڵی
ویستی
##ەبێت
مەش
منی
ڕووداوەکانی
هاتنە
دیس
بڵێن
سەرقاڵی
##ییانەی
ئەوەشدا
ئەردۆغان
وتەی
میراودەلی
عبدال
ساخ
##ابن
گۆڕەپ
سر
کردەوەی
ڕاسپ
ئازادیخواز
برینداربوون
##ەددین
##ە‌
ئاماده
بانگەشەی
عەش
برای
تیا
زێڕ
کاوە
##ments
حەر
بەرێز
یەکێت
مەیدانی
هێنان
سلێمان
پێداویستی
زاخۆ
##یەت
بتوان
فراکسیۆنی
هەڵگری
واشن
ڕاوێژکاری
##ییەکانیان
شاه
##راوەتەوە
چوارەم
ئیخ
سێشەمم
لەمەڕ
نابین
عی
##ەوەری
پەیامی
37
میدیای
چارەنووسی
500
دەستوری
##ژیان
براد
کردوون
کەمێک
##رابوو
مردنی
##توور
قەڵەم
لاوانی
هەڵسوک
وێران
چاوەڕوان
دەبنە
دروستبوونی
واژ
ڕابردو
دەور
ئێرە
بەکاری
خاتوو
##ووانی
وەرزشی
مزگەوت
کۆنس
ڕیال
##کەین
بێن
پارێزگاکانی
قورئان
چەش
فێری
##ەگەری
ڕوانگەی
مەری
هەوڵەکانی
##ah
وەبەرهێنان
ئەکتەری
##ەڵبژارد
##بژارد
پێداویست
##ەتەی
##حاڵی
لین
سویس
زمانێکی
سەدر
تیرۆریستان
##سکی
دێن
##ێکم
پلان
چڕ
ژینگەی
کارگێڕی
بمان
##qu
پەیوەندییە
##سـ
دەسەڵاتە
کوژراون
بەرزن
##رایەوە
##ەدەچێت
##مو
ناوبژی
دەچێتە
موع
##اَ
یوسف
جگەر
پتر
گور
لەوانەی
ئیدار
##oo
بەرم
نەتەوه
##انیە
توانا
زنجیر
ماندوو
وڵاتێکی
ڕیک
جەژنی
قووڵ
2004
##دەبێت
لەدەرەوەی
جەب
ڕەنگی
کەسانێک
بەندی
توشی
دووپاتی
##لێمانی
بەدەستی
ئەمڕۆی
کێشەو
##ەدایە
ڕک
کوردان
کۆڕ
##وین
##رایە
غەری
دوایین
فێستیڤ
کاف
##ەتەوەو
هاوولات
لێکرد
بارەگای
##ده
ئاواز
سامانی
دۆسیەی
##کرێت
##شێو
چالاکوانی
##پر
##اوەتەوە
مەگەر
دیوانی
دانا
سیاسییە
سیاسیەکان
بەتەواوی
چارەنووس
لایەنێکی
خولەک
کچان
ڕەشید
دەشێت
##کوژی
پەیڕەو
##یلی
دەزانم
میدیا
تورکمان
سەرمایەداری
خۆیشی
پرسە
کێب
بەبۆنەی
مرد
نێر
##داوی
##یشە
پەرەپێدانی
##ەستەی
کۆبوونەوە
کوژران
داوایان
مامەڵە
سەروەر
شوان
لەمبارەیەوه
شیعر
یەکێکیان
##hare
دەبەست
عاش
دروستی
کۆنگرە
کاس
یۆر
کرایەوە
شوێنە
دەخواز
بارەیەوه
بور
دێرین
فای
ناڤ
هێڵ
##ووان
ئاوات
بزانین
##ەجێ
##ەخشێت
مرۆیی
##ێکانی
##کاو
عێراقەوە
بەرچاوی
of
کۆمیتەی
حوکمڕانی
##یشیان
درێژە
وەرگیر
##رخ
##بەت
ڕێوش
مرۆڤەکان
بەرف
##اییەوە
خوازی
گروپە
چۆ
دید
نمایشی
ڕاز
ئەفسەر
بیروڕ
ڕێبەر
لێهات
حاڵەتی
جەعفەر
کرێکارانی
کۆتای
وشک
ئاشکرایە
##ەخشی
##امیل
بەهاری
بنچ
##وتی
ڕووبەڕوو
ئەنفالکراو
چوارچ
##نووس
38
پلە
##کوو
فیکری
فاشی
دەکوژ
##it
سینەما
ئینسانی
کارەبای
##گەین
نەوە
جۆن
##شار
دژە
کانونی
##کۆل
##دام
میللی
##ژاد
کەسانە
بیرکردنەوەی
مەسیح
ئاماژه
سەرباری
دەگرێتەوە
ناسیۆن
بێتە
باکوور
شانازی
پتەو
ئیتالیا
نیه
##بکەین
##لێ
زەب
##ic
fb
##غی
##lick
پیت
##بونەوەی
ئاڕاستەی
بڵاوکردنەوەی
خواستی
بەرێوە
خوشک
سوپا
دەکرا
دۆلاری
ڕۆڵێکی
لەبەغدا
دەفەرم
##گیرد
بازاڕی
فیلمەکانی
شۆف
مای
##urd
بریتین
ڕاستەقینە
سێبەری
فەو
دروش
مەم
هەژار
##انیا
ئەفری
##ئەند
تەواف
گوزار
##کرن
ترسی
هەرکەس
بەدڵ
چەمکی
خانەن
دانوستان
ڕاستیدا
هێل
##سەل
نەکرێت
مەح
##گەن
دامودەز
ڕوب
ئازاری
ئەشک
##ناوی
دەستەو
2005
نەش
##الیست
نوێژ
تاکی
##ووسیت
ڕووسیا
##وارد
بنیاتن
##پۆش
کورته
نەخێر
میوان
پێشکەوتنی
ئەندازی
ڕف
##ol
بزانێت
پیاوە
ڕق
سەنتەر
##اکاندا
##ێدوان
ئاکام
حوزەیران
تێگەیشتن
##ەزانی
شیر
##ڵێت
##اسیۆن
نموونەی
بنەماڵەی
ئیئتیل
##تل
##وردن
سزا
##جێ
گەنجان
پسپۆڕ
نیشتەجێب
بکەینەوە
شۆڕشگێڕ
وەربگرێت
گاز
##ادان
تیپ
##ەکانتان
بەشە
فەرەنسی
##امۆش
95
دەزانی
دەبیت
منداڵانی
سەرچاوەکه
لەف
هۆز
but
گرد
فەیل
بەرژەوەندیی
تایبەتمەند
دەسەڵاتدارانی
##ist
##av
##ne
ئەحمەدی
پێشوازیی
دادەنرێت
سەرکردەی
ناوچەیەکی
ئەفس
بڵاودەک
بەهر
سەرکردە
##وەی
شەی
لاوی
توندی
لوبنان
ئینتەرن
نییه
مارک
خەڵکە
پێکدا
بەرب
یەکسان
پێشکەشی
بڕوان
بۆنەی
گرووپی
پێویستیان
کەسایەت
##قامی
دیاریکردنی
لەبەش
ڕامی
نیاز
39
خزمەتگوزاریی
ئەکادیمی
گاڵ
تەب
وایه
##اسای
پێشت
سینەماک
لەسلێمانی
ناپ
دیمەن
هەڵە
##گەیەنن
دەهێنن
بڵاوکراو
ئاغ
گەورەو
شارەکە
مەڵبەندی
##ation
لەشک
##نانی
هەمیشەیی
پڕۆ
کورس
حەقیق
ئەگ
واته
ئۆپۆزسیۆنی
بەهێزی
ئێمەدا
بودجە
هاتوچۆ
کۆمیسیۆنی
توانیان
ئامادەکردنی
##ێرێت
پزیشک
##استیدا
دەبەن
یاخی
مەدەن
##نەکان
لەکۆن
شوێنێک
گوناه
فەلسەفە
##ابەر
لەهەول
ئاخۆ
ڕێبازی
ئاکامی
سار
تەقینەو
ڕوونکردنەوەی
ڕۆمانی
##ەرِ
##ــ
مەبەستە
ئەیلول
زەحمەت
ئەق
بەخێر
خێڵ
مامەڵەی
قاسم
دووەمین
شەرع
ئیرادەی
قەد
##لایەن
هەنارد
هاشمی
یەکلایی
جەو
دیکتاتۆر
بۆمان
باراک
##ەرب
مانگە
زوڵ
##اکردنەوەی
##ژیانی
بەراز
فیدراڵی
##الان
لەرێگەی
تیادا
سەڵ
نێ
مەکەن
##ەستین
هەربۆیە
##ڵانی
چەسپ
لەپێناوی
بێج
دەبنەوە
هاووڵات
هاوپەیمانیی
ئۆتۆمبیل
لەلێدوان
##ۆکر
الْ
لەسەردەمی
لەبری
مانچ
##ینین
پارچە
تەح
##ەکانیاندا
##هەڵاتی
##دانەوە
##ڵە
واقیعی
کۆریای
##ێوەر
ڕەگەزی
ڕام
فەرمانڕەو
قەبارەی
##ired
##ساز
پێکهاتەکانی
پارێزگاکان
requ
##دەری
حیزبەکان
بەکوردستانی
یون
داخواز
##ژەن
##الیستی
required
تاهیر
هزری
سان
هاری
دۆزی
ویژ
حاڵەت
ڕابردووی
##em
##mail
دەژی
وشە
خانەو
##وێت
ئیج
ئیداری
ور
ئاماژەیه
دەرباز
##دەدەن
گەیشتە
ڕاهێنەری
قەرەب
بەرزی
##ڵق
مەخ
زانک
تەمموز
##شاد
42
##ەبەرایەتی
فەیس
تەڵ
پەخش
##لانی
برایەتی
گەڕان
ژنە
گرێبەست
شم
وز
وری
دۆڕ
##ئەوە
سەروەری
توانیویەتی
هەڵدە
ئاراوە
دەهات
ناسراو
تان
##ستەی
ڕووداوی
ئیسلامیی
هاوکێش
بەشێوەی
کۆبونەوەی
48
هۆن
ماست
جەوه
##وشی
ببن
پەیوەندییەکی
یانەکانی
عەد
نەناس
##دەت
##ts
کارکردنی
ڕایانگەیاند
مانچست
ململانێ
ڕەمزی
شایانی
وێنەیەکی
خۆپیشاندەران
##ینه
##ەدات
##ەسەل
##گەو
پرسیارە
بەئاماد
ئاسۆ
بنەڕەتی
پەراوێز
گۆڕی
تەکنەل
هۆشیار
دەرئەنجام
ئەوەتا
سوودی
##پەرستی
43
وێ
داگیرکەر
پرِ
دەگرن
##اکتی
هۆڵەندا
جوڵ
##ولی
ئاژانس
کاتەدا
کەسەی
بەبڕی
نال
لەحکوم
##قەی
دەستەبەر
باوەڕیان
کەوتە
نەبن
##ەیانی
دنیادا
دەربب
##تور
ڕێـ
ژاپ
##یرانی
گۆڕانی
تەع
بووەتە
یەکگرتووی
پێدەچێت
لەسێ
سەقامگیری
70
نادات
داوه
سیاسیەکانی
##ۆتەوه
سێکس
بەهەشت
##هەم
ژینگە
بەوەدا
توندوتیژیی
دەرهێنەری
پیس
دەگوترێت
کێشەیەکی
یاساو
##پێکرد
پێیوایە
بەڵگەن
لایەنه
مون
کۆس
ئاسای
بژ
دەگەیەنێت
هەماهەنگی
##خەڵ
کەڕ
وەرگرتن
هاوشێوەی
##ۆڕی
کاراک
گەشەی
خراپتر
##ەرکوک
##ەڕۆ
ڕوویان
وتووێژ
کۆنفرانسی
195
لەمبارەیەوە
دەڕوات
بەرپرسیارێتی
مامۆستایانی
##انن
##اوەری
55
کارت
##فیق
گەشەپێدانی
دەکرێتەوە
نەهێشتنی
41
شارەزای
فریشت
ئوست
کاردانەوەی
ئەبو
حکومی
##پەنج
بەمان
تکایە
ئامادەن
عار
لانی
سالار
وەرگرتووە
مۆدێرن
##اوانی
تیۆری
بەرەنگار
##وەتەوە
##ەشە
حەو
##ۆجی
لەهەڵبژارد
ڕۆژنامەنووسان
ما
ژیانێکی
##سۆن
مووچەی
کاندیدی
عەس
لەبەرچاو
مەعری
دیپلۆم
بەشێوەیەک
دەرببڕیت
بڕیاره
##گان
پێناوی
هەندێکیان
توانیو
##خستن
ناگ
پێشکەوتوو
##رک
##لێن
##ەڕۆی
##اندی
خۆب
##بووی
فراکسیۆن
دامەزراوە
نێرد
ناوەکی
ناوچه
بنووس
سەرد
بەڵکوو
دیالۆگ
1991
بەڕێوەبردنی
کوردایەتی
حاکم
44
لەچاو
##ri
بینینی
هونەرمەندان
تەئکیدی
##چەند
گەڕانەوە
بیروبۆچوونی
سب
##اخی
هاوار
داناوە
کەسیش
فرۆشتنی
ڕێککەوت
ئەلی
کەند
لێدوانێکدا
مەسیحی
لەهەولێر
ئامۆژ
موق
##ەنها
گران
کۆنگرەیەکی
##ew
پرۆژەی
نەروی
ئۆج
وزەی
ساڵانە
جێن
نێودەوڵەت
عادل
فەرمانگەی
بخاتە
##ەکەیەوە
کرن
80
عەشق
یێ
ئاسانی
خواز
بۆنی
ڕێبین
نەتەوەیەکگرت
##سیق
بەدرێژ
ناشی
##سال
پەنابەران
##ئی
##ەونە
##پێچ
هیند
ڕایگەیاندووە
##انین
##هاتنی
زۆرتر
پەرلەمانتار
##پێشخ
ئارەزووی
##ێکمان
ئێن
##نک
دەستدر
##ژن
خێرا
متمانەی
لەڕۆژ
عوسمانی
##ues
ئەشکەنج
ڕاگەیەن
سەعد
دەبینن
##ریت
مەشق
ترسناک
سەند
پەیکەر
عێراقیش
ساب
هەواڵگری
بەرێوەبەری
کوردیدا
نەخشەی
##گاو
بەسەرۆک
میسری
سێیەمی
ئیماندار
لەخۆی
کشانەوەی
##ستانەی
بابەتانەی
کۆنتڕۆ
ڕادیۆی
لەوبارەیەوە
جوگرافی
##nd
لیبیا
وەفدی
##ژمێری
ئاسیا
باپ
بەرەوپێش
گومانی
##رەس
لەوڵات
سل
چووە
بێه
##گێر
##ڕەحمان
ڕۆژنامەنووسی
##یەی
ئەوەبوو
هونەرمەندانی
شەنگ
##امبەری
##ەویت
کوردانی
دەگۆڕ
نەرم
##نین
لەهەو
دێموکراس
لەدوو
چوونە
کوردستانێ
##دایه
ئایار
محمد
وک
لێکدانەوەی
عێراقییەکان
ئەلعێراق
بتوانین
##عە
خاڵە
هەنگاوێکی
##تەرخ
ڕێزی
بیرکردنەوە
مامۆستایان
ئاستێکی
گۆڵی
نووسینگەی
چاوەڕێی
نەیانتوانی
ڕۆژانەی
##ەرەکانی
بناس
سووک
مرۆڤە
خەریکە
لەعێراق
هاته
نیوەی
غەز
پاکستان
پیرۆزی
ناشرین
نەس
یاسایە
جول
مات
##ەینە
بەیەکەوە
لەسی
ناویان
ئەهلی
##وانینی
نییەب
##ەمەوە
گەڕەکی
باڵاد
سەندیکای
قوب
ڕاسپارد
ناخ
جل
##ڤین
داخوازی
کیمیاب
ان
خەونی
جێگر
بەرمیل
کارەساتی
دەستە
فل
کولتووری
ترا
فرە
هۆشیاری
ئەبێ
ڕوسی
ستی
یاریدەد
ڕۆژنامەوانیدا
یەکەی
بەرنامە
کاو
باشترە
##لەت
مەزهەب
نەگ
ڕووداوە
پێغەمبەری
##بوونە
سروو
زام
##انم
فیر
##چونی
شکستی
##ێدا
کوردستانیان
لەح
ئاگری
بوارەکانی
زیاترە
46
##پار
شیعری
موراد
بەدوور
ئەنق
بەف
##دن
هەبوونی
مەلی
وتاری
پیاوانی
لەکەرکوک
##ێڵێت
بەشەکانی
لەمیانەی
دەناس
کوردیی
حیک
کاد
پەرست
هێزو
هیوادارم
سەرچاوەکانی
سەربازیی
ولاتانی
##الیزمی
کەلوپ
فەز
وابوو
دەرکردنی
##ەپێدان
مێر
بچێتە
مەبەستەش
ئۆکتۆ
300
داهێنان
##ey
قسەکردن
سندو
##لۆن
##ەترین
قەرەبوو
ئیخوان
ئەوانەش
نزیکی
شێرکۆ
پێنجەم
مارکس
لەبن
ناوچەکەدا
##بەسەر
کراوه
##ەڵاتی
بەئاو
##ber
دەرفەت
چۆڵ
ئەلب
سەفەر
سەرهەڵدانی
##ماڵ
##ڕای
عەباس
##کارانی
دەستبەر
##کن
موحەمەد
واتای
باڵیۆز
زیرەک
خواردنی
شاندێکی
شەم
ناتوانێ
هەرێمە
ئاڵای
بەهای
دەربڕی
پەروەردگاری
دابوو
وردە
47
لایەنگرانی
تەماشای
بانگەواز
##ێکرد
هەڵمەتی
الع
سود
هاوەڵ
گۆرانیبێژ
مۆڵەت
پەنابەر
##وندی
دوچاری
ڕێکخستن
ئیع
شون
جیهاد
بەرهەمەکانی
چە
ڕۆشنبیریی
جەز
یەکجار
فەلسەفەی
کیش
بووبێت
ببنە
سەرتاسەری
ود
قەن
کەلە
##ێنتی
حکومەتەکەی
##ایەو
بژی
پێدەکات
بەرپرسێکی
مەراسی
ملکە
پـێش
شاد
##کاتدا
ئێراندا
هەواڵێکی
سەرئ
مۆڵەتی
تۆڕی
کەمتەرخ
##گەیەند
##اتان
خەمی
##ەخس
##ێویست
شیوعی
##به
تیم
لق
دراوس
ڕێککەوتنی
چەق
بانکی
یەکەمیان
پاڵێو
تیشکی
##ێتەوه
چەمچ
خۆشحاڵ
قاچ
موش
دەرکرد
##خوارد
بڵێت
ناڕەزایەتی
دواب
ئاشکرایکرد
نەشت
##وورد
بۆسەر
ئەوەیه
##بدرێت
دڕند
##ەنیا
##مێس
ئایەت
ئامادەیە
ڕەوت
هاوچەر
قۆناغێکی
هاتووچ
یەکگرتو
دەڤەر
شانۆیی
جینۆساید
دوکان
لەکۆمەڵ
حکوومەتە
ئیئتیلافی
پیاوی
##پا
کاکە
شەف
49
##گواز
هەوڵدان
##گرم
##هێ
خواو
##ژە
بۆتەوە
##ەشیان
چوارچێو
زر
ببەست
52
کاتێکی
لەڕێی
##ورکی
قوربانیانی
شێرپەنج
##فرۆش
کلاسی
خۆڕا
کڵ
کێشەیە
هەڵبژاردە
گوێی
مۆب
ناوچانە
##بدەن
سەرکردەکانی
htm
جدی
سوڵ
قوتابیان
نایات
پێشبڕ
هاوولاتی
ڤێ
بەوه
ڕوی
##فەی
دەوڵەتە
ڕیف
ئالان
##ەولا
دیو
##ڕۆژی
کەوتووە
##ەسی
متمانە
زله
##پەری
زۆربەیان
مشت
##ch
دەستیپێکرد
خۆشب
ئێوارە
هاتوو
دەستگیرکردنی
مژ
پۆڵ
51
میهرەب
##زانە
دەبێته
ڕەسوڵ
بگێڕ
دەشڵێت
تەلەفزیۆنی
لەشکری
##راوێکی
جیاتی
##ۆرمی
یەکێکی
ئیسلامییەکان
خانەی
ڕایدەگەیەنێت
شۆڤ
کۆر
چاکی
##ەرەوە
ئەمەی
##اداشتی
##کاتی
لەنزیک
چەواش
قسەکانی
جۆ
حزبی
وەربگرن
##کەوتی
##گوزاری
گەمار
ئەمان
بەتوان
گوێب
ناوچەیە
نەمان
کەد
کێبڕ
##کرایەوە
شەقامی
##ad
موبار
فەرماند
وەردەگرێت
ڕەنج
قوتابخانە
هەندێ
ناڵ
توندوتیژ
دێر
بەنزین
ڕاش
لەپاش
##قر
##ئە
بەرپرسە
194
##ونە
دەترس
کەمئەند
##ستەکان
خولەکی
گرینگ
سەرژمێری
بوونەتە
دەمێنێتەوە
ڕادیۆ
53
سەرەکیی
بۆرژو
##اکه
دڵشاد
هان
ڕووخ
فەرامۆش
پان
##ارەکەی
##گراف
پاڵەوانێتی
سەلماند
قوڕ
پەت
عەبدولڕەحمان
یاداشت
##کردنەوەو
نەژاد
کۆیە
بوش
میت
لەپەی
تەکنەلۆژی
شەپۆل
90
نازانێت
دروشمی
شانۆگەری
جیابوون
هەمیشه
تاد
مەڕ
دەتوانرێت
##ینەوەو
سەلاحەددین
##مانەی
##ەدار
ڕەحمان
پاریس
گۆڕەپانی
بکرد
فەت
خوێندکاران
لەڕێگای
ڕونی
پێموایە
سەرەنجام
ناتوانین
پراکتی
##بەش
##ُمْ
##اکانیان
کرێکاری
دەره
جیاوازە
زێب
حساب
زەمین
پڕۆژەکە
بەها
مەرگی
بنەما
عەلمانی
مەترسیدار
سیاسەتمەد
##کێکی
بەرگریی
شیرین
بڕوا
تازەی
بەشداریکردن
فارسی
کارمەندانی
##ەکەتان
نیسان
54
یانی
##اپی
سەردانەکەی
پەلاماری
هەڵەی
##یەکەی
هەڵک
لەزۆر
کەریمی
کاربەدەست
##ەسەڵات
الن
بەهەڵ
دەوروبەر
ئەج
فرمێس
##ورتی
گرێ
بەکر
موچەی
##ani
ناوەڕاستی
دادپەروەری
##یداوە
##ەنین
##وودا
مۆسیق
سوننە
ناسنامەی
بڵاودەکرێنەوە
تریان
##ۆیەکی
تاریک
نەجمەد
دەستپێشخ
ببینێت
ڕووداوەکان
##ەوانە
فەیلەس
لەوانەش
بەئامادەبوونی
هەڵبەت
ژیانیان
گەنجانی
بگاتە
##ow
##ارەیان
پیاوێکی
زیادکردنی
بیرو
شەهیدانی
##بهێنێت
واشنتن
فۆرم
بنک
تووش
جووڵ
##ێنیت
گرنگترین
لەکوردستاندا
درەنگ
##شەممەی
بێتەوە
سەرپێ
جاڕ
56
ماس
##بێتەوە
##نشین
دیموکرات
کێڵ
ئەستۆی
پانت
گەیشته
بپرس
کورتی
تەرم
جەه
سڕ
بایەخی
##ایەدا
ڕوویدا
##ەتاح
##ەکانیانە
پێر
گەورەتر
##ینگ
ڕەزا
هێو
ئەمن
خولەکە
پەشی
باڵەک
ئەوەمان
##رێس
دەرفەتی
دەوڵەتێکی
57
##og
##پۆشی
قارەمان
ئۆرگ
##ahoo
یەکە
هاوسەرگیری
تونس
بێئ
سۆسیال
لەدیدار
هەژاری
پرد
پاکی
##ێنەی
کارێک
نازناوی
گلەیی
yahoo
چەمچەماڵ
ناکەین
سەریان
توندڕەو
ژیر
تەئکید
##اسیۆنی
خۆشحاڵی
دروشم
بەشداریکردنی
##ەنجوم
دۆر
بێجگە
##مەز
هەڕەشە
شارو
##شتووە
ئەمریکاو
##ەرێک
زێباری
##ته
دەڤ
لەبەرژەو
بێبەش
بەدرێژایی
ڕەخنەگر
کەسیان
ناکەم
##ەوەن
سویسرا
ماوەتەوە
ئامێری
سیاسەتە
بەتایبەتیش
نەشتەر
##ەداو
ناسراوە
هەف
خاڵێکی
بەکۆمەڵ
ناردنی
بەرشەل
تەرمی
هاوڵات
دەنگیان
هاووڵاتیانی
سەرپەرشتیاری
##ەهێن
##dd
تورکیاو
ئەستێر
چینایەتی
چل
بەخت
##کم
بەجی
بڕیارێکی
بەرزنجی
لۆژی
لەئاستی
بیروباوەڕ
قبوو
یانە
بنەماکانی
کۆشکی
##سـتان
گەڕەک
هید
ڕاگەه
##ەیل
##ەنه
##ەبەیانی
نەدا
هاورد
192
##راب
بۆخۆی
##ایەوه
کوم
مووچ
هانی
##ەفور
بیرۆکەی
نەین
##ئەم
تاوانەکانی
لەوت
هەلی
تایبەتدا
##ناڵ
ڕێکخراوێکی
کیلۆم
وێر
کامیل
ئەح
##اهیر
وێنەگری
پێشتریش
##داوه
##ەپە
جەلەولا
نێوانی
جد
تۆمەتی
فشار
دەچن
کوردەکانی
بەدیهێنانی
خەلیل
پۆستە
دانیشتوان
##وەز
شەڕە
##بوونەو
خەلکی
##ۆکه
##نسی
لەپەرلەمانی
##اسان
گرتنی
عەدنان
بەرازیل
##ەکردەوە
دیکۆم
تاڵی
##تاری
##ینەکانی
لەپارێز
مەرجی
لێدانی
##امانی
##بووم
ئاڵوگۆڕ
بەهرۆز
زاری
حەش
پارێزگا
پەیڕەوی
هەولێرو
لەپاڵ
##شمان
یْ
بێدەنگی
بەفر
هەردەم
بکاتە
موسا
لەدو
ئۆسکاری
ماددە
تۆر
ئەیاد
میلیشی
کۆمەک
یی
دیکەدا
##ڤە
##یین
پەنابەرانی
##گاکان
خوێندنەوە
پرەنسی
سایەی
قازانج
##زێ
ویلایەت
پە
ڕاگەیاندووە
بینیوە
ساو
خشت
##لّ
مەنس
بیەوێت
ئامادەکاری
##فرۆ
بەزۆر
##اییە
بێژ
یه
##ۆوە
بناغەی
ڕەمەزان
قازانجی
ئوس
##داد
دەکەینەوە
نادیار
لەهەڵ
سیر
نابن
کامێر
کاتێکیش
##ارت
##ایدی
نەگەیشت
حاڵی
هەڵسوڕ
مناڵ
عارف
خیان
لەقۆناغ
بهێنە
توور
سەرانی
##نت
سوکایەتی
ببێتەوە
زێڕین
##ەوەست
کەمە
##رۆنی
##هی
##اتۆری
ولاتە
باج
یەکڕی
مانا
هاوکارمان
گوزارشت
##ave
##ەکراو
کەوتنە
هەژاند
بێگ
st
دەستەواژ
شۆرش
##اییەکان
بەپێچەوانەوە
هێناو
دەرئەنجامی
##کدا
##پەروەر
کەئەم
بمانەوێت
کچی
##تەی
کریست
خەیاڵی
##ادایە
لەناوبردنی
قۆناغە
بەدەم
شانۆک
مەریوان
##اندەوە
##کاتەوە
بێو
پێشهات
تەقەمەنی
بەتەنیا
سەڵاح
غەریب
بوونەوەی
دەمهەوێت
زیادی
نووسراوە
قایمقامی
کۆمەڵایەتیی
مەتر
ڕووخانی
کۆبوونەوەیەکی
##زۆ
##ۆنت
مادد
##ایەتە
شارەد
پله
دڵنیا
ستراتیژ
لەرۆژ
##فیس
##ادین
چەندەها
##line
چالاکوان
هەڵسوکەوت
پاسەوان
##لوبەر
بەنیاز
لەتی
دانراوە
ڕەوان
##ردومان
We
لەپشت
لاوازی
بەرن
هەردووکیان
تاوانە
باسیان
وەردەگرن
تاریق
لەجیاتی
نزم
یەوە
##ەکرێت
توڕ
ڕووسی
بریاری
بەهێزکردنی
ئامراز
حکومەتێکی
حەمید
بەرگی
حەفت
##ing
زوڵم
وەرنە
##50
سەربەر
مانەوە
پاشم
ڕەئ
پێشمەرگەو
چۆمان
##istan
دەستپێ
بەشێکە
حسابی
##یران
##ێنینەوە
لەلایەک
نەداوە
##ەنجومەنی
ڕەج
بووەوە
خزمەتکردنی
وڵ
هەورامی
کرابوو
تێکست
نازانن
ماچ
لەڕاستیدا
فەڕەن
کادر
##70
خۆپیشاندانی
ڕێکەوتی
چیە
لام
کراوەتەوە
ئەوروو
ترە
هاوولاتیان
بێش
ڕوونیشیکردەوە
ئاگای
خەڵکانی
##us
لێکۆڵینەوه
لێدان
یەکەمجار
ڕێوڕ
##ەِ
بابەتێکی
بوارەدا
ئیمز
##ەرەی
لەبەشێکی
پێکهاتووە
کامەران
دەنووسن
##ومی
فەرهاد
شتە
یاریزانان
لێوە
##انەکەی
وج
یاساکانی
دەردە
پەرەسەند
##پرسی
##lan
زەویدا
##دەخات
دەروون
موخت
مۆز
دەبینرێت
تەها
##ەید
گێڕانەوەی
ڕێزلێن
خۆپێش
یاسین
ئەستۆ
سیستم
دامەزراندن
ماسی
بەڕێوەدەچێت
ڕەتی
مەیدان
سەختی
ڕاستییە
##ard
تاوتوێ
ڕوداو
##حیم
لێکۆڵینەو
دەروازەی
ستاند
بەفەر
##0000
کچه
موج
ئان
تەکنیکی
باژ
##ودا
بانگهێشت
ڕەسەن
شاک
کۆبونەو
##هەلاتی
دیالە
##ێکان
قوتابیانی
جەر
دەمی
ڕادەستی
کرم
ترسن
##ێمە
هاتۆتە
##ەستینی
ناتۆ
لیژنەیەکی
نوێت
بریار
ئەتۆمی
فەتاح
##الە
have
بەرزکردنەوەی
##کەت
##urdistan
فکری
هەردی
نایابی
ئەرشی
نامێنێت
لەسێدار
##ادەیەک
ڕۆژەی
کێشەکە
ئازادکردنی
خۆڵەم
کورددا
نێوانیان
نەهێن
گەردوونی
##خستنەوەی
##زو
##ەیەکیان
بەکوردی
ئەنوەر
##فراند
ماون
پەسند
شور
پوور
فیلمە
هۆل
ڕۆژنامەوان
کردۆتە
مایک
مارکسی
نایاب
ڕەفتار
##مای
خۆشیان
ئەنت
مەسەلەیە
ڕێگه
دەرکەوتنی
##گەیاندنی
دەربەندی
هۆکارێکی
ئیماراتی
in
وڵاتەدا
محەممەد
شاعیری
##ەکەیەتی
دراوسێ
بەتاڵ
بەرنامەیەکی
59
##ەخۆ
##اتا
##اندایە
##بانگ
فاکتەر
دەربڕین
سزاد
تف
یێن
##ێنراو
نەوەک
##ەزم
پڕۆژەیە
سڵ
خانمە
##الا
ماڵێکی
ئەمنییەکان
کۆنسێرت
##خانەکانی
کڕینی
##ەڵەم
##شتیی
تۆش
online
ئۆجالان
##گات
زلهێز
پسپۆر
پشکنینی
پەرە
##ەختە
سیف
کارتی
بەوەشدا
ئوت
ژووری
بۆردومان
زەنگ
سەرز
شێوەکاری
الح
150
بەرهەڵ
پەسەندکردنی
جاد
کەشتی
عێراقە
ئۆگ
لەمانگی
دەستبەرداری
دەگەر
تێبینییەک
جەبار
##مانەوە
سەرکردایەتیی
##تنی
سیاسیدا
ماڵەوە
شوێنەو
فرۆش
نۆڤ
##ەکراوە
کەئەو
##اندنەوە
خاوەنەکانیانە
ڕاپۆرتێکی
سەلی
شیعەکان
کەیسی
ئەوتۆ
ئاماژەشی
بمێنێتەوە
ئەگینا
گوتیان
ڕێباز
چێژ
##ەندێک
نامۆ
دانیشتووی
تیشک
gues
کوشن
guests
خەلی
بوارە
لەئەنجامی
نزیکدا
وردی
892
هەرس
هەندێکی
بەشدارییان
سۆم
پیشان
ڤیت
ناخۆش
##دەکەوێت
لێدوانی
مەزهەبی
تام
پەیوەندییەکان
شارد
ناودار
هەڵوەشاندنەوەی
مسۆ
هێرشەکانی
بەدڵنی
ژەه
لەسەرجەم
لەزان
لەئاست
هۆکارەکانی
پێداچوون
##تەمبەر
نەجمەددین
لەداهات
شێوازێکی
##‌ی
جودا
جلوبەر
شارەزایی
ناساندنی
جوتی
ئۆر
عەبدولم
پەرلەمانتاران
دەستپێکی
##ەدەن
تاڕ
##ڤیل
دووشەممە
جۆرج
بەرجەستە
لەوەدایە
سەرمایە
شەرەف
ئەوروپی
دەوڵەتانی
موز
هەژمار
##ag
شکاو
##کرنا
یەکسەر
##pl
پێشنیار
ئاوار
دەبوایە
ڕێبوار
بەرِێوە
دەستپێکردنی
ئەخلاقی
کوێر
ڕانیە
ڕاپرسی
کڕی
ناسیون
گەورەکان
##دەکەم
193
ڕاپەڕینی
تۆک
بێکاری
وەری
##ەح
بینای
تەز
کۆمپی
چاودێر
لەبەرئەوە
##مین
##چووە
نێودەوڵەتیی
##رەتی
ئاری
دەرچوون
ڕاهێنەر
##زیی
لەشی
هاتی
ئەوکاتە
قەومی
##if
شەیتان
##دیق
بەتەنها
پێشکەشکردنی
بوونەوە
سەرۆکوەز
یارییە
یاریگەی
کوێت
پرۆگرام
دووری
##ناسی
قسەکانیدا
تورکیادا
هەلو
دەسـت
بەدواداچوون
##لامی
##ەمەز
نایاسایی
جاش
##ill
##دێت
مۆندی
##ووش
سیناریۆی
##دەدرێت
بەچەند
دهۆکێ
غاز
ئەبوب
##مارک
##ژەی
ڕیاڵ
تاقیکردنەوەی
##درێت
ناچێت
نەتەوەکانی
بگەیەن
ئۆکرانی
درێژایی
نامەی
ڕووداوێکی
لەدەستدا
دۆخە
دەتوانم
وانەی
دڵت
##بڕین
ئامۆژگاری
سەق
یەمەن
دەنگدانی
بۆند
ئەکرد
شتەکان
##ایەتییە
گەن
دیر
وەڵامێک
##ریب
گەشتو
بریتیە
شەهر
##نیا
هەوڵێکی
##ext
کەک
بەوەشکرد
ڕیزەکانی
باوکم
زمانە
تۆمارکرد
خۆرهەڵاتی
##وپاگ
لەکۆنگر
درێژخ
ئۆکتۆبەر
##ێته
خوێندکاری
مانچستەر
یۆلی
لەشار
ویلایەتی
حەیدەر
ئو
پاداشتی
گەشە
جارە
##ـیەکانی
سەردار
مەرک
##دایەو
کردنەوە
دەنگەکانی
کوژراو
پەرلەمانتاری
جیاب
ببات
هونەریی
##لیمی
فرۆک
دەنگد
چەندان
دەربڕینی
##ۆب
کەسەر
کوردییەکان
##ەڵکی
بەڕێوەبەرایەتیی
کۆنترۆڵی
شین
ڕست
##ەکردنەوەی
کتێبە
نیشتەجێبوون
نیوز
##لاوی
##ێستاش
ئازی
##اڤی
کارەکانیان
##یلان
جیاجیاکانی
ئیح
لەوەدا
سێکسی
##وڵێت
##وڵمان
##ەڕی
دوورە
ناوچەیی
کۆتاییدا
##ندی
##وودی
ئاماری
خێرایی
نوێدا
خەسڵ
وادەی
##ـیەکان
##ەکانیشی
تێکشک
دادپەروەر
##شێوەیە
94
چاکسازیی
ئەوت
ناوچەکه
دایکم
##اردی
##ییدا
لەعیراقدا
##ەلای
##بێژی
نائوم
##ازم
ڕوخس
##تیک
سەردەمە
قبووڵ
خۆیانەوە
400
پێکهاتە
تەف
##ەخۆش
پێویستمان
گەیشتووەتە
بەدواداچوونی
هەڵدەب
ئەرکە
بەندە
مر
کەوتوون
ڕۆژنامەنووسانی
خەرجی
بڕوات
براوەی
کفری
##ۆد
خوڵق
##گرێ
ئەسڵانی
نوسینی
پێست
میللەتی
کوردستانییەکان
نیشانی
ببینن
وەلام
##ۆتەوەو
ئەمڕۆش
بەئاسانی
نوێیە
دەخات
خەلک
عێراقییە
ڕوودەدات
زەرد
بالای
ئینتەرنێت
ئیل
##الێ
هاوسەری
##ییەو
پاڵاو
فلم
ئوسترالی
بۆرژوازی
key
هەردو
##ەبن
دابمەز
نیشتیمان
ڕۆیشت
##وڕی
##هەر
##ak
ئایدۆلۆژی
هۆکارێک
کۆمیسیۆن
مردوو
سەرخستنی
دەنێت
هەبوون
ڕێکخراوەکان
ڕەخس
##end
##کۆم
بگەڕێتەوە
دەستپێکرد
نەمانی
زۆریش
##وخ
سەپاندنی
##گەکان
دروستکرد
جڤ
ناڕاست
سەرلەن
باشور
مەحموود
ئەرکێکی
موت
##اراست
بڕە
پرۆسەیەکی
لەپرۆ
بەرواری
##ەتیڤ
موبارەک
چاویان
کوتلەی
کردنە
نەیتوانیوە
##ەکردووە
ناشیرین
##فان
گەرِ
چالاکییەکانی
ڕاستەوخۆی
پشکی
حەزی
نووری
قەرەدا
جیاوازەکانی
هین
##کارە
##ەکیم
ستایشی
سەرەکییەکانی
##گیردرێت
کەنەدا
یاسایەک
##بکاتەوە
فشاری
تەیب
گی
وەب
بڵێی
##گەیی
موچ
##ter
گێر
##هم
لەوەز
نەریت
ڕەحم
هەڵبژاردنە
نەتەوایەتی
##ابوونی
کەمترین
دەفەرموێت
قسەو
دەرچوونی
ئیسرائیلی
نەناسراو
##شەو
##ەدەس
ئێوەش
ڕێبەری
مەهدی
##بەندی
پشکنین
زات
ڕێن
##مێنێت
##سم
لێم
قەناع
لۆک
هیل
لایەنگری
شەرمەز
##ێژەی
##ەناو
نووسەرانی
##اییدا
هەریەکە
##هێشتی
دووباره
##ton
تایبەتمەندی
بنکە
##ێکدایە
ئەمانەش
جێهێشت
نەمر
بهێن
ڕەنگدانەوەی
لەرووی
موختار
##جاری
شەڕو
دۆن
گەشەکردنی
بلی
یانه
حەرام
ڕێزگرتن
ناوەڕۆکی
mail
دیوار
##گوێ
دەپرس
##ass
بەرەنگاربوونەوەی
##ەکانیانەوە
پال
ناخی
ئاوڕ
##ازدە
جگەل
فراوانی
درێژی
کۆمۆنیستی
ڕێژەیەکی
هاوچەرخ
##لیا
مەغ
بەستنی
دەرناک
دەگات
ئاڕاست
بشک
##ُوا
کلیپ
دەدو
کردم
نەزان
سفر
##کاند
مێشک
نەتەوەیەکگرتووەکان
ڕووبەرووی
چوونی
بڕۆ
حەڤ
هێناوه
بەردی
##کراوەکان
مانگێک
خۆڵەمێش
ووڵات
ڕاپەر
هەژم
تاس
##دەبێتەوە
بەرزب
##ەمینی
گۆلی
خۆشگوز
ئەلق
گڵ
##بلۆم
##یشەوە
بش
بەزمانی
لەلێدوانێکی
##گرنگ
ساغ
ڕۆژێکی
بەخوا
##کل
هەڵگیر
بەرگ
خال
##ێکت
لەتەک
##روژ
موڵکی
##پڕ
زێ
لەلی
فەری
##ەکانى
ماوەکەی
سەگ
ڕۆشنبیران
مسۆگەر
لەماڵ
##فا
##ەخسی
دەستدا
باکور
پەیوەندیدار
لەبەرامبەردا
مش
کۆمپانیاکانی
بخرێتە
لەتورکی
بنیات
بکرێتە
ڕووناکی
خۆراکی
##کردو
لەئار
خۆشە
بخەنە
ڕادەیەک
پەیمانی
##بری
دەستبەسەر
لەهاو
عەشیر
##تانی
دەیەوێ
کەنی
##لاو
دەبێ
پێچەوانەوە
##یدان
دیاله
کاربەدەستانی
ترو
##خراوی
ڕووەوە
پت
##ییەکانەوە
بەسی
تیرۆرکردنی
یوت
لەسەرە
بانگهێشتی
زاگر
کونس
یۆلیۆ
##بول
ئەخلاق
پاڵت
بوونیان
چەسپاندنی
##ییەدا
تۆی
ڕاهێنان
##ame
کەناڵەکانی
بەرجەست
ئاشنا
##ەدوای
دڵنیام
ستراتیژیی
تۆق
##بل
تیژی
فرانس
مارس
ئەمجارە
مۆس
پەروەردگ
دەمانەوێت
یونس
##سازی
##ڤا
سیاسیە
پێکدادان
ئەمینداری
ئاسایییە
شیری
ڤیدی
دەستخۆشی
نەبین
برِیاری
##گۆڕی
پۆز
ئامانجە
بتر
##اشان
کانوونی
خەز
هەرێمدا
سەرپێچی
پڕوپاگ
قەیرانە
##انسەری
بەڕێک
سەنگەر
بەرێوەچوو
ساڵان
غەم
ئەوێ
لەوه
کیمیایی
ئاسیایی
ئێواره
ڕاستەقین
##ەسەر
درەخت
ڕەچاو
سۆڤی
ماستەر
شایەنی
بەکاردەه
وایان
پشتیوان
قەوم
ژەن
چاوەر
بینەر
کارەی
##ەتیان
پاسەوانی
دیناری
ئارەزوو
##انەکان
شا
دێنە
ئاشن
گوندەکانی
قەند
شەفاف
الس
پاراستن
بِ
##ەکرا
##خۆف
بنیاتنانی
##ووکی
سلی
ساخت
گوش
قائ
دەستەڵات
بگرین
ئۆتۆمبێلەکانی
وو
کۆمپیوت
عاشق
فیش
ڕووت
شتانەی
دەرچووە
بردنی
ئەبوبەکر
##بکر
فەرەنس
کۆپ
بازنەی
##anc
خراو
هیچیان
ڕابەر
دەیانەوێ
ماری
کۆمەڵگادا
سبەین
ئیمتی
##انەوه
لەژ
لەوێش
جەستە
##urn
وێستگەی
جەوهەر
یانەکەی
بگات
ڕوبەڕ
مەف
چوارد
دڵم
لابردنی
##ۆنیۆ
مەسەلە
نز
##ێژن
بەرهەمە
75
بەرپرسیاری
لەئەنجومەنی
not
کیلۆمەتر
بەناوبانگ
هەڵۆ
کوژرانی
ژاپۆن
پێیانوایە
نوێترین
ئاڵۆزی
وەرگیراوە
مه
جەژن
ئاپ
##ۆلۆجی
خستۆتە
سامانە
نوسینگەی
##ەجی
##ایتد
ئەمەیش
زۆرن
فەراه
دەدەم
باسه
ڤان
بدەم
دانیشتووانی
کەنداو
ڕێس
ئەلف
وچ
هزر
وڵاتێک
ببنەوە
پێشواز
##بهێنن
پەنجا
نەق
تەشهیر
نیع
سەباح
هەرچەنده
لەناوچەی
پـێشـ
قەتەر
##ەکاو
کۆسرەت
دەستدرێژی
هادی
پێشبڕکێی
زەمەن
شێت
دەنگەکان
پاشا
زانایانی
پێشی
ناوبژیوانی
##one
ماک
پاساو
##ەوەکانی
چوارشەممە
خراپە
ڕزگارکردنی
دوژمنی
سامی
##اردا
جیاک
##قا
تایبەتە
فەلەستین
شارۆچک
بەرفراوان
عیم
##وانە
191
پەروەردەو
##ێشی
دەستکاری
##ۆنیا
##arg
ئۆپەر
خر
شۆ
##ِین
جیاکردنەوەی
ڕێکخەری
نادەن
##الەت
فۆڕ
هاتوچۆی
جاف
##ەوم
##ۆسایدی
گوتاری
##چێ
ئەوق
بەهاوکاری
دەردەب
ئیمەیل
هێرشیان
##موج
سەرلەنوێ
شەنگال
me
عیر
برایم
لینکەی
ئاوارەکان
وتیان
منداڵە
بوونه
شارەزا
تۆڕ
##نووسی
چیخۆف
نەدەکرد
##بڵ
will
پێکهێن
##re
بەڕای
##ژیدی
باه
بداتەوە
comments
میکانیزم
گەو
##اسە
بەرو
##omments
##گرانی
کەلتووری
داوەو
چاودێریی
پاڵەوانیەتی
لەپەرلەمان
برِیار
هەفتە
##ارییەکان
عیش
##ـکردنی
ڕیفراند
نەرویج
##ایا
شەشەم
تەنیایی
پیشەیی
ناوچەکەو
ئاوەدانی
لێبوو
دیداری
##ـیه
عوم
یەکێتیدا
ئیسلامیەکان
ئافرەتانی
وزە
ئەوەند
دەرونی
ڕێگر
جۆراوج
پیشەی
فایله
خوێندکارانی
##شترین
بەدەستەوە
کەلتوری
خستن
ڕێـگەی
##موکر
بید
##دەکەی
شێوەیه
ژیاندا
##ویی
وڵاتان
##ییەکانیش
دهوک
مری
مەسع
بڕوایان
شنگ
بوەست
##شتان
مایەوە
بۆتان
لەقەڵەم
هەرکات
دابێت
یەکەمدا
میلان
ناوەڕاستە
هەڵسەنگاندنی
توورەج
##اباد
سڵاو
خۆیەوه
هاتوە
ماڵئاو
نەینەوا
وخ
پیاد
پلاندان
تەڕ
فەلەستینی
##پێو
خور
پاداشت
شەممه
ڕوونکردەوە
شارەدێی
فڕۆکە
دڵسۆزی
بەمەر
دات
العر
لیبر
بژین
بگیرێت
پرێس
بەدەستهێنا
تۆمارکرا
دیموکراس
##اە
##اڵح
##ێڕاق
##کەش
تێگەیشت
یاساکە
بکردایە
فەرەج
##ورە
##کارییە
ئیمزا
##ائی
Add
Share
ئەرم
دەرکەوتووە
مێز
عەدا
##کورد
لیوا
##ْت
بەربەست
##کترۆنی
##خۆشبوو
ڕێوشوێنی
یوتوب
مع
##bo
دەج
بەغدای
خۆیی
ماوەیەدا
خانەنشین
##ember
سەرگەر
##لیۆن
ئەنجامداوە
گەیشتنی
بکەی
چەکدارەکانی
##ورم
دامەزرێن
سەرسوڕ
تەلەفزیۆن
دەربەندیخان
##ارتی
دەکێش
##ەوتنی
##عەت
and
چارەی
جاریش
پێیە
بچنە
عەقڵی
یۆرۆ
پیاوێک
تاریکی
سعودیە
بنچینەی
ڕۆژنامەگەری
بیانووی
کوتل
کەسەو
بەرهەمه
ئامانجەکانی
یاسایەکی
##کەریم
بیل
کۆسپ
ڕەجەب
خەند
وایکردووە
بەتەواو
##ەلایەن
دەوەست
##اهەنگ
باڵادەست
پێشخستنی
ڕێککەوتننامەی
کەسایەتیی
وەفدێکی
##هاتووە
##رێنە
Name
ڕۆژەدا
ئاماژەیدا
##بات
##گم
##بکەنەوە
لەهەرێم
جوم
hot
گۆڤار
مەڵبەند
ناخۆشی
##ومار
ئەوەیش
تێگەیشتنی
دۆستی
ئۆگۆست
توێژینەو
سابیر
سودان
ساڵانەی
##لێکراو
کاره
پێشەنگی
دەنا
مادی
لەسەرت
لەباز
سیستەمە
پێشنیاری
##ێتم
لاف
گازی
##زه
##ەوای
پارێزەر
hotmail
##ێڵی
##باز
##ەچ
شەرعی
زیانێکی
cl
##نەب
تۆفیق
یاریدەدەری
مۆبایل
هوشی
##yle
دەشنی
وریا
##جاریش
##گەرایی
دەسەڵاتێکی
گەشەسەند
##سـت
ئەرسەل
سێدار
ڕەشی
ڕەئوف
بورهان
باژێڕ
قێز
گەری
جارێ
جیاوازیی
زانیارییەکانی
گاڵت
ژمارەیان
بردنەوەی
شانی
ئایندە
the
##سەد
پێناسەی
##احی
کوردیان
لەوێدا
##ەکانن
هەڵبژێردراوانی
زەمان
شەخسی
تاکەکانی
ڕادەی
تەماوی
هاتووچۆ
گڕ
ڕژێمە
ناوز
تۆز
##دەگرێت
اڵ
نائاسایی
لاش
##id
دەبەخشێت
##وومە
دیاردەیەکی
ڕووبار
کوژرا
جوول
هاتووه
##ەبێژ
بوایە
##ۆمپی
تەلەفۆنی
عەمید
شەست
لێکرا
ڕەهەند
نەچێت
بوم
##ێنراوە
کۆلێژی
شۆڤێنی
دەگۆڕێت
ئەسوات
ئەرسەلان
جموج
فیستیڤاڵه
dec
##un
بڕیاریدا
عیماد
تیمی
##ab
عەبادی
ئەمەریکای
قەندیل
داخستنی
مووچە
دیسانەوە
وەی
ڕەوا
ئەنبار
##گەیشتن
##هێنن
پەیمانگای
چواری
##پێی
بەجێهێشت
یاریزانە
پێناسە
سویدی
نووسەران
##ونجێت
67
سدیق
style
خسته
##اوەیەکی
پێشنیازی
مۆدێر
سالی
شیاو
بەیاننامەی
بەخۆیەوە
class
##گن
ئەمساڵدا
پابەندی
##oll
زەحمەتکێش
خەریک
دابنرێت
ئامادەکاریی
ئێزدی
دەبینێتەوە
ret
کیبۆ
ژێرد
وڵاتدا
هەڵـ
هەڵمەتێکی
text
لەنی
##ەکەیاندا
دەبینم
ئاستەنگ
هەروەکو
ئایدیۆلۆژی
لێت
##oration
تێکۆشانی
سادە
بەڕی
کۆنی
##ایەق
زیند
گەنجێکی
##ڕوو
دەنگدەر
بەهێزتر
نمایشەکەی
##arget
##سیم
کێبڕکێی
##ect
لەسنووری
فەراهەم
لەوانه
مەبەستم
تائێستاش
تابلۆ
داڕێژ
تراژیدی
سەرج
گفت
share
##ارێ
##کردەوەو
کراوەو
دوێن
پاڵتۆکەی
return
##ۆرە
وڵاتەکەیان
##lank
کۆنترۆڵکردن
target
##پەس
نەکەوت
ژنێک
comment
گەورەکانی
click
##ورت
بەئاش
فەلسەفی
##دات
##ونەوەی
گوتن
نەکردنی
##امین
##کراوەو
دادەنێت
حەقیقەت
قەل
لەوان
یارییەکی
سەرقاڵ
none
داود
زاگرۆس
##ایانە
##دارانی
گەشتیاری
دواکەوتنی
onc
عەی
بەرلین
##گریت
تەوافوق
##play
##ۆسی
بەدر
button
blank
##ستن
شێم
fbs
decoration
onclick
##ەڵە
##ابەری
برزۆ
##بکرێتەوە
دەنگە
لەهەمانکاتدا
تێپەڕی
بەبڕ
موڵک
پێشانگ
کەڵک
پرۆژه
##من
##نامەیەکی
شوو
فاز
تێڕوانین
تێدەپەڕ
لوتکەی
##ایەر
بڵاوبوونەوەی
دەنووسێت
ئێستە
بڵند
بتوانێ
##ومانی
نیشاندا
##isplay
ئومێدی
##شـت
##ووکە
دیاردەیە
##کێشی
پو
لێکەوتەوە
ڕەفتاری
ئۆپۆزیسیۆنەی
کردوەو
ئاوارەی
##ارەیەکی
پەیوەندیدارەکان
قوو
پووچ
وتەبێژی
تێکڕای
بەیاننامەیەکدا
بنووسیت
غازی
دیمەشق
جاڕنامە
الج
پەرلەماندا
##کراوەتەوە
تێکدانی
هەزارو
یارییەکه
دەستبەجێ
شایستەی
##ڕاک
##ەنتی
##ەسم
##ادەیەکی
ئینتی
حەماس
فۆنت
فەرمانبەرانی
##ریک
بچن
ڕەق
##گێڕی
ناکوڵێت
پەیوەندییان
گووتیشی
میوانی
نەما
ئێوەی
جێبەجێکرد
دەچنە
لەتیف
باژێڕوانی
ڕابو
هەیەتی
هەلومەرجی
نمونەی
بەردەست
ئەدرەس
کاراکتەر
##ارەوە
بارودۆخە
وەستان
پەیوەندیەکانی
نائار
تەندروستیی
شارێکی
ویلایەته
##ۆفێست
سکاڵای
هۆرگ
##ُون
بڵاویکردەوە
وق
حەمەی
دروستکردووە
فیلۆفێست
##ەبات
چوارەمی
شێمحەمەد
کردەی
خوان
دەسته
هاوسەنگی
##ێڵنەر
پەیوەستە
دانوم
شەریف
ڕاهێنانی
ڕۆشنایی
ڕوک
هەرەس
سیستەمێکی
کۆنتڕۆڵ
دانە
یەکێ
تۆت
دەکردەوە
دۆس
##ێردرێت
حەمەغ
##ێنمەوە
دەشک
بەڕێوەچوونی
سەروەت
تۆن
بۆچون
هیدایەت
دوێتم
مافەکاو
لەقۆناغی
یەکان
##وۆری
##ێمەوە
کرده
هەنگاوە
بێزار
داوی
فیلمێکی
ژماره
یەکشەممە
پەرلەمانتارانی
هۆرگێڵنەر
ئیتاڵی
سێشەممە
ئیماراتیەکانی
یوتوبوۆری
ولاتی
بەرژەوەندییەکانی
سەرسام
ڕەوای
کیمیاباران
دڵنیایی
##ساڵی
شاڵ
ئاماژەیان
بازرگان
مِن
خستنە
sor
ئێش
##ەکیش
تورکیای
ئەدی
تەلەفۆن
ڕاگەیەند
ئەفغ
هاواری
لەسایەی
باپیر
##ەگەز
پشتگیریی
فەرماندەیی
##‌ر
کوردیت
##اردنی
نیوی
میسی
##وند
گۆی
دیدی
دوێنی
دەستم
دەولەتی
##نداڵ
هاوسەنگ
ئەوپەڕی
ڕۆیت
دەڵێین
دەڤەری
بڕگەی
گەورەیان
ئافرەتی
##رەز
##مال
##کەوێت
##زیۆنی
میدیاکانی
دابنێت
ئەنقەرە
یۆنان
ناوەوەی
فیدڕ
عەبدولکەریم
لەمێژووی
دڵخۆش
داواکراو
داگیرکردنی
توانیویانە
ساڵدا
بیرم
قاعیدە
حەمەغەفور
##ییەوه
ڕەوشت
دەسەڵاتداران
توون
ئەمیر
ساک
مووس
دەپارێز
بەرگریکردن
جێبەجێکردن
قورسایی
لەسوری
لەشکر
پەشیمان
up
##اوا
دەشتی
##لایەک
##عا
لەئەنجام
کوڕە
ئەمنییەکانی
بپارێزن
##هێنانەوەی
ڕاگەهاند
دووشەممه
لەجیه
الق
بج
جوو
خدر
میتۆ
پارێزراو
فەرموو
ئەدات
کارگەی
65
بەرە
تین
بکەنە
##خانەکان
زیادبوونی
ڕاوەست
##ەمدا
##ریس
کەژ
دەیکەن
فێستیڤاڵ
دیج
گەشەپێدان
1988
دەیەوێت
##بینین
بەرهەمهێنان
برِ
نۆی
خوێنەری
دوژمنانی
بروسک
##ەڵک
لەوەو
بەڕێ
دەریای
گواستنەوە
##ەنت
فەوجی
##اشدا
ڕابردودا
کارەکان
کچێکی
بردەوە
بەرێوەبەرایەتی
Not
##12
شێوازە
##ro
پێکەنین
##ەکانیشیان
کیبۆردی
زاته
##ەنبیری
قۆر
لێدەکات
ئەنجامەکانی
برسی
بەردەوامن
بەرزبوونەوەی
ناوەرۆکی
ەُ
ئینس
##نەوه
وەزار
مۆدێل
##دێری
##ووین
سەعدی
چەشنە
فێستیڤاڵی
کوردەوە
خوێناوی
هەڵکەوت
ڕۆژدا
کچانی
ئوردن
ماڵە
ئیشی
کۆبوونەوەکە
لەکۆبوونەوەی
بۆشایی
sorani
وشی
ئیق
کولتوور
پرِۆژ
وەرگێڕانی
زراندن
display
فۆرمی
هۆشداری
##اتیک
کاروانی
Send
لەهیچ
پێیەی
ڕوناک
ئاراس
لەپارێزگای
##ollow
فەرمووی
بەڵگەنام
##تیکی
بڕیارەکانی
##ify
شرۆڤ
بەوەکرد
ڕەتکردنەوەی
##یلە
فایەق
دەردەچێت
کەلوپەل
Canc
JC
follow
##47
بینووسیت
لەناوچەکەدا
نەوزاد
کێشی
##ogos
##board
بیرد
سیاسەتەکانی
تێڕوانینی
برس
##وەند
##گوێز
سەیرە
ستەمکار
هاریکاری
فەیلەسوف
##ڕێ
کەوتۆتە
lex
شام
بێگەر
چیای
Cancel
پێشەوەی
إِ
بەوات
##ەرەکان
هیوادارین
هاشم
تێبینییەکت
تێبینیەکەت
ویلایەتە
ئەدرەسەکەت
##ارێتی
دوورو
keyboard
دەرناکەویت
بهێنین
##ilogos
بڕوانامەی
lexilogos
هەلومەرج
Notify
بەئار
تووڕ
ئۆکرانیا
JComments
ڕۆژنامەنوسان
##ەڕاو
دانان
داواشی
نەخۆشخانە
دەستپێشخەر
##ul
##ەکەیت
پرۆسەکە
تاوتوێکردنی
هەڵم
ئاوارە
جیهانیی
یەکیەتی
موسڵمانان
شەوە
شایەت
وەرچەر
شەڕێکی
بەرل
جۆرەکانی
فیکر
بگرێتەوە
حەمەد
ڕاستیی
ئەلقاعید
گرتووەتەوە
نامەیەکی
تۆمارکردنی
دەرو
بردن
جێبەجێب
دەستپێدەکات
##ڕاست
پارێزەری
فەڕەنسا
##وەتە
##گرێتەوە
##اکەیان
ڕانە
##ەکتەر
لەوێوە
هێزێک
وەح
داین
بەدوو
الش
لەدانی
##گوزەر
ڕەسم
ئەرکەکانی
پتەوکردنی
چەت
قۆن
##ەوخۆ
دەمەوێ
بسەپ
##داران
نەپ
گەنجی
##اَم
گروپێکی
تەج
گەیشتووە
##کردبوو
بیاب
ئیمارات
هەڵبەتە
##gh
لەگۆڕ
گەورەیی
دەکەونە
##داوەو
بەشداریان
مشتوم
ـی
پەیەدە
مەرجەع
گووت
گرێد
خانم
ناوبژیوان
تال
هەلبژارد
مەخم
##بردن
هەڵی
نیەو
##بوونیان
حیزبێک
فڕۆکەخانەی
##ەبردنی
پێشەنگ
##ترن
مێژوی
جۆراوجۆری
ئۆڵ
کلتوری
ئاهەنگی
دەکەمەوە
##وەگەر
دیاردە
لەدەستداوە
عێڕاق
ڕوخانی
##ابردوو
بکێش
لاسایی
هەس
لەبەرژەوەندی
میان
##ـگی
جیاوازەکان
چن
##ۆرد
##ڕێژ
بەرنامەو
نەبووایە
خۆشگوزەرانی
بەباشی
##گوزار
ئینگلیز
##لەندا
مەول
##ێنیتەوە
هەڵبژێر
##ێوەردانی
##شکی
خۆکو
قەی
هەنگاوەکانی
زانایان
بیخ
ڕوبەر
نەتوان
ببێته
لەگەڵیدا
بڵاوکردەوە
بکەمەوە
قام
بەلاَم
##ەقیب
داهێن
یاریزانانی
لەبەیان
2000
لەسەرەتاوە
هەرز
فەرەید
یۆنیۆ
اللّ
خۆز
وڵاتانە
گرنگیی
چەمک
تارق
عەللاوی
بگەر
کردنیان
زەردەشت
دەزگایەکی
هن
بکەوێتە
خوایە
تەسلیم
کۆمەڵگایەکی
ڕاشکاو
باوە
کای
مانگه
##ڤید
دەرەوه
ناتوانم
بەڵگە
خانووی
تورکمانی
##پێکردنی
زۆرینە
خوازیاری
فێڵ
##ماس
بوژ
##ستر
مسوەگەر
وادەکات
##ابە
کەچ
هەڵگرت
سیاسەتێکی
پەروەردەیی
##ەتێک
##ێکردن
کەسانێکی
پشتگوێ
وەبەرهێنانی
ڕیفراندۆم
ڕس
قۆناغەکانی
نەزانی
سڤیل
##ەهات
##مانیا
##وەکان
##شید
مرۆڤێکی
کرمان
یارییەکە
ئەزمون
باخچ
بهێنرێت
ڕاستگۆ
گوزەرانی
نایان
کوردەواری
مەسعوود
پرسیارێکی
سەرانسەری
##گەلێکی
بەوردی
##خۆیان
دەیکات
هاور
تاکەکان
هۆلی
بۆنم
سینەماکاری
ڕووبەڕووبوونەوەی
##ومە
بیرۆک
لەحکومەتی
یاوەری
##ێڤ
درامای
##کردی
سەرئەنجام
##ْم
##اکەوتنی
لەگەڕ
نوی
##یسـتی
وسەر
##ارا
هەواد
دەنـگی
ماددی
وەخت
##ڕان
پرۆژەیەکی
قیامەت
بردووە
واڵ
##اندوە
##کەرەوەی
سوڵتان
باهۆز
ئەرێنی
داڕشتنی
شەقامەکان
ڕۆش
گەیشتنە
##وکی
##پـ
ڕادەر
هاتنه
لەساڵ
جەمیل
لێبوردن
##سوڵی
بزانی
هەموان
لێدەکرێت
بینین
##ـکـکردنی
خۆرئاوا
بەسە
پێکردووە
##aw
نۆر
ژان
پێدان
نیازی
لێدەک
بەرهەڵست
بڵاوکراوەتەوە
لەبەردەست
شەهیدی
##ۆلۆژ
نییەکە
دواوە
بێلایەن
سەح
لەکۆبوونەو
پوچ
##قەر
ئەمەیە
ڕەهەندی
سەقامگیر
##‌ال
دیاریکراوی
نالەب
##امەز
نیز
نەدەن
کۆلی
لایان
بژێوی
نیشتەجێ
تاوانباران
##بهێنرێت
قاد
##دەکەین
بەتوندی
ژنێکی
مەسەلەکە
##خانه
ڕیفۆرم
##کۆڵی
سروود
##دەخەن
شمش
دێڕ
زێر
##ub
##اشە
##ێشە
فیدرالی
ئۆتۆمبێلی
سەرۆکوەزیرانی
نەوەکانی
ڕاپرس
دۆخێکی
##هێنێت
خەڵکدا
ستران
لەیاری
ئاسمانەکان
مێشکی
ڕوودانی
شنگال
ڤای
##ەشتی
ئەتۆم
تریشەوە
قەس
##امەوە
کوری
گۆشت
کارەساتە
ڕکابەر
پاد
ڕۆژان
##ونەتە
خاڵەکانی
ئیدانەی
لەمەودوا
فەرمانبەران
##لیس
دەکاتەوه
ساڵیادی
بەدەنگ
ئاراستە
چینە
سیتی
هەڵەبجەی
سوودمەند
هەرکەسێک
هیندستان
بەرامبەری
پێکدەه
الت
کەمتەرخەمی
ئیمتیاز
نەکەین
ڕەف
لێکۆل
##وەش
باجی
تەواوبوونی
ئەنی
زنجیرە
##کەو
##ارکی
ئامادەبوون
گرتەوە
250
##ۆگی
دێری
ئەمریکای
##مر
سەربەست
برینداری
هاندانی
دۆستان
ئیمپر
کایەوە
##ترو
##ووڕ
بۆرد
بەبەش
قەدەغەکردنی
عام
##لس
پرنسی
بدو
وەدەست
ماڵپەر
ئادەمی
قا
ووت
##دەنگ
ویژدانی
چوارچێوەیەدا
لەئای
چوونکە
دوابەدوای
##بێر
ئاڤ
بنێت
کاتیشدا
سالا
نڤی
چاڵ
ئەمشەو
پەلە
لەوکات
بایز
شەون
عەقید
##ارکردنی
##اوێژ
بوخ
نەخۆشیی
تەماشا
بەپێچەوانەی
ئیف
سەرکۆم
مەنسوور
دایەوە
نزیکە
فراوانتر
تێکۆشان
نۆژ
دیت
کرداری
پـێـ
سوورە
مانگرتن
گرنگەکانی
جوانترین
کەیس
دەبەخش
دەرمانی
مافێکی
ڕوخ
داوامان
هۆیەوە
حم
کەز
پلەو
ڕووداوەکه
##وێژ
##اتۆر
سەرف
ناع
بەخێو
پێگەیشت
##رۆس
خۆیانی
##دەشتی
خز
##نەوی
بەهار
ڕێگەچ
سیمای
##ێینەوە
##نیای
سەربازییەکانی
گفتوگۆکردن
##ەرەب
وەبیر
دوان
دروستکراوە
کرێ
بەرشلۆن
سەلیم
بژارد
ئەوکاتەی
##شەم
مانایەکی
پڕۆژەیەکی
دواخ
جوانە
جان
کرانەوەی
بدە
دەین
ئۆغ
لێوەر
ئەنجامدرا
قال
سیناریۆ
کافر
لەژیانی
دەستکەوتی
چوارشەممه
پەڕی
ناوەراست
##ەڵێن
گوڵی
وایکرد
دووپاتکردەوە
دیکەوه
ژیانە
بانگەوازی
تایبەتیش
پارچه
مەزنی
##اکەوتن
یۆ
کاروب
نەبینی
ئاژاوە
منداڵێکی
##اوەن
##ێرین
دەستمان
بێم
لووت
بەرت
دابەزی
ئەرێ
شە
پڕە
ئەمریکادا
بۆئ
کۆمەڵه
لەئەست
شاناز
بارودۆخەکە
ویژدان
بگر
##انییە
ڕەحیم
چێشت
کا
نەتوانێت
لیژنەیەک
کلیـکـکردنی
مرۆڤێک
##گەز
هەڵپەس
مول
ئەکەم
##فتە
##اکەدا
ئەوەدا
لەخزم
بەرین
##گایەکی
نەتەوەو
قود
##خۆر
پاڵپشت
##وج
کۆمەڵانی
##بیلی
بنبڕ
ڕێچ
ڕێکبخ
یەخ
دەع
ناکەوێت
چەکدارەکان
بونیاد
دزەیی
بڕیارەی
##ێلا
بەسەرۆکایەتی
أن
وێت
هاوین
گۆرانیبێژی
##برد
داهێنانی
چاکە
کۆشک
ساڵه
کەرەستەی
##راونەتەوە
دارستان
مەسەلەیەکی
دواخستنی
ئاغا
ڕەنگه
گیرو
کێشه
پرۆفیس
گوێبیسـتی
سیخو
دەناڵ
سوریادا
ئاڵا
##ەمەر
دەکەنە
##ەلاَ
هێور
سۆشی
سەپتەمبەر
دەخوازێت
##15
##ەمانە
پرۆسەیە
داخەوە
دۆکی
##رۆی
##ووردا
بخات
عەلاوی
لەدرێژ
لەشـ
ئەژمار
پلانێکی
بنەمایەکی
خۆماڵی
بێکەس
کوردن
کردار
گەرچی
ناچاری
وتارێکی
بەڵکە
دائ
##هێنەرانی
بنەماڵە
ئوسترالیا
لیوای
نووسیویەتی
ئینگل
زۆرد
پۆش
تاکێکی
کەموکوڕ
زەمینەی
نمای
ڕز
دەرەوەو
سنوورد
بەغداو
زەوت
##تس
بەهۆیەوە
سۆفی
ڕوویداوە
خۆڕ
##ەخشن
تەقی
پرۆگرامی
یار
بەلجی
لەکاتێکدایە
ڕادیک
ئاق
بێنێت
خای
داری
##بەخش
بەمشێوەیە
ئاکۆ
میکانیزمی
کاردەکات
##تەرناتی
لەسیاس
##ەواو
خۆکوژ
جام
گرێبەستی
ددان
##ۆدی
دەستبەکار
##اترین
تاڵان
کارگێری
چەپی
شیکردنەوەی
زیندو
لەهەوڵی
##ێکه
ئیمام
پیلان
ناوکی
میز
تێپەر
کەوتن
ئەتلەتی
ئەوقاف
ڕۆیتەرز
62
##داین
ڕەوانه
گەلە
ڕۆژانه
پەنابەری
براو
شەب
دانمارک
ماڵپەری
بەمانای
##13
##ەختانە
ڕوونیشی
کۆبوونەوەکانی
وام
##راوو
لەکۆی
1999
ئەلح
##000
وع
##خوا
ڕاستگ
خانووبەر
کوردسـتان
کۆمپانیایەکی
شانۆن
خانەنشینی
باڵیۆزخانەی
##گل
دیکەیان
ئۆتۆمبێلێکی
شـاری
زریان
ڕێڤ
ئەلم
دووەمیش
ڕێککەوتننام
##ەڵەی
نوێژی
بەدەستهێناوە
سەردەمەدا
نف
##رابێت
##ێسی
##ریکا
نووسراو
ئاکامدا
##کراوەکانی
کەهەر
زەق
##ێندراو
دیمەنی
##ۆنا
بگۆڕێت
بەرشەلۆنە
سبەینێ
##کین
دیواری
کۆمکاری
دەستت
بەلکو
شوانی
##وقی
الر
لەناوچە
##پری
لێبو
فەخ
لەدیدارێکدا
##بانێ
##انیی
##ەرمەند
فیدراسیۆنی
ئۆسکار
##ۆخ
##زن
لەولات
خاوەند
وتویەتی
بەئاشکرا
شل
نوق
##اکردن
نەگرت
دەوڵەم
ڕادەربڕین
##تاو
##ارییەکانی
هاتبوو
کوتلە
باوەشی
##ێنەنی
شارەکان
کۆنف
پیشاند
بوونەتەوە
نانی
##ێکى
نەبونی
جۆرێکی
##بیت
گەلان
نەمێنێت
هێرشێکی
ئاوەدانکردنەوەی
فیرع
##کەران
هەرێمەوە
کەرت
دەدرێن
ولە
بەرکەوت
هەڵدەست
گوتەی
دارا
زانکۆکانی
##روز
##دەوری
##ێرا
هەڵبژاردندا
هەڵوێستێکی
ماه
##رەی
ئەوەن
سەرفر
شوێنەکانی
داخراو
##کەوە
مانگەدا
نووسیوە
##اییەکانی
##فانی
##op
گوتوویەتی
مانگانە
چاودێرانی
##امن
پیاوسال
##زیاد
کێشەیەک
کتێبخانەی
بەناوبان
میهرەبان
##جێک
فراو
وەزی
وڵاتانەی
بگەڕێنەوە
تەپ
##ایەخ
یەکشەممه
ناتوانرێت
شەماڵ
##ونەری
لەسەرتاسەری
##فەری
##ره
سونن
نەخواز
بگەیەنێت
ئەڕ
##شان
فرۆشی
جەستەیی
سەرنجڕاک
##ەشەی
##دەکەنەوە
1992
##لەو
دڵەڕاو
حکومەتدا
دەرەک
تەواوەتی
حزبێکی
سازدانی
بەرِێوەچوو
زەحم
سایت
دەشت
دەردەخات
بەکورتی
##ێویستی
مزگەوتی
بریکاری
سۆسیالیست
تاڵیبان
ڕۆژه
سیستمە
ڕێکەوتنی
بنێن
تۆماری
گرنگتر
نْ
##گەیەنین
کەناڵە
##ارانە
دەبم
##گرفت
ئەورووپا
ماڵئاوایی
سێبەر
گرفتەکانی
واژۆ
موحسین
وڕ
نەریتی
بەشەی
نەچ
لیستە
##ێنرا
گرینگی
هام
##اغی
ئەڵێت
ئەدەبیاتی
ڕۆژگار
ژێرخانی
هەڵن
ئەندامان
هۆشبەر
##ali
##گەیشتنی
گیراوە
##اپای
بەڕووی
ناوچانەی
پەخشی
چاپی
##خۆری
چوارەمین
قۆناغەدا
سۆن
یەکەکانی
خوایه
ئەزمونی
جددی
دیمان
ئاگا
لێدوانەکەیدا
هۆت
##انسا
نەکردوە
تاپ
##گەیاندن
##اردن
بەرەنگاری
کاغ
لەدوا
خوێندەو
ئاشکراکرد
حسن
سندوقی
دەکەون
چای
لەسەد
دژوار
داڕشت
نەدات
ئیران
کاندیدەکانی
بەئاوێنەنی
ڕووداوەکە
زای
ڕاپـ
حەج
بوێر
گەلێ
کیمیاوی
پەرتووک
##زەکانی
هەڵەیە
مادام
پێچەوان
##اردانی
باوەر
لەتورکیا
قووڵی
وانە
##ێنەوه
بەرپا
##eb
چۆنە
گەیشتوون
تواناکانی
##بەتی
لەدەستی
کۆمەڵکوژی
هەرسێک
بەدڵنیاییەوە
لەوەزارەتی
کارەکەی
ئەمنیی
مەرکەزی
دیل
بەهی
گرتبوو
پێداگری
##هەڵو
مەکتەب
سنوورەکانی
##pt
جیهانە
سوریاو
or
هەڵوێستە
حەبی
##ەخۆشی
دواییدا
کۆپی
دەداتەوە
مەفرەز
هار
یارمەتیدانی
ئیئتل
##ەوش
ئەستێرەی
##دنی
لێدو
بەرژەوەندییە
72
یارییەکان
خیانەت
##اکانەوە
هەستم
فریاکەوتنی
تفەنگ
##ازادی
ئەدا
چارەنووسساز
##هاتن
ناسک
ئەسپ
پێدراوە
غەر
##ژەنی
##ێزە
درێژخایەن
بەپێ
ماڵەکەی
ملکەچ
##دەکرد
##لاند
هاوسەرەکەی
##اسا
##ary
گەنم
کوا
بووەتەوە
نەخوێن
فڕێ
ئەمەریکایی
لەڕۆژی
ڕاگیر
هێرۆ
لەدەستدانی
ڕەوشەنبیری
پوخت
یەن
قەرزی
سەرنوو
ئیجابی
بێر
##ەخان
بەڕۆژ
دووی
یەکێکه
دامەزراوەی
بەبڕوای
وبەر
هونەرمەندە
بەرِێوه
حەڵ
##قادر
سیستمێکی
دەخۆن
ئۆم
کارا
هاولاَ
پەنای
برەو
برایانی
سزادانی
نەبو
منە
شکاندنی
دیمۆکر
لاوە
ئەودا
##ێکیشیان
‌ا
##sh
حەکیم
نەگەڕ
خۆپێشاند
پەند
زانیارییەکان
خەڵکێکی
کۆبوونەوەکەدا
پێداویستییەکانی
بەدە
##ێشەی
بەختەوەر
نکۆڵی
##خراو
وەرە
ئۆردو
دەسەڵاتدا
سەرکردەیەکی
پارتیی
کۆمەڵایەتییەکان
Th
ئاسۆی
تایم
نەهامەتی
نادرێت
##ەنا
ئەکرێت
##ەوڵ
##اوێکی
لەهەم
کەلەپ
چارەنوسی
کابین
هۆکارە
سەلامەتی
Kurdistan
to
سۆزی
عن
سیاسییەوە
تورکیاوە
حاڵەتە
بسەل
سێو
هەڵبەست
بانگی
نیگەران
هەربۆی
ڕووناکبیری
لێبوردنی
بەخشینی
نێودەوڵەتییەکان
تاکه
پێشوازییکرد
##گەلی
##ەوەرێکی
ئەوتۆی
##یشـ
کارمەندی
پور
پژ
لەکاری
ئومێ
عەسکەری
ڕاڤ
دەنوس
##ۆرین
لەوەتەی
زووتر
ڕووناکبیر
ڕاکێشانی
کونسوڵ
پارلەمانی
زۆرمان
بڕینی
تەواوکردنی
بۆشای
##بوە
دەقە
هێمای
لەخوێند
کەرەست
ئەنگ
لات
سەرلەبەیانی
ئەدەن
خانەوادەی
دەستنیشانکردنی
کرابێت
ناڕازی
فەزای
هەڵەیەکی
پارچەی
بەزەیی
کۆشش
موست
63
سێشەممه
پادش
سەرشانی
ماوەیەکە
شانۆگەر
گریان
##ەکەشدا
بپارێزێت
زەی
تاکوو
##پت
بووی
لەمیانی
گشتییەکان
بانک
The
ماش
پێشینەی
نارەزایەتی
ئێزد
چیت
##ەشم
ئەڵماس
کال
##نیشت
موسلیم
##بازی
لەئەم
نووسیندا
##حید
##ێکن
بەرهەمێکی
شێوەیەی
بوت
لیژنە
دوورکەوت
##جگار
##اسازی
جێب
پەردەی
تێو
الص
ئیسلامدا
##ڤەرپ
شادی
خی
شێرزاد
نەرێنی
نێگ
ئەفسانەی
ڕێگاو
پارچەکانی
##az
ئێمەیە
##خستووە
نەکرا
##تەدا
کاریگەرییەکی
دادەنێن
دڕن
68
باسکردنی
##وژی
##انگی
بەرقەر
ئەرسن
بەختەو
نۆژەن
حەل
##اکەر
باسمان
سازکرد
بەرشل
##ووەکانی
##ەسەڵاتی
لەکو
ئەرشیف
##ێنرێتەوە
پێدەکرێت
بخەن
دیز
کارل
مق
چەقی
وتوێژ
لەبەرامبەری
دەکردو
##تریش
پاشەکش
فەرەیدون
کۆمەکی
ئێمەو
##تانه
کلتووری
کەمپین
هەڵسەنگاندن
پارەیە
نیمچە
سوودێکی
پسپۆڕی
تەبایی
##ەوایی
ستافی
دەخەنە
تیرۆریستانی
ناوەڕاستدا
گوتو
شەپۆلی
85
پێشێلکردنی
پەپ
##قەکانی
سەرە
ڕووبەری
چیدی
نابێتەوە
نەشتەرگەری
کرماشان
زور
پاو
ناوێت
خوێندەوە
##ترینیان
هانا
##اندزی
ئاسن
فران
ڕاستیە
ئیراد
شاره
نیوەڕۆی
سێر
پشتیوانیی
ڕان
بەشداربوون
خواردنەوەی
نەجەف
کولتوری
حزبەکانی
لەوەشکرد
لوبنانی
عەو
مێژوویەکی
##ەخانە
ئۆل
لاتی
پاڕ
دیبلۆم
پێشێلکاری
سەدا
بەنرخ
خانەواد
فرمێسک
چارە
بریتانیا
نەتەوەکەمان
##ازاد
سەرچاوەکەی
دیکۆمێنتی
##ارات
ئایندەدا
ڕێوشوێن
##جێفی
یەکڕیزی
تەقینەوە
##سل
بەکرێ
دۆستایەتی
قوبادی
زێد
دەگرت
بێسەر
ئەوەم
ئالی
پارلەمان
ئێرانەوە
پەیامێکی
160
قەدەغە
کاول
وەن
بەهەم
بۆمبێکی
بەفەرمی
قازی
##سوم
خودای
پێوەر
دەنگێکی
بایک
##کردە
هاوپ
##وتن
هەفتەیەک
ئاڵوگۆڕی
ماڵپەڕ
چاوەڕێ
کاسب
##96
جیهانیدا
دراوسێی
لەشـکری
##ستەم
لێپێچ
کرێی
##ادزێ
ساڵیدا
##تەرا
هێدی
نەهاتووە
جووتی
ئەواندا
پێنجشەممە
هاوکاریکردنی
##کراوه
ئافرەتێک
##اونەتەوە
خێزانەکەی
هەندی
##لاوە
لەدرێژەی
##درا
##بز
##ایەتیان
برِیاره
وەسفکرد
##وویەکی
دەرهەق
مۆسکۆ
تەوەری
سەرجەمی
##بۆتەوە
بگەنە
لەشوێنی
ملکەچی
##ڕاو
##رِی
دەرگ
بینیمان
بکرێنەوە
دیدارەدا
هند
وازی
بگەی
دادەب
بڕێکی
وردەکاریی
یادەوەری
خە
##کاوی
##ویان
ناخۆ
مرۆڤدا
##ەکانیشدا
بخرێت
هاوپەیمانێتی
en
حەد
نەڕ
سێم
هەوا
داواش
بزووتنەوە
عیس
ڕیت
دەستگیرکران
##چەک
هاوت
هێزانە
لەیەکتر
شوباتی
هەڵسوکەوتی
##ەکەوت
هەرێمیش
دادەمەز
ئایە
##تیڤ
##انداو
هەڤال
ڕەحمەتی
کۆمپیوتەر
##ێف
##نامەن
##بۆوە
لایە
پاشکۆی
شوف
بڵاویان
پێشوەخت
بەستن
ها
##ێرم
لەبەڕ
گەیاندن
پچ
##نییە
بڕێک
گرتوو
ناتوانیت
سێیەمین
ڕەتکردەوە
براک
هەڕ
##قوب
##ازێکی
پێشڕەو
##ێندرێت
موک
دلێر
عیشق
بەرشلۆنه
نمایشک
فەلاح
دەبا
هەموارکردنی
کوو
بەژ
ناوەندە
ڕووخس
حسێن
ئایندەیەکی
ڤال
خۆکوژی
دوبارە
##ژمارەی
ئەندامەکانی
چاکتر
خۆپـ
بۆمبی
##ینن
دەوام
پێشکەشکرد
عیز
##وەندی
بەتەواوەتی
##فیسی
یەکدی
ئاژانسا
داهێنەر
بەوپەڕی
گرووپە
##شتە
گوێم
کەرب
دەدۆز
بادین
واق
##نەکردنی
##گۆر
پێوانەی
داواکارین
داڵ
فێم
وەلامی
عەرەبەکان
##عەی
##شیدا
##اگا
زانینی
کۆمپانیاکان
درۆز
##داریی
بەسەرهات
جەناب
هەڵەبجەو
نێوەند
تۆپباران
##ورئ
خۆزگە
##واند
##ەکت
گرژی
لەهەردوو
پرسێکی
خنک
##ess
هێمنی
زستان
##ەهدی
مێژووە
عەرەبە
دامودەزگاکانی
نەبەز
داواکارییەکانی
ئەجێند
##یەکە
بەلاڤ
##ەشێو
##روستکردنی
یۆتۆ
ڕۆم
کاکەیی
لەیەکەم
هەڵەبجه
دەنگدەران
پشوو
پشی
کارئ
عێراقیان
##بێل
دەچوو
2001
ئاخاو
لەبەیاننام
نەبوە
ڕاستییەکان
بەراستی
##ادق
##اردان
پەروەردگارت
وێرای
پەرو
سوننەکان
کریم
کم
ڕۆژنامەو
قاعیده
نیعمەت
تەخت
خات
بەرپرسان
لاپەڕە
پاشماوەی
600
##پیشاند
##ینار
##کردووەو
بەشدارن
لێپرسراو
کت
یاوەر
چارەنوس
لەکەس
##ایەنێت
سەندیکا
ڕانی
مستەف
##وڵا
##iv
کەلتوور
ڕەچاوی
بەگەر
هاتیه
إِن
کارەکتەر
سەرووی
پێشوی
##اوەدا
پڕۆژەکان
پەنجەی
نیویۆرک
لێدەکەن
باشیان
خوازراو
لەهەندێک
هەوڵێک
هەڵواس
بارەوە
درک
##گۆش
ڕائ
باسم
قسەیان
بەرنامه
پاڵەوانێتیی
نەدەبوو
لەهەڵبژاردنی
غەد
دەیانەوێت
قەرەباڵ
ڕێورِ
سۆل
دەپ
جێبەجێکردنەوە
##چو
هەوڵدەد
زانین
کەسانه
نەگۆڕ
دەوت
بەردەر
دوپ
منداڵەکانیان
فڕۆکەی
ئێرانیش
بەکەم
هەندرێن
نایەوێت
بزانم
لەهۆڵی
دەیخ
لەرێگای
تۆڵەی
نایابەکانی
پێوەری
شوێنەواری
وردەکاری
ستراتیجی
هەتاو
##76
ئەوکەس
گەلێکی
کردوه
هەریەکەیان
ڕێکخراوەیی
##کام
تاقیکردنەو
سەفەری
ئاوارەکانی
خەڵکەکەی
هەنووکە
هێرشە
لەیاد
##72
کەسه
پاشگەز
##شێوە
##پۆرت
نیوە
باند
دراون
##ایەوەو
خوانەن
##ێژکراو
مانایە
##بێتە
پارێزگار
کونسوڵی
##ەروو
##ەهۆی
دەرگا
ئامار
ئاوازی
لەشوێن
ئەفریقی
##ـیانەی
لەباش
الب
مەند
ناوەوە
گۆت
دەبوون
لەلا
##حیا
زمانەوانی
بێشک
جلی
کاربەدەس
66
بووک
لەگەلا
##ەماندا
بەپەلە
لەئەند
ئەستەم
وێنەگرتنی
000
ئەمەیان
##ەدەب
گرفتە
حزبەکەی
هەڵیان
##ەکەشیان
ڕامیاری
جەولەی
##ندە
##pr
دانوست
شێعرەکانی
پەروەردگارا
خۆڕاگر
فەق
تائی
ئامادەبووان
کۆلێژ
##سۆ
بۆیەش
دێته
##یا
##ابێ
پیادە
شەک
بازن
##ەکرن
be
کایەی
لێژن
فۆل
بەهەشتی
سواری
دروستکردن
هەستیار
گۆشە
##بیل
##ەنەکردنی
کتێبێکی
ڕوکن
سەک
##شێوەی
##جارە
##ڕو
هەبوە
لەبەری
کچێک
هاوپەیمانان
زاراوەی
بڕیاردان
##ئام
بۆری
بەرچ
دواییەی
##اوم
##ەلەی
بخۆن
مێژوودا
دەفرۆش
سەت
ند
نالی
##جانی
##یانەدا
ژنانە
دەمێکە
##ڕووی
##وورو
موفتی
لەخولی
نور
فاکتەری
فەیسبوو
##تیه
ناسینی
مەهاباد
کێو
کۆک
نەزاه
ئیمانداران
##دەدا
##ْن
لەوڵاتانی
فین
قژ
قۆڵ
یو
پێشین
پیرە
دەستەڵاتی
##بووەوە
کاتەوە
بەمجۆرە
##ews
##تینی
لەوەڵ
ناسراوی
بیروڕا
##ڤن
بنوس
بڕیارێک
زەرەر
شۆفێر
هاوولاتیانی
##حە
##ْل
پڕۆژه
61
داوەتە
120
خواردنەوە
گەنجە
مەترسیی
دگەل
##دێر
لەفەر
قو
##ێتەوەو
پێناد
خەڵکەوە
نەخۆشخان
کامیر
حاڵەتێکی
قەزاو
سادق
خەف
##اتێکی
##سیتی
پەیکەری
ئەنجامدراوە
خرایە
لِ
بوارەکاندا
##فتوگ
خۆس
ئامەد
سلیمانی
سەه
##اتیکی
لەوەکرد
هەنگاوێک
وەرنا
کۆمۆنیست
خۆپـیشـ
یەکدا
##وانینە
2002
یانەکە
پێکەوه
##کرابوو
منداڵەکانی
نازناو
پانتایی
مەین
کەیەک
##گیرکردنی
بیرەوەر
مۆری
##ەینەوە
پێوەند
تەلەفی
قەرەداغی
##ارییەکی
کێشانە
چاوم
گەیاندە
کێیە
بدەیت
بڕوانە
تێپەڕبوونی
کۆمسیۆنی
هێنایە
شەراک
توێژینەوە
شاش
نەیویست
کیلۆ
پێهات
پارەیەکی
ئەڵێن
ڕەسەنی
لاپەڕەی
پارەو
کەسێتی
پڕۆژەکانی
ڕونکردنەوەی
org
##رەم
##قام
##ایەتییەکان
##ێردا
هەواڵە
خۆشبەختانە
ئەوین
ڕێگرتن
یاساکان
ئەندازیاری
##ەکانیەوە
بڕیارەکەی
کانت
ئێستایش
بەختی
خوادا
##ارییان
لەکوێ
گەشەکردن
نیوەڕۆ
پرەنسیپ
##ەکاتەوە
##یدە
مەراسیم
##ەنینی
لەمەر
ئاسوود
فکر
##48
##ەباتی
بەسەریاندا
نەیانتوانیوە
تاکەکەس
دابەزینی
##کردووه
دەگاته
کەشوه
پێتان
هەڵـبژارد
##ۆمێنت
بڕۆن
ناوبانگی
جەزائ
دەرنە
بڕین
ناودەب
باڵند
لەتوان
کوڕەکەی
خشتەی
پەیوەندیان
دەکەوێتەوە
هەنوک
بەگرنگ
بەئامان
سەلەف
پەری
بەفی
زانای
##تم
##هام
بەلی
##کردنێکی
حەوتەم
قورئانی
بگواز
ڕۆب
موقتەدا
لەکۆبوونەوەکەدا
ڕووباری
یەکگرتنەوەی
خۆپیشاندانەکانی
گوزەر
قەزافی
ئاوەدانکردنەوە
زۆرەوە
سەربە
خاوەنەکەی
##ایلی
مامە
محەمەدی
کردی
بڕیاردرا
سەروەریی
مرو
##نێکی
##32
خۆشم
##هەڵات
نازانین
سودی
ڕابەری
فیلمەکە
قوربانیان
چالاکیی
جوانتر
بەچاوی
وروژ
مافەکانیان
##امه
کەخ
دەڵێیت
وەفد
شارەزایانی
مانی
##im
##ug
لەناک
ئەدیب
فەڵ
##ووداو
تەلاری
ئاستە
پێچەوانە
سیروانی
##امدا
دەبرد
دوەم
ئازادیخوازی
ستایش
خۆرئاوای
نەخوێندەو
##کوت
ئەقڵ
ڕاپەرین
چەر
کوردییە
ئەلبوو
کریستیان
ماونەتەوە
##ییش
بەرتەس
هونەرە
لەحکومەت
76
نیگار
کودەت
بۆچوونە
ڕکابەری
##ەزار
بباتەوە
ناوخۆو
کوردوستان
لەسوریا
فیرعەون
ڕۆژگ
خولەکەکانی
ئەمجار
##یرەی
بنکەکانی
##چیت
##گیریی
بەڕێزان
قەوارەی
کۆیلە
سۆڤیەت
##ەرای
ڕوژ
##ەڤانی
##کێک
##یتە
قادری
جاک
ئێمەیان
پرۆژەکانی
لێدوانێکیدا
عاشقی
دێنێت
موسل
گوفت
ئێستاکە
وۆرک
##ۆخی
##ەراڵ
بەتۆم
دەربچێت
‌و
##دراوە
کۆدەب
کەمپینی
پێشانگایەکی
ئەنتەرم
نائومێد
نشین
ئەوس
نیسانی
سەرچاوه
77
##ویانە
##عردا
بەچاو
نوخ
ببەن
ڕۆڵە
##تاندا
جب
خۆیانە
دەرچووی
ڕێبەرانی
خۆڕاگری
##16
##wn
بەندەکانی
نۆز
دادو
ئاشکراشی
تەمەنیان
منەوە
ئەندازیار
لەماف
میدیاکان
دەبەستێت
##ەواوی
مەحکوم
گۆشتی
هەبووەو
دامەزراند
کەبۆ
کوردا
##الاک
ڕەواکانی
ئەستەمە
گوندنشین
بەڵگەو
لانیکەم
ڕەها
##نەوەو
##ەیەکیش
2015
ساڵەدا
فریاد
##ct
##ەرێ
##اییان
نوجێفی
تواناو
هۆکارەکەی
نەوەد
لان
زۆرو
ئەڵێ
پاشەکشەی
شوناسی
قاو
##اژانسی
نابێتە
مامەڵەکردن
غەی
##دەکرێن
جەمسەر
دابنێن
مەکە
دواین
دەیگوت
توش
مەعنەوی
موعجی
اب
بەکارهێن
خۆپیشاندانەکان
بپرسین
ئەرمەن
لەئایند
##وارە
یەکیان
هاوخ
وەڵامدانەوەی
ڕاوێژکار
##خات
ئیسلامییە
ئەوجا
سەرپەر
ئەمیش
ئادەم
هەرزان
کارم
بەرِێوەبەری
پێویستیی
بەئەنجام
سەفین
پرۆفیسۆر
بەئاوێنەنیوزی
چێل
بنکەیەکی
فڵ
دەباغ
بەرزنج
دوژمنان
سڕینەوەی
##اکت
ڕۆناڵ
لەمە
ئۆفیسی
سازی
##سێن
دیوی
نەتەوەیەکی
بۆندی
ئەندازەی
##ستمی
##ابو
##ەخۆر
بەهۆیەوه
کۆمەڵگەدا
گۆڵچی
جینۆسایدی
وبە
سـاڵی
باخچەی
ئەیان
ساتەوە
سعود
قون
##ەکمان
ئاشکراکردنی
کەموکوڕی
ئیمپراتۆری
##ەتییە
ئەنجامە
ئەیوب
کۆبوونەوەیەدا
قەرەبووی
نەشی
##مێنن
شۆرشی
زەمەنی
کارگێڕ
بۆمبڕ
دەدوێت
کڕین
کارنامەی
ئەلبوم
##دەنگی
بگەن
هەوڵەکان
مووش
برادەر
ئوسامە
لەبارە
یاسادان
##ۆڵە
بەکەس
قاڵ
##نیە
لیبی
هەفتەیەدا
جەنگە
##ڵێن
سەرەوەی
##کردنەوه
بابان
سەرمای
میرات
کۆمەڵگایە
زۆرم
##چێتی
گوشار
هاوڕێک
ترۆ
##مۆن
##گەیە
خوالێ
##دانێکی
بۆته
پێدەکەن
بالی
مێژو
لەکۆتاییدا
کێن
##ێزان
خوداو
میری
بەپەر
ناڕەز
بایدن
ئەنداز
کڕ
چارەسەرێکی
جوانەکانی
کۆمەڵگەیەکی
پێشەکی
دوود
باژێر
دیاریکراوە
توخ
قەدەر
میح
ڕێکخراوه
پێکردنی
میانی
##بارانی
نامە
##ـیەی
دیالۆگی
هەشتەم
فاتی
##ذا
پرۆت
خاوێن
دووەمیان
بەیاننامەیەکی
جەهان
هەموولایەک
کرانەوە
گشتگیر
مەرجەکانی
بەخۆیان
وگ
##ەکەکانی
ئەول
سەردانەی
قر
وح
##ایتی
##ورک
سلێمانیدا
شوێنەی
لەسنوری
مۆندیال
هوشیار
دێتەوە
شکۆ
کردین
بەرامبەردا
عبداللە
فەرمانڕەوایی
##ia
یارییەکەی
لوی
پردی
بەشیر
##خوێند
ڕێوڕەسمی
چێلسی
پایی
##وابوو
کەسان
سۆرانی
##ەفەر
جلوبەرگ
##نیی
شتانە
دەسەڵاتداری
بەهێزە
ئۆبام
ئادەمیزاد
بەناوبانگی
شایەتی
##وێنێت
##اوەیە
بەربەر
گوێڕای
ناگرێت
تازه
دابمەزرێن
کردەو
##الح
بەلێ
وەربگرین
گەمەی
پێکدێت
ئەفسەری
بدەنەوە
##نەد
##ەکەماندا
لەکوردستانی
مورسی
یەز
##کردۆتەوه
پێگە
##ەقامی
هەورامان
پیری
##رابوون
##سەنگ
##اتێ
##دەکرێتەوە
##حکومەتی
تاچەند
بەبیان
لەدایکبوونی
کوبانێ
سەرمایەی
شاج
هەوڵە
فیدراسیۆن
موجاه
دونی
لەوەر
پەردە
##ێبەجێکردنی
دهوکێ
بول
بەخۆوە
##ویر
##ۆرتە
جیاوازن
داعشەوە
کۆنترۆڵکردنی
مۆزەخانەی
##هێنی
بابەتەکە
لێپرسراوانی
چەمکە
ئەلیکترۆنی
##بەند
کۆمەڵەکانیش
نەخشە
بەگژ
جنێو
بیروڕای
نادر
ئەوەوە
##ەکردنە
تیژ
کەئێستا
##ۆج
بەڕاست
گەڕاندنەوەی
ڕۆڵەکانی
##نەڤ
کۆتا
نووسەرە
##بولی
فاشیزم
پژاک
##روف
ئەنجامێکی
لێدوانەکەی
لەکۆنگرەیەکی
شەع
کەمین
بەرپەر
شیاوی
##wnj
دووەمدا
کوژراوە
ئەوروپادا
بازار
زیادەڕ
ئەمریکاوە
کۆچبەر
zwnj
##حان
نوێب
بیرمەند
بزوتنەو
##زافی
ڕۆژهەلاتی
هەناردەکردنی
جەوهەری
نێوانیاندا
##ڕم
##الەتی
پێوەندیی
ئەمجارەیان
نەیارانی
کاتژمێری
##سەند
ئابی
تەقلی
ئەزموونە
بنچین
قەوارە
کاغەز
##ێیەکی
کەسایەتییەکی
بکەو
لیۆن
بێگانە
٢٠
لەپێک
هەوڵیان
تەور
##بم
هەره
خەڵکیش
حەقی
یەکانی
##شێت
بەپارێز
یەحیا
نەفرەت
ڕوم
##رانەوە
دیمانە
ڕیس
##وێنەر
فرۆشتن
شوناس
پەرەسەندنی
باوەڕتان
زانستە
بەختەوەری
پەرەی
##ئاماد
لەزۆربەی
ڕامان
##نەم
کەج
گۆرِ
ساتێک
لەنزیکەوە
##ووز
##ەکەسی
نها
کەتی
بۆچونی
ئەندامەی
لەدەرەوە
##ووترین
نەکراو
ئەنارکی
نمایشکردنی
مسوڵمان
ئیئتلافی
##بەخ
ڕێگایەکی
توێژە
ناون
قانون
لەلێدوانێکدا
زل
##نێ
بەرنامەکانی
فراوانکردنی
ئاسانکاری
شێعردا
تێرۆری
مەحاڵە
ابن
##مانیان
پشدەر
باق
تۆیە
جووت
پێبدرێت
##کیش
##لیب
هەڵات
بەحر
هو
بزاڤی
ڕێنموویی
تاقە
پاشەکشە
لەداهاتوودا
بزوتنەوە
مەست
##خورم
یەکیتی
دیسەمبەر
موزایەد
##تاش
کارانە
شەشەمی
پشووی
ئەزموونێکی
دیف
##دوتی
##بووین
102
##پەروەری
شارۆچکەکانی
ئەوانەوە
خێزانە
گوندەکان
جیاجیا
شەرعییەتی
جوتیاران
##99
##دید
کامیان
هاوڕێکانی
هاوشێو
##ou
نییەلە
ئەنفالکراوەکان
64
بەرگەی
##ەڕووی
جوام
جارێکیتر
سری
بەرێت
دەرد
##ەگەڕ
هێرشبەر
73
مەراسیمی
بڵاوکرایەوە
بەرزترین
کەمتەرخەم
##ەلەر
ئەمڕۆدا
عیل
##ەبێ
دەسەڵاتەکانی
##تردا
گەنجێک
##ِّ
کارزان
ئازادییە
گوتار
ئافرەتێکی
نیشاندانی
تاڕادەیەک
بکه
بەهمەن
سنورد
مەکسی
بەرزنجەیی
##ەگەر
پێدە
سازش
پیرۆزە
لەنەخۆش
##کریت
دیپلۆماسی
لەبەرامبەریشدا
##زەت
##بژ
هەڵخەڵ
ببینین
##گواست
سەرکەوتنێکی
عەتا
گەورەش
ماڵو
138
ئەفریقا
ڕاگرت
دادەنی
ئامرازی
دەرئەنجامەکانی
حیکمەت
##بکرێن
ولاَ
##کەند
پاڵەوانەکانی
اس
تارم
##ەکەکان
دەرهێنان
کاریکات
یارمەتیدەر
قەززافی
سەربازانی
کۆنتڕۆڵی
##ێتییە
بکەون
بخەینە
لێپرسینەوە
##کردوو
کوردستانن
دەریان
ناوبانگ
مایۆ
لێبووردن
##قول
##ونەوە
##ۆکاری
دامەزراوەکانی
نمایشکرا
هەڵگرتنی
هەرێما
لۆژیکی
یەنایەر
##اویی
دەتان
بەرژەوەندیەکانی
هەتاوی
ڕێگەیان
عیراقی
فیدرال
داکۆکیکردن
پلاندانان
##ـکی
##ەوێڵ
خوایش
بەپلەی
عیسا
نالین
خایاند
دەگوزەر
داعشی
کەژاڵ
بپ
قوم
لەبوار
بازرگانیی
دەگەی
##ورا
لەناوەڕ
کەناری
کوتله
دەگێڕێتەوە
دەستدرێژ
ئەوانەن
بزاڤ
جەهانگیری
لەری
##وودە
یۆنانی
ئێمەوە
شیعەو
نموونەیەکی
##ئەس
نیوەر
بارانی
##ەپانی
بەرهەمهێن
دایه
دیدارەکەدا
بۆردومانی
قڕ
لێمان
عێراقیەکان
##وایه
نەخۆشییە
بەڕێوەبچێت
کەهەموو
خۆپیشاندەر
تەکنیک
##بنەوە
ساڵێکی
منداڵێک
خواستەکانی
خانی
هەقیق
##شۆپ
دەرهێن
بەپێش
ڤین
##ئیس
ئیمە
بەرزو
##ەسازی
موچە
##ارییەوە
بەسەرپەرشتی
نەدرێت
##پەرستن
ئازیز
##زیا
ڕابکێش
پرسیارێک
##یشمان
##کراوەی
گوێیان
ناسیۆنالیزم
لک
لەتر
کێشانەی
شاعیرە
لەخۆر
##ەپەگە
دیجلە
##بایە
لەڕی
دووچاری
دەنگۆی
چالاکییە
شێرپەنجەی
دەستەواژەی
باد
بایی
##تەق
بیرەوەری
دەسەڵاتیان
ڕۆڵەی
نوسراو
ڕزگاریخوازی
زاهیر
لاس
##بوک
نازو
فۆتۆگراف
ch
الی
جۆش
چەن
لەوڵاتی
زۆرەی
ئەوروپای
قوتابخانەکان
شەهرستانی
یُ
دەگواز
ساڵێکە
گەلەکەی
گیرۆ
##نس
##ورو
لەسەریان
##ەجۆر
میژ
گەمارۆ
##st
دارو
##کەرکوکی
پوچەڵ
دادی
جە
لل
##وع
##se
##اشا
ڕاهێن
کارێ
بەردەوامەو
##oc
لەپرۆسەی
ات
نوک
##دیو
خانو
سەرچاوەکان
هۆر
خێرای
پەرلەمانتارێکی
##یشم
هەستکردن
سەنگی
ئۆڵۆمپی
##ۆچوون
دروستدەکات
دەگمەن
پرۆسە
جیابوونەوەی
لوق
وەش
دەگیرێت
دەکرێ
لەکۆم
ناوەڕۆک
چارەسەرکردن
شێوەکار
دینارە
مانچستەری
دەرماڵ
بەشـ
لەبەشی
جۆرەی
گفتوگۆکان
ڕیکلام
کەلوپەلی
##کة
پێگەیەکی
بڵاویکردۆتەوە
خراوەتە
##ەکیی
تەلەڤ
باشترکردنی
پیلانی
جڵ
پڕکردنەوەی
بەدواوە
کیمیابارانی
ساتی
وەکی
ئەوەکرد
لەگەڵی
حوسنی
گەردوون
لێدوانەکانی
پیشەسازیی
##ـیان
##زیۆن
ڕەوتە
ئەنفالی
ڕۆشنبیرانی
سنە
##ێکیدا
حکومەتەوە
بەخێرایی
ژور
سید
وڵاتەی
چاوپۆشی
داوایکرد
##سیر
گرانی
حیزبەکانی
بەناچ
ڕێزو
##ڤیچ
کێشم
بارهەڵ
بەکاتی
دڵیان
بۆچ
تورکیاش
گەڕایەوە
##کێشانەوەی
ئایاری
##وێنن
##ەکم
##ەبە
دانوو
عەبدولع
جید
دژایەتیکردنی
##کۆڵ
دەمار
پێشکێش
پارتێکی
سالارکەرکوکی
##اتەکانی
کێشەکەی
گفتوگۆیان
گفتوگۆیەکی
1990
ڕۆیشتن
لەنێوانی
وەبەرهێن
##دەوامی
بەدرۆ
ڕزگاریان
خێرو
پایە
لەمەش
شارەزوور
وەستاوە
##سادق
کەمپی
سوریای
تاوانەکان
قۆرخ
شێخان
یەو
گرژ
کاته
لەئاک
حەزم
ناعەدا
##ۆکردنی
پێشمەرگه
قۆڵی
##بەکر
##عای
دوک
لێکردن
تەقەی
سووتەمەنی
نۆڤەمبەر
ولی
##جان
بەرەکانی
هەماهەنگ
یارمەتیی
کود
ئاوێت
دەکرێنەوە
بەرلەوەی
داوەتەوە
بەردەوامیش
درێژکردنەوەی
##گیان
بادینان
دیزای
جیهانیش
پێکهاتبوو
لێبورد
لایەنانە
کەرکوکدا
سەوا
فۆتۆگرافی
لم
هه
لەکەن
پێنەد
وێنەگرتن
##ێـکدا
74
کەوتنی
لەداد
ئەیلوول
هاتوونەتە
لەجیهاندا
##ازیلی
ڕوانین
بەهەند
کلین
وەستا
هیج
دراوی
پاوان
##زێکی
هۆڵەندی
سووکایەتی
ڕابوردوو
پەژ
##باس
ڕۆزی
کۆمیدی
تەنیشت
توانیمان
کاراکتەری
فیشەک
چەور
بزر
خەلاف
پێغەمبەران
وڵام
هەرکاتێک
ئاوە
شەکر
لاتینی
کردۆتەوە
ڕۆژنامەکە
قسانەی
دەمێنێت
ئەوروپاو
ڕۆژێ
بەساڵ
حوزەیرانی
##گرنەوە
##وترێت
پیک
عەبدولقادر
تێنسی
78
ئایەتی
ئیبن
##اعی
بابەتەکان
نایەک
##بدەین
بتوانرێت
شارەدا
کوردێک
بەنم
پەرلەمانەوە
تەقەیان
لەمەوپێش
زەری
##ەکەری
##شتیوانی
دەگرین
شوێنانەی
داخوازییەکانی
بۆس
##اکرێت
مانایەی
الث
ئازادە
لەحاڵ
یەکخستنی
##یستە
خۆشناو
خولێکی
تێز
پاشای
هەیانە
جیاوازدا
ئیمزای
بزووتنەو
ڕۆژنامەگەریی
وەزارەتەکان
بەبەراورد
ئاماژەم
گۆن
##یدایە
ڕاشکاوانە
پاپ
سزاو
پسپۆری
ئەرج
پێکدادانی
دێرسیم
##ەسـت
لەباری
یەکگرتوەکان
ڕزق
##لاش
ڕەحمەت
لەبەڕێو
کەرنەڤ
لەرێی
بابەتێک
تایفی
ڕابگرێت
لەرۆژی
کۆرپ
سەلماندنی
##ۆپی
##هاتوون
دراما
ڕاپۆرتە
##خوازیی
کراوەتە
بەگەڕ
##بینن
حەشار
کەشت
بەپێویستی
ئاشتەوایی
کۆنەپەر
بیروباوەڕی
عەمم
لەگەڵیاندا
حزبایەتی
دەمێننەوە
لێبێت
یاریزانێکی
##پێدان
پۆزەتیڤ
##لاد
ناوچەکەی
##ئاوای
عەبدولمەهدی
گەشتوگوزار
زەل
بەرەبەیانی
##انەیەکی
کەسەکان
بەردەوامبوونی
پەیوەندیەکی
خوێنەران
##گادا
##ەدەم
قائیم
##شه
##عەد
ئەنجامبدرێت
##زانم
##بەستن
1975
عەمەلی
لەناوچەکانی
بام
سیڤی
وأ
کاز
دەستپێب
##uary
190
ئارارات
ترین
فرس
چڵ
##تدا
##جەر
خەڵکەکە
چو
کەمن
بەمەرجێک
پێوەی
موخ
ئەنجامیان
##دەوڵەتی
دەخرێتە
دەکەوێته
نواندن
دڵڕ
پڕۆژەیەک
ڕێگەو
هێزەکان
##ـتا
700
##ریی
##درێژ
ڕیشەیی
##ەرتی
##انیت
ڕاگەیاندنەکان
لەیەکێک
گریمان
ڤه
##ًا
بەسەریدا
ڕۆڵیان
ناوەندەکانی
مِنْ
##ییانی
##اکەش
کەسایەتییە
وێڵ
##ەوەکان
یەع
داستان
دەیەی
لیژنەکە
دابڕێن
بووبوو
سکۆت
زەمینە
##ماڵی
##ەکەوه
دەمو
ئەمنیەکانی
دەروێش
69
قسەیەکی
ڕادەکێش
ئاستێک
لەبارەوە
86
گۆری
خوە
##گران
هەوڵدەدات
بەدیار
ڤاڵ
##اهیرە
ڕوح
ڕەخنەگرتن
##ۆشن
ئەرد
بەسەرچوو
توێژەر
گەمارۆی
خوی
قەناعەت
بەپی
ڕاچ
گرتە
الإ
پێکەوەژیان
بەرزنرخ
##ەوەز
##ریا
##رایەر
دیاریکراودا
##راف
نەقش
کرۆ
##خە
ئە‌
گەیاندووە
بڵاوکردۆتەوە
جێبەجێی
83
لو
یەپەگە
##روستی
ئامادەیه
مەعسوم
شۆفێری
##ەوس
دەرک
لەوانەیه
دامودەزگا
ڕێگەیەکی
هەژاران
سۆسیالیستی
##هاو
##ra
جێبەجێن
ڕوونە
دەڕۆن
هەڵوێستەی
لەخۆیدا
لەهەوڵ
مووسڵ
بکاتەوەو
سەرکۆماری
شەمەند
##ووشی
زیات
ناکاتەوە
ڕەنگاو
خۆماندا
پاساوی
##ort
تەرخانکراوە
ئەجێندای
کەمان
##ەرد
ناونیشان
دەبرێت
دەستکرد
دەستگیرکراون
میهرەبانی
پەروەردگاریان
##لێکی
##ڤێ
بەرێ
##ەلەرز
وەرن
عەبد
نەبووەو
تاقمە
خستەسەر
یۆڤان
##کردنه
قەزا
گورگ
داگیرکەران
گەمژ
کلاسیکی
پاڵن
کامل
عەرەبیدا
بەخوێند
جەعفەری
لەئەنجامدا
88
حیزبەکەی
وەزارەتەکانی
جۆراوجۆرەکانی
ئەنفالکراوان
##ەڵێت
کەف
دووک
##کردندا
لەدەسەڵات
ناسر
ڕووداوه
##فرۆشی
as
##پڵ
##ازدەی
پـۆلی
پێشەوا
بیکات
##ەیدا
ناوێکی
سیح
بێئەوەی
گرتوە
دڵنیاییەوە
نەجیب
تێوەگ
فەب
نازی
کەبەر
ڕۆمانە
بەکۆم
هەڵبژاردنێکی
ڕواڵ
شۆڕشە
##ـتانی
لەیلا
لێخۆش
کلاسیک
ئەلفوب
##لق
فەرمانەکانی
پین
دەداتە
زەین
لەکەم
دووپاتیکردەوە
تێیاندا
سێدارە
ستۆکه
پشتیان
کۆڵان
ژاپۆنی
کرو
##شتێک
##اندنە
میدیایی
بەقەد
هەمەلایەن
هەوای
زەحمەتە
شۆک
پێبەخش
دەنـگیـیانەی
خوالێخۆشبوو
##کەدا
سایک
بدۆزێتەوە
لەڕا
دەگەڕێت
چیرۆکە
هەمبەر
دانەن
بەڕێوەبردن
کەربەلا
##20
ئەکرەم
دۆخەکە
1979
کەپێویست
##زخورم
ڕووبدات
ڕەوەندی
شایست
ڕێنماییەکانی
شاجوانی
چیا
ئۆتۆن
چاودێریکردنی
فریای
خۆبەخش
بەلجیکا
ڕاپـۆرت
عەن
پس
دەسکەوت
ڕەخنەو
خوارەوەی
چەکدارێکی
##یەکاندا
##ov
ئەگەرنا
جیابوونەوە
##رب
شێواندنی
جەختیان
دابونەری
مۆدێلی
دەبیست
گوڕ
لەباک
ڕووداوانە
گروپه
کۆبونەوە
کالی
##گەدا
ڕادەگەیەنێت
دواخرا
نەکەیت
گێژ
##وانگەی
هاولاتی
ئامێز
نەتەوەییەکان
نامرۆڤ
هەنووک
گیرا
کۆبوونەوەکەی
نیشتەجێی
دابڕاوەکان
لەچەندین
ئەهل
##بەشانی
کەزۆر
چیمەن
دەنێن
گفتوگۆکانی
حمە
هەشتەمی
سه
فت
خۆمانی
بمێننەوە
گۆرانکاری
بەتۆمەتی
لاری
لێش
لێق
##گرتنە
##خۆم
هەستە
زیاتریش
##ine
مەعریف
ئێستاو
ملیارو
دەستکەوتەکانی
ڕوخساری
مج
تێپەڕاندنی
دۆڵ
فارو
هیر
هالی
لێپرسینەوەی
بمێنێت
نائارامی
پێید
##زانن
دەرفەتێکی
سوێن
ڕاستیەکان
ئۆتۆمبیلی
ڕژێمەکەی
کایە
بەرفراوانی
سەدی
دەهێنرێت
وەزارەتە
ین
##تیان
##ڵاوە
دیوە
##14
##اندو
دیاریی
دەستەوە
کەمەوە
باخی
ئەلج
بەرزە
ڕێکخراوەکە
هەناسەی
##arch
هەناسە
گێل
##لک
بەئاژانسی
لیستەکەی
##لیپ
##ەهای
نیوان
هەستان
سازکردنی
فۆک
##ەمەی
بەرێک
ڕاپۆڕ
ڕەزامەندیی
pr
##خا
##ەزا
حکومەتیش
خۆشمان
ئیز
سەرنووسەری
کاپ
##ەتێ
بۆوە
لێدەکەوێتەوە
گرفتەکان
دەکوژرێن
گاڵتەج
ئەرسناڵ
بەڕەسمی
بەشێکن
جوتیار
کۆمەڵگاو
کپ
##ێژێت
نوح
نەبی
##ینیت
وەربگیردرێت
دانیشتنەکانی
بێزاری
##لایەنی
بەخشین
دەبینیت
##ێندەر
بەکۆی
فەه
##ارانەی
##اسەی
بەردەمی
دەکرێتە
زووترین
##گەکەی
وەسفی
شاراوە
دانیشتووان
##ائیل
##خەری
تێکستی
##اڵەکانی
ئەمساڵی
ناوەندیی
جۆرەها
جیاوازییەکی
گفتوگۆک
نووسەرو
میدیاک
پابەندبوون
ئێجگار
بەهرەمەند
بوک
ڕەوشتی
ڕایگەیاندبوو
ڕێگەیەوە
نەمسا
تاوانبارانی
کۆنەپەرست
عەممار
قیر
وابێت
##خەی
##یندا
ئەبین
بابەتەکانی
ڕم
دەستەیەک
حەیدەری
کۆنسێر
زنجیره
ژیری
بەرای
##رێکی
دیزاین
قایل
بەشێکیان
##ەبا
لەماوەیەکی
گۆڕانە
تێکچوونی
ڕۆژنامەنوسی
ئینگلتەرا
خەتی
##ەستن
لەبەرانبەر
##کوتی
مێژووییە
ڕاگەیاندنەکانی
زەبەلاح
گوتویەتی
کارئاسانی
فۆر
قەش
وامان
ڕاگەیەنراو
دیکۆمێنت
ڕۆژێکدا
نەتوانن
سەنگاوی
دەیب
##ڕەوە
کەوابوو
ئەمنیەکان
لادن
بدۆزنەوە
هێنانەدی
پڕۆسەی
ئوتوم
تق
##‌ن
دووبەر
شانبەشانی
پەیوەندیە
بڕیارەکە
قەرەبووکردنەوەی
خۆکوشتن
##وەکانی
مەتری
ڕاپۆرتەکە
##18
کەمبوونەوەی
توانایی
بالا
بنەڕەت
تایمز
گوێز
توانرا
توێژەکانی
ڕسول
باقی
دێو
لەگەڵیان
تەوەر
هێنانە
سەددام
##رەف
##لوو
ناگەڕ
باڵەخانەی
دەستەبەرکردنی
##عد
چەکدارە
دەگەڕێنەوە
بتوانم
ئەکادیمیای
جگەلەوەی
##ەدەکات
دەستێوەردانی
لەهەمبەر
دەرببڕ
##گرنگی
دەکردن
بارەگاکانی
ڕِا
تەکنەلۆژیای
هەڵکش
دۆنم
لەوەودوا
هەق
ساڵەکانی
قوربانیی
گفتوگۆو
شێوه
##لولی
##ەکەى
##بووەو
ستەمی
دیموکراسیەت
In
فۆلکل
تێنە
##ودە
بەرازیلی
خەڵاته
بەعسییەکان
کەمئەندامان
ئایەتەکانی
لایەنانەی
دەگەن
نامەیەک
شێعرە
ناسیۆنالیزمی
سانس
##ۆو
##ێتر
باڵاکانی
ئازادانە
##اپۆرت
بەشێوازی
سەرەتاوە
موتڵ
پۆت
یەد
بۆلای
باسێکی
خۆشەویستیی
سەندیک
هۆتێل
##ستا
سەرەخۆشی
##ەخواز
##خوازان
ڕادەست
لەتەمەنی
ئەستێرە
لەزانکۆی
##ایەتییەکانی
بەکارهێناوە
چاودێران
هاوئ
گرتو
ئاسا
دەمەی
زەرەرمەند
ئاوازدان
تەکنەلۆژیا
زاو
هەڵدەبژێر
کوردیەکان
فازڵ
شڵ
سەرچاوەکە
1980
مسۆگەرکردنی
شەوێک
شەممەی
##ۆرینەی
##اوەنی
یەکپار
##ەسەی
پارێزگەها
قەڵادزێ
سەرکەوتنیان
یۆرانی
فەیسبووک
79
جون
کەمترە
##رەحمان
بارودۆخێکی
سکاڵا
##زەکردنی
یادەوەر
سەرا
##یانەو
لەمیس
پەرۆشی
دادەخ
شیعه
##ـتان
##مانه
##وکاری
باوەش
مەقام
مەدا
لێکراوە
##انەوەیە
کوشتار
بانگەشە
سەرکوتکردنی
##ریدی
خۆمم
جەماوەریی
بچووکی
برسێتی
ئامادەکرد
خەونە
دێرینی
800
##ڕایی
بارزان
بیب
سەرنجڕاکێش
کەواته
##بوی
##ـان
بەبیر
سزایەکی
##ێگەیشت
بیریان
چاکساز
سەما
ئەکەین
##بۆری
سوار
نازم
##‌شەممه
سەرەرای
دەڕوانێت
99
##هانی
##ژێت
##گوڕ
##کوردستان
84
##گەلە
لەسەرەوە
##ەُ
ئیسلامیدا
بزانە
مەلای
##اریا
لەوی
##دەوام
بەسرە
کوڕان
زیاتریان
ئێراقی
ناڕاستەوخۆ
مێزی
پێشوودا
ئیله
شارێک
##ەییەکان
فەبرایەر
##وڵی
ناساندن
بەشێوازێکی
دەستپێشخەری
##رام
بەڕێزیان
چۆتە
قورسە
##خال
مێردەکەی
ساتە
##بەرایەتی
##لایەنە
کەڵکی
سەربەرزی
تەری
##شـتی
##ەترسی
دەژم
بهێڵ
##ۆیەک
هەڵدەس
مەشقی
##ابردوودا
##17
هەرێمێکی
تایبەتیان
پێیدا
ئۆتۆمبێلێک
دوژمنایەتی
سروشتییەکان
هەلوێست
##گین
ئیدان
نوێکرد
دەسەپ
لەبڕی
بەپەی
گۆڕانکارییە
##ەگەڵ
##رنا
##ترێ
مێژوون
کەمئەندام
ڕووخاندنی
هەژموونی
گوشاری
##ەنگە
یانەکان
دوورخستنەوەی
واتایەکی
شێرپەنجە
حاز
بۆکان
##ابینی
پێنوس
##وڵڵا
عەبدولعەزیز
سایکۆلۆژی
##گرام
قورسی
سەرەکیەکانی
سەردانێکی
1970
##net
##ودجەی
##چوونە
نارەزایی
مەشه
پانتای
de
##ubli
ئۆز
برۆ
سەروو
ڕۆن
##ۆچکەی
ئامانجێکی
وەرگرتنەوەی
لێوەرب
شەقامەکانی
82
##ُل
ئیتاڵیا
گیروگرفت
##دەزانی
##عەتی
لێکدان
فریاکەوتن
یانیش
##ْر
کەع
ئەمجۆرە
کۆرِ
نەورۆ
بریندارەکان
قەیرانێکی
فیت
##نوس
فیلمەکەی
پاککردنەوەی
گۆشەی
لەسێدارەدانی
ئەفغانی
پەرچ
پەرستی
دەڵێ
بەخشن
گیرفانی
گوو
هەندێکجار
##گەیەنرێت
##بونەوە
قوباد
نییەل
##موکراسی
##ادار
کردۆتەوه
##یداو
ئاوێنەی
##atur
دەستکەوتێکی
یەکەوە
هەرچۆن
بوێت
پێنجەمی
جگەرە
هەناردەی
##وازی
دنیایە
قەڵای
کوشتووە
نییەبۆ
مانچستەریۆن
دیزاینی
##وتاب
سەرۆککۆم
دانەب
پێشمەرگەدا
دەربڕیوە
بۆمبڕێژکراو
1000
##ێشتر
لەلیستی
ئەنتەرمیلان
##گێرانی
##روپا
بەزۆری
حەت
لّ
##گرد
لێیە
دوێنێی
Al
جاسم
ڕێژی
دەڕۆ
درێ
بەرەوڕووی
هەفته
خۆشیەوە
پەنجەر
دێموکراسیی
##سار
##ڵاوی
فێرکردن
بنیاد
##ێوەردان
##‌ا
دیکەشەوە
هەڵدەگرێت
##وشت
##امۆست
کەلتور
ڕادەیەکی
پارەیەی
قەتی
خەڵکیان
لەسەرەتادا
چۆل
##کردووەتەوە
نێوخۆ
تۆدا
هەنگاوەی
##ارێت
لەژیان
لەساڵانی
حەوی
##ێنج
داخست
ڕێگەگرتن
##ەدام
ترمان
مایکل
تۆتالی
بادی
##وێنە
##باڵ
کۆمونی
ئامادەکردن
زنجیرەیەک
##10
لەپی
بۆنە
بەئەزم
تاوانێکی
##لۆپی
إلی
##ووف
##گەیەک
بەڵگەیەکی
الف
سەریهەڵ
خۆپێشاندان
ئێواران
شکاند
بەنداوی
کۆمۆنیزم
غەیر
##36
هەمی
بدرێن
گوتمان
لاوازە
سەدە
ئەفسانە
فاروق
کچەکەی
سەنگەری
لێکۆڵەر
شاردنەوەی
کارانەی
##رۆژ
چاوەکانی
هۆیەوه
خزمەتێکی
تۆماربکات
ژەنی
##سات
لەمبار
ئازارو
گرنگییەکی
##بوڵی
جەواد
گوێبیستی
پڕوپاگەندەی
##اسیی
##ەدەری
##سیل
عێراقێکی
پارکی
جیم
ببەخشێت
هێشتنەوەی
شیرینی
نیزامی
##لەند
##iz
داون
##خۆشک
گشتییەکانی
پەیمانگا
سەلم
سەعدییە
قسه
ئەکا
ئەسڵ
بەرخو
##ەشمان
هەبن
گۆڕاوە
شانازیی
بەغداد
کۆبوونەوه
ئەقڵی
ام
بگەین
##کەفت
بیمەی
##بکەم
مەرجێک
##اوازی
هەرد
##ۆیشت
ڕامیاریی
چالاکوانانی
##ارک
##رور
شوێنه
بازاڕەکانی
داگیرکەرانی
هاید
پایەی
##لینی
کاربکەن
دۆلارە
ئیدریس
سـاڵ
ئیحسان
موم
نەئ
##اراستنی
ڕوبەڕوی
بایکۆت
96
##ۆگرافی
لەڕێک
پارتەکەی
سەپاند
شاکر
پورتوگ
ئەری
بەکاریان
##ەسەلەی
تۆقاندن
##وەت
##ڕۆک
##ڕێتەوە
##وربانی
ئەمساڵیش
سوتەمەنی
##بکەینەوە
##چک
لێـ
##ییەکانمان
دۆڵی
لەشێو
بداتە
وتەکانی
کتێبەکانی
ڕەچ
تاوتوێکرد
سەیدسادق
ڕێزلێنان
مۆندیالی
ئاستەی
##ریە
لەمافی
ئازایەتی
لەئەو
دەمام
کراوی
##‌ب
##اڵێکی
پێدەب
بیرە
کەنار
گەندەڵیی
بێگەرد
##دز
##هین
بەرۆژ
بهێته
پاڵی
لەڕۆ
دەوامی
مۆسیقا
kurdistan
خەڵکانێک
زانیاریانەی
ئەنجوومەن
قیام
هاوکێشە
مشتومڕ
##باو
##22
ئازادو
ئەوەشکرد
بروس
ستاندارد
ڕەمەز
##ژەنتین
##ستۆ
ڕەوانە
بەهێزترین
##ەرکی
سەربەستی
ژنەکەی
نەدراوە
بەزووترین
هەڤپەی
گوێگرتن
دەستکەوتە
ئاماژەشیدا
بەرپرسیاریەتی
##اکەم
پەرۆش
بارو
87
عەزی
##iew
##سیری
هێنایەوە
سـاز
کادیر
فیدڕاڵ
وکاری
##یەوه
##ەریی
##حمن
باڵاو
بەرێوەبەر
##وڵاتە
پاڵەوانیتیه
##کاتیشدا
##ڵەی
بوویت
دەخایەنێت
بەهەمانشێوە
خەلیفە
ئەگەڕ
##ۆلا
##ers
بەرخۆ
##لیتاری
نەکراون
لاپەر
لەیەکێتی
گۆڕانکارییەکانی
پیادەی
هێناوەو
تەراز
جلوبەرگی
##سکۆ
گەردی
مامەڵەیان
دادگایەکی
نەتەوەکان
تاراو
خاتری
هەقی
ئیستی
دەیبینین
کاتێکدایە
##ابیلی
کیس
تەسک
شاهۆ
##گڵ
دەرخستنی
0770
پیادەکردنی
##دیای
##ایەتییەکی
بەخەڵکی
##روت
ئەوەیشی
##زیاتر
بەشه
مامەند
دەخرێت
ڕاپۆڕتی
##نەهێن
##ارەکە
خراپترین
سینەماکارانی
ڕوونکردنەوەیەک
میترۆ
ئۆپەراسیۆن
98
چاوە
ئاسەو
جێگە
1998
پەیمانگەی
دانوستاندن
##اشترین
سەختە
بەسەرۆکایەتیی
سوون
##رەوی
##19
##وولی
گوی
جیاد
نادروست
##ac
هەبو
باشه
ناساند
سینەماکانی
هەبووه
یارییەدا
ناگەیەنێت
بەوپێی
قسانە
یاخ
ئەبوو
##گەلێک
مەسیحییەکان
سکی
دووان
بارودۆخەی
یەکێتییە
هەوادارانی
زەیت
##تۆس
هاورێ
جۆرێکە
دڵنیابن
بیانوی
فرانک
بردوو
بایرن
پێشمەرگایەتی
##گەوە
##um
##وویت
لەئاس
کەڵەک
بەواتای
لۆس
ڕفیق
هەڵگەڕ
لەسەرۆک
##ودۆخی
تێدەپەڕێت
ڕاستگۆیی
هەڵاو
لەکۆت
لەهەند
دەیویست
هۆنراو
فیست
##لة
ڕەواندزی
ڕایگەیاندووه
دیوان
دەسەڵاتەوە
پشتڕاست
نوسراوە
ڕۆمانەکە
دیکتاتۆرییەت
مەودای
پێرس
##igh
دەستگیرکرد
لەفر
هەڵبژاردنەکاندا
ئیمامی
تەگەر
مەرامی
کیشوەر
ئاوو
هاوتا
##ەیەکەوە
نزیکەوە
پڕۆژەیاسای
دەقێکی
##ەربای
شەهرام
شمشێر
لة
بەردەستی
ئەنجامه
هاوشانی
باوی
##ەرن
##ۆکەکان
دەمێک
ناوەراستی
لۆژیک
پێداچوونەوە
تۆکمە
لێدوانەی
لەئەندامانی
هاونیشت
بوونەو
ئەنجامدەدرێت
قسەیە
ئەسڵی
##کارو
ڕیسو
خوێنەرانی
بۆنموونە
بفرۆش
##کارێکی
لەناوچەکە
چەکە
بۆخۆیان
##لیای
پرسیارەکە
##لاتیان
مەترسییەکانی
جەزائیر
فِی
قاهیر
چێنراو
مەزنە
گاڵتە
هەڵسوڕاوی
گەشەسەندنی
جێم
ڕقی
لەزیاد
هیتل
دروستبووە
دایان
ڕەسول
تیرۆرستی
ڕۆژانەدا
##ێیدا
سالم
دادەبەز
##مۆ
گۆرانیی
1996
لیژنەکانی
تەوافوقی
شەونم
##شا
##لەک
ناجێ
##ەورە
هۆشیاریی
بۆچوونەکانی
پەروەردگارتان
ئیفلی
درۆزن
یۆتۆبۆری
##گۆی
ڕۆلی
پێشووت
سولەی
نەچوو
ئاگایی
پیلانگ
فەیسبوک
ئاخاوتن
ئەولەوی
زادەی
پارک
ئامارێکی
ئیمپری
هاوپەیمانەکانی
دیمەنەکانی
هەڵگیرس
گشتیدا
نەبێتە
نووسینە
ئەسکەند
کیژ
ڕێکخستنەکانی
1987
نایانەوێت
لەناکاو
سەراسەری
لێدە
لەراستیدا
پەنجە
بف
جانت
پا
دەگری
ناداد
پێکهێناوە
درێژەدان
پەرلەمانتارە
لەزین
بگۆڕن
دەموچاو
##رج
##rt
دەکەوت
پیتی
##کۆتی
کورِ
ئەشکەوت
کۆمەڵایەتییە
ڕەبی
##ُّ
##ەیران
ناسنامە
زاخو
پردێ
##بەز
درۆی
ڕێکخراوەی
حوکووم
سانت
##تار
##ێهر
##عل
##ِەِ
بکش
بووژ
موسوڵمان
ڕێکخستنەوەی
وەستانی
چرکە
جێناک
##لەکار
قانونی
وەرچەرخان
لەسەرکرد
##مینی
##کردنەوەیەکی
بازاری
نزیکبوونەوەی
میللەتەکەمان
##وڵاتانی
نائومێدی
هالیوود
وانییە
دە‌
کرابوون
هەردووک
پێشووتر
واشنتۆن
Fri
قاهیرە
بناری
ملیارد
ناردووە
هیندی
بست
##شتەی
##اوەیس
هەفتەیه
سوم
عبد
کارەکە
وتووە
دەخەن
نیین
لەخەڵکی
تێکۆشەر
زانکۆکان
ەو
بەراو
نەتەوەییە
نەدی
تەعریب
مەغریب
بزانیت
زاتی
دەستڕ
الد
##یەکانەوە
خانمان
کردۆته
بیک
قەرەتە
بچوکی
تورکەکان
جەنگێکی
بایەخێکی
چەشنی
ناڤێ
جم
گێمی
##جه
هاوکاتی
##گیانی
ئاواتی
تیڤی
ئەدای
سەرکردەو
فێربوونی
سنورەکانی
تەوەرێکی
تەقە
ئەبێتە
توندڕەوی
##وویان
بەبۆچوونی
دیارترین
هەڵپەسێرد
مص
بە‌
ئەمیری
##ادات
##رینە
لەکتێب
شتێکە
دەربکەوێت
زانیوە
##ەوری
ئینت
ئەیلولی
کتێبه
گوندێکی
چەوری
قێزەون
میش
وار
شتێکدا
میرانی
پراکتیکی
##لەم
پێویستیمان
ئیرادە
سنوورە
محم
##پێد
کوردێکی
سیل
##بووه
##کەیت
هەستێکی
شـار
مانچستەرسیتی
St
عە
##سیاسی
##ەسـتی
هەموومانە
بینەران
ئەسعەد
هونەرمەندێکی
چالاکیەکانی
ناوەرۆک
بەتوانا
is
نەقیب
بوین
ئاسانە
پارتیدا
دیکەیە
بکەینە
گرنگیدان
تازەپ
پەروەرده
ئاژانسەکان
خستنەڕووی
جود
##نێک
پەیوەندییه
ڕوونیکردەوه
بەیەکێک
##عم
##حق
##اوەیی
ڕێـک
##ییەکانە
کێشاوە
پیاوەکانی
مێینە
کردەوەو
مەحاڵ
ئورد
دوبەی
ئارادایە
جیاوازیان
دامەزرا
لەئێستاشدا
سوێندی
ئەلس
##هەلات
ژەهراوی
عم
قەسی
هۆم
##ڤانی
##اواز
##ەمێرد
##ەوەیان
دەربکات
بەجێب
##رایەوه
قایمقام
##دراو
##وبەندی
پشێوی
هەمویان
هێڵە
سەرکوتی
پێدەدرێت
ڕۆژا
نیت
دەگەڕێن
کۆتاییان
زوم
زەمینی
فات
شارەکەی
شاعیرانی
ناوزەد
نایەکسانی
حور
##35
عێراقەوه
شارەکه
ئاماژەمان
دانیان
حسین
گەشتیاران
بگەیەنن
پێگەیاندنی
زیندەو
1994
خوێندنەوەیەکی
هەڵوەشانەوەی
##اوین
کەرەستە
هێرشکردنە
گفتوگۆیەک
گرتنەبەری
مۆدێرنی
حیس
نەخو
بزانرێت
##وەڕۆی
##زار
##گیراوە
نەهێڵ
پیشانی
ڕێورەس
مریشک
##چووی
بەرزتر
ستەمکاران
فەرموود
نێردراوە
قەف
ئەمەریکادا
بەناچاری
##زەر
##چین
##ێوه
دنیایەکی
سەرەتاکانی
دیاربەکر
گەیشتنه
قارەمانی
لەبنەڕ
کێڵگەی
یەخەی
خۆپـیشـاند
##شتاین
تریشی
داعشدا
هەناوی
حەمەڕەش
بەفیڕۆ
چێندراو
##ەما
##ەقە
نادا
دەریایی
ڕاپۆرتەکەی
هێما
قابیلی
##ودەی
فێربوون
تێکەڵاو
توڕەیی
لەگەڕەکی
##وونەوە
پارتەکانی
شانۆکار
بنبڕکردنی
##ایێ
بارم
مەترسیدارە
ئێسک
قەدری
دری
##وندوتی
شاعیران
موزایەدەی
سست
بەدەیان
شیعەی
هێلی
شارەزایان
ئەفریق
کادری
فلمێ
نزار
##‌احمد
وەت
##گایە
خودایە
بەدب
بەدەنگی
##ووسین
بەغداوە
لەخۆیان
ڕوداوەکانی
مەعریفی
میلیشیا
لەئارادایە
بوختان
نەقشبەندی
براوە
##ەره
کەسێکیش
ئاسەواری
تیمێکی
تۆزێک
##ندەی
##عەلی
##گیرێ
ڕووبەرِ
ئازەربای
شوێنانە
هێرشه
تکریت
مۆم
##eed
ببینە
ژنانەی
##پرسانی
تێبگەن
1997
##وەوە
##ەنەی
داستانی
بەشوێن
عەرەبستانی
##ومان
بێته
بەرِێوەدە
کز
##ارەو
##ەڵا
دەولەت
خۆیانن
نامان
پێکهاتەیەکی
##and
شێوازێک
ئیب
سوڕ
بوەتە
نەبرد
##یتەوە
##کارییەکانی
فریا
##بینم
مەخمور
خەست
وەهای
چێژی
ڕێپێو
حیزبانە
نابەر
نەوتە
##ik
پێکد
لەرا
هەبووبێت
لەبەیاننامەیەکدا
سـی
##nes
کۆڕی
##ۆڵم
سەلەفی
دەخوات
خوایەکی
دوورن
زانستیی
ئەمریکاش
تانک
حەڵاڵ
چاڤ
##داخ
نێوی
بڕیارو
ئەتوان
بەلایەنی
تێناگ
مۆسیقای
خەبەر
قەبوو
##ەبونی
ئەپر
##ەستێت
ئۆد
نەکردن
داگیرکاری
دەهێنێتەوە
گومانلێکراو
فەڕەنسی
دوم
نق
ولا
فەرمانبەری
احمد
شەل
وف
مەبەسته
ئاشتیخواز
گونجاوە
##ەروەها
بەرتەسک
دێی
مەق
سەرپ
بێدار
ژمارەیە
1993
پۆسته
قۆناخ
ماج
هۆزی
بۆئەو
سەرای
دەرس
110
##بێرگ
کتو
خۆیانیان
کرایەوه
گفتوگۆکه
سەرەکییە
دەگەرێتەوە
حاشا
##وپێک
##49
ناگۆڕ
دروستبونی
هەشتی
لێکتر
##ژمێر
وەرگێڕان
ڕونیکردەوە
بەکردەوە
ڕاسی
##گەش
پێبکات
دووجار
کەسێ
لایەکەوە
کەمیی
هەندەران
بەدەستهێن
مارسی
یارمەت
لەخۆدەگرێت
عەقڵانی
یەکڕیزیی
هەوە
##ووق
##ۆرا
کەلێن
عین
پەتی
ئێرانە
پاشایەتی
لەدڵ
بەزۆرینەی
وەهم
تەقینەوەکانی
ڕەخساندنی
ئەچێت
##اتیا
پەیامە
کەوتەوە
سایکۆل
بق
بنێین
ناسنام
##اداری
هەولی
لەکێش
بارێکی
##اندنێ
فیزی
بەستووە
گروپێک
ئۆپۆزیسیۆنی
ڕێککەوتنە
پەرلەمانە
کەناڵێکی
ڕێگەچارەی
Friday
چاندنی
بەشەر
چونە
کارەساتێکی
##ترینی
سەرنجە
دەگێڕێت
ڤایرۆ
Mon
پڕۆژەکەی
سانتی
ژەنەڕ
##ەوین
##اندز
ڕۆژنامەیەکی
ئەڤین
fal
بانی
گورج
هێناوەتە
عەشیرەت
شن
##اکەمان
لەیاریی
گێڕانەوە
##یانەیە
پێستی
کێشەکانیان
##اکانمان
پشکداری
71
##دەیەکی
##زادە
بۆل
براکەی
مامۆستایەکی
##حکومەت
تەنگژ
جوگرافیای
فرۆکەخانەی
لێقەوم
زەه
##اوەکەی
لەرز
تیرۆرستان
هاریکاریی
مەعریفە
ئاسوودەیی
کازم
تاوانباری
خەوی
خۆری
بەڵگه
لەناوی
مەبەستمان
خولەکه
نەیار
قەبوڵ
قاچاخ
##راد
##خەن
##40
کۆیی
پێڵاو
گوتە
لێسەند
بیروبۆچوون
هەتی
##تێ
##ەکانەوه
فرەژ
تەقاند
نەدەب
ناشار
ئێکێ
جیان
ساڵانێکی
پێکراوە
دواڕۆژ
پەیمانگاکان
لایەنگر
جولەکە
چەتری
لەوکاتەدا
##کەرە
تۆمارکردووە
عەبدولرەحمان
فەیلی
بەکرد
داس
کوالی
سیستانی
ئامادەین
پەرلەمانیش
خاڵێک
کەسوکار
وتارەکەی
یەکێتیش
لەسێدارەدان
بات
##ێخ
پاکستانی
بهێنێتە
##ublish
ڕۆما
پەرەپێدان
کۆتاییهێنان
کاریگەرییان
دهۆکی
بەیاننامەکەدا
##بای
حیزبێکی
بگاته
بڕیاریان
وەڵامێکی
گیانل
بەرشەلۆن
بەحرەین
بەنگ
##قان
کرایە
لێدێت
##چوونەوەی
هێرشبەری
خزمەتکردن
ماڵپەرِی
خویند
وەرگر
100000
نەخۆشییەکانی
کامە
پاڵێوراوی
پێداچوونەوەی
بترسن
##دم
چەندی
مەیلی
حەڤدەی
عومەری
جورئ
خیت
وادی
ناوچەیەدا
ڕەوشە
دەسەلمێنێت
ئەفسەرێکی
##زینی
بەپشت
ناهێڵێت
عبدالر
فەتح
دانیشتوانەکەی
پرنسیپی
دڵەڕاوکێ
ئامێدی
##وتین
کێشا
هاوبیر
گرفتێکی
ژوورەوە
false
دکەت
کۆمە
میوە
ناڕاز
هونەرییەکانی
ئامادەبوو
هەڕەشەکانی
کەشێکی
ئۆمەران
مومار
ئەمانەی
بەلاوە
تاقم
گەمە
##خانەو
##دەوڵەت
خەلات
شەریک
بنەڕەتدا
حیکایەت
یادە
ڕۆژوو
لەپڕ
تەواویان
دەردەکەوێ
لەمانە
لەیەکتری
##ازانجی
##داهات
ئینج
مانگدا
مەنووچ
سەربازێکی
شۆڕشگێڕی
ئەلعێراقیه
ساکار
فەس
##مەنی
##انداوە
##ساڵدا
توێژینەوەیەکی
دەپارێزێت
نج
شاردا
بەنێو
نامەوێت
چرک
چووم
##فۆر
##KK
خومەی
ناحکوم
گەورەکەی
سێپت
یاسایه
دەکوژێت
زامن
بێشکچی
فتو
هێڕ
خوشکی
هەڵەو
##ەخۆی
حکومڕانی
کاتێکدایه
ئاشکرایان
تاقیکردنەوە
ئەشکەنجە
ڕاگەیەنرا
لوقمان
91
ئەور
##وتە
سیاسیش
بەبەشداری
خانووبەرە
سەره
ناوەکەی
نەبووه
ڕەح
بچینە
سونە
چەوساندنەوەی
خەتەنەکردنی
دەوڵەمەندی
##ەتەوەی
چاککردنی
دەیانوت
دیکەیش
کامکار
##بەڕێو
زانیارییانەی
حەقە
##سـتانی
مۆل
##اکاری
مرۆڤەوە
توانایەکی
پێشکەوتووی
ڕیشەی
شەرعییەت
دەستەب
پیرەمێرد
هەستیان
خوش
هەوێنی
تیۆر
گرنگیان
کۆنگرەکە
فرو
گوتەیەکی
News
عِ
دەرکردووە
کەمینە
##گیرا
مامناو
ستار
دەترسن
92
زادە
##فیش
##خرێت
پێکان
##ۆمێنتی
ئیسلامە
تێبپەڕ
##پارێزی
##37
گەورەدا
بابە
پرسیارانە
دراوه
یەکیەتیی
هاندەرانی
حەقیقەتی
دن
##خراوە
##30
لەچارەسەر
شاخەوان
ئیقلیمی
سوب
بەردەوامه
پیشانگ
سیمین
دۆستەکانی
العرب
چێڵ
##دارەکان
کێشەیان
##وسڵ
ئاماژەیەکی
ئەنجومەنە
قۆناغەی
بینەری
بچکۆل
بونیادی
ئاڕاستە
باژێرێ
ڕایی
بەڕێژەی
پێیەتی
پەیامەکەی
هەڵگرتووە
هاتەوە
180
ئاشتیانە
یەکسانیی
نەگونج
##ust
عەدالەت
##ازەی
##ەکەینەوە
بەڵی
لەگەرم
##ەپەڕ
سکال
ئەمریکییەکان
سـاڵح
رۆژ
##ێکەی
##اکات
توێژەران
دامەزرێنەری
کاربەدەسـتانی
دانووستان
ڤێت
##ەنتین
یەکلا
ناوەک
بنە
بێتاوان
ملیۆنی
لەشەڕ
بینا
بریتانی
سرووشت
ڕادیکاڵ
##اکانە
##رافی
نەبووم
مانگرتنی
##الیکی
جەلاد
##ابان
چیک
بەرچاویان
بەرِێوەبەرایەتی
سمکۆ
کڵێس
جۆز
پری
##ۆیت
داواد
##ایەتییەوە
##کراونەتەوە
هاتووچۆی
پرۆگرامێکی
کن
##گوای
پێکەوەژیانی
1989
بەهۆکاری
سالانی
##ییەکیان
دۆخەی
پیشەساز
بەبەردەوامی
تەقینەوەکەی
لەبازاڕ
ژێردەست
مەنووچێهر
بة
هەڵنە
هاتینه
ڕۆژنامەکان
وتارە
کلتور
میللەتە
گولل
حەمەڕەشید
##port
##دینی
ئێستاوە
کۆنەکان
ئەوانەشی
بیناسازی
ماندو
سۆنگەی
ئێزدییەکان
##ۆتی
نادەین
بەئامانجی
خون
بەڕوونی
خۆرهەڵات
زیندانیانی
سووتان
دزینی
عەز
ڕەب
##اییەکی
حکومەتێک
بیکەن
پێنجشەممه
کلیلی
تشرین
دەنگدەرانی
موکری
##ەویست
##دابوو
دیبە
شوێنکەوت
بەهێزو
سەرەتادا
هەموارکردنەوەی
هەڤپەیڤین
##رة
##لیسی
لایێ
نیۆی
##شنگ
گەیەن
دەمێ
دەسەڵاتدارێتی
خەمخۆری
ئەپرێل
خراون
##منداڵ
##ڕۆسەی
دروستبکات
ڕواە
کۆمەڵایەتیەکان
بەیانیان
گرینگە
تووشبوون
دڵتەز
پتەوت
لەنێوانیاندا
کودەتا
جەڵ
قبوڵی
گوایه
دەستوەر
وێنەکانی
جەنگاوەر
داهاتوویەکی
ئەلبومی
شەراکەتی
تازەپێگەیشت
دەرێ
ناهێنن
وەرگێر
بگوترێت
##ڤیا
بەڕێزتان
##ەتای
ئەمانیش
دەیتوانی
قوربان
نووسینەوەی
خۆمدا
گیراو
فریو
بونەتە
داخە
ڕێوڕەسم
##ڵو
##ضی
بیرکردنەو
منداڵەکە
ئەندامێتی
##اییەی
هەڵق
دووڕ
هەڵبوەش
بکەنەوه
##گیرس
خستنی
سەوزی
بیانوو
ڕەخنەیی
إِنّ
دەرکەوتن
##گراد
ڕێژەیە
خوارەوه
فرۆشت
تائیفی
لویس
ڕوس
بەرپـ
سالانە
بەناونیشانی
خزمەتگوزارییەکان
##ublished
لاه
##گەران
هاتبێت
بارزانیی
دەوڵەتێک
لادانی
ڕۆیشتنی
خەڵاتەکانی
بارهەڵگر
ویەک
##ەکانییەوە
##ەپەر
قسەیەک
لەجێی
فور
##ەتری
کوبانی
بکەت
##ەنگن
##ایبەت
##وردا
لاوەکی
کورستان
##ـیەکەی
پەله
##چەیی
گەشبینی
کراونەتەوە
نەخوازراو
##ەڵەک
داوایەکی
ئاڵت
ناوەرِ
فریشتەکان
ببەستێت
هەمە
ڕایس
##وورە
##لملان
##ێدانە
دیاره
ڕێککەوتنێکی
لادان
دەخوازن
زیندووی
##ترد
##ۆدا
گۆڕانیش
ژیانم
ئەلمانیا
سوودیان
بێژەر
هاورێی
منیان
##ەتیڤی
##کەرەوە
تۆمارکراوە
عەقڵییەتی
کەموکورتی
وەبیرهێنانەوەی
ئومێدەو
تایل
کەبە
##اکسیۆنی
درکاند
بابل
##ولە
داگیرکەری
سەرنو
کولتور
بـ
دۆک
هوت
##ئار
##ئەنجام
##ەگرێت
جوانکاری
دیدارێکی
ئامێرژەنی
نەهێناوە
چاوەروانی
##ەیاندا
##وبی
دادەڕ
تورکیایە
کوێی
کەرامەتی
دانرا
زەردەشتی
قورئانه
ناعەدالەتی
ئارادا
مەدریدی
یارییه
سۆڤ
خوێندنگە
پەیوەندیدارەکانی
شوێنەوار
Se
ئەبی
پێداو
کردوویەتی
##الین
پەرتەو
بەخاک
بایکۆتی
ڕوناکی
1968
سەرشەقام
ساردی
سرووشتی
gmail
ڕاوە
##اڵەی
خۆشتر
##ەڕو
دەستێکی
ساڵانه
پێکردن
ئەنجامەکان
ئەبن
کامپ
گۆڕەپان
گۆم
##اینەوە
هەڵەکانی
ڕەوایە
یەکگرتوی
دایکان
چۆنیەتیی
بیانییەکان
ئینسانەکان
کورسییەکانی
خێری
هەریری
##ابێتەوە
هاوینی
هەندێکیشیان
هێنانەوەی
لێکدانەوە
جیهانییەکان
بخوێنێت
PKK
مۆڕ
##ابر
بووایە
پەیڤ
دڵخۆشی
##دەتوانی
شەرمەزاری
بەگەرمی
زێدی
مود
الذ
گەرەکی
جەلیل
پەرتوک
لەگر
##اکو
##اشین
نابەجێ
بخش
تازەیە
بەرژەوەندیە
فۆڕم
زەنگی
کیان
##ۆڤیچ
##ابووە
تاکەکەسی
باوەڕم
مەبەستیان
دەستگیرکرا
وشەیەکی
لەقەزای
##احیەی
خومەینی
##نتن
کوردمان
دەستلەکار
نواندنی
ڕێڕەوی
ماڵێک
بابەته
پۆستەکەی
سەڵاحەدین
زیاترو
تم
یوون
##ارەیە
خۆج
خۆئاماد
پێنچ
کۆبکاتەوە
ئەلعێراقییە
ئیراق
پێزانی
کارمان
ئازادییەکانی
##لەسەر
ئەدەبیات
لەخول
##ەبوونەوەی
بودجه
چەل
خولە
گەلەک
ڕۆناڵدۆ
لەبوارەکانی
##خالق
هێزەی
هاتووەو
تاکێک
بەبی
دەربەدەر
ئیسلامیە
حەمەس
تایف
کۆنفڕ
لینین
##ێێ
##ۆیا
##خوێن
##گیرێن
داهاتوی
نەمری
سەیرو
لێهاتوو
ئۆرگانی
تۆڕە
دابڕێنراوەکان
چەندێ
بەپێویست
ئامادەکردووە
عەیب
ڕۆژگاری
نەکردووەتەوە
سورەتی
##راندنی
##گەکە
کەمدەر
وڵاتەکە
##دەبن
گوللە
ئەلقاعیدە
ڕستە
لەپڕۆژ
دەهێنا
تاوتوێک
تیمەکانی
##باب
ببەخش
وێنا
گەورەیەی
ئەتات
هۆزان
عوب
لال
کردەوانەی
هێنابوو
بڕگە
مەرجە
تەڵاق
کلینتۆن
تەنێ
کراوەیە
سەرتاپای
ئاغای
الْم
زایینی
هاب
پرو
بچێتەوە
تیرۆرست
هاوڕێیان
##پشتی
بێخ
نەبێتەوە
لەبەرنامەی
پێکهاتەکان
هەفتەیە
بەرێوەدەچێت
هەوڵدەدەین
مەکسیک
کوفر
ئەچ
نیگای
##ردە
نیگ
خستۆت
##کتۆر
ڕەگی
لێکۆڵینەوەیەکی
کەوتوونەتە
لەخزمەتی
کوردییەکاندا
یەکجاری
ئاف
دەنێرێت
دەخاته
ڕەشە
##ەرِوو
پەروەردگارم
پڕی
گات
ئاسۆس
نەبووبێت
بینیم
نەکردبێت
دەردەکەون
مۆرکرد
ترسناکە
وەدی
لێڤەرپ
بەمە
خاڵانەی
پێکهاتوون
خواستە
سەقامگیریی
لەوێشەوە
داق
##ەکەوێت
بوێری
ئازارەکانی
لەشارەکانی
شەوانە
یەکگرتوەکانی
پەشیمانی
نێگەتیڤ
بەلیستی
81
خن
##چه
##دوەر
الّ
لێرەو
شەرەفی
ڕاوبۆ
بەچی
##گەیان
بەهان
جارانی
گەرەک
بەئەند
مخ
کێوی
لەدەوری
ڕۆژنامەکانی
لەسەدا
توێژی
ناوخۆییەکانی
نەرمی
قیامەتدا
##رت
هەرسێ
##دول
پاشانیش
بەنهێنی
کۆنگرەیە
عەبدولح
هەستیاری
ئابوریی
جیاجیاکان
##ەرینی
وەزعی
سلێمانیش
ڕۆژئاوایی
بونە
پووچەڵ
##سانە
##42
##امەکانی
داهاتێکی
بریارە
فیلمەدا
پێمانوایە
ناهەم
کوشندە
##ەبجە
گوتەنی
برینی
کەرکوکیش
خاش
##پێن
##ڵای
##انەمان
بەرۆکی
##وبونەوەی
##ەکەمدا
دەرچووانی
سندوقەکانی
تەلەفیزیۆنی
ئەمانەن
لەشەڕی
گرنگن
نزیکترین
کامڵ
ئیداریی
##ەسەلات
بێوار
بەوپێیەی
هەیان
وەڕ
تایبەته
تیرۆرو
خانەخو
فارسیی
لەعێراقدا
شێل
##ۆستی
دەستەم
کارگە
لێبکات
دۆزرایەوە
ئێرانییەکان
نەجات
ناحیەکانی
بوترێت
قائیمقامی
دیمانەی
دوعا
ئەکاتەوە
Wed
گیری
##ەنیشت
لەند
بگرێتە
##کۆف
دەخەینە
ژیاوە
شیوع
عەبدولموت
لیبراڵ
مانچستەریۆنایتد
کەدەب
##رۆژی
کۆمەڵکوژ
##ترس
دەسپ
نەکەوێت
پێداویستیەکانی
زەبری
##واد
##زەو
دنیابینی
کۆنگرێس
های
وەدەر
دەرون
دەول
بەڕێوه
##ەناس
##ەبووە
##اکۆ
ڕۆک
تێکەڵی
شەوکەت
سالح
شایستە
لێکۆڵینەوەکان
شەخس
##وویانە
##ەله
##ودەست
لەدروستکردنی
ئەوەشیان
ڕێککەوتنێک
گفتوگۆیەکدا
هاوڕێیەتی
شەفافییەت
شاڵاوی
بشار
وێژ
ئەمەو
کوردییەکانی
##راپ
باسکردن
بۆماوەی
دیبلۆماسی
##سـتی
##حد
##ێتییەکی
هاوری
دروستە
توندتر
ڕاپۆرتێک
دەفرۆ
قوتابخانەو
##گێری
##ەکاران
##نینی
##ریف
دوازدە
تێهەڵ
مرۆڤەکانی
ئەکتیڤ
ماوه
مەترسییەکی
##خەڵکی
موحەمەدی
##ۆیان
کوڵ
##کرێ
پڕۆژەیاس
شێروان
ناردنەوەی
ڕێنمای
##nesday
Wednesday
ئارە
شەشی
ئەرِ
خەڵکانێکی
##برالی
لەترسی
it
کاکی
بیرمان
وتنی
کۆمپانیاکە
داواکردنی
خێراتر
ستیڤان
لەوبار
قسەم
گونجاوی
فەریق
دیمۆکراسی
غەیرە
em
وڵاتەکەمان
گوتەبێژ
توێژەری
##urs
بێکار
1974
بەرقەرار
اڵاو
قە
نوسەری
هەمووشیان
هاتبوون
داهاتو
کردەوەیەکی
##غانی
##ێزەکانی
##الاکی
##خوازەکان
شکۆم
هەڕەشەو
کوڕێکی
نابینێت
سەرفراز
خرۆش
##وکمی
بوبێت
نوێنەرایەتیی
چۆنییەتی
##دایی
##َر
ساڵەو
ماوەیەی
##ولا
گۆرانییەکانی
پەسەندی
ببەسترێت
خاوەندارێتی
##یلا
##وتەی
دەسەڵاتەکان
هەوڵدەدەن
##کۆپ
پاڵێوراو
بکاتەوه
هەبیت
بەدەستبهێنێت
خوارێ
بەڵگەوە
ئیئتیلاف
قەتیس
##ەریان
ڕۆنی
یاسادا
نوێیەی
##تەرناتیڤ
ڕه
##ەبکات
نێوەندی
لەئام
شەڕڤان
ئەمریکایە
شیعرێکی
##کەنەوە
ناوچەکەیان
زمانێک
ئاکرێ
دەستوورە
ملوان
##دەهێنێت
کۆنەپەرستی
سوتاندنی
کرمانج
وکار
##قل
وتەبێژ
دۆستانی
ئەندامە
ڕەزامەند
شتان
دەردی
##شتیمانی
پلانە
بەئا
بەکارهێنان
تێبگەین
تریشیان
واقیعدا
تۆڵە
کۆیلەی
عەسکەر
فراکسیۆنە
بەتوانای
بەجیا
##عة
بوونەوەر
بەرهەمهێنەر
چونی
پێکبهێنرێت
بەتەم
نەتەوەیە
فیدا
نەوەست
عەدالەتی
هۆلیوود
لەبارەگای
چێڵسی
لامان
##ek
تۆنی
لیتر
نازانیت
خەسرەو
هاوکێشەی
شیعریی
براوەکانی
##نار
##ەندەکانی
نوێوە
ئێرانەوه
بڕەخس
دەربرِی
دەمرێت
وێنەو
باشترو
خێرخوازی
ڕەتدەکاتەوە
هیلاری
مابوو
پاتری
کین
دانەوێڵ
گوندە
جێگرەکەی
ڕەچاوکردنی
ئەفغانس
فاتیح
چا
پێوو
دڵە
وێنای
دیارو
##ۆڤا
چیرۆکێکی
گەردەل
لەحزب
درێژخای
جێر
صالح
نوور
##ایەتییان
سکرتێر
خەرجکردنی
Com
مۆت
پرۆلیتاری
بەشداربووانی
ڕێبەرایەتی
شاز
##رخی
##ud
##ەجەم
##الیا
##بینێت
بەدەسەڵات
هەردوول
وێنەیی
پەنایان
زمانەکانی
خۆپیشاندەرانی
کانون
وازیان
تەرمەکەی
کەپێویستە
قووت
مۆنت
جەرگ
تن
چێ
بنێرێت
دەسەڵاتێک
دەسەڵاتەکەی
یانەیە
سەرەتاییەکانی
ڕوانگەیەوە
یۆڤانتۆس
th
لۆم
چیان
##rom
لەسەرووی
ولاتەکەی
بدەینەوە
دادگاییکردنی
موشەکی
دەرهاوی
بەرشلۆنە
تەمی
##ەدەستی
بگونج
ستۆدی
ناسراون
نەکردووه
دەنگدانەوە
ڤینۆس
جمه
پێشڕەوی
سواڵ
ژناندا
188
بخەین
دانیشتوی
خوارووی
ئەمەریکاو
ڕابەرایەتی
إن
##بۆرگ
##شاری
چاومان
کاریگەریان
لەیاسای
نیشانەکانی
سپارد
ساختەکاری
کۆنسێرتی
##هێڵ
بەرەیەکی
کۆتر
ناوەکانی
نەبون
لەبیری
منداڵەکان
پێغەمبەرەکەی
ولاتێکی
خێڵەکی
بەبڕیاری
##جیری
##ستەکانی
کوردییەوە
بهێنم
سیاسیەوە
دادە
دەیوت
گرنگه
سەیران
ماندووبوون
گار
##ێکا
##کرنی
موسەوی
بەوەز
مانگانەی
بونەوەی
ڕونیشیکردەوە
باڵەکایەتی
ئۆتۆنۆمی
جەی
##یەو
##چیتە
هەوڵەکانیان
نووسەرێکی
تیرۆریستییەکان
یەکلاکردنەوەی
لەبەرژەوەندیی
##دری
ناوچەیەک
بەردەوامیی
ئەکاد
باوەڕمان
زیادبوون
گۆرانییەکی
سەمیر
چەوسێنەر
دەکوژن
بەربڵاو
کیشوەری
فۆڕمی
Sun
کادی
##وولە
لەچی
هەرێمەکان
##ەپەست
سەدری
هەڵبژاردنەکە
وەرزشکردن
بەمی
خەوت
شوک
ودا
بەرایی
دەستەیەکی
لەمڕۆ
بوارێکی
##ەپێش
دواکەوتوو
توانیویانه
##دەکەینەوە
10000000
حامی
غی
##جێکی
بەخۆش
سەرکە
##گرتوو
دێموکراسیدا
گوڵە
ئامێرە
باڵادەستی
خەسڵەتی
خا
رادی
ئەرکانی
نوێنەرێکی
دژه
نزیکن
نەدە
ڕێگاوبان
خام
ڕستەی
##ینێ
کوردۆساید
بنرێت
##ەکەر
کۆمسیۆن
##دەگرن
بارگر
لەڕوی
فرەیی
##اندنا
لەرێک
کەرنەڤاڵی
مەڵ
پێکی
گەیی
کوردست
برایان
فێمینی
نیچە
زانایه
ناڕەزای
زەنگەنە
بەئارەز
ئۆن
ته
##کیل
سازکرا
تووڕە
بگەڕێینەوە
سەرلێش
ئاژانسەکانی
پرەنسیپی
گەشتوگوزاری
قامیش
چووه
کەچەند
بوود
##خۆشە
سەربازییەکان
ڕەهەندە
مەرکەز
کوەیت
##ۆرن
هەڵبگرێت
ملیون
دەوڵەتدا
هاندەر
هەڵدەستێت
ئاشکراشیکرد
##مة
ناوچەکان
پێنا
جاره
لەشێوەی
میراتی
گیرانی
ستەمکاری
هاوڕێیانی
Tues
ڕاگواست
کراس
تیاییدا
ئابڵ
شەهاب
دوورگەی
کۆبوونەوەکان
##تیلافی
Tuesday
##انمان
دوزخورم
نیس
کۆمەڵێکی
بنەر
نیشتمانە
توڕە
فەرمانگەکانی
سوننی
##نەکەوت
خرایه
##60
لەژمارەی
مندال
لەهەمانکاتیشدا
سەمای
سویسری
سودمەند
دیبەگەیی
ئیتی
##اهەت
ڕوونتر
وهاو
##ووخ
دەکران
دەبینەوە
ئاودێری
بەپێک
کیم
پێشمەرگەکانی
بەیاننامەکەی
فایق
ئامۆژگ
نەورۆزی
##ەکراوی
##ەدای
##ەیەکمان
لێکت
ژینگەو
هەشتا
##وشوێن
ئازادیخوازان
زنجیرەی
بەڵگەنامەی
لەخزمەت
نیۆیۆرک
پێنجی
بەسره
دابەشکردن
میرزا
ڕاسپێرد
فرمێسکی
ڕێچکەی
تات
##مانێکی
بەکارب
ئەویتر
لێتان
جوامێر
خامۆش
مید
خواردووە
حەبیب
##fo
شتەکانی
پەراوێزی
تەزویر
مۆدێرنە
وەفدەکە
ماڵوێرانی
شەیت
لسەر
هێش
##ۆردا
##ەزاران
الخ
لەئاو
ژیانیدا
گەورەترە
##پارێزێت
هەمومان
ڕەهای
پەلامار
کۆششی
لەبەرچاوگرتنی
سنووردار
دەرماڵەی
وکو
داپۆشی
موه
کچەکە
پاسەوانەکانی
لەدانیشتن
شەبەک
پتەوتر
مێدی
هەڵنا
فیستیڤاڵە
کابر
یادکردنەوەی
جوڵەی
ڤیدیۆ
ئەفریقیا
Monday
مُ
##بەڵ
##ێچی
##ةی
سنه
ستاف
جەمسەری
توانییان
سروودی
زووە
##ەڵان
کاربکات
دەبێتەوەو
وتوویەتی
مژدەی
لڤین
##لێت
کردون
هاتنەوەی
بەسەرهاتی
تەواوکەری
شانۆگەریی
خۆپیشاندانەکە
##ومێنت
##دانانی
گەرما
هەفتەن
لیستەکانی
ئارەزووم
بژاردەی
دەگوزەرێت
##انەشی
##ییەتە
##ەتیش
دیلان
میک
##جیم
یاریکردن
گەڕاندەوە
شیعەکانی
نموونەیی
لەولاتانی
غەفور
ڕۆستەم
لەمیدی
بیخو
سەرکەوتنە
تەقاندنەوەی
ئەردۆگان
موستەفا
Satur
ئاسود
دایکە
نەخۆشخانه
Saturday
نامی
##اتێک
خواوه
جیدی
لەئەزم
ئەورووپ
بەروبوو
تێدایەو
ڕەخنەیان
پێنوسەکان
تەختی
حام
فاش
سەروک
لەبودجەی
ماوەیە
حەوتەمی
دەردەسەری
دەناڵێنن
##نامەنووس
kurd
ڤە
##بڕی
کارەش
دروستیان
دەگەنە
هۆشمەند
مارکسیزم
view
##کەیی
##رێک
##ەکەدایە
دوکانی
##الانی
دەستخۆش
بڵێیت
ئەنتی
بەئاگ
1983
مەلیک
پـێـنج
بێڕ
##خواست
تەلار
بەستنەوەی
شارەوانیی
زەوییە
شاهیدی
بیابان
93
نامیل
##دەیە
لەوەف
ڕێگایەک
لەهەڵبژاردن
گوێمان
لەبەه
بەوەوە
خانمه
بەسوود
هەژارو
زیانەکانی
ئاسانتر
بەکاردێت
ڕێڤەبەری
کێم
دەرخست
ڕاف
چاکترین
ناوەندێکی
بەرپەرچ
تامی
کاریزم
میون
الکردی
درەوش
ئاماژەیەک
نووسەرەکەی
تێبگات
پـێـک
کامیرۆن
##وفی
##فور
##تما
##هنی
##‌یە
هەڵبژاردنەوە
ڕزگاربوون
بەخێرهاتنی
بەرەوپێشبردنی
وشیار
##لۆپیدیای
##گاکەی
##ژمارە
هۆیەشەوە
189
حیج
بودجەو
ئێسـتا
دەڤەرە
##عب
ببیت
لەئێستا
مەسرور
بڕوام
ڕۆژنامەنوسانی
دیپۆرت
دەکوژرێت
ولای
پرسیارەکانی
130
پەروەردەکردنی
پرسەکانی
کەبڕی
وێنەگر
یۆرانیۆم
دەنی
چیمان
بەکاربەر
ناڕەح
برینداربوو
بەعسدا
سەربەرز
مینی
کەین
##75
##ەوەم
##لیل
ناونیش
دەسوت
جەماع
کێشەیه
گەیشتۆته
خۆرهەلاتی
برینداربوونی
##نەکراوە
بەخشیوە
هیتلەر
دروستکراو
لێکراو
تەڤ
ئامادەبووانی
بیستەم
فۆت
سەرمان
ڕەوایەتی
مەسئ
هاولاَتی
##ursday
دزەی
##گز
ئاراد
کەرکووکی
##لاح
هەواڵەکانی
ئەگەریش
ساختە
ناگرێتەوە
ئیعدام
Thursday
مایە
##هەمی
خوه
هەڵپەڕ
بوونێکی
ڕێژە
بەسەدان
بدرێتە
هەڤاڵانی
چۆک
##چیل
##ئەی
گۆڕین
سەرکەوتووی
هەڵکەند
ئەنیم
لەهەمو
کەتا
##گرتنەوەی
دێهات
هاندان
Mag
نۆک
##کُمْ
##ِر
دەگەیەن
خودان
وڵاتەوە
جیهانبینی
##ەکانیشەوە
بڕیاریشە
##لەر
##ەوەمان
جیهادی
ئازادییەکان
بەدیاری
وەڵامدا
سپێرد
دابڕان
ویستیان
سەلاحەدین
کێشمەکێش
کوردسات
##ۆید
تاه
بنێرن
چاوێکی
چوارگۆش
کەوته
پێداویستییە
بەسیاس
##نو
##ڵێم
کوردانەی
##گیراو
هەمانکاتدا
وەلید
عەشقی
میتۆدی
بەدەپە
جیددی
زبڵ
##وح
##میر
بەدەوری
##ۆزسیۆن
##ینیا
گەرەکە
##نیشاند
ئەزانن
نیشانە
حەسرەتی
دڵنیاب
خوێندنگەی
##ڕاگەیاند
الثانی
Sunday
لەگوندی
بوەو
بخوێنێتەوە
تۆڵەسەند
دێموکراسییە
نڤیسەر
دنا
گۆڕستان
هەڵبژاردنەدا
##کۆزی
##ێگەیشتن
سپۆرت
کەموکورت
دەخاتەڕوو
قاچی
تارمایی
کردەیەکی
##زیری
بەهەدەر
منداڵەکەی
##گوزاریی
پۆستەکانی
##حادی
##اوس
تۆوی
وەزیرەکانی
ناوبرد
ببینم
توندڕەوەکان
ئەحز
All
عەلا
پۆرت
##ەیک
داهاتودا
باوەڕان
وشەیە
گۆلەکانی
ڕوداوی
مەرگەس
ئەمڕۆکە
ڕۆژنامەنووسیدا
وەیە
چەوت
ڕەقیب
##چان
##رۆسەی
وڵاتەکه
نەهامەت
میللەتێک
ناهەق
##ەکێشان
دەلێت
no
صاڵح
نایەت
##جین
##ەکورد
##ایەتەوە
کۆبوو
ناترس
خانمی
دەمانەوێ
ph
قول
##کەیەکی
##ئین
پاڵەپەست
فرەن
هەمیشەی
ناڕەو
هەڵەبجەیی
حاکمی
فەن
##ئێستا
##امێکی
لەگشت
دەفتەر
گردبوونەوەی
نەتوانراوە
##پاک
##ەرا
سەردانە
بەردە
دەستاو
تەعبیر
لەپەیوەند
جووتیاران
فەنت
##اتیان
ڕفاندنی
دادەمەزرێن
##اوەکە
دیارەکانی
بیم
هەمیشەو
حوسێنی
خوڵقاندنی
لەفەرمان
لەمیسر
جیهانەوە
خولەکانی
ئاوێنەنیوزی
فەرمیی
بەنیازی
لەناوەڕاستی
ڕاگەیاندنە
شیکاری
دەچێتەوە
فەزڵ
دبلۆم
کەشی
لێخۆشبوو
دەڵی
ڕوویەکەوە
نەیارەکانی
1982
قەدەغه
##هەڵوێستی
پەست
##mar
ناوه
لەوپەڕی
##ەکردنەوە
ڕووبەرِووی
شیان
١٠
##نجی
##حەی
##ووب
##اردۆ
نەژ
باسکەی
لەڕوانگەی
ئیسلامیش
کتێبەکە
لیژنەیە
مەعروف
قەرەباڵغ
زەمانی
##ْد
##OA
سەرپێچ
کارای
بیرت
کاتیش
ڕێژەیی
##تریان
بردە
تەسلیمی
پایز
برادەرانی
ڕوبەروی
نانەوەی
گەوه
##یانەش
##یدانی
گوتراوە
خۆمەوە
تازەترین
نەتەوەییەکانی
کارتۆنی
شەرِ
بەندکراو
دەقەکەیەتی
موتڵەگ
کوردستانەوه
هەڵدا
هەڵبژاردووە
بەوەیە
سەردەمەی
بخوات
ململانێیەکی
دێموکراتەکان
نیازه
تۆتنه
مەرجەعی
مشک
بەرگرتن
بەمشێوەی
ڕابورد
تورکیە
وەسی
شڵەژ
شێری
وەلا
##ەشک
زیانیان
##ایشدا
ئیسلامییەکانی
بەدوا
نەوەیەکی
یەکتریان
قوڵتر
ئاریتما
فەرید
کرمانجی
بامەر
Jan
جاس
دەیە
##اکەن
پۆستەکان
بەقسەی
نابینن
##ected
بەریەک
ڕووەو
هێزانەی
باشتری
وەڵامیان
شارستانییەت
##مارکی
پسپۆڕانی
زۆرەم
برۆک
سەیید
جوانەکان
کۆمەڵگەیە
نەتەوەکەی
لۆجی
تاڕادەیەکی
prot
لۆڤ
گرۆ
##نیکی
هەروەه
بەرنامەیە
یەکگرتوویی
ناوخۆییەکان
##azine
شاشەی
نس
یەکەیان
بەهاوو
خەڵکیدا
ڕەشنووسی
پرسەو
##اپیت
سەرلێشێو
ەِ
##ارەن
پێداوە
بەهاکانی
بەشداربن
شۆڕشێکی
کۆبوونەوەیەک
سەرەکییەکان
کەتێیدا
ئەکادیم
دەخوازم
دەپرسم
گەریل
Ber
##ختی
##بیح
فیلمێک
دەسەلاتە
پرسیارەوە
گیرۆدەی
بەهادین
ئەسەدی
پەیماننامەی
بپارێزین
پەرتووکی
ترسناکی
سەرگەردان
بەواتایەکی
هەربۆیەش
##ێنرێن
##ەبۆ
ئەمانه
زۆربوونی
ئێمەیش
عەباسی
بیسەل
هەزارەها
دانیشتنێکی
بەدرخان
##ەداری
بکەوێتەوە
ڕۆژێکە
بێتو
دەسوڕ
پارێزەرانی
ژیانمان
لەقوتاب
نەجم
عەلمانییەت
ئوسامه
ئیمزاکردنی
جموجۆڵ
ووتی
##جەو
ڕووس
سەرجەمیان
بچەسپ
سەعدون
لەئایندەدا
پەڵ
ڕدە
##یمی
چاوەرِ
ناکاو
ئاشووری
دابنێین
تامەز
##لف
لەکاب
##وبار
نەدەکرا
بەگەور
وەرگرتوە
سەندنەوەی
##ress
##ێزانی
هەمووتان
بڕیوە
##ێنەرەوە
##ەگەل
هەڵوێستەکانی
##اگۆ
دەگێڕن
فلیم
##ڕاستی
هەمەلای
نەبیت
داوەت
##ێندرا
تاکڕەو
دیندار
سۆزان
هەنووکەیی
شوکر
ماکی
وْ
##ویل
##ُن
ئاماژەش
نەمابوو
سەرسامی
وەهمی
جەختیشی
کوێستان
جادوو
ئەرجەنتین
##افز
##ەکانماندا
سیخوڕی
##ەلان
##یرا
شوێنێکدا
دەخاتەوە
دیارن
1995
ئامادەیبوون
ئاڵۆزتر
##علی
تاجی
پێکهاتبوون
خولەی
ناوچەگەریی
چوونه
سەرمایەداران
قوڵایی
ڤایرۆس
ئیرادەیە
co
چوومە
##we
##ۆرانی
بکۆڵ
یاریگا
تایبەتەکان
خەونەکانی
پێبەخشی
موعت
ئەلفوبێی
خێو
##دۆست
دیلی
کارەیان
پێوەندی
ئۆق
کتێبەکەی
بەجێد
نەیەوێت
سامەڕ
دیدارێکدا
ناچێتە
تووڕەیی
##فرین
##ڤه
کوێتی
##انەیەک
کراوەی
نازانرێت
ناردن
1984
##ةو
##ەساڵی
دەگەڵ
باوکە
سەدەکانی
##حیح
یارییەکەش
هۆکارەکەشی
مونت
لەبنەڕەتدا
##بەستی
##های
دەخست
##اسن
ئامۆز
ئارای
##انیشدا
بەهاوکاریی
کەپێشتر
تەحسین
مناڵان
بەنیازه
تووند
خوانەناسان
بەراوردی
Magazine
##ەناوی
##اتەکان
##ێرێ
##ەدەکەن
ڕۆژەوە
الط
##زمەت
خۆشدەو
گەرانەوەی
ناسەقام
مامۆستاو
نەیاند
کۆریا
لاشەی
لەئەستۆ
جڵەوی
ئەردەن
نەمام
ڕفاندن
ڤیتامین
یەعقوب
ئیلهام
##اوت
ساڵرۆژی
شەڕەکە
دنیاوە
هەواڵه
میسردا
هەڵوێستیان
لەیادی
گوزەران
تەسکی
گرێدانی
تەفسیر
chak
##سەت
##ئیل
کەپەی
کەسن
کەمدا
ئەناد
قسەمان
لیسته
نرخەکەی
بامەرنی
ڕوانینی
##کردوون
ڕادەب
لێبکەن
داگیرس
پرۆژەیه
بیانەوێت
ڕوداوە
دەستیپێکردووە
شانۆکاری
ترسنۆک
پیاوسالاری
May
ۆرک
##َی
کۆکن
یەکن
یەکشەممەی
بکرایە
وەرگرن
##ۆشێت
ئاشکراو
پلاستی
ئیدارە
تەمموزی
بەخشرا
ئینسایک
عەف
مێین
نەگەیشتنی
پارێزگایە
بەدیل
هەتاهەت
لەسەدەی
##وینی
##انەوەو
ڕاپەڕی
دابەشی
##زمە
تاوەک
ئاژەڵی
مەزاد
ئامادەباشی
شەریعەتی
ماریا
نەبینیوە
زوممار
نەکە
##نم
##حەت
بەهەنگ
جێـ
##فرانس
تێکەوت
گفتوگۆکردنی
گەشتیار
پابەندبوونی
موزیکژەن
مردووە
دێرینەکان
سارا
بەکاردەهێنن
##انەم
##ێنا
پەیتا
نەهاتوو
هەواڵەکان
##اراستن
لەوەڵامی
##زایی
یەکەیەکی
کەسەکە
نیکۆل
سونی
داواکانی
ئەڵلا
پیران
دەچێته
فڕۆکەوان
سەرەڕۆیی
لەدایکبووە
پێشێلکاریی
سڵاوی
مەولود
##دارێتی
جارێکیش
پەکەکه
بکەیتەوە
عائ
##قین
##ۆتا
نەبووەتە
سیاسییەی
زانیارییەکی
##فال
مانایەک
ئەلکترۆنی
کۆمەلانی
حکوومەتەکەی
إِل
پێوویستە
شەوان
فە
کاوه
لەمن
وێنەیەک
جوگراف
##ـیەکی
بنیاتنانەوەی
دادپەروەریی
97
بخۆ
دیدو
دەرنا
ناهێنێت
حکومییەکان
مرۆییەکان
داواکارم
خەریکن
بەچاکی
هەتایە
وتووێژی
فاکتەرێکی
ڕونکردنەوەیەک
##هل
##ێنراون
نیوزی
دیکەشیان
گوێڕایەڵی
ئینسایکلۆپیدیای
res
ئاند
شاژ
##کیی
##هاب
##45
##ادەب
بەشەکەی
پەیوەندیمان
مارتین
کۆمەلگای
نیگەرانیی
بۆرژ
سوڵتانی
جڤاک
هێژ
##اوانە
##ەشەوه
##اردەوە
##کرابوون
تاکڕەوی
خۆپیشاندانێکی
دابەشبوونی
1976
تەحری
##ئەگەر
ڕوناکبیر
دوورکەوتنەوە
فەج
##مْ
##ەلەف
##گەیاندووە
تێدەک
بخەمە
##جاشی
حەزرەتی
وەردەگیردرێت
بەندیخانەی
تەئکیدیکردەوە
##خواردن
داڕشتنەوەی
کوالیتی
کڵاو
##بێتی
##اویان
سەرابی
شانشینی
جێبەجی
وهەر
پەیڕەوکردنی
لەئارادا
protected
توم
##خش
##ارییەتی
زاناکان
##کارەکان
خۆپیشاندانە
هونەره
لێبکرێت
قەڵەو
بەندەری
چەوساندنەوە
ئەوەندەش
نائارام
خڕ
وانی
بۆد
گواز
ببرێت
نووسراوی
ئەستەن
بەعسیەکان
سەرزەن
##ght
خوداوەند
VOA
زێتر
##39
##ەینی
ناکەنەوە
بەجێم
کورتدا
ناپۆلی
ڵام
##38
##ولات
ڕاوەد
بەچارەسەر
سنوورەکە
کۆلۆنی
نوسیویەتی
دانوستانی
چەواشەکاری
ئۆپەراسیۆنی
دەکێشێت
سەرنوسەری
حاج
زوب
##ڵەت
هەرێمایەتی
ئینتەر
تۆماس
کتێبێک
نوێکردنەوەی
دەرزی
پارێزگاکە
واقیعە
سعودیه
نیشتەجێبوونی
شەرمەزار
بۆنمونە
بەبیانووی
هەرچۆنێک
sh
ژوان
هەرەش
##توێی
فەلەک
بەعسەوە
ڕایانگەیاندووە
دەردەچن
دۆش
عرو
ڕووە
##46
دەسکەوتی
پاشەڕ
ستەمیان
پێشانگایه
جڤاکی
##دەکانی
دووبارەی
بەتەمەن
بەجێی
وردو
##erv
##انەشدا
هاوبەشیان
مەودا
دەخوازین
تالەبانی
زاڵە
سادەی
##ەیتە
سەرۆکجاشی
تیپە
پرسه
##ish
نەتەوەیەکگرتوەکان
چەقۆ
سۆنیا
##ەکەیشی
پاسپۆرت
پزیشکانی
بەڵێنەکانی
پەلاماردانی
یەکلاکەر
لار
##ُول
##ێتیە
##زیز
ئەرز
کردووەتە
عەبدولخالق
سەردانەکەیدا
فیستیڤاڵەدا
قانوونی
دێرینەکانی
مەمک
گفتوو
جبوری
خش
قات
##داب
الل
هە‌
پڕچەک
ئەبەد
چوونەتە
بەرِێوەدەچێت
کەلەسەر
قودس
لێبوردەیی
هەردوک
ڕێکوپێک
ناوچەکەش
بەماف
پیسی
هۆیەک
##ــــ
ماچی
داسەپ
gt
چڕی
لەوەوە
##ردووەو
قوربانییەکان
ئافرەتدا
ژینگەیەکی
##پێدانی
خەمڵ
لەزمانی
چرا
کردەوەکانی
##ەڕوانی
##ەسا
هەبوایە
ڕویان
##چوونەوە
بینیووە
تاڵە
ئیتل
ڕووبەروو
سادەو
بدۆزرێتەوە
دیمەنێکی
دابمەزرێت
ڕکێ
##ەخوار
بەهەڵبژارد
##ۆڕش
نوێیان
سوریاوە
تێدابوو
ڕووداوانەی
لەتەواوی
خێزانێکی
لەخۆب
دووبەرەکی
لۆگ
ئاواش
حیزبایەتی
##ێردرێن
بڕوانام
دوودڵی
مەشهەدانی
##سف
##ستەمی
کوردانە
خۆبەڕێو
##تیە
هاوارێک
یاساکه
درەختی
بیرۆکە
دەنوێنێت
##ang
بچنه
کۆنفرانسێکی
ناگونجێت
قەساب
ڕێورِەسمی
ڤایرۆسی
بێوە
جەنج
##درێن
##DP
##کردۆتەوەو
دەستکە
ئاساییشی
کۆچکردوو
##مۆند
کۆدەکرێتەوە
##ابری
##ۆنیەتی
برۆن
تیرۆریزم
تێڕامان
قوتابخانەکانی
نێردەی
زامنی
ماتری
بکەونە
هێزەکانیان
دانراون
مەرجەی
پزیشکان
قورئاندا
کەنداوی
چنگ
ڤیستیڤ
##خەر
ئەوم
##ەسە
ئیسرای
باشمان
دەیخو
قوربانیدان
پاکسـتان
کۆبوونەوەکه
بەئاوێنەی
کێبڕکێ
##واو
یەکینەکانی
گرێی
پێناوەدا
##ێلە
دەستگیرکراو
چاوپێکەوتنی
##عش
کورده
هەڵدەک
تۆخ
هەندێکیش
پلەکانی
##پێکراو
چینێکی
کۆمەڵگایەک
##ۆچونی
کاتژمێرێک
کەسایەتیەکی
ێک
##گەها
خوایان
هەمین
داوام
دەمێنیتەوە
ئەمەشدا
ولێر
کاندیدەکان
ئادار
هەلومەرجە
ڕیفۆرمی
بگێڕێت
بسەلمێنێت
##ژمی
بهێنیت
ئەنجل
بەڕێوەی
بەغدادی
لەروی
کۆنگره
کۆمەلێک
بکوژانی
فیکریی
ئور
##ىو
خۆزگ
تایبەتن
تایبەتیی
111
فەڕەنس
##تانە
لەکەدار
بەئاس
گەڕاوەتەوە
گشتییە
نامەکەی
ئێستاشدا
خەمخۆر
زەویی
info
جوولەکە
کاپیت
##تێک
##زمان
هاوی
بەپرسی
دەمرن
ڕزگاریی
هەلبژ
چالاکیەک
سەرمایەدار
مەترسییەوە
پەخشان
ناڵێم
بیش
کردیان
ڕۆژەکانی
پێکهێنا
گۆڕاندا
##ئاوا
دادگاو
سەرەتاییەکان
سۆزو
کاردان
لەماڵی
پێویستییەکی
دەتەق
ئافرەتە
نووسینەکانی
پەککەوت
تاوتوێی
هاوچەرخی
کەئەمەش
موسلیمین
نگ
نراوە
ئەویت
##ەللیب
خولیای
بلۆک
باوکیان
ڕەمەزانی
کۆمۆنیستەکان
بکوژن
نۆژەنکردنەوەی
جمهوری
##ییەوەو
لەمەی
بوونەوەرێکی
##ەکانیشمان
خۆمانەوە
##ەنجیر
باسکرد
چوارشەممەی
وتارێک
##خستنە
ئەمەریکاش
ناراست
بەهەرحاڵ
دەفەرموێ
ئەلعێراقییه
کۆلیژی
ئۆغلو
پچڕ
کۆدەبنەوە
خۆجێی
سەڕ
##وێنەری
##ەوەکە
بەفری
ئەنجامبدەن
زەحمەتکێشانی
Net
##ێکۆڵ
داپۆش
دەکاته
جێدەه
لەئێران
ئاداری
حەوتی
کامی
دەنگوب
##وبێت
یەکەمە
بیرکردنەوەو
پارتیش
##ەستیڤ
کۆمپانیایەک
حەمه
عەبدولغ
فڕۆکەیەکی
حەزیان
بایەخدان
وئەو
هەریەکه
asp
لەهەندێ
ورم
جێگیری
مێژویی
وێنەکان
##ەدەستان
بەنیازە
جندی
لەوبارەیەوه
نەمانتوانی
لیر
بەژێر
ناخو
هەولێردا
تاکتیکی
کۆتاییهاتنی
کۆنگرێسی
کارەباو
بگەڕێن
سیاسییەکاندا
واژوو
سترانبێژ
لە‌
##ێوڕ
داوود
گشتیەکان
ناڕەوا
یاساییمان
بەپێچەوان
##گناتی
یەکپارچەیی
##اوەندی
##دەولەتی
پرسیارەی
بودجەیەکی
تەلەڤزیۆنی
قەبووڵ
شەهیدە
هونەرو
کاریگەرییەکانی
ڕەوشەکە
##َت
##led
##ەهێ
دەبێتەوه
بڵندی
نەکاتەوە
ئەندامەکەی
سەرکردەکان
بردنەوە
لەخۆپیشاند
کۆڵن
یْەِ
حەفتا
سیفەتی
ژەنەراڵ
Re
غور
یەه
##وپی
##لاین
حیزبەکە
کوشتاری
عەت
هەش
##کەون
##امانە
سوپاو
دنیایەک
یاساییەوە
جوانیی
##ast
دەبەستن
نەهێنا
فیدڕاڵی
##ights
بێی
واه
##دەیەک
##اوەند
##ستم
##افر
ڕێکدەخ
بەمن
حەمرین
لێبوورد
ئامانجیان
##ەفیق
ڕائید
خۆسەپ
مەینەتی
دەگەینە
مز
##NN
بەردەکەوێت
##شتێکی
پەیرەو
کوردستانییەکانی
لەناوخۆی
مەرگەیی
##کەرانی
هەواڵن
سیاسەتەی
سنوورەکان
هەلویستی
دڕندە
بەشان
بدەنە
سندوو
هاوردە
بەرزنرخاند
بخواز
ڤەکرن
##بور
##چاک
کوردەو
پێبکەن
بەسەرکرد
لیبڕ
خاوەنەکانیان
فڕۆکەوانی
نیشتمانپەروەر
داواکارییەکانیان
هەڵبژێردراوی
ندی
واری
##مس
مانگەی
گۆڕێ
ئیسلامەوە
بەرباس
هۆنراوەی
جێنۆسایدی
ئۆکتۆبەری
خیانەتی
کادیری
##ایین
بکوژی
ئەنجامبدات
دارستانی
ڕووداوەکەی
هەنگاونان
ڤیدیۆیی
شارەی
##rro
جێگا
هاوسەرۆکی
هاوڕێیەکی
بەوهۆی
هۆشبەرەکان
لاق
##ینەر
لەمساڵدا
##ەپان
جۆرەکان
باشکردنی
لەئاماد
مۆدی
بەڕێوەبەرانی
دەڕوان
مەسەلەیه
شمەک
ئیعت
دوپات
##جەکانی
کۆکردنەوە
##اتیژی
لەبەرنام
لەئەف
گەڕی
تەقینەوه
دەگێڕنەوە
لەسیاسەتی
ئەفغانسـتان
بسپ
شاخی
##تانیا
##25
##اتەی
گۆڕانێکی
بنەمایە
بلۆکی
کاروکرد
کەهەم
ڕەگەزپەرست
تەلەفزیونی
بێئاگ
بوژاندنەوەی
کتوپڕ
##ەسەن
##وانییە
##کرێن
پاشنی
ژنەکە
سوننەو
ئاشتیی
سەوزایی
دەترسم
Sport
فێن
نۆرم
##بۆل
دیدە
بێ‌
بدرێتەوە
لەدامەز
بچمە
عەبدولڵا
مارتن
چەپ‌
گەردون
ئەنجومەنەکە
عەبدولموتەللیب
اڵا
پازدە
ژوری
##ON
دەکەو
ڕوودەدەن
ڕێسا
الک
پلین
خوێنڕ
##aris
ناشەر
سعید
چەوسانەوەی
تەقینەوەیەک
پیتەر
بەرەوپێشچوونی
بەهەڵە
مێزگرد
فیستەڤ
بێست
هۆرم
##عان
دەگرم
##بەرت
کەسێکە
لەئەڵ
تاوانانە
کۆبۆ
##ەکەشمان
دەدەنەوە
کۆنفرانسەکە
کاوسی
##وڵاتی
##ایانەی
ناوچانەدا
هەڵبژاردەکانی
کۆنەکانی
ڕەمز
ڕازین
ڕێڤەبەر
فەستیڤ
ڵە
دەبو
بده
ئەنجامەکەی
لەهاوو
دەربڕ
دواجاریش
##ڤیلی
دواییە
شێوازەکانی
ستۆکهۆڵم
جەند
##گراون
##ap
بارەت
ڕابگرن
ناکرێن
نەمتوانی
دڵنیاش
سۆف
فڕۆکه
بیرەوەرییەکانی
مف
گێم
##ُر
##دادی
بیرور
تیوری
ئەکرێ
جیاوازییە
سەرەتایەکی
چالاکییەکی
ئەشرەف
قبووڵکردنی
زۆرداری
شانۆنام
##هەڵوێست
Az
دایب
چیی
##بڵی
دواد
هەیک
وەزیرە
##art
لەتێک
بەیاننامەکە
دابڕاو
پۆلێن
##ەرِای
نەبڕ
سنگ
بزوتنەوەیەکی
ئاسمانیی
ئەمجارەی
فەیسەڵ
لەلێدوانێکیدا
ئەلمالیکی
کریستیانۆ
حەکی
نیل
##وەن
##ەکەنەوە
لەجۆر
##ەکانەی
بڕگەکانی
پیاوەکە
##ەکردنیان
پیشە
ئەنفلۆن
نەکردووەو
هاوکاریان
ئارامیی
هەڵدەبژ
تەقلیدی
زری
عل
##خاتە
کەخۆی
لەگفتوگ
بگونجێت
جیاوازەوە
ڕێزیان
بابەتانە
لێهاتوویی
سندوق
پرۆتۆک
پاسی
نەکا
سلێمانییەوە
دڵخۆشک
هەوڵانەی
ئەلمانی
بلاک
سەردەمێکی
ڕۆژنامەوانیی
مەترسییە
ڕوانگە
##تەکان
##ەدەی
تەموم
وەزیرەکان
کردنه
ملیۆنان
وتارەکەیدا
جیاکاری
بزانیین
کێل
خەڵکه
چارەسەریان
شەڕیان
ماوەتی
وردبینی
##پێیان
سووتا
هەڵدەگرین
ئەنیمەیش
زەڕ
دوورد
لەمی
بەسەرکەوت
گەلاوێژ
بنەمایەک
یەکلاک
تەقینەوەیەکی
ماهر
گاو
##بەشی
##ْب
کەشن
ناف
##عراق
بانکەکان
لیستێکی
سوپاسگوزاری
موقەدەم
هێورکردنەوەی
فەجر
حەب
داش
##هۆ
کەدەبێت
##سیاس
##کردنەی
شێوەز
ئۆقر
کوردستانیەکان
هەڵواسی
توندوت
سارکۆزی
هەڵگیرسانی
##قة
ڕۆژو
بەهایەکی
چەنده
لیبرالی
وەزیرو
بەرێوه
بەقەدەر
دانیشتنەکەی
لەکاروباری
ئۆتۆمبیلێکی
زێڕینی
بنچینەیی
معر
##دارەی
##وترین
ئازا
گوتووە
لەڕابردوودا
ئیمەی
شۆڕشەکانی
ڕێگاچ
کۆیلایەتی
کامێرای
لەداو
قۆناغێک
هەلێکی
ڕاپەڕاندنی
##براهیم
لەزاری
1986
سەنتەرێ
ئۆرگانەکانی
گێران
##فۆنی
##yri
کۆدەبێتەوە
لەمەترسی
لایەنەی
ببڕێت
چارەسەرێک
بیسەر
بەکارەکانی
##جارێک
خوێنرایەوە
دەستووریی
ناهێڵ
سێدارەدانی
بەخێوکردنی
سیان
##فاتی
##گانی
##ژێ
##cri
پاره
نواند
ئامادەکراوە
لەپلەی
ژیانەوە
بەکاربهێنرێت
کەوەک
##ash
0096
بەهەردوو
ڕۆحانی
ببەستن
پلاندانانی
بەرشلۆنەی
دەنگێک
پاشکۆ
بەلا
فیزیکی
پارتەکان
نەریتە
لێکەوتووەتەوە
حەدبا
900
##کانە
بەرژو
##ەلاو
کەسانەش
خەڵـکی
بەوان
پێنجوێن
دکتۆرا
قەیرانەی
کەشف
دەربازبوون
دیراس
##ناند
دووق
ئۆدی
##تونی
##ity
فراکسیۆنەکانی
679
سەرۆککۆماری
ورە
##ێکتان
ئەوش
لەسەرو
##هاتوو
دیمەنە
خۆمانە
هەلبەست
سەرهەڵدان
وزەو
##صل
لەلایەکەوە
ماموست
برایەکی
بتو
ساح
عر
مەلە
هل
##سون
هەڵکێش
پارێزکار
ئەکبەر
گرنگەو
ڕەشبینی
پشکدار
پەیوەستن
پێشوازییان
دەنـگیـیەی
##ئەست
ئەوەت
##یدر
##ۆریا
##دەکەون
قورستر
ودی
##ێمبەر
پێوەرە
بوونەته
خەباتە
وشەکان
لێوان
بدۆزینەوە
عبدالله
بشێو
عوز
نەست
وروو
ەُمْ
##دەیی
##مید
ئاوایی
لەهەفت
بڵاوکەرەوەی
ملیۆنێک
##اگۆن
بەڕیو
بوژانەوەی
##ەوەکەی
سەرەرِای
کوردنشین
ئەردو
تاکەی
ئەکتەرە
فریشتە
کاراکتەرە
فەقێ
##مون
بەژیانی
هەوال
نوێیەکەی
ئۆتۆمۆب
##ناکات
ڕێگەن
میللەتانی
ئاشتیانەی
قائید
سێز
فق
کینە
##گەم
هەمەڕ
تاکتیک
مەبە
بەرزکردەوە
##ژەوەندی
سەرچاوەیە
وازهێنان
##کوژن
چوارچێوەیەکی
عەشیرەتی
فڵان
##دة
##ئاڤ
شارچێتی
بەسەرکردنەوەی
پارێزراوە
چوارق
سەدو
تێکدەر
هەواڵەی
شاعیرێکی
kurdistannet
الکردیة
ڕێکی
ئەمرۆی
هەڵداوە
هاتووەتە
الدین
ڕیکۆ
بردنە
کلیک
نمونەیەکی
حەلەب
اڵاول
##بگرن
ڕۆشت
هەڵه
دەستنیشانی
سیاسیان
شیخ
درێژه
قەدەغەیە
شەقڵاوە
بەشداربووان
فرەژنی
##نەکرد
دەستداوە
##وچاوی
مەدەنییەکان
نەشتەرگەر
لەوەرزی
شپر
##مام
##ce
پێگەو
کارکردنیان
ئیسڕ
##ەیرانی
فەرمانگە
زیادە
##وپا
بەداخەوه
دەزگایە
سەرهەڵدانە
##ەکێشی
دابەزاندنی
ناسیۆنالیستی
دەزانیت
حە
##کردوەتەوە
کردووم
ئەپ
ئامڕ
بەخەڵک
چەندینجار
تەقەکردن
داواکەی
کۆببنەوە
نەیاری
هەڕەشەیەکی
کەسایەتیە
##فاق
ئەوکاتی
شارەکەیان
ڕۆژئاوادا
قەڵا
سەرمایەداریی
حازر
ڕێورەسم
##هو
##iy
##اوێک
##ەنجی
لەسەرۆکی
##وکار
تایبەتەوە
ئاوای
چاوێک
نەکرێن
دەڕوانن
کاڵا
پیسبوونی
emrro
شەوانی
وادا
##نشینی
##گووت
##کیز
##گەشت
دۆستانەی
بخاتەوە
هەلەیان
هەژدە
بردەوەو
دەگەڕێتەوه
بنەماڵەکەی
ڕووبەروی
ناگاتە
بەڕێکەوت
دەوەستێت
بگری
##کۆن
##ییا
##ەبون
ئامریکا
کۆمەڵناسی
##اپا
دەیانگوت
##ەزیدی
چاپەمەنی
گۆڵێکی
پارچەیەک
سمین
بەنیازن
تێکشکاندنی
سێدارەدان
فۆلکلۆری
ار
##شر
##ینم
##ەکەیش
##الەی
داوێن
خستووەتە
هەنگوین
کرێکاریی
وەلامێک
##اندبوو
بەوانەی
تەوژم
ڕابردووش
سەربازەکانی
شۆڕشگێر
بەرێوەبردنی
خورشید
حکومەتا
بەهێزبوونی
ئەفلات
شێوەیەش
مەرجێکی
زوڵملێکراو
دەبەخشێتەوە
ڕوخاندنی
پەروێز
##دۆن
دەرەب
ڕاستکردنەوەی
دەمیر
ناوچەیه
ڕێگایە
متمانەیان
ورەی
sp
نزمی
بنکه
بیکەین
باڵندە
125
##بکەوێت
بەگۆڕ
شیعرو
شتێکیان
فەرموویەتی
دەرفەتە
چەوسانەوە
مەنسور
فەرموودەی
بقۆز
from
##حیزب
هەریم
##ازو
پێدەد
##ێژەیەکی
لەناحیەی
تیک
کەرکوکەوە
پارێزگارێکی
ڕووداوێک
مەنت
مانەوەیان
##سەکانی
داخۆ
هاتووم
حیزبدا
جیهانێکی
بدەنێ
بەزین
لوتکە
##ost
غەمگین
ئەمجارەش
پێشووتری
##نای
ئەویان
کەپێک
ناوین
دیدێکی
سیاسیانەی
بەسەرۆکی
ئامادەک
ئۆپز
شەودا
هاوبەشەکانی
بونەوە
##ase
ئایدیۆلۆژ
ئاپۆ
خوو
##بت
##چڵ
##ْس
##ێرش
پێبدات
لایکی
چیرۆکنووس
نرخێکی
قیامەتی
دڕندەیی
جێبەجێبکرێت
سیخوڕ
یاسادانان
ئەتاتورک
##cript
بارد
وەختی
##اکەت
الا
درابوو
سەرەتایەک
##edia
بزوتنەوەیە
بڵاوی‌
بچوکترین
دادوەریی
ئەوتۆیان
ئۆلۆمپی
واقع
قۆست
##سیان
بچین
ئاگادارکردنەوەی
ئەنجامدەرانی
ژینگەیی
لێهاتووە
پەتای
کاروبارەکانی
بەردەرکی
##وێست
##ig
لێخو
ئەگەرێکی
بەدامەز
تاوانانەی
##ارمەتی
دەزگاو
وەهاب
وابەست
هیواشی
مێرگ
خالد
سەرفرازی
بەرِێوەدەچێ
تۆتنهام
Published
هەموی
دوایەمین
جۆرب
پێیەش
نەبووین
سیاسەتدا
سەرما
وەرزە
ڕەگەزپەرستی
تایبەتمەندیی
##بەن
کوردیە
ناوو
بواره
ڕابردووشدا
وێنه
نەوتدا
ئەتوانێت
350
گەمژەکان
پەرچەکرد
Oct
زم
فێد
##وتم
مرۆڤیش
##ولەی
دوورخ
بەهێزەکانی
چرکەس
هێواش
بەشـداری
خاپ
دال
رۆ
نّ
##اڵێک
##ەدو
ناج
لیڤەرپ
تریلیۆن
گوندو
ستایل
بەرێوەب
مینا
لاپەڕەکانی
دیمەنێک
لەشکرکێشی
لەدانیشتنی
شوفێر
ڕێڤەبەریا
شال
کیری
خۆشت
##ەدرێت
براز
زانیارییە
دەخەین
نێودەوڵەتیەکان
پەسەندکرا
##درێژی
بێکاریی
خانەخوێی
ونە
ڕوانی
##تێکی
##ەمزی
ئەوڕ
دەبەنە
کۆمیس
مەبەستێکی
دیاربوو
پارێزگاریکردن
نموونەیەک
دۆزیوەتەوە
ڕەسمیی
هەڵبژێرێت
دەناڵێنێت
کاژ
##ناد
##ووێت
پێبدەن
نوجەی
ئەوەى
##ەلیلی
دڵۆ
بەبەڵ
بریق
پۆستێکی
##ate
چیرۆکەکانی
1978
##ژنەی
##ابل
دوار
##روشتی
کەسمان
پەیامبەر
لەکەل
دران
بەبایەخ
یاساییان
مارف
قەیرانەکانی
جەماوەرێکی
گەشتیاریی
مەحوی
هاووڵاتیی
پێنجەمین
خەندەڕەش
عەبادیدا
تەورات
هۆرێن
009647
إلا
بێرن
##قەت
بەبوونی
خەڵاتە
ئەکەوێت
شەراب
پشتیوانیکردنی
کابرا
لەدایکبوون
دەستکەوتەکان
بۆنەیەوە
چانسی
##ڵڵا
بەرزان
##ازده
دەسەڵاتەی
منداڵانە
تیرۆریستەکان
ڕاچەنینی
##ەونی
ڕووکەش
بێتامی
ببینەوە
دەمە
دەستگیرکردن
کۆبانییە
نێردراوی
دەردەبڕن
خواناس
تاپۆ
ژەنەڕاڵ
هەڵقوڵ
id
چەتر
دوری
پێویستدا
بیەوێ
ڕابردووەوە
هەڵسو
بەدواداچون
##ava
ورمێ
ژێ
بەرزانی
گەورەن
تێدانی
ڕابگەیەنێت
دانەوەی
لەپشتی
منداڵانەی
پەیامێک
خۆپاراستن
سەوزە
گومر
متمانه
هێلکە
حمد
##ستار
بکەر
ئامێزی
##دانیان
##داندا
لەباو
لەلایەنی
بەردەوامبوون
ڕواندز
بڕیارمان
کۆبوونەوەیە
لەدەستگیرکردنی
لاوازکردنی
هەناردە
ئیجاب
شۆڤینی
##89
##ober
##اکس
کاردانەوە
##کارەکانی
گەڕەکە
ڕزگارمان
فشارێکی
نوسەران
ئیستاش
##ook
لەسیستمی
ڕویدا
پێشهاتەکانی
بەئاراستەی
ببوو
ماوی
##ابون
ئایینە
ئۆلی
مەرزی
کۆمەڵایەتیدا
##est
زیرەکی
دانوستانکاری
##ەمەرگ
January
ۆرکشۆپ
An
ئۆرک
کیانی
ئیتیلافی
تۆو
یانەیەکی
لیستەکان
1963
کرماش
نیعمەتی
سەرگەرمی
هەنوکە
مابێت
##زەیی
##گایی
##حاد
##ەکرێن
دەردەکات
شارەکەدا
بەکۆ
##ویەک
##ژمن
ساتەکانی
دابەزین
بنووسم
فەهمی
##ەیەو
بۆئەم
##ەشقی
##ەیەکیدا
شێوەش
شتوم
بەرهەمهێنەری
عەرەبیی
لیژنەکان
چووەتە
ژوورە
قەیرانەکان
میتافی
فەتوای
عیرفان
ئیسرایل
Aug
##چڕ
##َن
##یرن
سوژ
ساڵیش
پشتیوانیان
گیرفان
هەریمی
واژۆی
شورای
بگەینە
عیززەت
pl
حنا
شایی
##شێ
کوێست
##ازانی
گوێت
##دەورو
گرنگترە
کۆمپانیایە
بچنەوە
نیگەرانن
ئاییندەی
ڕەگەزنامەی
دامەزراوەو
جیاجیای
چەواشە
بخرێته
##768
تل
##شمی
##ڕێی
##عت
دووای
##گوڵ
نەدۆز
تاوانبارە
پێشمەرگەیەکی
شارۆچکە
##ەلەسەر
پەیداکردنی
بێباوەڕ
حکوومەتەکانی
ناسیونالیزمی
هاونیشتمانی
##دوەرگرتن
نەفت
##تاوی
هەڵئ
بێسن
دانابوو
دووره
نەماوەو
##خانەیەکی
گۆرانییە
شیعی
پاکتاو
داخراوی
ئەمەریکیەکان
مەعنەو
ئاواتەکەی
دامودەزگای
ئۆبامای
Aziz
کۆمەڵناس
ئاسۆک
بەبار
نێودەوڵەتیدا
1981
هاوکارییان
دیپۆرتی
ڕێکەوتننامەی
خزمەتگوزارییەکانی
نۆیەم
قۆناخی
##پـێـ
rights
ڕش
کوچ
دەکری
خوێ
بنێ
ساڵێکدا
##پێکەوتن
ئەزانی
پرسیارو
پارته
بەحوکمی
خەتای
need
##کتر
##ێکس
##ارەیی
##دەکا
نەع
ئەیسی
##نیشیان
وێنەیە
نامەوێ
ڕێگەیەک
نەهێڵن
سەعاتی
مەنز
جەزا
ڕەخنەگرانی
ئەرشیفی
پێشوازییەکی
##بەه
##پەکانی
##اریزم
هەمانە
دەبڕێت
دول
ئەڵێم
گرنگەکان
هۆڵەند
سروشتییەکانی
قانوون
دەبەستێتەوە
بەچەندین
دەستبەکاربوونی
ئیفلیج
وورد
##تمان
##اکەوە
##انەیش
دەبەخشن
##گرتبوو
هەیمەن
فرِ
سەردانیان
توێژەرانی
لەیانەی
سەلامی
لێوی
##ەکارهێنانی
دروشمە
بەفەرمانی
فن
##دەوە
##ەبان
پێدەدات
دوانی
دروستدەکرێت
کێشانی
گەڕاند
گەڵاڵ
کابرای
ویکی
##مەدین
ئەرمەنی
لافاو
سۆلاڤ
ئات
بێس
سول
##جیا
لەدەز
نەیدەتوانی
جەنگدا
ئۆپۆزسیۆنیش
فەنتازی
براون
خاکە
ناگرن
##ارانه
بەرپاکردنی
تەقەمەن
بڕیارەکان
مسلم
هەولێریش
هەڵبژێردرا
ڕادەگەیەنین
فۆرمێکی
بهێنه
واست
لەسەرخۆ
هەرێمەدا
##بوونەوه
بەئەم
سەعیدی
یاساییە
1985
دڕندانە
پاڵاوتن
مریەم
هەڵبژێرن
دۆکیۆمێنت
قەرەتەپە
##77
##ـانی
##حزب
بەرەب
دروستکردوە
نەترس
گوتارە
بگەیەنێتە
بێگەردی
تاراوگە
نەژادی
فەوت
##گانە
یەکتردا
##اشن
زۆرجاریش
نازدار
سەرکەوتنەکانی
وڵامی
دەستپێکردووە
لەپێکهێنانی
أی
##Script
##ەکایەوە
دانپێدان
سێپ
بڵاوبۆتەوە
پڕن
ئیمکانی
ڕێگایەوە
##ەکەمانە
ئاکۆیی
گۆڕانکارییەکی
گریاوە
قوتابخانەیەکی
دەپرسێت
مەولەوی
عەج
بەژن
ناومان
لەمپەر
سەرکرده
ئابوورییەوە
ڕوویانداوە
ئامرازەکانی
جەرگەی
کودەتای
##کرێتەوە
##اداو
لەهۆک
هێناون
بنەماو
لێرەشدا
عەرەبدا
##ۆپۆل
کارمەندان
کاربەدەستان
ماتەمینی
چەقبەست
دەردەبڕێت
هایدگێر
member
##85
ناوم
لەپارتی
ناتەند
دەیانویست
وشەیەک
فڕۆکەکانی
ئیبراهیمی
نیشتەجێن
کۆنفرانسە
نەهێشتنەوەی
سمینار
العراق
خەفەت
غەیری
ماز
کڕن
دەربە
دۆستانە
##پەیمانی
سەربەخۆیە
نەمس
ڕێکخراوانە
نەخۆشخانەکانی
مالیزیا
تەفسیری
پرِۆژه
ئەلبوومی
٢٠١
جاوەر
##ەریش
گۆڕانەوە
پلەیەکی
##خانەکە
بینەرانی
حوکمڕان
کەهیچ
زێرەڤانی
ناخۆشە
حامید
لیت
##سیش
لەناخی
##وسین
لیگ
##مەرگە
بەئازادی
##ans
بەڕێزە
شەریعەت
دەوروو
تەجرو
است
مله
##کەوێتەوە
دوکاند
##روشی
##کول
ڕابوون
105
لەناوخۆ
بەرپرسه
جەنگییەکانی
دامەزراوەیەکی
مێگاو
دەهێڵ
ساتەوەخت
You
##ـیە
##ِل
گوار
بووبوون
ڕووەشەوە
##ترەوە
کەرامەت
مرۆڤانە
ئێوەدا
##گیریان
چەمکێکی
تۆمەتباری
مەلاکان
ڕاکردن
گۆڕانکارییەکان
تارا
ناپاک
ستیڤن
بکێشێت
بۆئەوەش
ڕیسوا
لەفراکسیۆنی
ئارەزوومەند
##ْع
##ەکێکی
دوایدا
گرێبەستە
لاساییکردنەوەیەکی
مانیف
دوماهی
چەتەکانی
##نیت
کێشان
سەبار
ناسین
بزووتنەوەیەکی
پتەوی
برەودان
جندیانی
شع
ێکی
پارەیان
دانەمەز
کۆتاییەکانی
بەرنامەیەک
ئەڵمانیای
بەهەماهەنگی
عەزیزی
##گەور
هەرل
گرەنتی
بێلایەنی
##ۆلۆج
کردووین
فڕین
هۆبەی
دابڕێژ
بەکاردەهێنرێت
لەتوانای
وڵامێک
##ەڕێ
##گەرانی
عەرەبیش
بەجوانی
ڕێزدار
ویستم
تایبەتمەندییەکانی
##opyri
##opyright
Dec
شیلان
صقر
وین
بەران
دواو
ئامارەکانی
بەرپرسەکانی
فێرکاری
ڕێیانی
ڕۆژنامەڤان
ئاهەنگێکی
ماندووبوونی
دەناسرێت
عبدالرحمن
00964770
##ەشەو
دەرکی
دوەمی
بەڕێوەدەب
پێیوابوو
بەرنامەکه
##گەیەنم
هاوبەشە
نیشاندان
بگێڕن
نامیق
معرکة
مۆنی
##کەکەی
کارەکانمان
تەموز
دژایەتیی
قسەیەی
کەڵە
بەرکەوتووە
هەڵخەڵەت
ذِین
ندە
بۆگەن
##دیا
##وکم
لەڕێ
بەشداربووی
ناحەق
دەرفەتێک
دوپاتی
##ئامێز
کەمدەرامەت
خاوی
ژێد
##ەکەیانەوە
دواکەوتن
ئاسوودە
گەورەوە
بەپاڵ
جارێکیان
ئەوەشمان
ئەبێتەوە
هەلە
پرشنگ
##ett
هاوشێوە
1960
چڕوپ
Omar
مۆزی
ڕجیم
##سلام
##ئەنجامی
##ەکى
لەپۆست
بابەکر
دەیزانی
بتوانی
بەریتانیاو
کلتوور
پاسپ
فراکسیۆنه
سەرزەوی
لەماڵەوە
ئاسۆکمال
پایەد
##خوان
##راوەتە
سوه
وڵاتانەدا
ڕاگەیاندنەوە
باشەو
##کەرەکان
ناشێت
مۆرکی
قووڵتر
ماتم
کلیپەکەم
ڕەهەندێکی
درێغی
جاوەروانی
بازی
گال
##تۆی
دەباتە
لێدا
ئەنتەرن
هەڵویستی
ملیۆنەها
ڕێگاکانی
کۆچەر
ڤیاری
ڕێنماییەکان
دەهاتە
ڕێزلێنانەکەی
تۆکم
تێپەڕیوە
کایەکانی
مستەفای
إیلی
سەردەست
##کردوەو
ناوەکان
ئیلام
ناوچانه
مرۆڤدۆ
یەکەمجارە
باشم
ڕاپێچی
بەرپرسەکان
ئابوورییە
بەسەختی
##یسلام
پرسەی
ئاگربەست
ساردبوونی
گوندنشینانەی
هەڵخەڵەتان
عِفرین
بگرم
کەمایەتی
##وسان
مندالان
چاکه
هاوڵاتیەکی
جەنەراڵ
درووستکردنی
##اَی
هاووڵاتییەکی
لەڕۆژانی
نەشتەرگەریی
بەهیوای
لەحاڵەتی
کرۆکی
تایە
جای
زۆیا
##ڤد
##وومی
کەڤ
بەڵـ
بەهەزاران
##ەقەی
##انیشیان
جەلالی
گەڵای
تێنا
زەمینەیەکی
پڕوپاگەندە
لەمافەکانی
تایت
ساڕ
##گێران
##ەریەک
لەناخ
میدا
بەکال
ئەلئەس
تویت
بەئەندا
فرۆید
نزیکانه
پێدرا
ململانێکان
ئاسانکاریی
هۆکارانەی
جیاجیاکاندا
میحوەری
تقهر
دەرەبەگ
##ڵێ
دەرەنجام
یاسایانەی
عەبدولوا
دابینکراوە
چوارچێوە
پۆڵەندا
پورتوگال
حامد
مەنگ
کاسی
##نسیا
##شانی
##صر
بەرەمزی
ئەژن
ڕووید
بونیان
دانایی
شێخی
بەرنامەکە
دەبنه
بارین
##مەتر
##پارێزن
جێبەجێدەکرێت
جەماوەرو
دەدرێتە
هەڵدەوەش
پێزانینی
members
بەیت
غیر
پەشێو
ئەوەدان
گۆڕە
نەداوه
دەکەینەوه
ڕەشەب
بەقۆناغ
##amb
کوردانگراد
دەنگدانیان
بگرنە
دەکاو
ئێستاشی
ببم
زانایە
نەوتییەکانی
بەیاسا
مەحمودی
##orr
گێڕاوە
مزگەوتەکان
سەرسوڕمان
کەمتەرخەمیمان
ڕادەکێشێت
گلەی
##ڕەنگ
ئەمر
وەزع
##ۆتان
هەولێرەوە
لەپۆلی
گرتنە
تائەو
سەرسەختی
سووتاند
تۆپبارانی
تەئکیدیان
دەنوسێت
enab
سەییدعەلی
ئەنفلۆنزای
شۆست
وانیە
##êt
##ەوڵی
##اوای
##ەباران
بێبەر
بەمافی
بڵاوکردنەوە
ئەزانم
ڕۆماننووس
##بارین
دیکتاتۆرەکان
دناڤ
حەپ
ئیشک
تەنه
مەبدە
جیاوازتر
هەواڵێک
ئاشکراب
قەڵەمی
وتووێـ
خەلافەتی
##ێە
نێوەڕ
کاتیی
لەبەرچاوی
لاوازیی
دەداتێ
کارەبایی
سەرنشین
یەکلاییکردنەوەی
ژەهر
Java
شاب
ئەودەم
کوشـت
بەردا
فرۆکە
شکۆی
یاریزانەکانی
کەیسە
سوننەت
مێه
لەسنوور
خۆشحاڵم
کامێرا
زلهێزەکان
سەرۆکوەزیران
نەشیاو
گاتایەک
enabled
JavaScript
باتی
##یمان
##بوان
##یرو
هاتۆته
کۆنترین
بەرپرسیارە
نازری
خراپەکانی
سەردەمیانە
ڕاگەیەندراو
پرۆلیتاریا
هەمەلایەنە
Feb
for
##26
##ەرەبی
##ەتەکەی
گوێر
ساڵحی
##ەجوان
چاوت
ئەندێش
بڕیاریداوە
هێشتاش
داگیرکراو
دەرەوەدا
ئارەزوی
گۆلپی
وەلاتێ
دەستپێکردنەوەی
ڕووخساری
کوێستانی
##یلەی
##بوونێکی
لەپڕۆسەی
پێنە
لەڕێوڕ
بەگشتیی
##ۆکراتی
دەوڵەمەندە
Copyright
##اوەتە
بۆخ
##ۆران
بکر
پێشم
لەباب
ڕاستییەی
بەدەستەوەیە
بەکاربردنی
پێکهاتەو
بەیەکجاری
شێخانی
دراوەو
ژیاون
هاوڵاتیەک
دەخوێنن
ناکۆکییەکانی
1958
لەکۆنگرەی
##1213
لەیاریگای
قەرەباڵغی
هەلوێستم
عور
یازدە
##عالی
بێتووشی
وڵاتێکدا
سەرۆکێکی
بەسەری
ترلیۆن
کۆندا
لەپێ
لەناوب
دەربری
گوزاری
عەشای
##prs
مێت
##وێنێ
##‌وە
دەگەیەنن
عێراقێ
هیچکام
پیاس
داهاتووش
چەپەکان
مەنتی
بەرفراو
تەڵەیک
سەرژمێریی
لەوتەیەکدا
ئاگایان
reserv
ورووژ
گلۆ
##ێون
ئەژ
دەکرێتەوه
خۆشەوی
سەبری
دارای
ناکۆکییەکان
وێرانکردنی
سۆشیالیستی
شاوەیس
##ییەش
ئاینە
ڕایەڵ
نزیکانە
کانتۆن
ئاکاری
پەنجەرەی
ئاپۆوە
پێکدەهێنن
گیانلەبەر
هاک
چییان
یەق
##گونج
##یانا
##ەداوە
دەسووت
کۆنکرێت
منداڵیان
1500
سوننەی
تەرخانکردنی
وبێ
ڕەگەزپەر
بەخۆدا
هەرەسی
ڕەوشێکی
##فۆن
دووساڵ
ئاوەکە
بەدڵی
##پانیا
فەرماندە
بەوەدەکات
##خوازە
ڕێبازە
ئالای
لەجێبەجێکردنی
دانیشتنەکە
دانوستانەکان
هەواڵگریی
لەپەیوەندی
php
##7681213
uk
##لیک
دووسەد
ئامارەکان
لەبەردەمی
باڵو
ئازادیەکانی
بەئەرکی
بڕیارەماندا
نایەن
ئەتوانن
لێپرسینەوەو
##ائین
سەغ
بنەماڵەیی
نیشانداوە
پـۆلیس
reserved
Faris
والی
کف
##وێتی
کۆست
##اندانی
##ەخانەکانی
##ۆتۆم
##کالی
بڵێس
بڕوانین
##کارانە
یەکگرتنی
ڕوونکردنەوە
واج
لێدەکەین
ڕاپەڕینە
قەزاکە
عەمار
009647707681213
Nêt
##ۆنەج
ئەلبووم
نەدەین
لایەنگیری
بڕیاردانی
سەعاتێک
بەکاردەهێن
بەمانا
دیپلۆماس
تاسەر
تێگەیشتنە
دێنێتە
یاخوود
Berprs
ڕکێفی
نوجەیفی
گوارەکەیە
ڕجیمکردن
Berprsî
تح
وەد
##ردنەوەی
##ینۆساید
##اسیم
ئیسنا
##دەکاتە
لەدەسەڵاتی
گوتارێکی
گەڕانەو
تێدابێت
دەنووسێ
غەززه
کومەل
دەگەرِ
پێبەخشرا
چام
ڕوت
##ستین
دەستەکانی
لەموسڵ
بەپشتیوانی
درز
هەڵویست
خستەروو
##دەهێنن
شەرمن
ڕادەگەیەنن
نابینم
دەوترێت
##مانن
میتر
کەرتە
داوایەی
بەرهەمەکانیان
دانیمارک
چاوەڕوانن
میلیۆن
دەفەرمووێت
یاریدەدەر
لەشارۆچکەی
دیفاع
##ابووری
پۆپ
ئارا
بەکاربهێنێت
یادگار
وەزارەتەکەی
هاندەری
واشـ
تەنگژەی
یەکجارەکی
##تەرناتیڤی
پیشاندانی
ەوه
لەباتی
تیروپ
لەسو
توانیم
بەڕێزی
هەفتەنامەی
لەوەفدێکی
##ۆنەجمەدین
##ێندراوە
هۆکارەکان
##اقیع
سەربازه
مەیل
بلاوی
پشکۆنەجمەدین
فێرکردنی
ڕۆشنبیرە
ئامێرەکانی
سلبی
خاچ
کۆدەنگی
ڕۆتین
کاردا
گرانە
یاسان
نەخست
ماڵەکانیان
نامێنێتەوە
فیلمەکه
سنوورێک
وادەزان
نییەبەڵ
پێشبڕکێ
بەژنان
##ئەدات
بەرێژەی
هەرکام
##ومێد
بەوی
شتەی
خستووە
دلاوەر
نێرین
لەکۆمەڵگەی
جوتیارانی
کاریکاتێر
ڕاوبۆچوونی
ئێل
فول
##خراوەکانی
##اڵینی
ژنانیش
مەردان
بەئاگا
##خوازانی
شێعرێک
گروپەکانی
نرخاند
دەترسێت
دۆرِ
وەرنەگرت
ڕێنوێنی
عیب
ژار
بەرتیل
دەدەنە
مەسڕن
دابەشکراوە
چاپخانەی
کەکورد
حەڤدایی
سێمێل
پاییزی
جێناکۆکەکان
پەش
##درێتەوە
##هێڵن
##اسین
بووبێ
لەلێ
دامەزراوه
چەورەکەتان
##29
داپڵ
ترم
پۆشی
ئەرزی
ستایلی
تازەو
ئەوروپایی
ولاتەدا
کۆمەڵایەتییەکانی
##ۆکرات
ڕژی
کەپێش
##اکەو
پەرش
##ەجان
نەگری
مامەڵەکردنی
گۆڵێک
ئەنفالکراوانی
ئیلاف
ئاوێتەی
ژانی
##بەیان
دووشەممەی
هەرێمێک
ڕاگەیاندوە
حیزبەوە
حیزبیی
115
جیهانگیری
##وپای
سروشتیەکان
خاکەکەی
دزێو
هەڵەبجەدا
جێگیرکردنی
ڕاکێشا
ئیجرائ
ڕاوی
##ارەز
##دارو
ناتەواو
ئابوورییەکان
نەبووەتەوە
گەشبین
هاوڕێم
لەخەڵک
دامەزراوەیی
هۆکارانە
چاوەروان
وشیاری
net
أو
##ەکاتی
پێبکرێت
دەکش
اللە
بەئام
ستالین
پارێزگاکەی
سازدەکرێت
ڕۆژئاواو
بیستنی
داواکاریەکانی
گەڕانەوەیان
تێروت
دەهێنین
داخوازیەکانی
سەهۆڵ
حیساب
چەلەبی
##بال
بەهەوڵ
سوتان
تاوانەکە
ڕادەیەی
گەڵا
گومانیان
چۆمانی
بەرهەڵستی
بەرجەستەکردنی
لەسیاسەت
##پێکی
##‌ک
بەوشێوەیە
نەکەم
جیهانییە
دابەشکرا
یەکێتییەوە
ڕۆژنامەوانان
لەباشووری
##خر
##یراقی
ناوێک
ڕۆژاوا
پێشکە
##ەفار
هێرشەکەی
بەڕێزانە
گیراون
لەیاس
ئەنجامدراون
ناحەز
لەدیدارەکەدا
##rtic
لەندەنی
جه
##ێوان
لێدەکەم
ڕیچ
بڕیاربوو
قوتب
بتەق
بلاوکردنەوەی
نەرویژ
بەرِێوەچوونی
لەئەستۆی
یەی
##ەییە
##ەبڕ
منت
بەڕوو
ڕاستییەکی
شەڕدا
ڕیاز
شوێندا
بەغداش
تەقیەوە
186
هونەرییەکان
پشێو
وکۆمەڵ
زاینی
تواناسازی
گەرمەی
هەفتانە
سەربازە
فڕێد
بچێته
نەخشەو
ناڤبری
ڕاشکاوی
بسەپێنێت
ودەست
پیان
##یشیاندا
##اردەکات
##افڵ
تیدا
تێکستە
دووەمیشیان
پشیل
##ەبایی
لەولاش
ئامادەم
قەرەی
دۆزییەوە
ئەتروشی
سەیرکردنی
بازاڕو
بەدواداچونی
خەوتن
خامن
##man
ڕاگرتووە
دروستکراون
کەلەم
جیاوازییەک
پەسندکردنی
هاوپشتی
موخابەر
یەکلاکەرەوە
ونی
گوێچ
چونک
لەناویاندا
کۆتایدا
بەباش
خەباتیان
ئەوانیتر
ئەنادۆڵ
خەج
عز
##دەین
کەوتونەتە
ئۆپـ
پەسەندکرد
گەشی
##وانەی
##بوونەوەو
پێکبهێنێت
پێویستییەکانی
دڵدار
نزیکەوه
تاوانێک
پیشاندا
خوێناو
##رِکێی
##ەکەشم
ڕەفتارە
دورگەی
خەسڵەت
فەڵەستین
وست
##بەتە
##لادی
ئەمدو
یەکلای
هاوتەری
##کەوتنەوە
موژ
بەدین
لەهەل
گۆڕا
##زانێت
بەدیلی
ئەتوانین
خوێنیان
ئێکەتی
لەدونیای
خەلیف
هەسارەی
هەربۆیه
ڕۆژگارە
هاوخەمی
جوب
شانە
ودەر
##چاوە
##گەرێتی
##تره
نەبیست
دروستدەبێت
ئەندێشەی
سنگی
سەدەیەک
هۆیەکانی
زانیم
نیشـتی
سەردانه
جێگرەوەی
##انکاری
##ردووە
##دانا
پڕب
کوران
سەردەمێک
عەلەوی
ڕۆمانسی
تێکەڵاوی
##ings
ساڵانێکە
حافز
وەج
##عون
کۆیان
دروستبکەن
وەحی
یاریزانەکان
شەشەمین
دەگرێتە
لەئێستاوە
سەلماندی
ناڤدار
شرۆڤە
کونسوڵخانەی
زاتە
##28
##حەق
دەگو
##ەبکەن
ڕۆژیش
ئارمان
یاساییەکان
لەخەباتی
فەرمانبەرداری
بخوێنەرەوە
لەدایکبووی
پەلەوەر
##لێکەوت
ئیستحق
لەمێژە
شەکرە
سێپتەمبەر
قژی
##بەرا
ئازادن
سوریاش
بەرنامەکەی
ئەبینین
پەناه
هونەرمەندێک
ئەدەبیی
میوزیک
ڕابردوی
لووتکەی
پارلەمانت
قیرتاو
بەکارهێنا
یاسایەی
ئابوورییەکانی
هەواڵەکە
چارەسەرکردنیان
1977
هەڵمەتەکانی
سیاسەتمەدار
ناسیونالیستی
نالەباری
کەشناسی
خامنەیی
دەگەین
##ەخۆری
پێکهاتووه
مەزار
کوڕانی
لیستەکەیان
ئیمزاک
بیلال
ئەلحەکیم
پوختەی
باوەری
توێژێکی
لێکەوتەوه
ناسیۆنالیست
لەچاوپێکەوتن
میتۆد
لەئاکامی
شاگ
پڵ
##نیادا
لەململان
هەمیشەش
کتێبەکان
خەلکێ
ئەنقەست
دەسـتگیر
گەرِەکی
فەخری
مەفرەزەی
وپێش
هاواریان
هەڵبژاردنەوەی
##کارانەی
ئازادیە
پەیوەندیەکان
مانگێکی
دەچم
بگەڕێنەوه
نهێنییەکانی
وەستاندنی
گەیشتوونەتە
جز
##ەکری
کوێوە
دەستەبەری
کاراکردنی
دروستبوو
کۆنتر
بەکاربهێن
دەخوڵق
پایەکانی
کەنیس
هەقیقەت
بەئارەزووی
لەکابینەی
بۆگ
خوێندندا
خوێندنەوەو
کەبری
سیمبولی
ئەکتەرێکی
کشانەوە
کەتیایدا
هەروەهاش
##نەر
##دۆز
##تز
دەردەخەن
ڕاگەی
##نامەکەی
##دەکرێ
بەباشترین
زۆریشی
ئەفەری
ئافرەتانەی
زەردەخەن
سەرکەش
پێشمەرگەش
سەرسەخت
هەتاکو
ئێف
ڕوسیای
کەمئەندامانی
لەزانکۆ
پلەوپ
بڵی
جەد
ڕب
##وشەی
##ەوشی
##اتو
##ەتوانی
ئەنجامداوەو
نێوانمان
##پێکردن
هاوسۆزی
سلیمان
پانتایییەکی
##ناوە
##ڤێت
کەدەست
جێ‌ب
ڕیگای
ڕوەوە
گەیشتینە
هزرو
خەونێکی
هێڵێکی
هاوتای
هەڵدەسەنگ
خۆئامادەکردن
##جیریا
تەوە
دبێژ
پەلی
##کەنە
##ماو
هەروەسا
ماناکانی
سیاسییان
ڕەوایی
نزیکەکانی
ڕاپەرینی
بخاته
ڕێگەیە
ڕێکخراوێک
زەرور
ئاگاداربن
هیواو
ماوەیەکه
قەیرانەکە
حەیران
ڕوە
##ێنران
هەمەجۆر
بەشەری
##ینینی
پشتبەستن
نهێنیی
بێکاران
بخوێنن
ئاسیای
دەبووایە
بێهۆش
##بەشکردنی
قودسی
پلینۆم
اد
رْ
بکەرەوە
هەڵهات
مانگرت
##گورد
باوکان
هۆیەکی
##دەکاتەوه
ئاگاداربوون
خەمس
لێکردم
کارتێکی
دوورودرێژ
دڵڕەق
March
سەخ
یەپ
##هاش
کردبو
دایەو
بەکاربهێنن
دەرکەوتووه
دەقیقە
زەبروز
مەعریفەی
هەندێجار
ئەستێرەکان
ئوتێل
دة
##خور
##oli
##ەننا
##اللە
خەڵکەی
گەورەمان
ڕابگەیەنن
دەتەوێت
185
گەنجانە
دۆزراوەتەوە
قەوارەیەکی
سادەیی
October
نیشـتیمانی
ناق
لەوانی
ماناو
برژ
دەیلی
مەسەلەکانی
ئاساییش
دیالەو
زانستیانە
بچووکترین
دیپلۆمات
بلیمەت
ئینتیمای
جووتیار
ڕؤ
##ێان
ژمێری
دەیسەل
هەنار
ئاگام
هەژاریی
وردتر
##بەڕاستی
پەیمانگاکانی
ڕژێمێکی
سەرلەبەری
دیکتاتۆریی
1961
##جل
ناشت
وتن
هەوڵمان
گەڕاونەتەوە
پرۆژەکه
دەروونیی
دابەزیوە
گۆرینی
##برێت
نەکراوەتەوە
پێویستن
گەرەنتی
دەخەم
گۆرانییەک
موسڵمانی
سایل
مرۆڤایەتیدا
دەڤەرا
توێژینەوەکە
جموجۆڵی
لەجیهانی
دوزخورماتوو
##اً
داپ
نەکراوه
کوردستانیشدا
لەڕاستی
خوله
خێزانێک
مەترسیداری
پرچ
توندڕ
هاوبەشدا
یادگاری
کیمیا
گێڕایەوە
تێدەگات
گورزی
حاڵەتەدا
دیوێکی
پەرەسەندن
تەقلید
AP
##لەندی
##سیون
##ەیەکم
هاتون
108
##ردووه
خانەکانی
خانووە
بەرپرسەی
لەکارکێش
ڕاسپاردەی
قین
گۆز
##ەهەر
سەرۆکە
گەورەبەر
لەناوچوونی
پلانێک
لێدەر
بەجێبەجێکردنی
دیارکر
مسعود
ـەوه
##بة
کۆمەڵدا
##ۆڕشی
گرتووەتە
گەرمو
پرسیارەکان
قەدەری
هۆشیارکردنەوەی
سۆمەری
نەزانێت
ئەلقاعیده
شۆپ
ئەوڕۆ
دوادا
هەولێرە
بڵاوکر
مەسەلەکان
ژمارەکا
گۆڕیوە
##ئیسلام
بڵاوی‌کردەوە
حال
خرای
فلی
##اوز
##ۆنس
بووبن
##ەفەری
کاتەکانی
ڕاگەیاندو
ماوەو
زەرەری
بەیاننامە
بەڵێنیان
نادیارە
ڕیشەکێش
کاردانەوەیەکی
خواوەند
حەویجە
ینک
##نوسی
##od
##th
بەگرنگی
بەوجۆرە
ڕاستییەکەی
گەرِی
بەرهەمێن
پیاوانە
نەوتییەکان
بەعقوب
سووڕ
نوسیوە
سۆڤیەتی
وەزیف
نیان
##درێ
##ەنده
##ەوەیی
بێری
پێکەن
بەکتری
بڕه
ستراتیج
قەڵاچ
پێشکەوتنە
بنووسن
کوشندەی
دۆم
##باخ
##گۆری
##ڤۆ
##ِای
هاودەنگ
بەکو
بەنرخی
مەدینە
وشەو
##گەهێ
بەخشش
لەئاستێکی
پێشوازیان
نێوەندەدا
سەور
##شنی
##ئاڵ
##ێنرێ
دوبار
لەرووداو
دواخست
شەوو
بارەگا
حەشارد
بەوەزارەتی
غیابی
چرای
##بۆڵ
بەڵێند
##دیوی
پارەکەی
ئاسۆیەکی
براکانی
تریشدا
پێکهاتنی
نوێیەکان
میلانی
هەرچییەک
وەفدەکەی
وەردەگرین
ڕێکەوتنێک
دووبارەکردنەوەی
جوڵە
لەهەڵبژاردنەکانی
ئەحر
سەقەت
ڕێسای
هەڵمەتە
ئەتلەتیکۆ
سـیاسی
ئابڵوق
توندوتۆڵ
بۆئەوە
##راوەیی
ڕۆحم
دەرامەت
دووگیان
حیزبەکەیان
هەوڵیداوە
بڵاودەکاتەوە
ستای
ئەمنیەتی
سازە
تەلەع
ئەنفالدا
مالپەر
ئەستوور
کەبەش
وەرنەگرتووە
مایکڵ
رۆی
##ەمید
لەکەرتی
بەپـ
پیَ
مادەیەکی
وەرگرتووەو
حوکمرانی
وئەم
دەخوێند
زیندانەکانی
لەکۆمەڵگای
زاتەیه
وەحشی
مشتومڕی
هەلبژاردن
بەکە
پارساڵ
سودێکی
چاوس
بابم
قسەکردنی
##ەعی
ئەمەشە
کاریگەرە
##وپێکی
کۆیه
پێشمەرگەکان
ڕەخنەیەکی
سنورە
##ئەندامی
شۆڕشگێڕانە
ڕەفعەت
ڕابکێشێت
December
##وێل
زۆره
ئاوەها
تورکە
گۆڕینەوەی
ئەڵقەی
چەکێکی
مامۆستایەک
##شەممەدا
جەماوەرە
زانستییەکان
پێشمەرگەیە
حەوتەمین
جگەلەوەش
فازل
مێرگەس
August
تد
عاق
یەڵ
##مێر
بەگر
هەرەشەی
هەڵچوون
سیما
دەسـتی
باوو
لەدروست
تەلە
دەڕژ
باخچە
بەخوێنی
زامدار
ترۆپ
اع
یونی
##وورین
کێشەکه
چارەسەرە
خۆپیشاندانیان
دڵنیابوون
بەیەکتر
کۆمەڵگاوە
سوتاند
لەچاوەڕوانی
پاڵاوتنی
پۆشاک
##ەکن
سیس
##کردنى
109
کەوتووەتە
شەقامە
بەهەرێم
میهرەبانە
خانەوادەکەی
ڕومادی
بەروبوومی
##چەیەک
##ob
لەمەسەلەی
بەڕە
کۆمپانیاو
پێنجوێنی
ترسە
##گێڕان
حاڵەتدا
ئیدانە
تەمەنم
بەندەی
دادگاکان
بەمانایەکی
تراژیدیای
هەمەلایەنەی
هەردوکیان
ڕێوە
##رێژی
##ەردا
بووینە
لەبەیانی
سلێمانییە
خراپه
بەدیدەکرێت
دۆزینەوە
سعودیا
بەرجەستەی
تیپەکەی
جۆزێف
بەجێدەه
بەکالۆری
ڕەد
##ِم
بەرەکەت
##ۆرەی
##یرۆ
سیدی
##ەپێد
ڕاسته
##ots
ئەساسی
وایکردوە
ئێزید
مەریەم
سولەیمان
جەڵتەی
لێڤەرپول
بگریت
جگەلە
زڕ
عاتی
مْ
##لال
ئیه
##ەهر
بەشەڕ
لەهەنگ
جیاوازو
عەبدولڕ
ئاکار
پێشمەرگەیەک
بەرپرسیارێتیی
سـن
کێڵگە
دڵتەنگ
هاولاَتیان
Nov
##شوێن
دەلی
کاتەش
ئەوانن
چیم
لەڕوو
##گەیەنێ
دەشێو
##کریە
خانەقینی
ئایدز
ڕیکخراوی
ناڵێت
ڕەوانەکردنی
ڕاستەقینەیە
کۆنفڕانس
##وەندیی
##حاق
##ەویستی
##وولەی
کەق
هاتونەتە
ئەنجامێک
خوێندکارە
پارێزگاو
عەرەبەکانی
نەیات
زەردەخ
سۆسیالیزم
کارتێک
شەپۆلێکی
پێوانەیی
ڕاکردنی
##اگرتنی
##سیت
دەرگاکانی
پارەکە
هیگل
بارگ
لەئێمە
نامۆیی
ئەفەرم
بەعەرەب
دابەشبوون
##ەکەمەوە
ئاکەپە
ئامێرێکی
لەئەمریکا
هاوکاتیش
##دانەی
##شەمە
سەرخۆش
دەکۆڵ
بووەته
سوارە
##دارەکانی
ناوچەدا
عەرەبییەکان
داهاتووشدا
هەلەو
کۆڵەکەی
بۆچوونێکی
دیدارو
شکستیان
دیکتاتۆرییەتی
چاوەڕوانکراو
ساویل
لۆکاڵی
نیگارکێش
محمود
بح
فۆ
##PG
پێزانین
دروستبکرێت
چاوچن
##تەرز
بڕیاردەری
بەحزب
ووڵاته
لاتین
وەنەبێت
ری
نەل
نەقی
##هیم
##ونس
دووم
سیاسیەی
ئەنجامدەدەن
لەپای
کەرکوکە
بەشداربوونی
گەرمای
بەجینۆساید
ڕاپۆرته
هەستیارە
خەتەر
لێکردووە
بڕۆین
درێژخایەنی
UN
an
##33
بەرفر
کۆدەکاتەوە
تاڤ
بوارەکان
ئەندێشە
دەوڵەتان
ناچارە
لێواری
تێکۆشەری
پەیوەندییانە
بەهرەی
قاسملوو
سیاسەتمەدارانی
فەیلەسوفی
چواردەوری
##ide
ئاوارەیی
کۆنتڕۆڵکردنی
هێچ
وەق
##خۆن
##ie
لەگرنگ
یەکه
ڕوویاندا
گوتبووی
باڵە
دارێژ
##دەداتەوە
شوێنیان
بزووتنەوەیە
حەزو
وەردەگرت
دەنووسم
This
لەخوێندن
موجاهید
##تێر
##out
تێدایه
##کوژیی
دەگونجێت
106
##اهید
##پانیای
گرتۆت
جیهانیەکان
سپۆن
ناحیە
پرۆژەیاسای
کولتووریی
ئیخوانەکان
هەلبژاردنی
ناگۆڕێت
زرێ
##کییە
##سترد
جیای
##ژینی
ئایەتە
دەنگدەری
170
چالاکییه
بەیەکێتی
8915
پیتاندنی
ڕواڵەت
Jul
بەوت
##ڕدرێت
##ێنه
##نامەیە
بوارێک
بدەمەوە
ماڵیان
ماده
مادەیە
نەدەدا
عەرەبییە
سیاسییەکەی
گێڕا
ئەکتەره
سێشەممەی
دۆڕاو
بهێننە
مەخموور
نڤیس
سیی
چێوەی
##نگی
##زەکان
##گاکە
##ruary
ئەخو
وڵاتەکانی
دەیەم
116
دەڕەخس
ئاگادارن
مەنه
ڕِۆژ
لەمێژوودا
سەقز
پترۆ
فرسەت
گاردی
##44
هاتو
ئاسـ
دەنگۆ
پەیوەندیکردن
##خوازانەی
بخرێنە
داواکارییە
ئەکتەرەکان
مەملەک
دەژیت
هەڕەم
پرەنسیپەکانی
لەدادگای
کالیفۆر
وتووێـژ
##بوانی
سەرخ
نوێک
هێزەکانمان
نەگرتووە
ئەڵق
##خانەکەی
##انەتر
کلنتن
بەقازانجی
دیموکراتیەت
بکوژێت
لامەرک
لیۆنێل
ڕەمەزاندا
بەرپـرس
پەرتەواز
ڕاوەستان
بەپـێی
بێمان
##ەکەب
##ەکەداو
##اڵەت
##انەیی
ئاوەز
بەتەنگ
مامەی
وەگەڕ
ئەبەدی
میرۆ
جێگایەکی
##ەسەلاتی
سەرپەرشتیی
February
قاس
##ەنای
##اقە
##دانێک
ئارێز
بزنس
دەستگیربکەن
کەئەوان
کەئەمە
پشدەری
گومانم
زۆرینەیان
ئەشکەنجەدان
لێپێچینەوە
قاق
کیت
ئۆفیس
فەرمانگ
لەشفرۆشی
جیاوازەکاندا
ڕۆشنگەری
پرِداهات
فەزا
تاوەکوو
کێر
##حەد
##اتنی
##ێکەوه
دیکەشی
کەسێکەوە
کاڵای
ئەوەنده
نوێبوونەوە
پیلانگێڕ
فەش
چەتە
کەوە
##دەرانی
##ژێری
##ئەمین
لەبوونی
##اوەیەک
دەستان
هەرم
ناوەکانیان
ڕۆژهەلات
ڕافی
ئێرانیان
لێره
ڕەتکردەوه
هەشتاکان
داخراوە
فەرمانڕەوای
کۆبونەوەکە
غەدر
تەمومژ
کێی
##جر
##چەکانی
هەرەز
##ەهان
لەسەروبەندی
وڵاتەو
پێنووس
کەلەبەر
ڕوونکردنەو
دەسەڵاتیش
جێبەجێکاری
پێشانگایەدا
دەرببڕن
حو
##اچوو
کوردسـتانی
##دەکرا
ڕێزگرتنی
گەشتێکی
ڕونکردەوە
تێڕوانینە
لۆج
دروشمەکانی
لێپێچینەوەی
##وندوتیژی
حەری
##دەکردەوە
##باش
##یشن
دووکان
کەسدا
موسی
لەبەرهەم
دابنیش
ئاشوری
ئەفسان
کاریگەرییە
##رائیل
کۆمەلگا
نەخۆشخانەیەکی
دەهاتن
بنووسێت
##ەلەرزەی
بەرشەلۆنه
لۆگۆی
گڕی
هاونی
##زیکەی
##رینا
تاکسی
ئێوەو
دەموچاوی
##نیشدا
نەویست
داعشیان
##بینکردنی
ماسول
زەحمەتکێشان
فایل
نێزی
وەفا
##ئەوه
دەرن
گۆڕستانی
گرنگترینیان
لێرەشەوە
نووسەره
سازان
گەورەیەو
سێیەمیش
پێشمەرگەوە
بروان
ڕادەگەیەنرێت
پایەبەر
دەورێکی
##ُواْ
سنوردار
یشدا
##کاوە
##رق
##ڕاق
##ووەته
ئەوانەدا
پێودان
الاس
بەتێک
تاوانکاری
تەندروو
مامەڵەیەکی
کەیوان
سەردەمان
مولازم
یازدەی
##ەشار
هەڵدانەوەی
##ۆکس
##رسە
بەخاوەنی
تێکڕا
لیژنه
مانگێکە
سزادان
گواستەوە
مەخابن
لەریزی
تەکی
حەف
کوژی
##ەدینی
ڕۆل
دەستکردی
##ەسەکردنی
بەڕێگەی
سەربازیەکانی
عەقلی
موسڵمانانی
##خواردنی
دەژمێردرێت
یەزیدی
##ِک
بهێنێتەوە
##رۆپ
بەدەس
بەکێش
پێیڕاگەیاند
ئەرستۆ
شوێنەدا
چۆنێتی
شەهیدەکان
135
کاریگەریەکی
وابەستەی
##اوەڕی
ئاڵوگۆر
مخابن
ئارادایه
زاد
شه
قاپ
ڤێر
بەڵاو
یانەکەمان
داوەته
یاساوە
لەدەنگ
دامەزراون
نووسەرێک
سکۆل
کارمەندێکی
بەجۆرێکی
زاراوە
چەوساوە
تەئکیدیشی
زیادیکردووە
عیزەدین
ژەنیاری
فڕی
لۆری
پوو
ئەسی
ئەژین
##ەنیە
بەڕێوەیە
چیاکانی
سوپایەکی
باوەڕدار
بڕیاریاندا
لەبارەیەوە
زیانلێکەوت
450
فەرمانڕەوا
##ژەنتینی
فراکسیۆنەکان
ئامرازێکی
نەریتێکی
جومگەکانی
فەخامەتی
نەزاهە
مەدالیای
add
##چوار
گوایا
##ێیتەوە
پاراد
بەڕاش
لەبوارە
سیاسیانە
لەبەرەی
پرۆسەیەدا
تەقاندەوە
کۆنگرەیەدا
خۆماڵ
حەسەنی
کەهاو
تەنگەژ
وردەکارییەکانی
مەندەلی
بەختیاری
لێسەندنەوەی
ویس
##تۆر
##اتدا
خۆى
##ومێدی
لەنووسین
لێپرسینەوه
پارتییە
##orm
ڕێککەوتوون
ستانداردی
موسلمان
لەنەخۆشخانەی
هەواڵنێری
##ڤار
##ابا
بکری
شێوەک
لەناوچوون
182
مەککە
ترسێکی
گەشتە
کارکردنە
##ڕاگرتنی
سەرکوتکردن
##age
پرِۆژەی
ئەتلەتیک
کابینەکەی
بولگاری
پات
پاگ
##ft
تۆل
لەدڵی
یارییەکەدا
مۆرین
سەربازییەوە
ئاستەکانی
ئاکر
لەجۆری
درۆو
سەمەد
##بەد
##ووسەر
ئەژم
##ەسپی
منم
ڕابەرانی
فەرمانگەکان
بەشدارییەکی
دایکانی
##ont
فەرمانڕەوایەتی
لێدوانە
جەنابت
corr
سستی
عمر
ڤیان
##ویستی
##ەتەڕوو
بەرەسمی
تاوو
بکاته
الو
بەرامبەریان
نەکردبوو
شەرق
خەباتێکی
میللەتێکی
تەسبیح
بومەلەرز
هەلومەرجێکی
being
کانتۆنی
دەمامک
جۆربەجۆر
فواد
گیت
##وسیا
##شادی
کۆڵی
چارەسەریی
وتنەوەی
ئەلێ
بەرپرسن
بەرپرسێ
پرتوگ
سەرنەک
بوومەلەرز
شارەزاو
سیمبول
لادێ
هۆلا
لید
##ەنبیر
بۆه
باشن
خاوێنی
کەلەلایەن
##لانا
تەرخ
##ەکانمدا
نەفرەتی
غەریبی
مەسیحیەکان
نەرمین
حیکایەتی
ژیرانە
گەڕەکەکانی
زیندووە
تەخ
تارانی
پێوه
وڵاتەکەدا
ترن
ئێوار
هەوڵم
بڵاوبونەوەی
میلەت
ڕازیکردنی
جنسی
تێدەگەن
بێجگه
مێژوونووس
Ple
سا
مّ
بەژیان
ئەوها
سەروی
هەرەوە
##بووانی
موەل
بڵاوە
بەمرۆڤ
ڕواندزی
یاداوەری
هاوسەرگیریی
بەدڵنیایی
Ch
##اددەی
هەڵاتن
##ێندرێتەوە
بازیان
قوربانییەکانی
270
سیمایەکی
سورە
جۆراوجۆرەکان
گرووپێکی
تێدەگەین
##ـــ
بِال
گەریلا
دەستتێوەردان
چیتان
وۆرکشۆپ
وإ
##اودا
ڕۆز
شێوەو
لەدۆخی
##وریا
گوناهی
لەتەوەرێکی
چەکداران
وانەکانی
شانۆنامەی
بوێرانە
بوی
شارب
127
##کەرەکانی
دەخەمە
نەیهێشت
ئەمساڵەوە
پەلەی
جووڵانەوەی
##ugin
دوودڵ
وەکه
ببەین
118
بازنە
شوێنەکەی
فیلیپ
بەیاس
کوڕم
گوێگر
جەژنە
هەڵبژێردراو
##نووسین
گوناهبار
زانکۆک
ئەشکەنجەی
فەزایەکی
سیاسەتمەداری
ڕەخنەگران
سەرمایەگوزاری
خوێندەواری
لەمبارەوه
plugin
##‌تر
کۆدەنگ
##ەزام
##ەدرید
دەدەیت
پلات
توانیی
##ism
نەزانن
بخوێننەوە
پەیدابوونی
پێناسەیەکی
ڕیزبەند
وابزانم
دەستپێبکات
خێڵی
##ەنێت
خۆرا
ڕۆژئاڤ
بدەی
##الیستە
ببینی
بگەنه
نەدانی
زیندە
بەگوتەی
شەوێکی
شاعیرو
قاچاغ
Comment
وهەڵ
##اا
##فیر
##گەرا
بەهۆ
نەبەست
##ۆتامی
لەبان
تێچووی
##ێندرێن
هەوڵدانی
حزبوڵ
هونەرمەنده
تەمەنێکی
تێرۆر
پەراوێزخستنی
هاتووین
جەهەن
پێکهێنراوە
کەچۆن
enter
##ێنێکی
بکاو
##گرامی
ئامارە
جیادا
ڕووتی
ڕوونیش
سەربه
دەوڵەتەوە
نەدان
ئاستەنگی
##اڕێدا
مەدەنیی
زەینی
لەپێکهات
مسوڵمانان
ئەحزابی
شڤان
##وێستی
##سەپ
خوایی
هاوەن
گرام
وەریان
کەرە
داناوەو
لەسێد
کەوتنەوەی
خواردەمەنی
##ـیەوه
##نداڵی
وەلات
گریانی
نەسر
سەکۆی
ساڕێژ
جێندەر
کۆمەلاَ
ڕاگری
##افە
بندەست
ترش
بیرکاری
##انیشەوە
یاریزانه
بڕوخ
واقیعێکی
ئاڵۆزە
هەڤاڵان
ناحیەکان
دانوستانەکانی
ڕوداوەکە
نەزانراوە
تەلی
حەن
##ەُمْ
##دک
بۆب
کوردین
سیادی
مافەکان
تەنفی
112
ناوبردنی
کوژراوەکان
ڕوداوەکان
لەکارکێشانەوەی
ڕەنجی
تەلەفۆنیدا
نفوزی
لەئەوروپا
address
Please
آل
‬کوردستان
سەرتان
هەراسان
ئیلی
##وکاس
نەبوونە
باغ
دوورەوە
لێبکەوێتەوە
دڵنیاین
ڕاپەڕینەوە
لەکۆبونەوەی
##بهێنین
بەنموونە
خاچی
sett
لەوجۆرە
گەلەری
چاککردنەوەی
بەیەکدا
دەخوێنێتەوە
نەفام
##فرۆشن
پاییز
میشێل
##weet
نایب
کُمْ
##میل
##زاق
##ڵێکی
##‌شەممە
##ەکانه
هەرِ
کردبوون
##اییش
پێکبهێنن
ئەنسار
بابەتەی
پـی
گۆڤارە
چەپکە
ڕیشە
وێستگەیەکی
ڕێـکەوتن
ئایدۆلۆژیا
حوکوومەتی
API
مامی
‬ئ
##ەرزی
بەتی
کەحکومەتی
##ینۆ
##ینێت
سیڤیل
دوع
بەشدارە
گەردو
نابوو
ئەسپی
کوێخا
##ەکتەبی
خوانەناس
بەپێچەوانەشەوە
تشت
جادە
##ەیاڵ
بوومە
بەشم
ئیسلامیەکانی
##ێننەوه
خستۆته
بۆیەکەم
گەنجەکان
پێدێت
میران
هیوایەی
دادەنرێن
ئاسماندا
چەشن
گوزارشتی
گوێڕایەڵ
وادیارە
یوونایتد
جارەی
دینە
سمی
یەکسانە
شێوەکان
ئەنجامدەد
مەرام
ڕۆژنامەنڤی
حەمدانی
خراپەو
کەئێمە
خێزانەکان
چاوپێکەوت
پیرۆزبای
بێنه
پڕوپاگەند
دوێنێش
Tweet
عال
قاب
##رانە
##ەبەست
بهێنینەوە
ڕۆژێکیان
لەسەرەکان
ئەنجامەی
دادێت
پاراستووە
بەسێ
داکۆک
دەلال
وشکانی
ناپاکی
لۆکاڵ
داڵدەد
گفتوگۆکرا
by
جانی
سێن
وێرانی
خۆمی
سیسی
ڕووەک
بیکاتە
ڕویداوە
هەژان
##گێڕانی
##ond
ململانێکانی
خەمۆکی
هاوکارییەکی
ڕایدەگەیەنن
سەرئەنجامی
ووڵاتانی
لەژیاندا
هۆلیوودی
عامر
مومارەسەی
correct
settings
##سۆز
##چنی
سەردا
##ادەت
گوله
هەزاری
ئۆپر
لەخوار
بەربەستی
بپرسن
یْن
دڵەڕاوکێی
رادیۆ
خراب
##یة
##کەوتووە
گەورەم
دەگێر
شەڕانگ
لەشان
ڕێگایان
ناوخۆدا
ئەزموونەکانی
شارستانیەتی
عیراقێ
ناکۆکیی
پێتوایە
ئەفسەرانی
حیکمەتی
بەکرێگیر
هەڵناگرێت
spamb
ڤیاریال
spambots
ڕێر
دەفت
##لیش
پەرداخ
لەدۆخ
##ێڵە
کەنەدی
بیناس
لەوەیە
دەهێنم
##ەدەرەوەی
پابەندن
فاشیست
ئینتەرناسیۆن
مۆڵەتیان
هیلاک
هەوڵدەدەم
ناگەڕێتەوە
ثم
چاند
یەم
##وەتەوەو
##په
##سلم
##‌یان
لەسەردان
##رێنه
برام
پەیوەندیم
درێژەدا
گرفتێک
گوڵان
پەنجەکانی
کلیل
جووڵە
دەپارێزن
هەرزەکار
شوفێری
##جەرگەی
شاس
##اینی
یەکەو
هەمووانە
ناجی
##ەلیم
بەسەرجەم
##ەییدا
##وبەری
نەچووە
باوەڕە
دواڕۆژی
##گەڕی
سادەترین
تەقینەوەکه
کادرانی
مشەخۆر
سیڤیلیا
تۆتالیتاری
بانە
پیی
ناوەوەو
عێراقییه
مانش
خزمەتکاری
بەسۆز
کەباس
شانازییە
براکوژی
سەرهەنگ
بنەرەتی
زو
ناڵە
##ینەکان
گوێدانە
کارتۆن
بێتاق
##وویەک
لەکارەکانی
ئاواره
ئاوەڕۆ
لەپار
##ویەکی
گوناە
کتێبەدا
ڕادەوەست
مێژووییەکان
##دەبێ
ئافرەته
سەربازەکان
پشتگیریکردنی
بەیاننامەیەک
داڕشتووە
موسڵمانەکان
دوابخرێت
بجوڵ
بەهرە
پێچەو
نارِ
سووتاندنی
بۆمبێک
سەنتەرێکی
html
کتاب
لەگەرمیان
تُ
##پاڵ
خۆمە
سیام
دەستکەوتنی
##کردنەکە
بەوەک
دەڵیت
لەهۆڵ
خوارەوەو
یەکترن
کاندیدە
مەجلیسی
لایەکمان
بودجەیە
ناشیرینی
ئوردنی
شایەتحاڵ
ییە
##سوک
##چۆن
##ەرەوەی
بەزیاد
##ێتیان
##داوو
دەویست
ڕابوارد
ژنانەوە
بابا
##کارت
پارچەیەکی
##کەینەوە
ڕوسیاو
ملوانکەی
پـێـنجشەممه
پنت
چەرم
##هەزار
##ەنسا
بەردو
ڕاگوێز
##ەساز
لەگەش
##یلمی
لەمامۆست
لەبز
بەنووس
نەخۆشیە
هیدایەتی
فراوانە
جێ‌بەجێ
یاداشتی
##لیکس
هاورِ
کۆمەڵەو
پاشـان
گرتووه
چاکەی
دۆزرایەوه
لەخۆگرتووە
##ۆپۆزسیۆن
ئایدیۆلۆجی
ئیخوانی
تورکمانەکان
تەحەم
سیفەت
دەخرێته
بێنن
خەنج
پەکی
گەه
##بەیەکی
دەرکردن
تێچوونی
##ێدین
ئەوروپاش
ڕەشەکو
بەیروت
ڕاپۆرتەی
بەڵگەیەک
ئامادەنین
نەرویجی
پادشای
دەفتەری
حتی
زەکات
##نەه
##ڕەش
##ەداین
بوغ
تۆری
خواپەرستی
##خانەیەک
ڕوویەکی
وشەکانی
بەزوویی
کوڕەکانی
سەیرتر
پەکخستنی
پێگەیشتووە
قەتڵ
دەرهێنەره
ومن
حوکمڕانیی
هاووڵاتییانی
جووڵەی
مهاباد
غەرام
عەڕ
نش
##سمی
##قه
دەستووردا
لەکام
لەسەنگ
زۆریی
نوسرە
ئۆپۆزسیۆنە
چوارچێوەیەشدا
شارستانیی
هۆنراوە
ڕۆشنی
شەمەندەفەر
ستان
لاپ
##ەردی
بەرەوە
داناوه
بخەنه
هونەرەجوان
ئاشکران
نایاتە
عەبدولس
هۆگر
پزیشکەکان
نەفەر
خەسارەت
دێنه
کورسیی
حەوانەوەی
ڕێزلێنانی
ئایدۆلۆژیای
عەبدولواحید
تێم
##وەڕۆ
##بێنێت
##ْڕ
##ەتن
##ەڵەکی
دووز
هاولاتیان
بریارد
مامۆستایە
بداتێ
بەزاندنی
گوندەکە
##ابوونەوە
شاندەکه
لەباربردنی
سعودیەو
دینیی
موقەدەس
گێرەشێو
نێوخۆیی
ڕێڤەبەرێ
پاسپۆرتی
هەرەزۆری
یت
##شەفی
##خبار
##اریس
کردویەتی
دەبەین
بەدووری
##ەممەر
بڕیارماندا
جیاوازیەکی
ڕاپۆرتەدا
خزمەتگوزارییە
دادگاکانی
سەوزەو
ڕێگریی
ماتۆڕ
ئامرازێک
کەئەویش
بێسەروشوێن
بۆڕ
##ێندا
##ەبێتەوە
کوردبوون
کۆمان
سیاد
کارام
کاروچ
زۆرەو
##بوونەتەوە
چاویل
##ۆلین
نەغ
دەگێرێت
نزیکبوونەوە
نامەیە
نەوتەوە
دایکبوونی
گەندەلی
گرفتەکە
دادەنا
پاڵپشتیی
شەیدا
بژیت
ڕێورِەس
توت
فإ
ونا
پید
##رەسمی
##شۆ
##‌بی
یەکخستنەوەی
ڕۆژانەیان
نیـیه
##لایان
ڕاستیان
101
پرسیاریان
جیاوازییەکان
کانز
ژینگه
کۆمەڵگاکانی
کەسوکاریان
نادیاری
بگۆڕدرێت
پسپۆرانی
مۆدێلێکی
میانڕەو
ئەوسای
دەمیرتاش
تێزی
##تەکانی
##بەو
بەحکومەتی
دەکەنەوه
##جیت
بەسەرکردەوە
پلانەکانی
شەهیدبوونی
وشەکە
چاوپێکەوتنێکی
بەرچاڤ
نەخوێند
ئن
گا
##وبەر
##هێڵێت
بەرابەر
دورو
لەسەردەم
##دیس
##ەجێی
ببەخشن
ڕاگەیاندووه
زانکو
برێ
کەله
زمانەوە
برینداربووە
نادەم
گرفتانەی
سکرتارییەتی
گومڕایی
تاقمی
ولاَتی
دم
وەیان
وچەند
##شـ
##ێۆن
##ip
##ریکی
پێوەرێک
104
قەرەداخی
ئەوکەسانەی
##کۆپتەر
مۆنتاژ
تەکەت
واو
ژەم
لەتو
دەگر
##ەباڵ
##ۆرێت
##بووەتەوە
بێتاوانی
107
##اهیری
کتێبخانە
ململانی
ئۆکسی
قەبارە
لێکۆڵینەوەیان
مەریخ
جوڵانەوەی
ناگات
مۆبایلی
جێهێشتووە
زێرین
بترس
چواردە
شرۆڤەی
نوخبەی
بزوتنەوەکە
هێڕش
خێل
##ەحمان
##ێرو
لێئ
ڕێکخرا
بەناز
شەڕکردن
بەرپرسێک
تەرجەم
هەنگاوانەی
لەخاکی
لەخەبات
بەندایەتی
سامناک
چیرۆکەکە
##رایەوەو
بەبەرچاوی
دۆزەخی
1945
چنار
##شەمبی
##alih
هەماهەنگیی
ئەهلییەکان
رۆیتەرز
##اژی
##27
##ەڵێ
##ەلەو
کەسەیە
دروستبوون
بەدروستکردنی
لایەنەکەی
سەدامی
فره
پرۆسه
پاسداران
بلند
بڕوایەی
ئاینیی
دەجوڵ
بیابانی
سەرنووسەر
##هینانی
##ۆنگ
پێشەو
##ێشک
سودانی
پرۆفیش
گەورەیه
##ایەکیان
هاوبەشەکان
دادەنێ
شارەوانییەکان
گومڕا
قەدەغەی
مۆرکردنی
خۆشحاڵیی
کوتلەکان
گەشەسەندن
تەلەعفەر
al
أبی
##وام
##ڕنەوە
##سازیی
##‌ڵ
سەرکار
کردبووە
دەستەجەم
دووانیان
##یلانی
کەسێکدا
ڕۆژنامەیە
یاریکردنی
ناکرێتەوە
بەنزینی
پۆلیسێک
تەکسی
حەزدەکەم
گرێبەستێکی
Bal
##ْف
دەگەیشت
سەرۆکێ
نابی
بەئەنجامی
یارییەک
باکگراون
ڕەخنەگری
نەجی
سووتانی
1969
بەڵگەیە
پەسندکرا
دوورکەوتنەوەی
لێژنەیەکی
ساع
##کەیەک
##جم
##ێیان
خۆشترین
##ونا
دەستنووس
تۆوە
ئەنجامداو
ببنه
شارۆچکەکان
بڕوامان
وەبەرهێنەر
نەخۆشیەکانی
پابەندە
ئێکسپ
کیمیابارانکردنی
بسەپێنن
لەشوێنێکی
##کرین
کۆنەوە
##اندەر
هەڵدەو
کارەوە
##داوای
شانز
بەغدادا
کامەرانی
هەوڵیدا
لەکاتێکی
##ییەکەوە
بەناوەکانی
تێپەڕاندووە
بەرەوپێشەوە
مووشەکی
دەفرۆشن
لەکان
##ازار
لەولاتی
کاتانەی
تایبە
شارەوە
قورست
ڕوش
مۆلی
تەشکی
ئاراستەیەکی
فاشیزمی
ڕاسپاردەکانی
گەواهی
واڵا
دەدۆزێتەوە
فورات
##بدە
##پیان
##لوم
##BC
منەت
مەستی
عەبدولستار
بەنده
تەماشاکردنی
ئەمرِۆی
نەسرین
ئەتلەتیکۆم
قوناغ
دەمارگیری
هەردوولادا
زەکی
پرا
چەشت
ڵا
##‌اس
سەرێ
بهێنی
کارایی
##یلم
بەشانی
کێشانەوەی
بەمێژ
مافیان
ئۆف
بەرهەمد
سیناتۆر
پیرباڵ
سەربازگەی
جولی
پرتەق
شاعیرێک
ئامادەبن
بازاڕە
##ُمُ
وروژاندنی
بەگیانی
پێشب
##میا
##میلی
موگناتی
وەزیرانەوە
خاڵه
میدیاو
ڕۆژنامەنووسە
کلیکی
مینێکی
شکستخوارد
قەرزداری
فەوزی
ڕێوڕەس
##ptember
بەین
جور
##دەکان
##‌م
بەگی
##نیک
##اسەر
ڕۆبن
پارس
سوپەر
الان
الله
بکرێته
پیرو
ئەڵمانیاو
ڕاپۆرتێکدا
ئاینییەکان
##ریشکی
مەشخەڵ
پڕۆس
مەینەت
سعودییە
ستە
فلیپ
##طفی
##ەمۆی
ئەمسترد
##ازێک
##ەلێک
##ەشن
ناوماڵ
ئەفر
ڕەنگەکان
دەقەکە
لیستێک
هزار
سلۆڤ
پاشماوەکانی
میکانیزمێکی
لیبراڵی
بۆشایییە
لاریجانی
##چییەکان
##ڤێد
##ەنس
##ەڵەت
کۆکردۆتەوە
کەسانەن
بێدەر
بکرێتەوه
بابی
شەڕەدا
##بکەون
نوسراوی
کۆمیتە
قەرزەکانی
تەوافق
تێگەیشتنێکی
بڵاودەکرێتەوە
بەکاردەهێنێت
بسەلم
زیادەڕۆیی
ئیسڕائیل
##وشە
##ارێکدا
##وومان
##ردنە
##اندە
لەمنداڵ
جێگ
ڕابگیرێت
گرنگەی
دڵمان
دەیانکرد
دنیاش
ئیمرج
مەزاری
عەبدولرِ
پاکتاوی
بریتییه
میللەتەکەی
ئێراقدا
یەکسانیخوازی
غەمبار
نیوەرِ
September
عەبدولغەفار
داپڵۆس
Un
دلۆ
##َک
##اڵەکان
##اردین
کەمیان
دەدرا
دەیدات
خزمەتیان
دەستگیرکردووە
خێزانەکانیان
پیلانە
خۆشبەختی
فاکتەرە
ئاوڕێک
محمەد
ژبەر
پێبێت
##راوێکدا
نوێش
باڵندەی
بەکارێکی
داعشە
##ەلاحی
فیرد
بابەتەکەی
بەرِێوەب
بێباک
تارادەیەک
ئاراستەکردنی
بیرکردنەوەیە
چالاکوانان
اح
##زەیەک
##ادەکات
##ۆکدا
سوپاکەی
خۆپیشاندانێک
کێبەر
بەسترا
بریتیه
لەبارودۆخی
بەڵگەنامە
ماستەرپ
گوفتاری
دەستلەکارکێشانەوەی
تویتەر
کوردستانێکی
دیدارە
لەگەلی
##کردنەکەی
##میە
ئاودا
تەواوە
لەلایەنە
ئازادیدا
توێک
136
گەرمە
نییەت
پـۆلیسی
شیروان
غەف
چاڤی
کگم
##ئا
نیگا
دابوون
##ارانەوە
شەڕەی
خاڵانە
ئابووریدا
پێغەمبەرانی
جێگایەک
بەخۆم
پیلانێکی
گۆشەنی
ئەنفالکراوەکانی
ئەستێرەکانی
زێدە
نوقمی
دەرەکییەکان
خوێندەوار
پادشا
کارلۆس
موجاهیدی
##ەسـتینی
پێناچێت
ئەلئەسەد
شەت
##ارێن
کۆمارییەکان
دورە
لەسالانی
هەوڵانە
هەوڵێکە
نزیکتر
جاشی
##ودۆخ
هۆگری
لەخەمی
دادگاوە
فیرقەی
دەدوێن
فێدر
ئنج
دەتە
شعر
##سەم
بەرگە
دیسپ
جیاکرد
##دەکه
کوردستانیی
ئەلش
دوورخست
فیلمسازی
تیرۆریستە
##کارییەکی
دەبیننەوە
دەڕوا
هاوسەریی
داڕشتن
دەقیق
بەڕیز
ولیام
گورجستان
کاست
یک
##ڵەتی
##لێمی
پشتەوە
پرۆسەکانی
هەلەبجە
بەداد
کورسیەکانی
پێناوەشدا
1967
ڕێکەوتنێکی
داخوازیی
کەرەستەکانی
ئێکەتیا
تەت
تانە
حز
دکەن
##ەکۆن
پێڕ
##گایەک
تالی
ئازارێکی
الغ
ببە
دامرک
##گەیەنێتە
بڕیاریش
مێژووەکەی
وەلان
##بخاری
ڕووخاو
وجودی
ناودارترین
زاتەی
لەهەرێمدا
لێخۆشبوون
##ساس
##دیری
شێوەکاریی
مرۆڤانەی
عێراقیدا
نەخۆشییەکی
سنوورییەکانی
بیستن
هەشتەمین
شێوازو
باپیران
دەپرسین
دەفرۆشرێت
شوور
گشـتی
یەمەنی
##زوو
##مانەکان
لەگەڵمان
نێویاندا
پێوانە
ڕێگرە
ڕابوو
مەحەمەد
پڕاو
دەکردە
خراپەی
بردۆتەوە
##بونە
1972
دەلێن
شەپۆلە
گرتۆتەبەر
عث
فانت
کێری
##ابین
هەرێمەکە
دڵۆپ
هەوڵەی
تێکب
مادەکانی
##گێڕن
وەڵامەکەی
داڕمانی
ئاگرکوژ
ناحیەکە
ڕۆمانیا
فریاگوزاری
دڵتەزێن
کرماشانی
Sh
کة
##شیا
دانایە
توانراوە
دووربخ
پشتیوانیکردن
1973
گەیانده
پێداویستیی
بتراز
گرێدراوی
حیجاب
او
شێتی
##کەیە
##جن
ئەویدی
دەگوێز
##ەلێ
لەگوند
##نامەیەک
ناڕۆ
ئاوێکی
شارستان
لەڕاست
خاڵەی
سەرچنار
قەڵەوی
لەخودی
پاریزگ
پراکتیک
زلهێزەکانی
ناودارەکانی
بشکێنێت
بازرگانانی
ئیمپراتۆریەتی
بەگژدا
دەستەمۆ
ڕەزای
ئازارە
ڕێکخراوو
پیاوەی
لەناوەوە
لەئازادی
تونێل
ڕوئی
کەوتوە
بینراو
سزاکانی
سازانی
##ایندەی
کەبت
سێیەمدا
دەنگداندا
سروشتییە
هاوکارییە
کەشوهەوای
نەخوێندەواری
بەبیانوی
ئەردەڵان
سایە
قینی
##٠٠
لەدەورو
کۆبووەوە
یەکبخ
دەستدانی
##یستن
دەنگەکانیان
مەسر
شکاندن
هەفتەیەی
گومڕ
سوتانی
عیڕاق
کەڕوو
لێکۆڵینەوەکانی
وەزیفەی
لەڕیزی
هاوئاهەنگی
لێکتێگەیشتن
هۆنی
کێتی
یەکدەنگ
##اشەوە
لێـک
پێوەرەکانی
##اژەی
هەگ
##فیک
خولق
کەبێ
ئاسمانەوە
وەستاون
ململانێیە
ڕێکەوتنە
پێیڕاگەیاندین
زگم
##دارد
##اریەتی
##ەبکرێت
کۆکردەوە
##زیف
##یستا
یانەکەیان
زیو
وڵاتەکەیدا
دەداو
خۆشییەوە
چیاکان
کردوویانە
یاسایانە
یاساییەکانی
دەڕۆیشت
ئەرکەکانیان
سەرکەوتنەش
کەتەل
1950
جەزیرە
مراد
لەبەردەستدا
دەپاڕ
تاقیکردنەوەکانی
ڕین
##‌سی
کۆرس
تەمەنە
چەکیان
فیفا
مەبەستمە
زانیاریەکانی
یارمەتیدەری
باخەکانی
ناکۆکییە
خەتاب
تۆڵه
ئۆغڵو
بەدبەختی
نامانەوێت
##وووو
##ەتەبەر
کوردستانم
بێچ
دەڵین
بەبواری
بەئاڕ
نیشتمانییە
جیهانیان
ڕەخنه
##ەمەگر
سەرەکین
بنەڕەتیی
ڕووبەرێکی
ناڵێن
میلیشیایی
پێشهاتە
قەناعەتی
سۆشیالیزم
زەلیل
توی
جیر
١٥
کاردەکەین
ڕابێرت
لەئەن
هێنراوە
پارێزگاریی
هەنگاریا
پـشـتی
سالاری
پەنابەرە
پەلەکردن
دۆزیەوە
تێوەگل
دەستڕێژی
##دەیان
##بەخشی
##ژا
##ًَ
##ەیس
دەرهێنا
##دانه
نەکوژ
نەکەنەوە
بەلەم
فرۆکەی
بەریتانیای
پەیامنێرانی
##ەکرنا
فلمێن
بەئەزموون
ئامۆژگاریی
دەنگوباسی
ڤلادی
ڵی
##ببێت
هەڵگورد
هەوار
نەبم
##اهو
هەستا
دەزگیر
هونەریدا
فرید
##ناکەن
بەهەرێمی
لەکۆتاییشدا
قووڵایی
زلهێزی
##انەیه
##اشیان
ئاوەڵ
##ەییەکانی
خۆشح
بەدەستیان
نەخۆشخانەکان
قوربانیدانی
دێموکراتیک
##ord
نەزانین
کەڵەکە
چووین
زەقی
قومار
##ِب
لەناوبردن
ئەمەشیان
لەشاخ
نووسراون
بۆیەیش
هونەرییە
تاڵانی
لەخەو
سەیرێکی
مەزنترین
نابینرێت
هاوردەکردنی
ئایدیۆلۆژیا
ڕانیه
ئوتومبێل
یارو
##شتوانی
موف
لەدوور
لەسەن
بڵاوبکرێتەوە
##حیمی
فیلمەکان
هەواڵگەی
لەوەیش
مامەڵه
مەسیحییەکانی
ستراتیژییەتی
کابرایەکی
گردی
ڵک
کردارە
کوردستانمان
هەولیر
لەپرسی
نابینیت
پێویستیشە
کراوەکان
ڕێکخستنە
مێردی
نیشانەیەکی
بڵاوکراوەی
نییەبە
لەئایندەیەکی
حورمەت
ئازەربایجانی
ئۆقیان
بلاَ
##زل
##گاس
##ێنەوەو
##ادة
نێودەولەتی
بنێر
لێڵ
بکەنه
##ێریت
بیرێکی
پەنهان
قوربانیەکان
شتێکمان
خەلق
گۆڤارێکی
ببینرێت
کۆلۆم
حەیات
تابلۆیەکی
ناحەزانی
ساوایان
قەیسەر
داهێنانە
بەرامبەریشدا
نەخوێندەوار
جێـگری
کۆمەلاَیەتی
750
##‌یەکان
کۆئەندامی
شێوەکانی
دروستکردنەوەی
ناکاتە
ناکەیت
دیکەمان
درێژکراوەی
دایکیان
زانیاریەکان
سالاَ
پەرلەمانتارێک
بەقوربانی
پێکردوە
ئەمرۆش
پشکنینیان
وابووە
مەود
5000
مردوون
شەفافی
ڕوداوێکی
ڕەهەندەکانی
کارگێڕیی
عیلمانی
جیادەکاتەوە
ئاریان
##اشتر
کوبا
##کیا
بکڕێت
زۆرتری
##دوارد
##ەپێی
شەهیدکردنی
سالە
دەسەلاتدار
وابێ
موزیکزانی
ئاوەدانکردنەوەو
دۆڕان
ڕەوتێکی
بیخاتە
پێکدەهێنێت
##11
##80
##انێت
##تیژی
##ەهێشت
تۆب
بەڕەگەز
فەرام
لەکۆڵ
ڕاگەیاندین
بڕوایە
##خوازانە
دواییەدا
عەقلانی
نموونه
کۆچیان
بەرِێوەبەر
پێشوازیکرد
عادیل
تادەگ
لەوانەشە
ڤیتۆ
ئایدیۆلۆژیای
ڕاستگۆیانە
فەڵەستینی
دەستاودەست
زۆنی
فۆن
لازی
##کێت
##زاری
##چاوەی
##oh
##ەڵاتە
##ەدانە
##ستاندا
ئەندەن
بەردەوامەکانی
ماڵەکانی
سەیف
دکتور
حوکوم
##کریتی
وناو
لەگەلڕ
دەرچوانی
هێڵەکانی
تێڕوانینێکی
ئیمتیازاتی
ڕەبیعە
##ێتییەوە
بۆکس
ئەژی
##ەخانەکان
نیک
دروستکراوی
##جیۆ
خەڵکێک
ئەڵوەن
عەرەبییەوە
بەیاتی
خەلاتی
جەنگیەکانی
دۆخەدا
سەرپەرشتیار
پاریز
دووپاتیشی
ڕامیار
تەکنەلۆجی
توانیومانە
شەمزین
گەنمی
هێژا
زاک
عزیز
##فاقی
##55
دەژیان
##ەدەکرێت
لەسەروو
ئافەر
وەرگەڕ
البخاری
ناسکی
تواناکان
حەمەجان
یادگ
گەمەیەکی
پێشانگا
میوانداریی
الْأ
سریانی
گاڵتەجاڕ
اک
شاو
##سیی
کولی
هەرکە
ناوک
##اویە
##ەرمەندی
##ۆڵەی
نەگرێت
لەدنیای
مەحک
گەیشـت
چارەسەربکرێت
ڕێزم
بایر
فەرهادی
پۆستەی
دەچنه
ڕەگەزە
دەخوارد
سۆمەر
ئارەزووەکانی
کوتلەکانی
خۆکوشتنی
نۆزدەی
بەرپەرچی
ئەرِژەنتین
بەرپەرچدانەوەی
یەدە
##ۆق
##هە
##ەنجانی
هەوری
التر
تەوژمی
تایبەتییەکانی
لەئی
کۆمەڵایەتیە
ئۆپۆزسیۆنەوە
سووریادا
توندوتیژییەکان
هاوردەی
نۆرەی
لێپرسراوێتی
ناودەبرێت
میونخ
شەڵ
##مەو
##تۆنی
سەرکێش
##ەخو
بووبووە
ئازاردانی
تێف
بەڕێوەدە
دەربکەن
نابیت
ئێوەیە
دژواری
کوردستانیشەوە
هیواخواز
پاوەند
ئاوازدانەری
خەشم
بۆڵ
کەدی
سەرەنجامی
هەرەشە
بهێت
بەمجۆر
تایبەتەکانی
##کارێک
بەرهەمەکەی
شوێنەکە
##وردی
پاسدارانی
پرسەکە
میرنشین
سەرهەڵـ
داواکارییەکی
لەبەریتانیا
کاریکاتێری
دابونەریت
بەرانبەری
نییەبەڵکو
لەولاشەوە
YPG
بگوێز
لادا
کانیان
##ws
##ەندەڵی
دەردەه
دوهی
ئاسنی
کێشەمان
لەدنیادا
کوردستانیشی
تیای
پەیوەندییەک
لەشەقام
بریندارانی
هۆگرانی
سە‌ر
فەرموون
بناسێنێت
کاراکتەرەکان
لەئەزموونی
عائیشە
July
تێکی
زستانی
ژلای
##هن
##خانەدا
##ەیدی
##ێنێتە
##ێنێتەوه
دەوڵەتانە
بەجدی
دەبینرێن
ناوچەیەی
بازرگانیکردن
دیالێک
زیندانییە
هۆڵەکانی
سەرکەوتوویی
لەکۆبون
دڵسۆزانە
پەسار
##ich
گەڕانەوه
موشریک
النّ
میلیشیای
ژەهراو
سەرگەردانی
زوربەی
عەمەلیاتی
تەرازووی
##ێکەوت
ئاوها
دروستدەکەن
نەخوارد
ڕادەرب
دراوەتە
ڕێگاکان
کلیپی
شێوازەی
1971
دەریاچەی
مەدەنیانە
مووچەیان
بگەرِ
براوەکان
ڕشید
کرێت
دەچوون
دیتنی
کاردەکەن
##گرتوە
هیچمان
ساڵى
ڕاستەخۆ
برنج
بەرهەمەکان
نامرۆ
پێنجشەممەی
سازدا
نمایشێکی
دەچین
سەرەکییەکەی
پێشکەوتنەکانی
سەرکوتگەر
نەخشەیەکی
مێردمنداڵ
چڕتر
لێهاتووی
ئایەتوڵا
گەڕەکێکی
ڕاوەستاوە
زیادەڕەوی
لەئاکامدا
ناشەرعی
خەبەری
دانەی
زول
شدا
##ضر
##ستانەوە
##نامەکە
داوەری
وڵاتیان
ئاوس
دانرابوو
نەخشی
داهاتە
نەماون
دەگەڕێنێتەوە
بەنداو
ئالۆز
چەپڵ
ئایینەکان
بەڵێنانەی
سنورەکان
داڕێژراوە
Salih
اق
خت
ودو
کەڕۆژ
##ەبری
بەشەدا
##بووان
وتوە
چالاکیە
زیادەی
##ناکەم
دەقەکانی
##all
هەوراز
بپارێزرێت
لەگۆڕەپانی
نالەبار
بردووەتە
دبلۆماسی
بع
زەکەری
١٢
یابان
##دەس
##دەران
##پڕی
##ەندەر
بەرلە
##ەوەیه
ناوەو
سەربڕینی
گەنجانەی
کۆبۆوە
کەسێکیان
هەڕەشه
بگرێتەبەر
داکوت
خورماڵ
ناناس
ئایدۆلۆجی
موعەممەر
جەباری
دیدگای
ڕەتیکردەوە
مامناوەند
حق
سڤیلی
فان
##دیان
##ەترس
ئەمانەو
##بەرە
هەواری
بەولاوە
ئیمرالی
بەیەکەوه
بگەڕێت
نادیموکر
ڕاگیراوە
تاقیکردنەوەکان
لەزیندان
بەئەندام
بەوەکالەت
##چیلە
##اندووه
یەکری
##ۆکەر
##رۆڵ
موزی
زانراوە
بزن
لەوەدەکات
خزمایەتی
ژێرز
پێشکەشکرا
ترسیان
هەژارەکان
ڕۆڵگێرانی
وازهێنانی
هاندەران
لۆبی
ئێزیدی
قانع
نێرگز
1948
یەزدان
خیر
##دراون
##ەوەوە
##ەنسیا
##ەتەکان
خۆل
دەرکرا
گومانە
پەروەری
بنوێنن
ئێمەن
ناموس
داگیرکردن
پیرۆزەکانی
فراوانبوونی
نەفس
لقێ
نیزام
قل
کوردى
ئیمانی
دەبووە
ئەنجامداوه
کامەیە
پێشنیوەڕۆی
خەمبار
بگەڕێنێتەوە
سەمەر
جنێف
دیرۆکی
بشکێنن
نەجیبە
##وستی
##موون
##پێست
##‌کردنی
کەدو
##ەوەیەکی
دووا
نێوخۆی
پێوست
هیچم
لەهون
گەیتس
دۆسکی
تێکدان
بەئی
نەوج
لێرەش
بینیوەو
چارەکردنی
کۆمەڵگەیەک
ئەمەریکاییەکان
هاوسۆز
دۆڕاندن
پاساوێک
لەوەڵامدا
زەردەخەنە
ئاکرەیی
##بینەوە
##ساب
##ژێمی
##ذی
##ەبەی
##ابرا
دوی
کارەکەیان
لەمادەی
دەنگدانەوەی
لەدام
بزاو
##خانێکی
نەخۆشەکان
شەرِی
لاوازبوونی
نۆبڵ
جوگرافیا
بەجیاوازی
ڕەسەنایەتی
لێبووردنی
خۆپـیشـاندان
دابمەزرێنێت
خستۆتەڕوو
بتان
وپی
##‌ت
##ەشنی
##ەدایه
هاتنەوە
مانۆڕ
مافه
شتێکیش
##پەڕێت
جیاوازییەکانی
ئاگرین
ئەوروپاوە
دەریخست
توندڕەوە
گوڵێک
ڕەفس
ڕابوردوودا
سپێ
شەتر
##پوور
##ِینی
##ایمی
کەمەر
شاراوەی
دانەر
ڕیپۆرت
زانیار
ئەوەشە
مێژووییەکانی
##ۆلۆژیای
فەڕز
بەجیهانی
دۆکیۆمێنتی
ڕیتمی
فێنک
وخۆ
##تیز
##ێژێ
باشەکانی
لەپاراستنی
سەرکەوتووە
نوێنەراندا
دیمست
چەکداریی
چاپکردنی
سەلامەت
زۆربەمان
پێشنیازەکانی
دادپەروەرانە
ئاشنای
عەبدولحەمید
ئة
##کش
##ومانە
##سوڕ
##ەکەتی
لەدە
نوست
ڕووم
##یدارەی
ماڵان
##ەعات
خستەوە
وەڵات
ئەتک
حەرامە
لەداهاتوو
فیشەکی
لیبرال
دەشکێتەوە
سەدیق
November
لاک
##نێت
##لاق
##عام
##90
دەکە
ناووکی
دەنگمان
ڕاپۆرتەکەدا
نوسینە
دەچمە
ئەمریکایی
دەستکەوتانەی
لوبن
چەواشەکار
تووندی
ڕاگیرا
باست
بۆخۆم
پێشبر
تایبەتییەکان
خۆشویست
لەئەگەری
نمر
یەکگرتن
کەوتۆته
پیاوانەی
پیرەمەگر
کورە
ئەفغان
ئاگاداریان
بگەڕێین
لێکۆڵینەوەش
سادقی
وپارتی
ڕوونکردنەوەیەکی
سەردانەدا
دەعوە
پێچەوانەکەی
بازنەیەکی
مصطفی
ئینجیل
بیستی
فێرد
کازی
##پان
##ty
##ادانی
لەسەرانسەری
بەهانەی
##ادیمی
گەیشتوە
دەستگیرکراوە
پۆلیسەوە
یاریزانێک
پێداگیری
لەجەنگ
کۆمەڵایەتییەوە
تەیم
کەنیسە
چنگی
بەرووی
هەڵبژاردەکەی
کرنا
##هەڵنە
بەدەستبهێنن
کەوتبوو
گفتۆ
گەرمترین
سەربازییە
کردبووەوە
چاوەڕوانیی
گۆلێکی
بەهاوبەشی
شۆڕشگێڕانەی
بیردۆز
ئەزمونێکی
ئاوازدانەر
خراونەتە
پلاستیکی
عەبدولڕەز
کالیفۆرنیا
ابراهیم
##une
##اریدا
##ەبین
##ەریکا
هەڵهاتن
##یتان
ببیتە
ڕایگەیاندوە
باڵاکان
سینگ
ڕژانە
باوەڕن
ئامادەبوان
ولاتانە
خەیاڵە
سەودا
سەرسوڕهێنەر
عەونی
دادەمەزرێت
ناجێگیر
هەمەڕەنگ
گومرگی
ar
پەم
##ۆفی
##یانەیان
##مانەکانی
##بووندا
ئاوێتە
لەچەم
بەیەکتری
ئیرادەیەکی
##بێلی
دڕندانەی
کومەڵ
جیمز
دڤێ
وخو
##زیر
کۆدەبێت
ئەگەرەکانی
ئیسحاق
ئاوڕی
بدایە
مافەی
ڕاگەیاندبوو
جۆرەش
هێنری
قسەکەی
بەستراوە
پەکین
ڕۆمانەکانی
ڕودەدات
بەخشیوون
وشکەساڵی
پێشتری
بەرەنگاربونەوەی
بوەستێت
بەجێهێشتووە
کۆلیژ
لەلاپەڕ
هاوئاهەنگ
هذا
##ناز
خۆگر
##ەسازیی
هیزی
پارێزەران
باوکت
##اکانیش
پەرلەمانێکی
##ڵاتیانی
ژمارەیەش
هەڤپە
ماندێلا
بەخششی
مووچەو
کەنیسەی
قەومەکەی
شۆخ
سیحری
شەن
##ژدان
##ۆشین
بەتیر
ماڵات
114
ڕووداوەکاندا
گۆڤارو
زانیارییەک
بەڵگەکانی
سەپێنراوە
میوەی
چووینە
خانەوادە
تادێت
دەستەواژە
هەردولا
پێکهێنرا
ئۆردوگای
ناسەقامگیری
دۆرت
##جەل
##هۆی
##ووکەی
ناوشار
گولە
ئەنجامدان
گەڕامەوە
هەواڵانەی
بازاڕەوە
ڕەخنەکانی
دەکەیتەوە
بەشداربووەکان
موشەک
ماریۆ
ڕێکبخرێت
خۆڕایی
بەپارێزگ
ئەسکەندەر
وەرچەرخانێکی
ئاسودەیی
برۆکسل
چوارقوڕ
ڕشت
بۆردی
لەگەر
نافەر
میسان
بەسەرماندا
تراز
بریاره
بەوەف
بابەتەدا
جەنگاو
دەشار
مەزنەکان
زارەکی
قبوڵکردن
بناغە
ئەفسەرە
ئەقڵانی
زەهاوی
لێبووردەیی
Balen
ژیل
##ێڤین
دەکریت
##گرفتی
گرەو
ڕێیان
بوونمان
چاکەکانیان
پرۆژانەی
266
ڕێورەسمی
بسوت
بەگوێی
عباس
جەختیکردەوە
ڕوونیشیکردەوه
هەتاوەکو
تموز
گچ
لەست
##هێنانە
ئێستاکه
##ەمیدی
پێکانی
چاوەکانت
مەرد
هەڵبژاردنه
ناسری
توانستی
کوژراوانی
نایەوێ
ئاخاف
بەڵگەش
بخوڵق
ناهێڵن
ئێڤ
شۆفێران
هۆزەکانی
ڕونیشی
مرۆی
پۆتین
پێداون
لێـکۆڵ
news
تایی
ساف
هووش
##لەوە
ئیڤان
داوایە
دەنگم
شیکردنەوە
سەدەیە
بڵاوکردەوه
واتایە
##ومەرجی
بەینی
ڕەتدەکەنەوە
##ەکەوێتەوە
دووبارەبوونەوەی
یۆرۆی
بگێڕێتەوە
هەڵسوڕاوانی
لەکۆبوونەوەیەکدا
بالیسان
مێگاوات
##ەرێت
##ەبردن
خواوە
ناکام
شەڕێک
بەدەستە
سیاسییانەی
##ell
گیرف
خەلاتا
پێداهەڵ
ستەمدی
نرخێک
سنورێک
بژێو
دەستپێشخەرییەکەی
وەدەستهێنانی
چامپی
تەنگی
ـە
مڵ
##گمەن
##ئەک
##ian
##ەنگەی
##ردان
##سینی
لەمرۆڤ
بوونایە
شوق
گشتیەکانی
نیشتمانییەکان
نەهێڵێت
خوارەوەیە
گومانەوە
گەیاندووەتە
هێلەری
بەرەوپێشچوون
هاوڵاتییان
نۆڤەمبەری
ناسیونالیست
سەرزەنشت
عەبدولرِەحمان
بپێک
حوم
ڕەوەز
##ەکەمانی
بێل
حکومیەکان
کراب
پێیەوە
لەئەر
نەدەزانی
چینەکانی
بەرێوبەری
شاهین
372
ئەنارکیستەکان
بەساڵاچوو
سەریهەڵداوە
##‌بی‌سی
Pr
جهێ
ەی
خوڕ
##بەرانی
##وانێ
بێگان
کاریش
ئەلئ
##کۆس
ئیسلامیان
گەڵاڵە
سەرکەت
ڕۆمانێکی
نەنووس
ئاسمانەوه
توێژینەوەیە
عارەب
دەناسێت
ناوزڕ
داڕێژراو
پۆشاکی
هەڵـبژاردنەکانی
بروسکەی
عەین
وْم
##وێژی
##34
##انتان
##ەتیکی
##وونەتە
دەستهێنا
لەوادەی
زۆران
میق
مرۆڤایەتیی
داهاتەکەی
##بکەمەوە
مەدەنیەکان
دابڕاوەکانی
سعوودی
هاووڵاتییەک
دەکێشن
##شەمه
هەڵدەستن
ناشارستانی
حوج
‌‌
##بەیەک
ئەمینی
هاوسن
##راج
بەرزیان
درێژەیان
موسوڵ
پیرۆت
دیاردەیەک
ئاوێنەدا
ڕۆمانەدا
تاقەتی
ئێسقان
بناسێت
کۆبونەوەکەدا
قەرەداغ
بەپارێزگای
هەڵدەبژێرێت
##نەهێنانی
عثمان
یوم
##ەنێ
کردەیی
##ونەتەوە
کۆماریی
لەوانیش
هاتم
##ۆلم
الشی
بەپیر
گەلدا
##کەرێکی
فیزیک
##بوەوە
کریس
دانیشتنەکەدا
بەردباران
خالیدی
گەلەکەماندا
دەروازەیەکی
تەوافقی
کەسایەتییەکانی
تەئکیدیشیکردەوە
لەزانک
گۆشەگیر
پاپا
دەڕۆم
تازەپێگەیشتووان
لەمڕۆدا
میکرۆ
بەسەرکردایەتی
پانی
##TA
##اوییە
##ەبو
بەردەب
هەڵئاو
##روشت
ناهێن
ناوچەکەیە
نابینین
ناسینەوەی
زیندانە
تائەم
تابڵ
8916
ڕووبەڕووبوونەوە
شانۆگەرییه
##ive
هەڵدەبژێرن
لێوەی
وەختە
چلەی
##باتەوە
##َکی
##ارس
سەرحەد
##یانەوه
پەرلەم
یەکەمەوە
ئەنان
شیکا
187
پاکێ
هەنگاوەکان
مەترسیەکانی
هێجگار
گۆڵەکانی
نارنج
ئایدۆلۆژ
شاهید
کافران
داوایانکرد
دراوسێکانی
##قرة
1930
کەشوهەو
قاڵبی
قاوە
قُل
پەندی
ژەنگ
##ێیەک
میخ
التی
بەپاس
سلێمانیی
دڵەوە
براکان
شەڕەکانی
گەرووی
جیهانێ
سەرەکیترین
جوێن
کردوەتەوە
نمایشە
##ۆپۆتامی
هیچیتر
فەوز
النسا
پرەنسیپە
جێبەجێبکات
غەیب
ڕِاهێنەری
Am
١١
ڕخ
##ێرۆ
هەمزە
##ۆند
لەمجۆرە
بەڕێژەیەکی
لەدەسەلات
بی‌بی‌سی
منداڵاندا
زماندا
کەوایە
تۆمارکراون
ئەترس
دەهێننەوە
##ـتنی
سە‌
ئۆتۆمبێلەکەی
دەبووەوە
بۆچوونەی
توندوتیژییەکانی
ڕێبازێکی
داویەتی
سێمینار
لەهەفتەی
لوک
پولی
##ەرێن
کردۆتەوەو
بهێڵن
تالیب
##اژە
جاروبار
دەیڵ
بەزەی
کوڕێک
تەرخانکردووە
تێڕوانی
نەیانهێشت
یاخیبوون
1917
فەلەستینیەکان
وەستانەوە
میژووی
حورمەتی
بارگاوی
ڤۆڵ
##مەنە
##زال
دەکاتەوەو
بەکارهاتووە
##کریم
گروپانە
لایەنگران
بیانیەکان
ڕێساکانی
بیرۆکەیە
دەستەبژێر
تۆڵەسەندنەوە
مارە
وبۆ
ەکان
##سەوە
##ئێم
##ەوز
کەدەی
خۆفرۆش
##ێزەی
پەیڕ
بەڕێوبەری
دژیان
بردەوه
##ەکەتدا
شانۆدا
جەماوەردا
ناچارن
دەتوانێ
کەناڵەکە
یاریگایەکان
ڕۆحە
گورزێکی
خرانە
مۆدێلە
دێڕە
چارەنوسساز
میراتگری
ڕێپێوان
گەریلاکانی
قەشە
##راندن
##رایه
##بەکانی
##اییەک
ناوچەکانیان
بەکام
117
دەمەو
پیاوەتی
نامۆیە
ڕێزمان
لاڤ
خەمێکی
سەیریان
ئۆکس
لەجێگەی
لەدیدی
پانۆر
سەتەل
شەعبان
تێنەگەیشت
باڵوێز
##بلی
##غەمبەر
##RT
کوردم
دووانە
دابنی
دانەوە
فیلمساز
مەسەلەیەک
بچم
##بینیت
سوننه
بونەتەوە
بەرِێوبەری
داخوازییە
گرینگترین
ماددەیە
خراوەته
ئینسانە
پێوەندییەکی
##اشینکۆف
یەدەگی
KNN
بعد
##کەیان
##ذە
##صح
##یانێکی
بەرینی
خۆدەر
کارلێک
دانوس
##اندنیان
عەربەت
##داون
کرێکارە
کۆبوونەتەوە
##سپیر
##ناکرێت
0750
گومرگ
دانیشتنەدا
گرێبە
ئیشکردن
گۆشەیەکی
دەبەسترێت
کۆسۆڤ
##ورکیا
موزەف
گرتووخانەی
هەڵکشانی
دەخستە
aspx
نەقیبی
تەد
هیش
ژاک
یشی
##لز
زۆرترە
##گەرم
ڕوود
ئەوەدایە
##چیوەی
دەسەڵاتدارە
لەسەدی
شکستە
ڕەحیمی
داگیرکردووە
خەیات
جەماوەرەکەی
ئەکتەرەکانی
کۆچبەران
کۆچبەرانی
حوشتر
حەریری
صحیح
##چۆ
دوێ
داهێنەری
هاوڕی
لایەنەوە
وێناکردنی
دەکردم
زووانە
نیشتەجێکردن
تێکەڵکردنی
سووتاوە
پێشکەوتنێکی
لێکردوون
##پارتی
ڕەتیکردەوه
سەربەستیی
عیساوی
##واندەکرێت
ئاریش
##24
##وویانه
دادا
دەسگیر
داننان
دڵداری
ئازادیان
پڕۆژەو
ڕوفاتی
دکتۆری
زەردی
بەچاک
لیستەکە
سروشتیی
هەڵسەنگاند
بگۆڕین
دەورەی
فەرەنساو
دەستکاریکردنی
لەبەڕێوەبەر
دەڕوانێتە
سپۆرتینگ
بێستون
لەئەڵمانیا
جاه
خۆجێ
خوین
ئاودێر
بەدرو
لەبەرد
ئاراز
ئینکاری
تەموزی
توخوا
تازەدا
بەگفتوگ
هەفتەیەکدا
بەیاسای
بەرِێز
بەقەزای
##سکیل
1920
بەلاڤکریە
سەرپشک
ئیتلاع
بێوەژن
##یو
##فق
هەوکردنی
ببەز
فرەڕ
مۆمی
بەرنامەیەی
سامانیان
هاوسەرەکەم
تۆمەتباران
##اڤێ
هانای
ئۆرگان
کۆمپیوتەری
بەربەرەکانی
تەلەڤزیۆن
ئەلجەز
بەدبەخت
لەچارەسەرکردنی
اللەُ
ژلایێ
##ابراهیم
جیل
هەد
چێک
کاندا
##اماندا
##ییەتێکی
پێشەوەو
##گەرە
یاساش
بەخۆڕ
گۆرەپانی
##کارییەکان
هەڕەشەیە
پارتێک
ونبوو
خوێندکارێکی
وەرزشوان
دێموکراتییەکان
خولەکێک
جلال
3000
لەبەردەستدایە
ئەفسانەیی
ئەلبومه
نادادپەروەر
ئاڵتون
الْمُ
أبو
ددانی
لێز
لۆز
گەز
##فۆرد
##ئاخ
##ەتاو
##ێرەدا
ڕۆژانەش
شوێنەکان
پۆستەر
ئیسرائیلدا
لەجەنگی
سەمفۆنی
956
گرانب
نەگبەتی
ڕۆبۆت
فتوای
ناوەرِاست
ئانی
لووتی
کەگو
بکەوێ
هەڵگر
##ەوترێت
کارگەیەکی
کەسەوە
فەرز
لەهێزەکانی
گەلەکەیان
بڕیارانەی
حکوومەتێکی
جاڕی
نادەست
گەردنی
##ions
لەسێدارەد
بەرگێکی
پیاوسالاریی
نادادپەروەری
لەڕێوڕەسم
ئس
ةِ
##آن
بەزان
پێبکەین
##ەوەیەو
خۆیدایە
چاونەت
دەربچن
توێی
##اندنێکی
هێرشەی
حوکمە
بەستراوەتەوە
نیگەرانە
خۆشەویستەکەی
بەهرەوەر
بناسرێت
ڕەنجدەر
جومگە
ئامادەکارییەکانی
بەلاڤکرن
ڕەنگاوڕەنگ
بەکۆمەڵی
خوشکە
هەڤپەێڤین
شەکەت
فاو
ڕەی
##ڵد
##ld
هەڵەیەک
داخی
لەمەدا
کاتانەدا
ساڵڕۆژی
بوونەوه
تێگە
کوردیەکانی
بیهێن
##پەینی
داعشەکان
ژیژ
بەخۆشی
ساتێکی
هێمنانە
داواشیکرد
لێکۆلینەوە
لێوەردە
سەرپەرشت
لالی
ڕج
##ئۆ
##86
لەخۆش
بەدانی
خۆتی
##سیە
##یشەی
ڕاڤە
##وتنەوەی
ئاسودە
لەبڕ
دروستکرا
##وبون
سێهەم
گەران
ئازادانەی
خۆپیشاندانەکەی
بروای
ناهەقی
بەشداربووەکانی
خوڵقاند
دیمانەیەکی
کاولکاری
جەنابتان
سانسۆڕ
ئەتوانێ
##لب
##غر
ڕێڕەو
وڵاتەکەم
ڕاستتر
تاوانیان
لەناوەندی
چیکی
فرانسی
بەشداریکردنیان
حەسرەت
دامەزراندووە
مەترسیەوە
تۆمەتانەی
هۆکارێکە
نێودەوڵەتییە
ماددەیەکی
دەروونناس
چەرخی
پەردەپۆش
ئازەربایجان
تەنفیزی
دارە
بەرداری
دەبارێت
##الب
هەوایەکی
پەروین
میه
هەوڵبدەن
شانسی
کەوتنه
چالاکانە
سەیارە
سالان
##ەژن
بەڕێوەبەرە
سونەتی
تێکشکانی
لەکۆتایدا
هم
##بگرێت
##شێتەوە
##پشت
کوال
پێڕەو
##ەنجان
ڕووماڵ
موزای
ناوچەو
لەبەرز
##ەپار
نەگوت
عەرەف
چیلی
ڕاپێچ
بۆچوونەکان
ڕابردووە
قاعیدەو
مەولانا
فاشیستی
تەقینەوەکان
غەززە
برسیەتی
بچیت
دلێمی
قەزایی
نەڵ
##95
هەرلەو
خۆدز
دیتن
لەوکاتەوە
کەمەوه
پێویستییان
مافپەروەر
بەتاوان
پێناکرێت
تێکهەڵ
خولەدا
##ووسینی
چەکدارانە
سایتە
پشکا
پەلکێش
سەلماندووە
بێئاگا
ڕوبەڕووی
تێناگەن
کەهەمیشە
ئۆقرەیی
ئیستحقاقی
Kurd
ڤینی
##گۆن
##ستەر
پێشەک
پێشدا
##ورن
##ورەی
هەرێمەکەمان
##ڵاتانی
گەورەکە
126
پیاوه
نامەکە
ناڕەوای
هونەرێکی
لەتەل
هەنگاوانە
یارمەتیان
نهۆمی
کۆمەڵگاکان
##ory
##atch
بازاڕێکی
ساتەدا
چەواشەکاریی
وەرناگرن
جێبەجێنەکردنی
پاڵەپەستۆی
حەجی
##نەکردن
##دۆی
##گەکاندا
##ەمای
##الم
دەستێک
عێراقن
ئاویان
پلەیەک
منداڵه
ئەدهەم
پارێزگایەک
نایجیریا
پێنج‌شەممه
ڕاپۆرتەکانی
دەزگاکان
لەجێ
ڕِوو
هەناسەیەکی
موجام
گێرانەوەی
بروسکەیەکی
ئیتیحادی
گژ
گڵاو
بۆق
یەکێکیش
##ۆندی
زۆربە
##نامەکانی
میم
دڵێکی
لیو
بەباز
وتارەدا
تەواومان
هەفتەدا
جوانکردنی
بۆمن
هەشتاکانی
خۆشیدا
ئەندازە
نەوەیەک
ڕاشیگەیاندووە
##news
ئاوارەو
چاودێرێکی
نوقم
بەرخۆدان
هەتاهەتایی
لۆر
واپ
##اوێز
بەرپابوونی
دڵنەو
ڕەوەند
بەغدایە
هەڵبژاردنەکەی
##ونیان
نەدەهات
##ۆزیتەوە
مەزەندە
دانیشتووە
##ەکانمانەوە
شێعرەکە
##ەدەرەوە
کافکا
سیاسەتمەداران
دەجەنگ
بەبەشێک
مومکین
کەپێکهات
بەبارودۆخی
قیت
وشتر
نەستی
##کردنەوەیان
داماو
113
ئەدەم
هەڵوێ
دیمەشقی
ئامادەبێت
سوودوەرگرتن
بگرنەبەر
دڕندەی
کەشوهەوا
لەمبارەوە
ژنیش
‬و
##کوک
##ڤەری
کەدەر
پێدەدەن
##دیت
##بوور
ڕەنگین
نەهێل
کوژراوی
شتێکم
نادروستی
بالەی
کۆڵانەکانی
تراژ
ڕووناکبیران
لەوبارەوە
67972
لەسوید
هود
##نەدانی
##ڤەی
سەراپای
##ەدەبی
ڕاهات
پەیرەوی
ئامادەکراو
ڕاستییەک
چالاکانی
کەنارەکانی
ڕۆژنامەنووسیی
کۆبونەوەکانی
واقعی
تارمای
بیکەنە
هەڤپەێڤینێکدا
جادەی
سڕی
##نها
##اڵکردنی
کۆلان
ئەع
دەباتەوە
لەویل
هاوەڵی
##رینگ
##وتانە
پێویستم
هەوڵبدات
بەدەستوور
ئەزانین
بەسایتی
دکتاتۆری
لێبکەین
پاسکیل
زانکۆیە
ئۆباڵی
ئاییندە
مینبەر
زۆرباش
پاڵاوت
نێگەتیڤی
هەڵپەسێردراوەکانی
لاهای
##ناندۆ
پروپ
##گەڵ
##ain
##NT
کەزیاتر
##یرادەی
بوجەی
وەرگێرانی
بەداو
ئابڕوو
بەلانی
هەفتانەی
دکتۆرای
ناشای
عیراقیە
ئازادیخوازانی
ئەندازەیەک
بفرۆشێت
قاهیره
بلا
تەکان
ڕێم
##‌یه
##ستۆی
##ازەکانی
ساڵانێک
جێیان
دەیکەین
بەئەن
دژوارە
دەزانرێت
سەربازیدا
پێغەمبەرە
جێگەیەکی
##ۆڤەر
ئوممەت
لەخۆمان
دەسەلاتدارانی
##ەکەشیدا
نارازی
گۆڕانکارییەک
زیندوویی
دەجەنگن
وەرچەرخانی
نۆزدە
ئیدانەکردنی
موزەففەر
شالی
##87
نالیا
کرێن
خۆشبوو
تیڤ
وتارو
پەیامەی
تەواوکاری
##ۆچون
گومانلێک
دراوەتێ
وتارێکدا
ئەنجومەنەکانی
زاڵبوونی
955
نێودەوڵەتییەکانی
بێهێز
کادیرانی
کەدەیان
بۆندێکی
حەڤدە
پـێشـووی
بۆشایییەکی
مروڤ
دابمەزرێنن
خاوە
هال
ڤەن
کامان
##باسی
##پای
##خەین
کەلی
##ەتیف
ئەپری
دوعای
##گرەی
ماڵەکان
پەیوەندارەکان
ئاماژەیکرد
لێدوانێک
ئاسمانییەکانی
بەرپرسیارن
تێپەڕاند
دەخوێنرێتەوە
ئایدیای
وەسفکردو
##ەسیب
بەتواناو
لەلیژنەی
دائەن
تەختەی
البقرة
دانەبڕ
بەبایەخەوە
للە
پەنگ
ڕەع
##یەکانیان
##ib
##اقوڵ
##ەهاب
##ەسوور
##ورسی
ببمە
لێکن
##پەڕاندنی
ئابوورین
داماڵ
پڕۆژانە
دایکت
مەترسیەکی
دەچنەوە
بانکەکانی
تابت
دادگادا
بەبەرپرسی
کەتایبەت
لەمانەش
گورچیل
شاکەلی
خەسڵەتە
قڵ
چوە
##ِیم
##ge
##ستیی
##اڵای
##ێژین
ترێ
هەڵبژاردنیش
کۆنگ
##داوانی
شۆڕشدا
عەبدولو
خواروو
سەگی
گوڵێکی
ئاسمانییەکان
ملازم
کریە
لەجاران
میوانانی
کۆنسێرتێکی
بڕۆم
قبول
ەکەی
##فین
##ئاستی
کەهەڵ
دەبەم
پێشیان
لەبەرواری
چاوخش
ڕایتس
##زگار
##تەرە
بەئازاد
##خوازێت
نەمزانی
نەتەوەییەوە
کاکا
تابلۆکانی
بیرکردنەوەیەکی
پاسەوانانی
ڕوخسار
##rev
بەدەگمەن
گۆشەگیری
حەقیقی
سکۆتلەندا
ڕێـکخراوی
Ar
Apr
جاڵ
زوه
زێڕی
گژو
##نسا
##رەجی
##ستیە
هەڵید
مرۆییە
زیاتره
جۆرو
##ارانەش
103
کۆببێتەوە
توێژەکان
پـێو
دەڕوانی
گەشتەکەی
بچووکە
نەنارد
دۆسیە
بێدەنگیی
نۆبڵی
پاڵپشتیکردنی
محێدین
ڕاگەیەنراوێکی
بژیم
تەزوو
پاڵەوانێتییه
لەخولەکی
پـشـتیوانی
تس
خاسی
ووز
##بەگ
##هۆک
##گرتووەکانی
فەرحان
دانمارکی
نمرەی
دیاریکردووە
قوتابخانه
باوەڕەی
نەخۆشە
پێشکەشکاری
پێماند
##گێڕێتەوە
حوسین
نیوێک
دەقێک
تێپەڕینی
هەتایی
بکوژرێت
سەرمایەداریدا
لەرۆژانی
کۆبونەوەکەی
ئەمانەشدا
ئینتیما
مقاو
سایکۆلۆژ
دەرهاویشتەی
خران
ڕد
##بۆن
##طی
##راوەته
##کرنەوەی
ڕاگەیاندنەی
تاکتی
بەرهەمێ
بارزانیش
ئەزانێت
بخەنەوە
فیڕۆ
ڕاستیەی
پرسیارکردن
لەکاتێک
چاپەمەن
بەدوایدا
دەخول
سێکسیی
فلمی
هەڵکشان
##ube
بەپەرۆش
##تسکی
##ِد
##ەویی
##ەڵای
##ریبی
بوەوە
هیچکات
نووست
لەڕاپۆرت
تەقه
شەهیدبوون
گەیشتمە
برینداربون
ئیرشادی
دوژمنێکی
هەموویانەوە
لاپەڕەیەکی
لەپاڵەوان
الذی
بەرژوەندی
##نەخ
##بیست
##سـی
##چانی
##وونەوەی
کەمینەی
ئەرکان
بەدیو
ڕۆژنامەنووسێکی
خەرمان
زیانبەخش
ماندوون
بدەینە
ویستویەتی
جیاجیادا
عبدول
یۆنایتد
پەرەگراف
##بکرێنەوە
لەئەنجامدانی
توخم
تەریق
بەئەزموونی
پریمەر
ڕیکۆرد
فرِۆک
شارباژ
فاس
نغ
##ێتان
ئەووڵات
سەروم
ڕاگرتن
دەستگیرد
هاوکاتە
ژنەکان
پرۆف
بەلاڕێدا
##شنبیر
پلەد
تونسی
بەغد
پێدراوه
بردوە
داراییەوە
بلباو
سامانه
دامەزراوەکان
بەلایەوە
زۆربەشیان
برادەرە
بمانەوێ
ئیدارییەکانی
گردبونەوەی
ڕاگەیەنراوە
1946
هاوشێوەکانی
گاور
مەها
کتی
##ڤیت
##اڵا
سیکۆل
##ەهید
ڕووەوه
بێنی
موب
##وتنی
ئازاو
لەکۆل
مرۆڤدۆست
یاریدا
لەئین
##ێنێتەوەو
128
ئەیەوێت
دیمۆگرافی
عەرەبیەکان
پیشەگەر
دەسەلمێنن
لەخۆم
ژوورێکی
تایفە
زەمانە
فایلی
ڕاگەیەنراوی
فۆرمە
گەورەبەرپرسانی
ئنجا
أم
نگی
وێب
##شینە
خۆوە
##ەلێکی
ئەپڵ
هەڵگرن
ڕاهێنەرانی
##ێشێت
##ارەیەک
ئەرژەنتین
ئاشـتی
مەرگە
##ەعید
##ەکەمانەوە
گەیشتووه
شەرو
##گێڕێت
توندیان
ئەمەریکییەکان
زەویە
دیدارەکە
فەرهەنگیی
ڕێککەوتنامەی
بەرمیلێک
ڕەئووف
لەبازاڕی
هندەک
ڕاپـۆرتێـکی
نەدیوە
زامنکردنی
جوت
دهێن
##چێو
##‌کانی
##af
ئەوک
ئەون
هەڵگرتن
تیمە
دەید
122
بتەوێت
هونەرەکانی
میرنشینی
ڕاپۆرتەکان
دەزگایەک
تاقیگەی
پەڕینەوە
هاتوونەته
نیشاندەدات
بیروڕاو
ماستاو
ودەز
موچەو
دەستپێشخەریی
لەوکاتەی
ڕیتم
جۆل
پول
##سێکی
##ros
##RE
##ەوبەر
بەگومان
پێڵاوی
بهات
ڕووین
بەهێم
##ێنیان
نەگۆڕی
ئەنس
##مەرگەی
ئەدرێت
دەیانگرێتەوە
نایاتەوە
نەیاران
دڵنیان
ژیاری
ئارامە
##احەتی
ڕۆیشتووە
ئەنجومەنێکی
ڕاپـۆرتی
پاڕانەوە
بەچاودێری
دەسکەوتەکانی
جورئەتی
##rticle
ڕیچارد
زەبروزەنگ
ئەتلەتیکۆمەدرید
هول
ڕات
##فن
##گانەی
کۆمۆن
لەمباری
نێوەدا
##ەبەرچاو
نابم
نیشتمانیدا
دەنرخ
قۆناغەکە
ڕاگەیاندندا
ئامانجێک
فەلسەفەو
دەچینە
##ۆلۆژیا
ئەکتەرانی
خوداى
بەهاوڕێی
درامایە
سارتەر
هۆلۆک
هۆلەندا
گەرِانەوەی
پێوەندییە
ئەمستردام
##بۆر
##ەرانە
##ستێکی
##یرۆک
##ەساتی
##ڕیوە
##ێندرێ
بەپەله
باسەکە
هەوڵیش
دەمزانی
دایەل
کتێبەی
نەخۆشییەکە
مەبەستێک
کۆبوونەوەو
ولاتدا
ڕیکخراو
##ith
تاقیکردنەوەیەکی
بەشمەین
نایەوە
##ژان
##ستۆن
بۆردوو
بکڕن
ئیوە
کەسانەدا
پێوەیە
موتل
نەکراوەو
ڕۆژنامەکه
دەدز
دانس
ئەکەنەوە
سوننەکانی
باشیش
ئاڵۆزییەکانی
شەپۆڵ
ئیمزاکرد
ڕەخساوە
موتەکی
گوفتار
هەڵکەندنی
دلۆڤان
هووشەنگ
##دیی
##تون
##ْک
کوێیە
یەکدەنگی
مونی
ئازاریان
وڵاتەکانیان
تیئ
##فرانسی
گەرانەوە
دهێته
کلدان
زیندانیان
بنیاتی
مەلەکی
کەڵەش
نیگەرانییە
مێخ
کارەساتەکە
دواکەوتوویی
نیهاد
پراکتیزەکردنی
ژێردەستی
قەلەم
دابونەریتی
دیان
زبر
##ەتەو
لەگو
سەربەخۆکان
دابەشدەکرێت
تەمەنێک
##ork
دەستوورێکی
داواکارییەکان
وابڕی
زاڵبوون
فریشته
دەستبەسەردا
لەپەرلەماندا
بێوی
ڕضی
گالی
##دێ
##ژێن
##ُو
##ph
##KP
بەرەگەز
##اردنەوەی
درایە
ئەرکەی
ڕیو
ڕیب
پرسیارم
کچەکان
##خوازەکانی
هێشتووە
گرنگیەکی
مەیسەر
چەمکەکانی
هیومان
عەمر
##گیردرێن
دۆڕاند
لقەکانی
گەوج
کیلۆگرام
لەباکووری
نکو
نزا
##ۆڕینی
ئەمنیش
پێشبردنی
باسکرا
خوێندنیان
دژبە
لاوێکی
##ناخ
مانگەکانی
هەواڵەکەی
نەکردەوە
دانیشتوون
شاندەکە
لەجێگای
ئاشتبوونەوەی
سەرهەڵدەدات
تاقەت
کۆنەپارێز
جەختیشیکردەوە
ئیدارەدانی
کۆسپی
فەرماندەیەکی
بگەیەننە
تروسک
مووسا
بەرچاوە
پاشتر
تەه
دێل
لەکی
گرافی
کە‌
##ادەن
دیجیت
##رۆشی
ئەوەین
نیازە
دانپیان
لەپەنج
##پەیمان
##بیة
132
ڕاوچی
کۆبوونەوەیەکدا
خۆشیەوه
بگەڕێمەوە
سەرچاوەیه
هێندەش
دورست
##ەکێشانی
##ڵەسی
سەرسوڕمانی
خەندان
فۆتۆگرافەر
چیمەنتۆ
ڕێژیمی
تەحریر
ڕافیع
گەردونی
دیڤید
##انەى
ئەهات
کاربکەین
لەگون
لەباشترین
بەکوشت
ئازادیەکان
پەرلەمانیان
ناتەواوی
حەمام
مانگانه
بەگەلی
زەردە
##esh
وەفاداری
ئاگرەکە
کەپێی
لەپارێزگاکانی
ئەوقافی
میکانیزمێک
بەنرخێکی
Inter
فرانکف
بەزی
##ەتى
کۆمێدی
وەزاری
ڕەوشەی
منداڵەکەت
لەچاوی
ڕاستەقینه
گوندێک
تێکۆشەرانی
کەمپەین
دەروازە
سەرشان
حەفتاکان
خەندەق
میحوەر
کازاخ
کرواتیا
وەبیرهێنانەوەیه
خۆشدەوێت
شاسوار
لْ
##عین
ئەوەتە
کوی
##دیث
نەبنە
##اهر
##ێڵم
دیاریکرا
175
ئۆسلۆ
وێرانکاری
وەرگیراون
یونایتد
لەپەیمان
وێرِای
جومعە
باندێکی
لەباکوری
عەبدولڕەززاق
هەکاری
کیر
##کرو
##لیف
##ۆنەوە
لەوێن
##اسیون
##اردە
بڕوانێت
پیاودا
##خوازن
ڕێزان
بەشێکه
ڕۆژنامەنووسێک
المج
نەفی
دراماکە
شارەزاییەکی
خاشاک
قامیشلۆ
مەسئول
خزمی
فأ
##وەست
##ڤاتی
##راوەتەوه
دیق
لەسەرمان
##اردایە
جیۆپۆل
##ێبی
سوێد
##کەوتوو
شارەو
بەوەر
هێنرا
گوتبوو
باڵەکانی
پڕۆژانەی
توانایەک
بڕیارم
هێرشانە
گیرس
ڕاپۆرتەکه
قەواره
بکرێنە
بریتیبوو
تەشری
سادەیە
بەرێزان
باپیری
لەوڵاتە
خەزن
سەریهەڵدا
شکۆمەندی
ڕاوەدوون
کەدا
هەڵدانی
##گەرِ
ئامادەکر
وەع
بەئۆتۆم
گرتەبەر
پارێزگاکاندا
دابەشکرد
شۆڕشێک
ستراک
ئاینەکان
ئیرۆ
کۆنفراس
کاندیدێکی
ئەمریکیەکان
ناسیونالیزم
کەموکوڕییەکانی
ئەسکەندەری
زەکەریا
چامپیۆنس
lt
حات
سانا
شووش
پتری
گەد
ەة
##فەهان
##زۆر
##سر
کۆمێنت
کاردۆ
لەگەور
بوری
لەبێ
الناس
##ێنەرانی
بەرزایی
کەوتنەوە
کەوتۆتەوە
##ارمەوە
کۆنگرەکەدا
نەکردوون
جوانەمەرگ
ئامانجەکان
زەرەرو
دوژمنە
لێوەش
پارەیه
لێنا
نەشار
حەقیقەتە
دەژیم
پەرستن
ئەحرار
وڵە
##پاگ
بەروب
هەڵنەب
##ێشن
پەره
کەماوەی
کەمپەینی
چەکداره
بەچەک
ڕووبەڕوی
بنیامین
ئەڤە
دەستورە
دەبیتە
غەزە
دەناسێنێت
دیموکراتیی
ڕاگەهاندنێ
ڕاڤەی
تامەزرۆی
تاووتو
هارم
یاب
##فۆرم
##عودی
سەرتی
##بەرن
##اردەکەن
بەسەرچووە
##تانەوە
دۆگم
سوریە
دەنێرین
##اقیعی
کورکی
لێکۆڵینەوەو
پێشوتر
ڕوونیکردۆتەوە
##ییەکدا
دابڕانی
فەیلییەکان
دەرئەنجامە
دەستدرێژیی
بەتەمای
بێڕێزی
ئۆپزسیۆن
ئاسـمانی
بگە
زەخ
##ژدانی
##ووتە
دەبووم
کۆمید
دەروەی
##ەخشە
بنبەست
ئەڵتەرناتیڤ
ئیرانی
خۆتدا
پشتگیریان
هاوکارییەکانی
بێبەری
ئاڵۆزیی
بوارێکدا
تەنگژە
بپارێزێ
ئایدیا
گرووپه
سەرشەقامی
لێدانێکی
لەقەڵەمدا
دەتانەوێت
دوکەڵ
پێدەبەخشێت
لەکتێبی
ئوردون
مێو
گاندی
##یەدا
##جەت
##ژنی
دیکارت
هەڵکردنی
##ارییەک
بەرهەڤ
بەردەوامیان
تێکرد
جەمشید
دەنوێنن
توانایان
تواناکانیان
لەرێ
پێویستیەکی
دیارترینیان
بمرێت
قەڵاد
ئاسایشەوە
کابینە
دەسەڵاتدارەکان
لاوازو
پەیوەندییەکانیان
ڕوانگەیەکی
دیکتاتۆرە
ئوتۆم
ڤیدیۆی
عیشقی
لەئەوروپ
فاتح
چڕوپڕ
کامانەن
ئەکەی
دێنی
##بدا
سەرەدان
کەماڵ
دەکەنه
درامی
خستنەوەی
کەیف
##هێشتا
ژوورەکەی
1957
ئەلیکس
پێغەمبەریش
##پاراست
موکریانی
پاشەڕۆژ
ناتەندروست
عق
مڕۆ
هیی
وکەس
##اوەوە
کەدوای
##ەبار
لەودیو
پێکرا
پیویست
##تورو
تەناز
گرتووەو
تاوانەکەی
دەخرێنە
تۆمارکردن
وشکی
وەزارەتێک
نەزۆک
مۆڵگەی
هەریەکێک
تیرۆریستییەکانی
بەخوێن
##ە‌تی
بۆندەکەی
نۆیەمی
لەکۆبوونەوەیەکی
نایانەوێ
##بەخشە
بەخوێندنەوەی
بەرەبەیان
موجاهیدینی
جاڵج
تۆکی
##92
##ژوو
##ەکراون
##لیزی
##ەییەوە
##کرابێت
کرایه
بارزانیدا
لاوەند
دانیشتنە
خێرخواز
ئامانجەکانیان
بەچەکی
پیرۆزو
جەستەیان
سەفەوی
هاوپەیمانانی
ئیستر
ئەردۆغ
تێنەپەڕ
بۆتەوه
ئیمتیازی
##کەکە
##بێنن
ئەودیو
بەشەوە
زاناو
##رێنێت
بەبنەم
##وومەنی
چۆنایەتی
موسڵی
ئاگاداره
دۆلاریان
سرودی
220
دەبنەوەو
تیرۆرکردن
چەپەڵ
کاندیدکردنی
بۆناو
بخوێنینەوە
لەخوا
کارەساتەکانی
کاروانێکی
ئاینده
وێستگەکانی
خۆشبەخ
باجەکەی
پەیوەندییەکانمان
کوێرانە
ڕستەیە
بەناوبانگەکانی
ئیمتیازات
خۆڕسک
##ێرمۆ
نورەدین
ناوەکییەکەی
دێنەوە
فال
فلیمی
مەکی
##زیان
##ێکەو
کوان
دەبرێن
دەسـ
کێشایەوە
جێگاو
بەتاڵی
تاوانەی
دڵپاک
121
وەزیراندا
گوناح
کاتیک
برینەکانی
نییەه
خوێندنگەکان
سەنت
وەزارەته
سنوورێکی
شەریکی
کۆنفرانسێک
لەوبارەیەشەوە
دەرئەنجامێکی
فریشتەی
خەلیفەی
داویێ
لەکوێوە
نیوەرۆی
دووکەڵ
حوکوومەت
حاشاهەڵنە
قیامەتیشدا
دست
چاخی
##زاب
ناویاندا
##رێتەوه
هەڵەکان
نوین
هێناوەتەوە
##اهۆ
فرێد
دیاریدەکات
تەقییەوە
خستەرِوو
ئیمکان
##ەیتەوە
بەسه
لێدوانانەی
توێژینەوەو
ئاستەدا
ئەتڵەسی
وەڵامدانەوە
وەبەرهێنەرانی
کۆنترۆل
دەگرێتەوه
کارگێر
بواردا
الْح
هەڵدەگرن
ئاوارەبوون
چاوەرێی
وەیسی
بەلجیکی
ئەمدواییەی
وسی
##دس
##ئاس
##ەوردە
##اوەتەوه
کۆدی
کەسیی
تێدەچێت
بڕەکەی
دەمویست
تەقییەوەو
شکانی
##ern
فەرمانبەرە
مەمل
هاووڵاتییان
##وێنەرایەتی
ڕۆنال
ویکیلیکس
پێشەوای
وەکالەت
پێوان
درۆیەکی
عەبدی
بڕوانن
حکومەتیان
ملیارێک
وەزیرێک
##انسە
ئەتنی
پڕۆژەیەی
لەدەستووری
عەبدوڵای
کۆڕێکی
بیانوویەک
قەشەنگ
this
##ةوة
بەئەندازەی
لەسێدارە
##رف
##لەکانی
##media
ئەوێت
ناودەشتی
خوایەی
دەرکراوە
تۆزی
دوایش
##توکی
##خانەکاندا
##بەیانی
پیاواندا
کەوچ
##سانس
سەرماو
پارتییەوە
پەنابردن
یارمەتیدان
کۆمەڵگاش
دانیشتنەکان
هاوپەیمانێتیی
دۆستێکی
هەورەها
زیندووکردنەوەی
تەندروستیان
ناکۆکیەکانی
دووپاتیشیکردەوە
بپرسێت
ئەستێرەیەکی
نەگەیشتووە
زۆردار
چاکتره
##oci
بارگرژی
عاقڵ
شەفیق
٣٠
##پس
##قالی
بۆدا
##شتا
##کردایە
##تیڤی
بکەویت
نیوکاس
بێتوان
میکا
دەیکاتە
دنیاو
##ant
کۆبوونەوەیه
بلێر
گروپەکە
ویلی
جێبەجێیان
سوورن
لایەکیان
بنچینە
بۆردومانکردنی
ڤاڵەنسیا
ماتماتیک
شووم
ماردین
وێک
##خل
##ەکەمی
کەخۆیان
##ەدەبات
ڕۆبەرت
دەروات
گواردی
بەڵک
لەنوێ
دەسپێک
جێگۆڕ
باسێک
ژیاننامەی
بەرزەکانی
##انەتان
زەرەرمەندی
مەزنەکەی
دەوڵەمەندکردنی
ڕاکێشاوە
دایناوە
پاشەکشەیان
زەیتون
سولەیمانی
داقووق
ئەکەیت
##ورین
##بڕینی
##گۆت
##ڤارا
##AG
یەکتا
دەردەکەن
عێراقه
##استە
یاساکەی
بەڕێوبەر
نزیکه
بەرپرسانە
هەنە
ئامانجەی
کردنەوه
خراپیان
##دەکاتەوەو
لێبگەڕ
بۆمباران
زەورا
تیرۆریستیی
مورادی
تۆمەتبارکردنی
ڕۆحێکی
کیشەی
نەوەدەکان
##بەخۆیی
جڵەو
پێنەدراوە
تایفەگەری
بەسەرکەوتوویی
شیکاگۆ
کینگ
ئەسیل
نیەتی
لەبەرپرسانی
بەتاوانی
دەتەوێ
##ەممەدی
دیاریکرد
شەهیدانە
ڕەشەبا
وڵاتیش
ڕوونیان
دواییه
ئاساییکردنەوەی
نەوتیەکانی
هیوام
خورما
پایسک
##بکرێ
نەزاهه
ڕاهێنەرە
مایەپ
Prev
خەندە
دیی
شینی
فوت
گه
##پاکی
##82
##ەنشین
کوردستانه
##وویە
میکان
لەناوچوو
کەوتمە
خێزاندا
تۆمەتبارە
نرخەکان
سوتاندن
##لەمانت
نیشتەجێبون
وتووێژەکانی
ئیعلامی
ماددەکانی
ڕێنووس
إِذ
عامری
دەستتێوەردانی
بزووتنەوەکە
دەڕواننە
ژێری
##‌وب
کەخو
بەروو
دەستکاریی
داخو
عێراقیی
جیایە
دەسنیشان
بەدەسەڵاتی
لەبەرچی
نەچوون
لەدژ
سندی
بڕگەیەکی
منداڵییەوە
خوێنە
وهەموو
دەسەلاتێکی
دلشاد
##ical
پسپۆڕان
شۆڕشگێڕانی
دەژیا
السلام
دۆسییەی
بەدەنگەوە
ڕەچەڵەک
سەوره
Next
قۆز
پلی
گەوەر
##بەخۆ
##حانە
##our
لەنام
##امۆ
##ابەی
##ەسات
ئەگەرەکان
هاتۆت
لەکەش
بەسەردەب
##زانیاری
بەپڕۆژ
تەواویی
خاڵس
سەیوان
ولاتان
کریستی
سەنگەرەکانی
نرخە
کاربۆن
پایزە
مەشرو
ئاواتەکانی
حەوش
1921
جڤاتا
لەپەرلەمانت
فەراهەمکردنی
حەمەدەمین
لەوەرگرتنی
داقوق
غوربەت
کرین
##راک
##زر
##97
بۆک
دەکر
بکریت
دووهەم
##گەردانی
کەمیش
ناوچەکەوە
بکەنەوەو
نەکرێتەوە
بباتە
خۆشن
بەبەه
دینداری
خراپەکاری
خێرە
هەڕەشەیان
ڕزگاربوونی
لەپێنج
شارستانییەتی
پارچەپار
وەرزشیی
بڕیاردەر
سامانێکی
نەریمان
##لینگ
هۆنگ
دەڤەرەکە
حەدیس
ئەستەنبوڵ
هەڵقوڵاوی
مەملەکەتی
تادەگاتە
##ڤاڵ
##غە
##eg
##ێرەوە
خۆیشیان
جیهانەدا
دانیال
لەوەڕ
مادده
نەهرۆ
بیستەمدا
تێپەڕدەبێت
##بونیان
دڵسۆزانی
باڵادەستە
لەدیدارێکی
هەڤالانی
مووشەک
ئۆتۆمۆبیل
June
شتانه
202
دوشەممە
بوویەوە
پەرێز
یاساغ
لەبەرەکانی
کەرو
##ێنەرە
تیرە
ئەڵبەتە
ناسراوەو
مانگێکدا
ئۆپۆزسیۆنێکی
ویستوویەتی
گەڕانەوەیە
بیتوێن
خەڵاتێکی
دەروازەیەک
دۆزەخدا
ڕقم
پۆڵا
بەرزبۆتەوە
تراژیدیا
قۆرغ
لێکۆلینەوەی
فۆلکلۆر
وەبیرهێنانەوەیە
فرەنسۆ
عەبدولسەلام
بێنەوە
چادر
ڕێست
ڕوباری
##UK
##شتەکانی
دوات
ساڵەوە
بووندا
لەشفرۆش
خستبووە
دنیایی
گشتیش
دواى
ڕادەگرێت
پیشەو
گۆرانییەکان
هاوکاریمان
کەباب
کۆمەلایەتیی
وەزارەتێکی
ناردنە
ئالو
لەجیهان
لێناکرێت
##خەڵک
دراوسێکان
ساختەکاریی
لافیت
ڕێکبخات
بشارێتەوە
موخابەراتی
هاوتەریب
##هاشمی
بچیتە
تکا
عد
قەلا
پە‌
##تیش
ناوشاری
هەرێمەی
بێینە
بندەستی
بەپێو
گەلۆ
سینا
پشتە
نەداوەتەوە
هێرشەکان
ڕەئی
هەلەب
دەچەوس
ئینگڵ
هیوایەکی
هیوایان
ئاگرکەوتن
پەلامارد
پاڵاوگەی
وەحش
موزایەدە
BBC
أحمد
خەمە
کێک
##دەکە
##مندا
##گاکاندا
دونیا
لەسەرم
چاوەکانم
##دەکەوێ
زانایەکی
بەردەوامدەبێت
دەیانزانی
نەوتەی
بەیارمەتی
وەفدە
سەرنەکەوت
قوتابخانەیەک
قسەوباس
بەرهەڵستکاری
بەرخودان
نەکەوێتە
ناترسن
بەکردنەوەی
قوژ
١٩
ڵات
بەزم
##ێرز
##راوەکەی
خواش
##ەنیت
سیاسیەکاندا
سەرۆکەکەی
سیاسین
کۆنەکەی
بارزانییەکان
145
مادیی
بخەم
دەوڵەتەکانی
##کەرو
پۆلیسیش
جەنگەڵ
دزیی
ڕیکلامی
چۆپی
ئوروپا
##هەرێمی
ماڵپەڕە
ڕێگەوبان
حەتمی
دەڕۆین
هەتیو
هابرم
تەسبیحات
اف
بایە
ساند
شڕ
پووک
گەنگ
##راز
##ڕەس
##سەن
##‌ئ
بۆرس
خوز
##وتار
دواییانە
ئەنجامدەدات
تەوق
درەخش
دەیڤید
دەربرین
##ەبەرە
هەنگوینی
مالک
کانەبی
باریک
##ایەکدا
کەئەوەش
هاوشان
سۆزانی
##پۆشن
عوسمانییەکان
دەڤەرێ
تێکستێکی
قەیسەری
بسەلمێنن
ئیرادەو
براکەم
##وێنەرانی
لەشێوازی
لەزیادبوون
شەیتانی
##ەزامەندی
##وەتەوه
##ڕوانی
حکوومی
پێوەدی
بەدژی
ترج
بیرمە
خوێندووەتەوە
بەلژی
ستات
کەوتووەو
پیاوەکان
وائ
گشتییەوە
ئاشکراک
ئاشکرابوونی
##ێـکه
هاوکاریکردن
ترسان
ترساندن
ناشرینی
بەجێهێنانی
عەمبار
بناسن
نەجمەدین
بێشەر
ڕەخساند
##ەگەزەکان
فەخر
بەردەرەش
بووژانەوەی
فەساد
بەسیاسەتی
هەیکەلی
لەلێپرس
ئینتەرناسیۆنال
داتا
هندی
پرێ
##هەمین
##خانەوە
##ەهار
##اڵیا
کەسەش
منال
کۆمەڵکوژیی
بوەتەوە
ئازەر
مانگا
ئاوه
دانه
بەلشەفی
گەڕۆک
جیاوازییان
خەلەف
پرۆژانە
قورئانە
زەواج
بناغەیەکی
ستراتیژێکی
دڵتەنگی
هەژموون
کوردەواریدا
تەقیوەتەوە
ڕادیکال
کەلەپووری
سێرجیۆ
لەوبارەوه
سەتەلایت
پروپاگ
AKP
مەنج
##ئەوەش
##ێنسی
سەراب
بکەوە
##ێشان
##نامه
چەندێک
##گرتووەکان
بەورد
##پیت
مرۆڤن
##ۆنین
باشووردا
ڕەوانی
کۆتاییهات
دەمڕاستی
لەڕابردوو
هۆکارو
بەدیموکراسی
دکتۆرە
ناچن
ولاتێک
1964
زەماوەند
قوبرس
خۆپێشاندەران
ناڕازین
تێروتەسەل
فەرامۆشی
دزە
زهنی
عنە
فۆرد
مسی
##ؤْم
لەژمارە
خۆێند
دەرم
لەواقیع
بویە
دەربخات
گوتانەی
ئینش
ژیانت
وێنەیان
لەشەش
ناسرا
بڕیارانە
زیندەب
هاوپەیمانە
شکور
هەژێن
کۆبوونەوەیان
گروپەکان
بودجەیەی
شارەوانییەکانی
نەفسی
ئەلعەرەب
وەلاتی
میلیش
ناکۆکەکان
بڕوانامە
ڕاسپاردە
بنەڕەتییەکانی
بەرخۆدانی
ژێدەر
اج
زیانە
فا
ماب
##ڕۆی
##ەڕۆیی
پێشڤە
##دیە
نوێن
نیکۆ
پێکە
پێکەوەیی
لەبەکارهێنانی
لەبەردەر
بەتین
یاریەکانی
کوردستانییە
وەغ
لەئێو
ئازادییەوە
لەڕووداو
1400
ڕوونکردەوه
ئیماژ
چالاکییەکانیان
##ابیۆ
دەرەوەش
سەرەکیان
ڕژێمەکانی
دابەزاند
##itle
میوانەکان
وجود
ئەتۆمیی
هاوینەه
شەراکەت
پورتوگالی
مامناوەندی
سۆنگەیەوە
خێوەت
ڕێکدەخرێت
لەئەفغانستان
سف
##نن
##ستایی
بۆلی
سەروبەندی
##ەبەستی
لەکۆش
دەدرێتەوە
بەرپرسیارەتی
جەستەیەکی
نەفەس
##کوژێت
##ئەوسەت
لەفڕۆک
فەیلەقی
مردووەکان
ڤێتنام
پڕبایەخ
لەدەوروبەری
یدا
##‌وه
کەهێشتا
##اڵێو
##ێمبەری
گوژم
##ەقڵی
دروستکەری
بارەوه
مرۆڤەکاندا
##ەوانیش
##ێننەوەو
گەرماو
کامکاران
نەتەوەییمان
فڕێی
کۆچکردنی
ڕِێک
جگەرەکێشان
1959
زرار
کۆپییەکی
ڕاگەیەندرا
بەئەنجامدانی
گفتووگۆ
Mar
##عەب
##انان
##ەلسەف
خویان
خوراف
دەستن
لەسەردەستی
نیق
بەویستی
درکی
ئۆزب
نابات
داهاتەکانی
پیرانی
مەدە
##ێداوی
ڕەشنووس
پاسەپ
دەشڵێن
پزیشکە
بازاڕدا
ڕەفتارو
یەکتریدا
فەرامۆشکردنی
نەتوانرا
درکاندی
لەسەرکردایەتی
دهۆکیش
ڕۆژنامەنڤیسێن
im
زەنجیر
##گور
##هێنین
ئەملاو
خۆنووسین
##الکی
لایەکەی
ئەگەربێت
شارەکەمان
دیکەو
123
وەزیرێکی
گشتگیری
نوێیەکانی
بۆیەشە
دکتاتۆر
ڕاگەیاندنێکی
سەیرم
1923
لەپرۆژ
بوەستن
لەهەمووی
کەرەستەیەکی
بڵاویانکردەوە
یەدەگ
داوادەکات
ئومێدەوارم
حەمەساڵح
بەوهۆیەوە
سێوی
شایەد
هوم
##ەبنەوە
##اکار
ڕاج
پێشێلی
##ێژە
تاج
چونەتە
بیرمەندی
گەلەوە
بەشداریم
کەوتی
خراپیی
پرسیارانەی
##دۆستی
ئایینیی
عەلەو
خەوش
##ۆکراسی
هەفتی
##رابێ
خواناسی
شەعب
پاڵنەری
حەتمەن
خل
##وخو
##تەک
##ies
##uk
##ەناب
##ەترە
دوهەم
##راست
##ەلیک
سەرۆکێک
نەتوانین
لەهەریەک
نەسی
دەیڤد
هەوڵەکانمان
مەبەسـتی
دەستیکرد
درێژتر
هەستن
ڕێکخراوا
سازگار
دەستگیرکراوەکان
پرسەکان
سەردەمێکدا
برادەران
نێرینە
دەگۆڕن
کەمینەکان
1387
فۆکۆ
سایکۆلۆجی
خیتافی
قەرەیلان
باوەیس
##سوت
##چەکە
##َو
##UR
##ەخم
کاراو
لەسەره
لەسەرتان
باروود
ئاباد
دەیدەن
دەیانتوانی
بانگیان
سازدەکات
بەگشت
کەیفی
سەپاندووە
مەزهەر
دزیکردن
ئاکامەکانی
ئیمزایان
نەکەوتووە
کێشمەکێشی
خۆبەخشانە
پسوڵ
نامرۆڤانە
دادەبەزێت
لەجۆرەکان
جاڵجاڵ
بچی
چییەو
##سازە
##ەکەوەو
سەردەکەوێت
بهێنمەوە
##اله
بێجی
ئازایانە
بەوەکردووە
جۆرجیا
باشوورو
ئەلێکس
ڕاستیەکەی
هەبووایە
پاکژ
سالانەی
چاودێریکردن
حاجیانی
پەروەردگارمان
مێهر
خەرجییەکانی
یەکێتیە
گرێبەستەکانی
لەوەزارەت
##‌اسماعیل
چکۆل
##طة
##ev
##دوڵڵا
تۆمان
هێزەوە
پێکەنی
بەپەلەی
حیزبییەکان
بەلەد
تەنهاو
هەیبەتی
ئەلتەرناتیڤ
ستادی
165
سزاکەی
پێویستیش
لەتۆم
ئەنفالکردنی
وایلێ
پڕۆژەیه
سنوورییەکان
##فەرمان
ئاینیەکان
کوشتنیان
جەستەم
سیمۆن
تیۆریی
حساباتی
هاوڵاتییەکی
ناوبژیوانانی
ئینگلیزەکان
بایکۆتکردنی
بفەرم
ئۆنلاین
ئادەی
زێری
##نەبوونی
##زەم
##وودەی
##ەڵڵا
دەکڕن
ڕۆستەمی
دیش
هەڵکەن
بەشخو
بەکەمی
ژیانا
ئەلبانی
بخرێن
چالاکییەکان
گەڵاڵی
کارگەکان
دەخوێننەوە
دەدەینەوە
هەڵدێر
وەرگیراو
کورسییەکان
چەواشەکردنی
##ages
کەنیز
ماکس
سانتیاگۆ
دڵخۆشکەر
##چەیەکی
##ِیە
##ەنانەت
کەدەت
##اڵدا
هێزەکەی
داناو
بابەک
ئابڕ
دەناسی
لێرەدایە
جەللاد
زمانیان
ئەسەسەر
دڵنیای
جیاوازیە
بەخواو
شەرمە
بەردێک
خۆسوت
قاڵب
سەردانەیدا
٢٠٠
ئە‌م
کاپیتالیزم
شێک
وپێک
##فراوان
##ەیشی
بەروار
ناوەخۆ
داگیری
ئاگرە
لەمام
گرەوی
بەهجەت
ئەگەرە
پارێزی
بەپارتی
دەربکرێت
نەمدەزانی
پێکهاته
سزایە
240
توندرەو
لەعیراقی
هاوبەشن
ساڵەح
بیانەوێ
سەردانەکە
بڵاویکردۆتەوه
پێشوازیکردن
دەرچوی
بەخۆیەوه
ڕێوشوێنە
##olog
گڵۆب
خەزێنەی
بوخاری
زەیتی
هاوڕێکانم
ئەفریقای
تێناگەم
سامەڕائی
آم
ةً
پەڵە
##ویت
##ڕەوەی
##ریة
##ەنجوومەنی
##اردەکرێت
##ەقڵ
بەڕادەیەک
کاتەوەی
کەمالی
##گریی
ڕێکخەرانی
ڕابگەیەنرێت
پاشەر
ڕاستییەکانی
لەدەم
لیمۆ
##ووتنەوەی
ڕوونشتن
یارییان
باوەڕێکی
هێرشانەی
لەچۆنیەتی
دەگەڕێمەوە
وەرزەدا
حوکمڕ
داخرا
نوسەرانی
ئیستخبار
ڕەخنەیە
1966
والم
فەرهەنگە
دەورانی
دێموکراسییەت
ئەنتۆنیۆ
خوراسان
جووتیارانی
ساتەوەختی
مامەیاره
یەکریزی
دۆرتمۆند
بپەرستن
عالی
##ەئ
##In
ناوماڵی
کارێن
هیز
پێکەنینی
شارەکاندا
مەچ
عەرب
خەڵکینە
دەنووسی
بەلامەوە
137
خۆمانمان
هونەردا
چینێک
سترات
نەیدەزانی
داخران
گواستنەوەو
ئەزموونەی
جێگیرە
دیپلۆماتی
پرۆگرامەکانی
کاروبار
پشیلە
دەیخاتە
بمێنێتەوەو
بەرپـرسی
بۆرژوا
لەدۆخێکی
مانشێتی
جابر
چێو
گیل
##لێر
##‌کە
##حل
##ارتن
##ابکەن
##ۆرێ
بارت
تەوبه
##زمدا
کوردیمان
##کاتێک
بەبۆچونی
بازگەی
گرتبێت
نەدرا
تاوانب
لەراپۆرت
شکڵ
لەتەنیشت
بارینی
مالیک
حسێنی
وەزارەتەکەیان
دەستپاکی
خۆرئاوایی
کاسۆلی
الْع
میسرییەکان
فەزیل
ئاشنابوون
برِوای
هەردووکمان
لالش
ئارەق
ڕووداوەی
تێزە
زن
مێل
ڕزی
##ەرج
داه
ڕێکاری
##چاوکردنی
زۆریشیان
ژیانێک
##ەگەلی
چەکەکانیان
ستوون
مەسەله
سازبکرێت
چالاکیێن
گرووپێک
داخاز
ڕاکش
سەرتاپا
کۆمۆنیزمی
سیستەمێک
شکستێکی
ئیدارییەکان
پەنابەرانە
بەنیازین
ووڵاتی
ەُو
هەوڵیانداوە
ناراستەوخۆ
ای
جەس
مانیان
مەقامی
##فس
##ڕێک
##خەم
بۆتۆ
##کردبۆوە
دوولایەن
بەهرەو
نەبنەوە
##چیەکان
پەیامەکانی
کۆنگرەدا
سیاسەتێک
بەگەل
چەکدارێک
سووربوونی
مورت
1962
ئۆجال
بۆرژوایی
دەروونناسی
پێنادرێت
یەزید
زیندەبەچ
تْ
ساسانی
شوم
چاخ
ڤید
##کێن
##عاد
##ـدا
##دابی
دەخۆ
دەچی
##ەتیە
خواس
بهێڵێت
##الۆگ
شارەکەم
بەکۆتا
چاولێک
##گیرانە
دەنگانەی
##وورەی
کەوتووه
مەسەلانە
قەرەج
گەڵدا
پـێویست
##گهام
گیران
ئاشتییانە
متمانەو
شیوەن
قاعیدەی
تیپێکی
پـێشـک
دیرۆک
گۆڤارەکە
لەنیوەی
ڕۆژگارێک
هوتێل
بەپاڵپشتی
##ؤْمِن
##ژێنێت
هەمواری
##اشم
گرێک
پێوەرێکی
لایەنەکاندا
بیرێک
باسکراوە
ئەمڕۆمان
تێکەل
کێشەیەی
تەرح
##بداتەوە
هاوبەشیی
زەوییان
بسەن
تیرۆریستیەکان
کشتوکاڵییەکان
هاووڵاتییە
سەندووە
زێدەتر
لەکرد
##یَ
##ەراو
##ەکایەی
کوردییان
##اکا
دەستهێنانی
خۆیانەوه
لەباخ
تەوەرەی
بڕوانینە
نابنە
هەوڵبدەین
##ەگەور
ستریت
سەرکردەیەک
زمانى
##امانج
قوربانیەکانی
سەرمایەو
کلک
ولاتانەی
دەسەلاتەکانی
هێندەک
کەناڵه
ساردو
فێستیڤاڵە
کڕیوە
ڕێوشوێنەکانی
مرواری
ناڕەزایەتیی
بەنمونە
شکات
##ماز
##ڕشتنی
##ەدرا
خوری
هەمەچ
هەڵدەکەن
##کردنیش
جیب
##نامەو
دەربازی
وێنەکە
دارەکان
هاوولاَ
گەشەو
گەنجینەی
پرچی
بانکە
بەداعش
گرفتانە
جێبەجێکردنیان
وانا
ئەمەریکاوه
لەبەغداو
سەنتەرە
سبحان
بگوازێتەوە
بارمتە
شەڕڤانانی
نڤیسەرێن
میخائیل
دْ
قوتی
ڕازیی
##مێ
##ستیان
هەرشتێک
کۆمسی
ڕاگر
هەواو
شانۆیە
لەشەقامی
دووەمە
دەنێر
##اندنەوەو
کەوابێت
ڕێکخراوانەی
عەبدولف
کلدانی
نێودەوڵەتیش
لەبەردەمدا
##کرتێری
بەرێوبەرایەتی
دادگایە
نهێنیەکانی
کۆڵۆم
ئومێدێکی
ناحەزان
قەرەبو
لەرۆژئاوای
ساغکردنەوەی
تێبپەڕێت
ئارد
سائ
##ڵان
##‌‌
##up
##war
سەرەو
ئەهێن
ئەعر
ئە‌و
##ەخات
##ەخنە
دەستوردا
گەورانەی
##ێندران
دەنرێت
ئەنجامیدا
ئاشکرابوو
چارەیەکی
دامەزرانی
##ێسکی
سەرکێشی
سروشتە
سیناریۆیەکی
دەلاق
فڵانە
یەکلاکەرەوەی
خرایەڕوو
لانە
لاستی
نێژ
##دیر
##YD
بەحکومەت
دوانە
پێشینە
داڤید
گرتی
بێتوو
بێتەدی
پێوستە
##ۆزسیۆنی
شاراوەکانی
تێری
لەلایان
##کرانی
خۆشیی
بەخاوەن
دانیشـت
دەمەق
لەنێویاندا
شەهیدەکانی
باوەڕپێکراو
ڕادەیە
##ایتدی
لەکاتژمێر
لەقس
گەورەتری
قەدەغەکراو
خەرجیی
ڕفاند
ناپەسەند
کورسییە
دەستبەردار
لەگۆڕان
ئەچێتە
عەشایەری
ئانا
تڕ
دانەیەکی
پوش
##کەشی
##ۆچی
##زاو
##زری
##ڵام
##ێنراوی
##کیدا
ناواز
دەبوا
##گەرییە
ڕووماڵی
خەڵەت
خەڵەف
ناگەن
##وتاری
وەرگێڕی
##شنبیری
توندوو
کەرکوکیان
گرتنەوەی
گۆرەپان
ناسا
##جەماوەر
دەوڵەتانەی
دەزگە
لەتیر
بۆمبر
هۆشدار
نانخواردن
##تەرنێت
پەلامارە
وەهەروەها
ئەهری
ڕەوشا
بەربڵاوی
ئامادەنەبوونی
موجاد
بۆچونە
شاڵاو
بەرقەرارکردنی
تەلەفیزیۆن
موعتەبەر
عاب
ڕەقی
کەکاری
##مێنێ
##صی
##ەیاڵی
##اڵەکەی
هەڵدەد
لەسەروی
لەسەرئەوەی
لەگۆش
ئێستەش
##خوێنی
حکومەته
لەوەلامی
پارێزگایه
گەشەپ
سزاکان
شەرە
داگیرکرد
زانیاریەکی
بارەگاکەی
باخەوان
بەوەشداوە
دڵسۆزو
لێکردین
1947
ڕاڤەکردنی
فینلەندا
بەپێکهێنانی
دوارۆژ
موەلید
سەورە
وغ
##مەندە
ڕۆژێکیش
کارێکە
کۆمەڵەکە
بەکێشەی
ڕۆژنامه
تەوار
هێنابێت
دەیڵێن
142
تاوانکار
بتوانیت
ئاشکرایه
جێگەیان
بنەماڵەیەکی
تایەر
دەرگایەکی
گوللەی
حەوزی
داهێنانێکی
پردێک
پێشهاتەکان
زەنگێکی
زەمەنێکی
ئەتوانم
تومەت
ڕۆژئاڤا
ئەسەسەرد
مارەی
##سبەت
ناوەی
کەمدەکاتەوە
بەسەرەوە
ڕایەکی
دادەپ
هەڵوەستە
ئاماژەیداوه
کەنال
پارێزگایەکی
مەکۆی
مێژووەوە
ناڕێک
پـشـت
##اروایه
##جۆره
##ردودا
فیستیڤاڵێکی
گۆڕانکارییانەی
سیستەمەکە
نەورۆزدا
ڕایدەگەیەنین
چواردەی
بەناوبانگترین
ناوبژیوانان
لەباشوری
خۆڕاگریی
خەلافەت
ئەکەوێتە
لامەرکەزی
فانتازی
هیشام
حالەتی
شەمە
هەین
##‌ابراهیم
##ok
بەرمیلی
##ابوری
سوی
لێ‌
##خول
میکی
ڕۆژنامەیەک
ئارن
مەرح
هەستمان
زمانێ
تیرۆریستانە
ڤیا
##دەهەم
هەڵوەشاند
قیب
بڵاودەکەنەوە
پزیشکیی
شەمس
جاڕنامەی
کیلۆمەتری
##کاندید
کەسایەتییه
ماهیەتی
ناودەبات
ئەولەویەتی
ترۆپکی
دارد
##لەیەکی
##سۆنی
دەگرنەوە
سەروب
ئەمانەت
ڕۆیی
ناوازە
##ۆکڕ
ڕێکدەخات
بوونەوەو
مرۆییەکانی
ببڕن
شوین
لەدهۆک
ئەرخ
هێنراون
بەنا
خەڵکینه
خستنه
ئەبات
##چوونێکی
وەربگرێتەوە
نیشانەو
خۆپیشاندانێکیان
ناسیح
بارودۆخەکه
ئینگلیزیی
پێشکەوتووە
ڕاشیدە
ئەڤرو
لەکۆبانێ
هەڵدەق
نمونەیەک
پێشنیازێکی
دۆسێی
ئیقلیم
کەبڕیارە
پەروێزخان
یەقین
لەسەنتەری
هابرماس
شری
نایش
بەژمارە
##ەبارەی
##ادۆر
هەڵیب
##بوونەی
##ۆزا
هاتینە
بەمەسەلەی
تیاد
تاکۆتایی
##بێتەوەو
لەشدا
سوریایە
ئاگامان
خوێنم
لیژنەیەی
واین
پـێ
نینۆک
شاعیرانە
پێشمەرگەیان
کاندیدێک
جەستەو
شەقامێکی
ڕەگەزێکی
ئەردۆغانی
دادوەرانی
وتوێژی
ڕووبەڕووبونەوەی
بگرنەوە
قاوەخانەی
زەیتوون
هەیمەنەی
جەک
جەغ
کُ
گێچ
##پۆر
##ـێـکی
##oft
##ry
سلێمانیەوە
مندالانی
شیوە
یانەیەک
##داوەتەوە
لێدەکرد
کۆمپانیایه
پێویستیەکانی
دەبنەوه
هەستیارو
ژینۆساید
دەچەسپ
ئۆپۆزسیۆنەکان
لیستا
هاووڵاتیبوون
مانایەش
تۆمەتبارانی
ئەمجەد
برایانە
کۆتایهێنان
هۆزە
وەختێک
دیمۆکرات
فێمێنی
سیڤیلی
گەوهەری
حەوانەوە
##دون
##واق
##ایة
بەرەنجامی
ناوهێنانی
خوایەک
کۆمارە
کاروکار
هەمووشی
نەبیل
##اترە
بارگرانی
چاوان
سەربڕین
نزیککردنەوەی
ئۆپۆزسیۆندا
پیرۆزدا
مۆربکات
ئایەتوڵڵا
##فراندۆم
1918
هەڵگرتبوو
دەگوازرێتەوە
ڕاگواستن
هاولاَتیانی
بەئاڕاستەی
دڤێت
زێی
یع
##واس
##زەیەکی
##ئەکات
##ضا
##ْو
کەگ
بەردین
##ەدیی
ناوت
هەموولایەن
وڵاتانه
##ێلێت
1200
ئاژاوەو
ڕەنگێکی
توانیوە
قەرار
ئاشکرایی
بەیاری
نەناوە
پەیوەسته
##پۆشێت
تایبەتمەندێتی
##سالاری
لێکدانەوەیەکی
خۆشگوزەران
سـیاس
تاوتوێکرا
لەمەیدانی
سندووقی
جری
نەوی
##دران
##بس
##گام
##ێنەکانی
##ێنرایەوە
هەرئەو
خۆپەرست
ڕۆلێکی
چاوپۆش
ئاشـ
گوتین
وێنەکەی
پەیامنی
##ونیخ
ناسراوەکانی
دەنکە
ناوبەناو
بایۆلۆجی
پێدراو
##یسـت
دیاردەکانی
کۆنترۆلی
##مەیشن
دەلێ
کەسانێکن
بۆندێک
جێهێشتنی
ناجێگیری
ناڕەحەت
زۆرەملێ
ئەردوگان
هەڵسوراوی
ئست
خاس
هذە
چلۆن
##تیی
##بکە
لەغ
##ێنەیەکی
##ستانه
ڕۆسۆ
##بەرز
بەڵا
##وکاڵ
یاسر
کراسی
دەربەدەری
گرنگانەی
نەخۆشەکە
شارەزور
دواکەوتووە
جەبه
کێبر
ڕەنجدەرانی
ئاگایه
Email
ind
قوچ
نشتیمانی
وێل
##فێر
##زەه
##لکاری
##ەکرێ
##اتانە
کۆبکەنەوە
ئەگرێت
تۆیش
##ژیت
کەمەی
بەدەسـت
گۆڕانیان
کرایەوەو
فرمانی
بەوەداوە
داواکراوە
تائیستا
مەلاو
ئاگرێکی
نەخشەڕ
ڕۆژهەڵاتدا
قەیرانەکەی
تەقینەوەکە
ئوستور
سیستمەکە
میکانیزمەکانی
تالاسی
چاڵاک
تێوەگلانی
دەسەپێنێت
عمران
زیندەوەر
فیستەڤالا
سلم
ویت
وکر
ودوو
پۆر
چاوو
کاوەی
##ەوەکەدا
ناونووس
بهێننەوە
دوبز
دەستەکەی
ئەوەیشدا
بەهەوڵی
##ێتیدا
پێکراو
پیاسە
لەشۆڕشی
پشتەوەی
کەلاری
لێدەدات
##افیز
##بدرێ
داراییەکانی
لیژنەکه
ئیدیعای
سەرپەرشتیکردنی
کۆچکرد
لێکۆڵینەوەدا
وابەستە
بڕوایەدان
دەوڵەمەندەکان
یوسفی
بەئامادەبونی
پراکتیزە
بەسیستمی
پۆزەتیڤی
##کەشکردنی
ئامادەکارییەکان
دەفرۆشێت
کۆنەپەرستان
ئوتومبیل
سەروکێ
تومار
جاوی
##زادی
##بەدەست
ناوجەرگەی
دەبڕن
دەرکە
##ەخانی
هیم
پێکبێت
ترەوه
##کەیتەوە
ژندا
نەتەوەییدا
ئەستۆن
لەیەکێتیی
شەریفی
ئاگادارین
سکاڵایان
دڕندان
ئاخاوتنی
بروسکە
لاز
٢٥
ڕشتن
##ەحمەت
##مۆس
بەدار
بۆڕی
پێبدەین
کارتە
پێشوت
##ەهی
چەندانی
هەرواش
لەهی
وتبووی
گوتنی
گوتەیە
##یەکانە
##ێدەنگی
حەماسی
دیناریان
قەرەوێڵ
خواروی
دەریدەخات
نادۆز
سەرەکییان
چەپڵە
المن
بێبنەم
تابلۆکان
قوتابخانەیە
خۆشحاڵین
بەکۆمەڵێک
لەپشتەوە
دیموکراسیانە
ڕاڤەکردن
بازنەیی
بەئامانج
دەرهێنەرە
ئەگەڕێتەوە
بشارنەوە
هێشـتا
at
yout
ئێد
بگیرێ
یەل
##سۆزی
##چەو
##ێکیتر
ڕۆتینی
##ومێنتی
ئیڤ
دەرمانە
گولەی
دەستگرتن
##وانم
کارەدا
هاوینە
##کردنێک
##ەیەکى
کۆند
پارتیەوە
حکومەتەی
بیگۆڕ
119
نووسراوێکی
ئاڵمان
ئەساس
کامپی
2500
ڕاوێژی
دەهێنێتە
هەڕەشەکردن
سەردەمدا
لەهەڵبژاردندا
مەڕو
لەهەڵمەت
تۆزق
بیرۆکەیەکی
میژوو
##ئاراوە
بارگرژ
ناڕەزاییان
داپۆشینی
شتومەک
بەکالۆریۆس
ڕێورِەسمه
##وگرافی
##سکا
هەرت
##وانای
نیا
ناشتنی
تاوێک
کەلێنی
سزایان
پێدەڵێت
هەنگاوه
##ـیا
موحسن
باوکێک
کریکاری
بەیاننامەکه
ئەشێ
مینبەری
وەستاو
کۆشـکی
گۆڕانکارییانە
1965
لِک
##اکتۆر
ستۆکهۆلم
دەبیستین
گاڵتەجاڕی
سەلمێنەری
ئۆپەراسیۆنەکانی
##ێێێێ
ڕاگواستنی
ابو
##lam
لەدەوڵەت
##اڵان
خۆدا
دەبمە
لەولاوە
عێراق‌دا
##ەمانەوە
ڕێکا
مرۆڤایەتییە
زیاترن
جۆرێ
ئارت
##ەویدا
پلا
سوپایە
زانینگ
نەواز
خانوی
وله
حاڵەتەکانی
خەراپ
ئالا
لاوازەکانی
گێڕانەو
هۆشمەندی
پەلاماردان
##ational
شادمان
شانۆکارانی
جیابونەوە
بازرگانان
پەپوولە
پەستانی
مەملەکەت
لێکی
پەه
چنی
کانە
##وبوونەوەی
##ـێـ
##هەموو
##ڤسکی
##ff
کەشتیی
##یانکرد
بەرپاکرد
ئاشناک
دامان
بەئێش
مامۆستاکان
گشتیان
عەرەبستان
سازکرن
بەزمانێکی
نیوه
وەزارەتا
مۆراڵی
مەعش
لەبارودۆخ
دادوەران
خێڵەک
ڕووداوەدا
ڕووسیای
نەخۆشخانەکە
سکۆتلەند
ئەسڵەن
لێکترازان
ناهەموار
یەهودی
سەرنەکەوتنی
ڕەشەکوژی
داند
قەپ
##پرێس
##ڕشت
##‌امین
##ِع
##ارشی
##امای
##ییەیە
گوێد
بەڵێندەر
هەرێمەکانی
تێدەکەن
##ەییەی
ناکۆکە
بەرزای
بەکارهات
ڕەنگەکانی
مێژووش
##یسلامی
شاندەکەی
پەنجەرە
چیرۆکێک
یەکلاب
ساتەی
شەیدای
وکۆم
ستراتیژییەکان
تۆکمەی
دەرببڕێت
##ەگەلێکی
بولگاریا
PUK
بگرت
سُول
##مەتە
##ۆین
##بژێر
##ڵەم
##قات
##ێنەوەی
دواه
بوویە
لەمەکتەبی
وڵاتەیە
تورکیاوه
##اعە
##انیشە
هەڵوەست
بینایی
فیلمەی
شەوقی
کاریگەرتر
حاڵێکدا
میرە
شانده
بالاد
پاڵەوانێتیە
داکۆکیکار
ئاراسته
دەهاتنە
لەڕۆژنامەی
چۆڵکردنی
توندوتیژییە
ئیحتی
بلیتی
برِیاریدا
پـێشـنی
ڤالنسیا
کەخاوەنی
توشبوون
باقوو
دادەنیشن
دیکۆمێنتاری
ئۆدێرن
PYD
بزم
خائین
هاڕ
ڕایب
ڤەد
##تای
##ەکۆمەڵ
لەخان
ئەمەشی
##اندم
##ەڕەو
نیوتن
بنێشت
ئاماژەکان
وترا
ئاماژەیداوە
بنەمال
بخایەنێت
شەرقول
موسڵمانە
جێبەجێکار
پـرۆسەی
لەقازانجی
خەباتگێڕ
##orld
نیشتمانپەروەری
سەرمایەدارانی
خوێندکارانە
سەرچاوەیەکیش
##ناوچ
جگەرەی
کەئەمڕۆ
کڕیار
بەلێپرس
قابیل
گژوگی
سەرتیپ
ةٍ
جوانن
غەرب
چه
چانس
ژاوە
##یەکانیش
##وارەی
ئەوجار
کونج
##کەوتنەوەی
ئاوەڕۆی
##کرانەوە
##کرێنەوە
کوردستانیانی
بەخەبات
دەیەمی
ئێوەن
ڕولێ
ئەنفل
لێبڕاو
مەدەنیدا
خەمناک
کارگەکانی
نەناسی
کۆنفرانسەدا
زینداندا
##ُمّ
تیپەکە
دەرهین
زاتێکی
برِوان
نەچووەتە
مەبدەئی
ئافەرین
نەوجەوان
عەبدولوەهاب
پریمەرلی
شۆری
##‌یەکانی
کونی
##ەکانا
##مانا
ئیستان
##بەرداری
دەستک
خەڵتانی
باهیر
بەپەل
##زمەتی
برێڤ
ئاشبەت
وتنە
بڵاوکراوە
سیاسەتکردن
خواردنە
مەدەنیەت
پۆلیسەوه
سەنگەسەر
ڕەفتارەکانی
بەخۆوه
کارەساتێک
کەمپینە
لینکی
ئیدارەو
سەردێڕی
توێژینەوەکان
جێبەجێبکەن
زەیدی
قڕکردنی
چرکەیەک
خونچە
تێدانییە
کەگوایە
Mic
se
تاش
تینی
##عەل
ئەووڵاتە
پێئ
یەکهەڵوێستی
هەمەج
فەرد
کێشانه
ئەلهاشمی
155
ڕۆژئاواییەکان
نوسینەوەی
گوماناوی
ڕێککەوتنه
یەکیک
هۆڵێکی
دانیشتنەکه
پێشکەوتنخواز
کافتری
باپیرانی
ڕێکبخەن
خۆکوژێک
هەڵاواردن
کورِان
لەسەرکردەکانی
نەهێڵین
جورئەت
Norm
شووی
ئەمەوێت
بەربەری
##انەیەی
پاراو
##دارن
سیاسیەکەی
##الینی
دەدایەوە
لیس
مێژە
بەرهەمیان
ڕیگەی
ئێوەمان
لەرِ
پشکۆ
سەرنجیان
خوێنەرێکی
سەرکەوتووانە
ئیشکالی
ڕەخنەیەک
سووتەمەن
ئێوارەیەک
لەپەیام
هەرزەکاری
بدوێین
ئاقاری
عیسمەت
چەرخ
بەدەستهێناوەو
تایلەند
تایەف
بەڕاشکاوی
کۆسۆڤۆ
##ـانەوەی
##la
دووژم
##گەرای
کۆمەڵەیە
کاترین
ڕێکبکەون
لەبڵاو
##ەرمارک
دەیبینن
بڵاودەبێتەوە
خەریکه
وهەم
##ated
دەستوورییە
پشکنیندا
تایکو
فەوج
1956
پەیکەرە
1925
ژەهری
گیروگرفتی
ئەورپا
بەئاشتی
ناڕەحەتی
نەهاتووەتە
کۆبۆوه
مۆرینهۆ
سیامەند
گۆشەنیگای
حەسیب
زەڵ
غافڵ
پوخ
##بیان
##بوری
##اربوو
دەگە
##اسۆ
##دیف
ڕووەکی
کۆمەڵـ
نەبا
داواکانیان
نەکرابێت
درزی
##وکرات
خەڵکانەی
ڕیخۆ
دەنێین
دارشتنی
هێشتاکە
210
خێراو
جەنگیان
دەریاچ
کەئەگەر
بیستووە
زووانه
دیکەشدا
##ەیشەوە
ئامادەیییان
عەقڵە
دەرچونی
شەقڵ
بەڵێنیدا
دۆزەخە
ڕێگریکردن
شیرکۆ
پەرستنی
پردێکی
کۆنسێرته
ڕاستەقینەکەی
##ebook
بەچاوێکی
لێکدانەوەو
کەعیراق
ڕەحمانی
خوێنڕشتن
تالیبان
نانە
نەوەیە
##wa
##اوێزی
کۆفی
##اتیش
هەرێمیان
##گرتنەوە
کاتێـک
داواو
##ەجۆ
##ەییەکی
ببەستین
دۆستە
دەنێرن
کۆمەڵایەتیەکانی
تەرەف
##ens
وەڵامە
توندترین
کۆمپانیایانە
کارکردندا
ئەڤه
دێموکراتەکانی
سەلماندو
پرۆژەیاس
جیابونەوەی
بنیاتنان
فرانسۆ
ڕوبەڕوبونەوەی
پاداشتیان
سەرسوڕمانە
فازیل
دواناوەندی
میزۆپۆتامی
نیوەرۆ
لەشێوەکان
شوکری
تامەزرۆ
April
کاروکاروباری
بِّ
هاڵ
هێته
وجی
وانه
ک‌
##مل
لەدەوڵ
کەخەڵکی
ڕۆژانەو
پەیەد
سیاسەتەوە
شاراو
بەدور
بەسەرکەوتنی
لەهێزە
نزیـک
بەردەوامبێت
گوتەکانیدا
بڵاوبکاتەوە
##ووتەوە
نیشتمانیان
کچەکانی
لەتاو
ڕاگەیاندنەکەی
زەروور
کوڕەکە
بەمەبەست
بەڕێوەبرد
بگۆڕێ
سودیان
ئیلتیز
پەپوول
ئەنارکیزم
تۆتالیت
##کترۆن
گلۆب
هەڕەمەکی
تایکواند
جمال
فلان
لاڕ
##وابێت
##وەته
##بێن
##ەوخۆی
لەدەوڵەتی
بەژمارەی
ئەستان
دەستەکان
##دانان
لەبانگ
##گیران
##وبە
بیرتان
مەرز
عێراقیه
لێدەب
ڕێکخراوەکەی
بەعیراق
پێدەکەین
چاپکراوە
تاوانبارن
تەشەنەکردنی
ئامێره
دەورە
موعارەز
کێبرِکێی
مردنە
ئینتەرنێتی
لەداهاتوویەکی
اڵان
لەنیو
کەرتەکانی
گەیشتوونەته
باڵنده
وۆرکش
باقر
یادەوەریی
ڕاسیزم
لەپۆلیسی
مێهدی
وادەزانن
ئوپ
##بع
##بۆلی
##ڵێک
##حر
##ڤێر
##wan
##NA
لەدار
کەسم
##وانیش
ئێمەین
فەردی
مافێک
ژنەی
یاریەکە
##ایەتین
بڕاوە
هەوڵیاندا
گفتو
نەوتیان
##یەکەوە
ئاینز
خەمەکانی
هاوسەرەکانیان
##حکووم
بەقاچ
دەخوێنمەوە
بەخۆپیشاند
##چونەوەی
دەرچووەو
مایۆر
تیپەکانی
ئینتەرنێتەوە
کۆبونەوەیەدا
جێنشین
مێرمنداڵ
توندڕەوەکانی
نەگەیشتۆتە
ستراتیژییە
ئەرجەنتی
لیڤەرپوڵ
ئەعرەجی
youtube
ئول
شر
مد
پووش
[...]
