<unk>	0
<s>	0
</s>	0
▁و	-3.11282
▁لە	-3.92712
ی	-3.9581
▁بۆ	-4.38299
▁کە	-4.4877
▁بە	-4.49655
▁ئەو	-4.72966
▁له	-4.86025
ە	-4.9123
،	-4.97189
▁(	-5.09922
▁"	-5.20017
▁)	-5.2751
▁:	-5.28588
دا	-5.33436
▁-	-5.33919
▁/	-5.43996
▁ئەم	-5.46125
▁کوردستان	-5.51177
ه	-5.614
ن	-5.66005
و	-5.6613
▁به	-5.73338
ەوە	-5.79779
▁هەر	-5.86567
یان	-5.88973
▁لەسەر	-5.89719
ان	-5.90701
م	-5.93895
▁که	-6.00411
▁ئەوەی	-6.00422
▁لەگەڵ	-6.06574
▁خۆی	-6.08107
▁عێراق	-6.0978
▁لەو	-6.11918
ش	-6.14081
▁وەک	-6.14196
▁ی	-6.15387
▁بەڵام	-6.1715
▁هەموو	-6.18657
ـ	-6.1897
▁سەر	-6.2009
▁زۆر	-6.23016
▁بوو	-6.29119
"	-6.3257
▁کورد	-6.33882
▁دەکات	-6.36717
▁دەبێت	-6.36789
▁هەیە	-6.37174
مان	-6.38121
▁تا	-6.39521
ەکانی	-6.40675
▁کرد	-6.41478
▁یان	-6.4676
▁دا	-6.48284
ەکان	-6.4909
ِ	-6.50783
▁ئەگەر	-6.51669
ت	-6.52921
▁بێت	-6.5343
ێکی	-6.54443
▁بێ	-6.59677
▁دوو	-6.59861
:	-6.61788
▁هەرێمی	-6.62172
▁هیچ	-6.62805
▁من	-6.6306
▁بکات	-6.63902
▁چەند	-6.6409
ێ	-6.65371
▁نییە	-6.65674
یە	-6.66687
▁لەم	-6.67468
ا	-6.69878
[	-6.6993
▁،]	-6.70029
▁سەرۆکی	-6.70405
▁سیاسی	-6.71786
▁دوای	-6.71961
▁ئێستا	-6.75107
▁خۆیان	-6.75848
▁ئەوە	-6.78455
▁دەکەن	-6.83595
▁هەروەها	-6.84193
▁چونکە	-6.89139
▁ناو	-6.89428
▁ئێمە	-6.89466
▁تەنیا	-6.89796
▁زیاتر	-6.89821
▁[	-6.90651
▁]	-6.90862
▁هەولێر	-6.91011
▁حکومەتی	-6.92249
▁دەست	-6.9336
ەی	-6.93561
▁بکەن	-6.93581
▁بوون	-6.9566
ێک	-6.9591
یش	-6.96075
▁تر	-6.97148
)	-7.00808
▁,	-7.01615
▁ساڵی	-7.02082
انە	-7.02207
▁یەک	-7.02503
ەکەی	-7.03358
▁بەو	-7.0454
▁ئێران	-7.06095
▁سەرۆک	-7.07021
▁کردووە	-7.07183
▁پێ	-7.07641
▁نێوان	-7.08283
▁بووە	-7.08752
▁بەر	-7.09117
▁یەکێتی	-7.09161
▁هەرێم	-7.09623
▁سلێمانی	-7.10297
▁کەس	-7.11499
▁گوتی	-7.12754
▁بۆیە	-7.1374
▁لێ	-7.13824
▁دەکرێت	-7.14119
▁کوردی	-7.1434
▁خەڵکی	-7.14592
▁نە	-7.16298
▁لەلایەن	-7.18223
▁شاری	-7.20748
ى	-7.22704
انەی	-7.2397
.	-7.24146
▁بەسەر	-7.24309
▁ڕۆژی	-7.25156
▁پارتی	-7.26278
▁دەڵێت	-7.2655
▁کاری	-7.2707
▁ئەنجومەنی	-7.27534
وە	-7.28162
ەکە	-7.28209
▁د	-7.30959
▁تورکیا	-7.33128
یەکی	-7.3378
▁یەکەم	-7.36438
▁پێی	-7.37397
▁3	-7.38108
ین	-7.38629
ەوه	-7.38668
▁ل	-7.388
▁یانەی	-7.39161
▁وەکو	-7.39312
▁ڕایگەیاند	-7.40266
▁،	-7.40438
▁دروست	-7.4073
▁کار	-7.41316
▁10	-7.41568
▁تایبەت	-7.41944
کردنی	-7.42359
▁بەڵکو	-7.42464
▁هەندێک	-7.42745
▁2	-7.43957
▁پێش	-7.45261
▁گشتی	-7.45511
تان	-7.45894
▁سێ	-7.46003
▁بەهۆی	-7.46576
▁ئەمە	-7.46843
▁ئەمڕۆ	-7.46849
▁1	-7.46874
▁ب	-7.4742
▁مرۆڤ	-7.4743
▁بەرامبەر	-7.47862
▁;	-7.48181
ک	-7.48396
▁بکرێت	-7.48561
▁لای	-7.49548
▁بن	-7.49709
▁ئەوان	-7.50344
▁ناوی	-7.50697
▁ئەمەریکا	-7.51147
▁&	-7.51624
▁لایەن	-7.51848
▁م	-7.52673
▁کەرکوک	-7.52967
▁2010	-7.52997
▁خوا	-7.54961
▁نا	-7.55065
▁نەک	-7.56012
▁چ	-7.5616
▁حکومەت	-7.5617
▁کۆتایی	-7.56301
▁نوێ	-7.5711
▁تۆ	-7.57218
▁4	-7.58236
▁چەندین	-7.59023
▁2011	-7.5905
▁	-7.59274
▁5	-7.59988
▁ئەمەش	-7.60283
▁چۆن	-7.60487
▁کردنی	-7.60517
▁کاتێک	-7.6057
▁داوای	-7.60764
▁ئیسلامی	-7.61008
▁11	-7.61699
▁دە	-7.62009
▁وەزارەتی	-7.62333
▁وەزیری	-7.63191
▁لەناو	-7.63288
▁سەبارەت	-7.63297
▁بەپێی	-7.63324
▁12	-7.63462
▁کوردستانی	-7.63724
▁پێویستە	-7.63877
▁ئەحمەد	-7.64281
▁هەزار	-7.64545
▁ساڵ	-7.65629
▁عێراقی	-7.65639
▁دەستی	-7.6682
ەو	-7.66932
▁بەم	-7.66959
ْ	-7.67339
▁عەلی	-7.67678
▁6	-7.67991
▁\	-7.68166
▁–	-7.68591
▁خۆ	-7.69228
▁هۆی	-7.69295
▁*	-7.69586
▁بارزانی	-7.69853
▁پەرلەمان	-7.70506
▁بکەین	-7.70944
▁پەرلەمانی	-7.71203
▁بەرەو	-7.71271
▁گوتیشی	-7.72128
▁مافی	-7.72312
کی	-7.72423
▁بەردەوام	-7.72602
▁بەشی	-7.72667
یەک	-7.72736
▁نێو	-7.73628
▁یەکێک	-7.73646
▁هەبێت	-7.73684
▁ئازادی	-7.73754
▁بەغدا	-7.74078
▁وە	-7.7456
▁خەڵک	-7.74582
▁ماوەی	-7.7582
▁باس	-7.76032
▁لەبەر	-7.7671
انی	-7.76834
▁بوونی	-7.7685
▁ئە	-7.76859
/	-7.76968
▁وا	-7.77002
شی	-7.77092
▁محەمەد	-7.78313
▁نەبێت	-7.78342
▁ژیانی	-7.80442
▁باسی	-7.80856
▁پاش	-7.80906
▁ئەنجام	-7.80933
▁ئایا	-7.81245
▁ئەوا	-7.81646
▁داعش	-7.81773
▁ئەوانەی	-7.81908
▁2012	-7.83015
▁دیکە	-7.83115
▁پ	-7.83163
▁با	-7.83693
▁7	-7.83748
▁ئەمریکا	-7.83837
▁ڕ	-7.83854
▁دژی	-7.83877
▁9	-7.83928
▁هەمان	-7.84293
▁ن	-7.84349
▁ڕاگەیاند	-7.84632
▁دەرەوەی	-7.8482
▁گەورە	-7.85101
کردن	-7.85188
▁هەردوو	-7.85433
▁پەیوەندی	-7.86431
ەکی	-7.86544
▁زۆری	-7.87248
▁کراوە	-7.87316
▁کەم	-7.87431
ێن	-7.87525
یەوە	-7.87597
▁هێزەکانی	-7.87633
▁8	-7.87787
▁بەلام	-7.88073
▁ئەوەیە	-7.88198
▁کاتی	-7.89423
ُ	-7.89589
▁یا	-7.89619
▁چی	-7.90083
▁2009	-7.92451
▁واتە	-7.92633
▁فیلمی	-7.92997
▁گۆڕان	-7.9313
▁دەکەین	-7.93478
▁جیهانی	-7.93538
▁ژیان	-7.93681
▁'	-7.94081
تر	-7.94348
▁دەسەڵات	-7.94413
▁ش	-7.94463
▁خولی	-7.94941
▁ئاستی	-7.9507
▁ک	-7.95075
بوو	-7.95273
▁لیستی	-7.95591
▁کۆماری	-7.96411
▁دەوڵەتی	-7.96853
▁حیزبی	-7.97012
▁20	-7.97079
▁17	-7.98304
▁ئەندامی	-7.98397
▁س	-7.98449
▁بەشداری	-7.98507
▁ئەی	-7.98572
▁جیهان	-7.98933
▁ئەوەش	-7.98977
▁ژنان	-7.99436
▁15	-7.99848
▁چوار	-7.99976
▁ئاماژەی	-8.00315
▁جۆرە	-8.0059
▁18	-8.00796
▁پارێزگای	-8.00841
▁تری	-8.01202
▁دووەم	-8.01585
▁پڕ	-8.01719
▁2014	-8.01809
▁گەلی	-8.01845
▁هێزی	-8.01901
یەکان	-8.01918
▁تایبەتی	-8.02451
▁هەمیشە	-8.02489
▁کرا	-8.02805
▁تێدا	-8.03039
کە	-8.03089
▁دەسەڵاتی	-8.0312
▁ئەویش	-8.03239
د	-8.03363
▁کێشەی	-8.03799
▁2008	-8.04152
▁16	-8.04217
▁کردن	-8.04502
ر	-8.04593
▁بواری	-8.0486
▁دەکرد	-8.04922
َ	-8.05162
▁زمانی	-8.05355
▁ژێر	-8.05804
▁ڕۆژ	-8.06358
▁پێشمەرگە	-8.06469
▁دواتر	-8.065
▁دەدات	-8.07314
▁یاسای	-8.07798
▁هەواڵی	-8.08316
▁سوریا	-8.08581
س	-8.08863
▁وڵاتانی	-8.09134
▁کۆمەڵایەتی	-8.09232
▁عەرەبی	-8.09233
▁تەنانەت	-8.09468
▁باش	-8.09874
▁تەواوی	-8.09965
▁تەواو	-8.10701
▁جار	-8.10934
▁پرۆسەی	-8.11071
▁ئاژانسی	-8.11112
▁%	-8.11115
▁ژن	-8.11132
▁لەبارەی	-8.11246
▁جگە	-8.11255
▁دەنگی	-8.11517
کانی	-8.11532
▁لەنێوان	-8.11825
▁ملیۆن	-8.12399
▁ڕابردوو	-8.12406
▁دیکەی	-8.12417
ۆ	-8.12649
▁مانگی	-8.13255
▁هونەری	-8.13446
تی	-8.14042
▁بەدەست	-8.14265
ل	-8.15494
▁خاوەن	-8.15528
▁30	-8.16197
▁سەرەکی	-8.16441
▁یە	-8.16618
▁14	-8.16744
ەک	-8.16756
▁گەر	-8.16816
▁ئازاد	-8.16828
▁کردەوە	-8.16843
▁سوپای	-8.16848
▁13	-8.16904
▁سەردانی	-8.17084
▁سەرۆکایەتی	-8.17219
▁نزیک	-8.17291
▁بدات	-8.17386
▁quot	-8.18351
▁جا	-8.18492
▁خۆمان	-8.18636
▁نیشتمانی	-8.18755
▁بو	-8.1934
▁نەوت	-8.19386
▁ئەنجامی	-8.19556
▁لەوەی	-8.20148
کان	-8.20992
یەکانی	-8.20996
بوون	-8.21045
▁نەتەوەیی	-8.21077
▁سەرجەم	-8.21123
▁وڵاتی	-8.21424
▁کات	-8.21685
▁بی	-8.22171
▁دەنگ	-8.22476
▁ڕوو	-8.22551
▁بیر	-8.22905
▁زۆربەی	-8.22935
▁کەسێک	-8.2313
بێت	-8.2335
▁ڕێگەی	-8.23728
▁ئابووری	-8.24155
▁خۆم	-8.24607
ەکانیان	-8.24656
▁ئێمه	-8.25353
▁ڕێکخراوی	-8.25426
▁19	-8.25585
▁یاری	-8.25771
▁نەبوو	-8.26006
▁یاسا	-8.26012
▁بێگومان	-8.26122
دایە	-8.26398
▁هاوکات	-8.26466
▁دوێنێ	-8.26724
▁بڕیاری	-8.26939
▁پێویستی	-8.27173
▁دەڵێن	-8.27486
▁پاراستنی	-8.27505
ب	-8.27565
▁پێویست	-8.27774
نە	-8.2858
▁هێزە	-8.29248
▁بەبێ	-8.29271
▁ڕووی	-8.29665
▁ڕۆڵی	-8.29775
▁ە	-8.29951
▁تێیدا	-8.30167
▁داوە	-8.3046
▁بەڕاستی	-8.30884
▁وڵات	-8.30971
▁ع	-8.31162
▁دی	-8.31173
▁ئاشکرا	-8.31173
▁تەندروستی	-8.31376
▁دوور	-8.31578
▁حەسەن	-8.31882
▁جەلال	-8.32203
▁هەڵبژاردن	-8.32231
▁پێشکەش	-8.32249
▁بەڕێوەبەری	-8.32412
▁هەڵبژاردنی	-8.32469
▁وایە	-8.33086
▁25	-8.33305
▁بەرهەم	-8.33721
انه	-8.33824
▁جێی	-8.33827
▁2013	-8.34157
▁بەناوی	-8.34197
▁نابێت	-8.34413
▁سیاسیی	-8.34515
▁جێگری	-8.34838
▁نوێی	-8.34952
▁هێشتا	-8.35554
▁حیزب	-8.35824
ێت	-8.35914
▁دێت	-8.35927
▁هاوکاری	-8.35965
▁ت	-8.36973
▁ڕێگای	-8.37051
▁بدەن	-8.37131
▁سەربازی	-8.37136
▁ئیتر	-8.3714
▁شەڕی	-8.37206
▁شتێک	-8.37312
▁دەیان	-8.37764
▁لەوە	-8.37794
▁کەچی	-8.37795
▁دژ	-8.37805
▁شوێنی	-8.37929
▁هەبوو	-8.37942
▁هەوڵی	-8.38001
کەی	-8.38097
-	-8.38237
s	-8.38272
▁هەست	-8.38309
▁بەرگری	-8.38438
ەدا	-8.38601
ەکه	-8.38939
▁بەشێکی	-8.38956
▁بەتایبەتی	-8.39073
▁کوردستاندا	-8.39167
▁گرنگی	-8.39172
▁دوا	-8.39364
▁خۆیدا	-8.39532
▁دەبێتە	-8.39951
▁یاخود	-8.40186
دان	-8.40438
▁پێشتر	-8.40487
▁21	-8.40585
▁کۆمەڵێک	-8.40948
▁زەوی	-8.41067
▁هەتا	-8.41144
▁لێی	-8.41263
▁ژمارەی	-8.41589
▁پاشان	-8.41777
▁گەورەی	-8.41909
▁خاوەنی	-8.42112
▁نوێنەرانی	-8.42325
▁لیژنەی	-8.42331
▁لایەنە	-8.42396
▁دێموکراسی	-8.42503
▁h	-8.42689
▁دەکەم	-8.42783
▁ئا	-8.42874
▁مێژووی	-8.43317
▁ئاسایشی	-8.4342
▁گرنگ	-8.43911
▁باشترین	-8.44003
▁باڵای	-8.4431
▁ئەوه	-8.44352
یه	-8.44606
▁دیاری	-8.44626
▁دکتۆر	-8.44713
▁چارەسەر	-8.44808
▁بەشێک	-8.44956
▁ئەندامانی	-8.45505
▁دەدەن	-8.45617
▁دروستکردنی	-8.45945
▁ا	-8.46128
▁نێودەوڵەتی	-8.46355
▁هاتووە	-8.46451
▁دیارە	-8.46643
▁مام	-8.4742
▁مەدەنی	-8.47466
▁بر	-8.47663
▁نزیکەی	-8.47787
▁ڕۆژهەڵاتی	-8.47885
▁»	-8.47932
▁ژمارەیەک	-8.484
▁قۆناغی	-8.48564
▁سی	-8.48578
▁ڕەنگە	-8.48618
▁دەوڵەت	-8.49084
نی	-8.49085
▁عەرەب	-8.49134
▁پۆلیسی	-8.49196
▁بەشێوەیەکی	-8.49417
▁وەزیرانی	-8.4968
▁سیاسەتی	-8.49698
▁ناوچەی	-8.49773
▁دێموکراتی	-8.50065
▁ڕاگەیاندنی	-8.50466
▁ڕژێمی	-8.5054
▁یاریزانی	-8.50847
▁پێنج	-8.50951
▁بەرز	-8.51156
,	-8.51255
▁دەبن	-8.51502
▁لەکاتی	-8.51574
▁ئەوروپا	-8.51634
▁گەرمیان	-8.51785
▁هات	-8.51969
▁22	-8.52166
▁24	-8.52227
▁کەسی	-8.52269
نا	-8.52317
▁پەیامنێر	-8.52432
▁مەلا	-8.52458
▁هەم	-8.52534
وه	-8.52563
▁نین	-8.52707
ellip	-8.52853
▁دەستەی	-8.52954
▁خەڵاتی	-8.5296
▁ڕێژەی	-8.53009
▁کو	-8.53377
▁یەکێتیی	-8.53419
▁لا	-8.53559
▁ناکات	-8.53758
▁یاسایی	-8.53802
▁دەتوانێت	-8.53858
▁هۆکاری	-8.53886
▁داوا	-8.54038
▁23	-8.54466
▁ئێوە	-8.54486
▁داهاتوو	-8.54632
▁خاڵ	-8.54633
▁فیستیڤاڵی	-8.5503
▁مالکی	-8.55096
ەکاندا	-8.55106
▁کاریگەری	-8.55135
▁ال	-8.55249
شدا	-8.55375
▁ڕابردوودا	-8.55461
ەش	-8.55541
▁هە	-8.55686
▁کێ	-8.56165
▁نموونە	-8.56483
▁تاڵەبانی	-8.567
▁کاک	-8.56904
▁ناوەندی	-8.57028
▁ئاشتی	-8.5717
▁ناوبراو	-8.57812
▁خۆش	-8.58037
▁=	-8.58059
▁یەکەمی	-8.58259
▁مەبەستی	-8.58293
▁عێراقدا	-8.58351
▁مەکتەبی	-8.5865
لە	-8.58981
▁ئیسلام	-8.59108
▁وڵاتە	-8.59169
▁لێرەدا	-8.59604
▁ئاو	-8.59616
▁لایەنی	-8.59632
▁خودی	-8.59739
ون	-8.59753
یەتی	-8.60043
▁ف	-8.60208
▁نیە	-8.60745
▁پشتیوانی	-8.60769
▁کردوە	-8.60877
▁لەژێر	-8.60941
▁کردنەوەی	-8.60957
▁پشت	-8.61098
▁قوربانی	-8.61353
▁دارایی	-8.6193
▁بەرپرسی	-8.61964
▁ڕاست	-8.6199
ز	-8.62504
▁ڕێ	-8.62755
▁بەرهەمی	-8.62983
▁ڕای	-8.63126
▁شەهید	-8.63245
▁سنووری	-8.63366
▁مامۆستا	-8.63684
▁ناکرێت	-8.63773
کرد	-8.63828
▁بەرژەوەندی	-8.63906
ترین	-8.64142
▁تاکو	-8.64166
▁توانای	-8.64177
▁جیاوازی	-8.64282
▁ڕۆژنامەی	-8.64291
▁سە	-8.64531
▁ڕۆشنبیری	-8.64598
▁ڕاستی	-8.64853
▁شەڕ	-8.65065
▁تۆپی	-8.65298
▁پۆلیس	-8.65432
▁ئەنفال	-8.65456
▁هەوڵ	-8.65493
▁سەرکردایەتی	-8.6566
▁زانستی	-8.65882
▁چارەسەری	-8.65936
▁لەدوای	-8.65968
▁بەرنامەی	-8.66016
▁پرسی	-8.66282
▁هاوپەیمانی	-8.66329
▁کاروباری	-8.6633
▁چین	-8.66451
▁ئێستاش	-8.66487
▁بەوەی	-8.66702
▁ئەرکی	-8.66948
▁مالیکی	-8.66959
▁دەکاتەوە	-8.67207
▁شێوە	-8.67261
▁زانیاری	-8.67266
▁پێکهێنانی	-8.67378
▁هەڵ	-8.67683
▁هێنا	-8.67763
تە	-8.67765
▁بکەم	-8.67881
▁کۆمەڵگای	-8.68072
یەی	-8.68273
▁وەزیران	-8.68318
▁شتێکی	-8.68458
▁بەڕێز	-8.68863
▁دنیا	-8.69048
دە	-8.69062
بوونی	-8.6924
▁بۆچی	-8.69337
▁28	-8.69339
▁27	-8.69393
▁بازرگانی	-8.69414
▁دەربارەی	-8.69458
▁ژمارە	-8.69478
▁نەتەوە	-8.69724
▁بەتایبەت	-8.69757
▁بڵاو	-8.69766
▁هەروەک	-8.70137
▁چونکه	-8.7016
▁عوسمان	-8.70365
▁26	-8.70394
▁بەریتانیا	-8.70437
ّ	-8.70507
له	-8.7055
▁گەل	-8.70646
▁کارێکی	-8.70703
بە	-8.70724
▁بۆئەوەی	-8.70725
▁باری	-8.70735
▁جیاواز	-8.71381
▁بەوە	-8.71821
▁ئاماژە	-8.71877
▁ئاسایش	-8.72065
▁دهۆک	-8.72228
▁میسر	-8.72272
▁گەڵ	-8.72289
▁فی	-8.72406
▁گیانی	-8.72577
▁ناوچەکە	-8.72591
▁کۆ	-8.727
▁پێیان	-8.72735
▁خوای	-8.72764
▁تۆمار	-8.72787
▁2007	-8.72828
▁شێخ	-8.72996
▁منداڵ	-8.72996
▁پلەی	-8.73
▁دۆلار	-8.73093
▁جێگەی	-8.73149
▁بەردەم	-8.73246
▁پڕۆژەی	-8.73478
▁کۆمەڵگا	-8.73562
▁قسە	-8.73642
▁ئەمنی	-8.73647
▁زمان	-8.73666
▁جێ	-8.73718
▁دەتوانن	-8.7372
▁چاو	-8.73841
▁ژ	-8.74133
یت	-8.74169
▁لەبەردەم	-8.74202
▁هەڵبژاردەی	-8.74325
▁توانی	-8.74335
▁کۆمپانیای	-8.7467
▁قادر	-8.75003
▁هەیه	-8.75113
▁جارێکی	-8.75166
▁تووشی	-8.75169
▁ساڵح	-8.75252
▁بەمەبەستی	-8.75357
▁لەکاتێکدا	-8.75372
▁کۆبانی	-8.75431
▁ئامادە	-8.75441
"،	-8.75598
▁هەن	-8.75622
▁ناوچە	-8.7575
▁.	-8.75772
ف	-8.75772
▁بودجەی	-8.7601
بن	-8.76059
▁هەرگیز	-8.76392
▁خوێن	-8.76402
▁شێوەیەک	-8.76507
▁حکوومەتی	-8.76579
▁جوان	-8.76673
انەوە	-8.76918
▁لەساڵی	-8.76978
▁کارە	-8.77245
▁سەرەتای	-8.77449
▁هەبووە	-8.77594
▁بەکار	-8.77595
▁ڕۆژانە	-8.77859
▁مستەفا	-8.77861
▁ماڵی	-8.77878
▁کێشە	-8.78004
▁سیستەمی	-8.78189
▁ڕوون	-8.78326
▁«	-8.78346
▁ئاسایی	-8.78383
▁ماڵ	-8.78519
▁حوسێن	-8.78525
▁com	-8.78583
▁لەنێو	-8.78625
▁أ	-8.78776
_	-8.78936
▁دەرەوە	-8.78938
▁نەبووە	-8.79076
▁گشتیی	-8.79155
▁ئەنجامدانی	-8.79201
▁جێبەجێ	-8.79213
▁29	-8.79362
▁سەردەمی	-8.79379
▁ساڵە	-8.79878
▁مافەکانی	-8.79915
▁نوری	-8.80005
بێ	-8.8002
▁بڕیار	-8.80119
▁گوت	-8.80225
▁شەو	-8.80314
▁کاتژمێر	-8.80515
▁باشتر	-8.80785
▁بەختیار	-8.8089
▁نوێنەران	-8.80926
▁بەرپرسانی	-8.81017
▁عومەر	-8.81119
▁هەرچەندە	-8.81121
▁مەحمود	-8.81126
▁زیاد	-8.81144
▁بابەتی	-8.81406
▁ئیسرائیل	-8.81488
▁نێت	-8.81775
▁چاودێری	-8.81822
▁شێوەیەکی	-8.81917
▁ڕاگەیاندن	-8.82152
▁_	-8.82187
شیان	-8.82193
▁نوێنەری	-8.82264
▁چارەسەرکردنی	-8.82484
▁موسڵ	-8.8285
▁چاک	-8.83146
▁لەماوەی	-8.83175
▁ئەوەشی	-8.83406
▁سیاسەت	-8.83492
▁ببێتە	-8.83593
▁دیار	-8.83671
▁نەوتی	-8.83831
▁بەعس	-8.83995
▁بدرێت	-8.84011
که	-8.84187
▁سەرکەوتنی	-8.84305
▁تاران	-8.8433
▁دڵ	-8.84495
▁کۆمەڵگەی	-8.84571
▁زانکۆی	-8.84753
▁‬	-8.84817
▁کەسێکی	-8.84827
▁مەسەلەی	-8.85119
▁چالاکی	-8.85316
▁دەچێت	-8.85508
▁کۆی	-8.85671
ەکەیان	-8.85881
▁دایک	-8.85892
▁کردو	-8.859
تا	-8.86007
▁جیا	-8.86291
▁تەنها	-8.86479
▁چەک	-8.86494
▁هەیەو	-8.86587
▁نیشتمانیی	-8.86595
▁مەترسی	-8.86636
▁ئەمانە	-8.8695
▁ئۆپۆزسیۆن	-8.87006
▁خوارەوە	-8.87022
ەتی	-8.8711
▁پارێزگاری	-8.87302
▁دان	-8.87317
▁ئەوانیش	-8.87319
▁دەزگای	-8.87395
▁دینار	-8.87419
▁تازە	-8.87913
▁نیشان	-8.87989
▁خۆت	-8.88094
▁نووسەر	-8.88225
▁هونەر	-8.88326
▁مانگ	-8.8837
▁جێبەجێکردنی	-8.88591
▁پێک	-8.88598
▁شار	-8.88617
▁دامەزراندنی	-8.88697
▁ئابوری	-8.88897
▁گۆرانی	-8.89065
▁تەمەنی	-8.89085
▁بکاتەوە	-8.89239
▁هەرچی	-8.89305
▁لەهەموو	-8.89368
▁قسەی	-8.89725
▁توندوتیژی	-8.89989
▁بزووتنەوەی	-8.89996
▁پێکەوە	-8.90044
▁تائێستا	-8.90436
▁نەبوونی	-8.90536
▁تاک	-8.90581
▁بەکارهێنانی	-8.90625
▁ئەوەندە	-8.90826
▁شوێن	-8.91103
▁بڕی	-8.91151
ة	-8.91175
▁فەرمی	-8.9134
▁بنەمای	-8.91517
▁مێژوو	-8.91764
▁ڕازی	-8.91914
▁عەبدوڵڵا	-8.92076
▁بارودۆخی	-8.9214
‮	-8.92169
وا	-8.92172
▁کردبوو	-8.9228
▁هی	-8.9231
▁دادگای	-8.92382
▁خاڵی	-8.92612
▁تەمەن	-8.92776
▁شێوەی	-8.92878
▁دووبارە	-8.92882
▁پەیامنێری	-8.93097
▁ئایینی	-8.93268
▁کردووه	-8.93408
▁گۆڕینی	-8.93519
▁تاوەکو	-8.93565
▁سەری	-8.93724
▁بەهێز	-8.93725
▁کەواتە	-8.93798
▁کۆمەڵەی	-8.93815
▁یەکتر	-8.93951
▁لەلایەکی	-8.94064
▁ئەڵمانیا	-8.94175
▁چاوی	-8.94182
▁ئاوی	-8.94339
▁ڕەوشی	-8.94539
▁خەبات	-8.94556
▁شەش	-8.94939
▁تریش	-8.94943
▁خەباتی	-8.95057
▁ئەڵڵا	-8.95225
▁پیاو	-8.95307
▁ئاراستەی	-8.95356
▁ح	-8.95429
▁شەهیدان	-8.95441
▁مە	-8.9545
▁هەڵوێستی	-8.95544
▁جەماوەری	-8.95775
▁ڕاستەوخۆ	-8.958
▁جۆرێک	-8.95941
▁ڕۆژێک	-8.95969
دی	-8.96041
▁ڕەش	-8.96094
ع	-8.96106
▁وەڵامی	-8.96133
▁ەوە	-8.96397
▁کەسانی	-8.96462
وو	-8.96471
▁ئەنجوومەنی	-8.96534
d	-8.96555
بی	-8.96775
▁هەمو	-8.96806
▁خۆشەویستی	-8.96806
▁هێز	-8.96844
▁بریندار	-8.96924
▁وای	-8.97217
▁دووەمی	-8.97259
▁نمایش	-8.97382
▁وەرگرتنی	-8.97454
▁سایتی	-8.97661
▁هونەرمەند	-8.97777
کردنەوەی	-8.97786
▁کەریم	-8.97859
▁وێنەی	-8.97882
▁ـ	-8.97901
▁گرنگە	-8.98049
▁مانای	-8.98118
▁شاعیر	-8.9815
▁لەوانە	-8.98431
▁تێ	-8.98632
▁خۆشی	-8.98738
▁ئیبراهیم	-8.98852
▁کوشتنی	-8.99026
▁بەرچاو	-8.99078
▁بزوتنەوەی	-8.99391
ح	-8.99474
▁گەندەڵی	-8.99829
ق	-8.9996
▁کەمال	-9.0008
▁31	-9.00112
▁09	-9.0027
▁لەوێ	-9.00271
▁هەڵەبجە	-9.00296
▁ڕا	-9.00423
▁مرۆڤی	-9.00502
▁دەدرێت	-9.00513
▁جەنگی	-9.00521
▁خوێندن	-9.00767
▁پێغەمبەر	-9.00814
▁بین	-9.01165
▁فیدراڵ	-9.01177
یا	-9.01251
▁07	-9.01307
▁بیست	-9.01452
▁دابین	-9.0146
ای	-9.01475
▁سەرەتا	-9.01546
▁ئۆباما	-9.01609
▁هەفتەی	-9.0164
▁ناوخۆی	-9.0173
▁پڕۆژە	-9.01785
▁شێوازی	-9.0185
▁پێشمەرگەی	-9.01934
▁دیکه	-9.02012
یەکەی	-9.0208
▁سوید	-9.02193
▁کارو	-9.02384
▁دەرهێنانی	-9.02532
y	-9.02686
▁سیاسییەکان	-9.02707
ەیە	-9.02767
▁دێ	-9.02868
▁سێیەم	-9.02951
▁گشت	-9.03337
▁کۆمار	-9.03357
▁سپی	-9.03357
▁کۆبوونەوەی	-9.03428
▁ژمارەیەکی	-9.03463
▁جۆری	-9.03531
▁شەممە	-9.03581
▁شێوەیە	-9.03655
▁کورسی	-9.03732
▁ئەندام	-9.03764
▁سزای	-9.03858
کاری	-9.04163
بۆ	-9.04385
ەکەدا	-9.04419
▁کاتێکدا	-9.04468
▁ئێمەش	-9.04477
▁منیش	-9.04589
▁کەسایەتی	-9.04624
▁کۆنگرەی	-9.04748
▁ئاینی	-9.04869
▁ئاوێنەنیوز	-9.05103
▁ڕێگە	-9.0523
▁01	-9.05288
▁شۆڕش	-9.05571
▁دەم	-9.0576
▁دەی	-9.05851
▁یەکێکە	-9.05865
▁دەبێتەوە	-9.05987
▁باشووری	-9.06007
▁یارمەتی	-9.06008
▁خاکی	-9.06104
▁هاوبەش	-9.06143
▁50	-9.06288
▁نووسین	-9.06314
▁08	-9.06336
▁بەرانبەر	-9.0638
▁ئەوانە	-9.06393
▁کەسانەی	-9.06512
▁کەمتر	-9.06608
▁ڕێک	-9.06623
▁پۆستی	-9.0678
▁مادەی	-9.06822
▁بڕیارە	-9.07001
▁مەسعود	-9.07403
▁شۆڕشی	-9.07489
▁بەرەی	-9.07632
▁گوێرەی	-9.08096
▁زیندانی	-9.08122
▁کردووەو	-9.08244
▁ئاگادار	-9.08306
▁04	-9.08342
یانەی	-9.08463
▁02	-9.08562
▁03	-9.08573
▁شێعر	-9.08574
▁لەبەرامبەر	-9.08784
▁باشە	-9.08839
▁کارەکانی	-9.08856
▁06	-9.08938
▁خراپ	-9.0896
▁ئارام	-9.08998
▁تاکە	-9.09007
▁دەزانن	-9.09256
▁دەکرێن	-9.09315
▁زانکۆ	-9.09474
▁کۆمەڵ	-9.09489
▁دڵی	-9.09587
▁ئەمەریکی	-9.09692
▁تیرۆر	-9.09706
▁ئیدی	-9.09767
مە	-9.09832
▁نیشتیمانی	-9.09842
▁یەکگرتووەکان	-9.09918
▁چەکی	-9.09969
▁گەورەترین	-9.10124
▁ڕزگار	-9.10275
▁کۆمەڵی	-9.10472
▁هەستی	-9.10512
▁مایەی	-9.1053
▁05	-9.10561
▁تی	-9.10658
▁گروپی	-9.10888
اندا	-9.10955
▁ڕۆژئاوای	-9.11006
ێکدا	-9.11079
▁یەکەمین	-9.11115
▁بهێنێت	-9.11125
▁ئامانجی	-9.11195
▁ناوچەکانی	-9.1124
ری	-9.11341
▁دەستوور	-9.1157
▁ئێرانی	-9.116
▁ناتوانێت	-9.11624
▁سکرتێری	-9.11705
▁دەستیان	-9.11789
▁ڕۆژئاوا	-9.11903
▁پرسیار	-9.11957
▁ناوخۆ	-9.12049
ییەکان	-9.12098
▁دادگا	-9.12156
پ	-9.12596
▁گرت	-9.12679
▁نەخۆشی	-9.12818
▁لەپێناو	-9.12845
▁ئەمساڵ	-9.12948
▁خوێندنی	-9.13034
▁سەدان	-9.13063
▁بارەی	-9.13143
▁تێدایە	-9.13175
▁بکە	-9.13181
▁پەیوەندییەکانی	-9.13194
▁پەنا	-9.13207
▁هێناوە	-9.13212
▁سووریا	-9.13295
▁سینەمایی	-9.1333
▁گفتوگۆ	-9.13464
▁دەزانێت	-9.13726
▁لەڕێگەی	-9.13728
▁دو	-9.13762
▁باوەڕ	-9.13795
▁دەتوانین	-9.13803
▁ئەدەبی	-9.13851
▁ملیار	-9.13876
▁سروشتی	-9.13885
▁سەرچاوەی	-9.14006
▁بەدوای	-9.14156
▁لەشاری	-9.14198
▁قەزای	-9.14395
▁وشەی	-9.14419
ێتی	-9.14534
را	-9.14611
▁دەر	-9.14634
▁جوانی	-9.14941
▁بۆتە	-9.1507
▁ڕێکخراوە	-9.15095
▁دیکەش	-9.15098
شە	-9.15132
ڕ	-9.15226
▁دەگرێت	-9.15256
▁کارەبا	-9.15281
▁ئیدارەی	-9.15336
▁هێزێکی	-9.15393
▁بیری	-9.15421
▁پشتگیری	-9.15479
▁حاجی	-9.15853
▁بابەتە	-9.15871
▁عەزیز	-9.16013
▁سەربەخۆیی	-9.16096
سی	-9.16238
▁هاوڵاتیان	-9.16252
▁پێم	-9.16274
▁منداڵان	-9.16364
▁ئینجا	-9.16388
▁نی	-9.16407
▁پر	-9.16414
▁زوو	-9.16433
▁دەستگیر	-9.16623
▁لەڕووی	-9.16647
▁چوارچێوەی	-9.16655
▁ئامانج	-9.16824
▁نرخی	-9.16853
▁ڕۆژنامەنووس	-9.16883
▁شارە	-9.17032
▁سیستمی	-9.17087
▁سەرچاوە	-9.1718
گەی	-9.17388
▁ئێوه	-9.17438
▁جەنگ	-9.1744
▁پاک	-9.17469
▁سەربەخۆ	-9.17577
▁دایە	-9.17718
▁کۆمەڵگە	-9.17744
▁بکەنەوە	-9.17912
▁بگرن	-9.18369
▁سەرەڕای	-9.18401
ما	-9.18513
▁ق	-9.18562
▁داواکاری	-9.18581
▁کراون	-9.18791
▁ئازار	-9.18818
▁کتێبی	-9.19332
▁ماف	-9.19367
▁ساز	-9.19416
▁دەبینین	-9.19522
▁)-	-9.19539
بو	-9.19656
▁بۆیه	-9.19698
▁ڕاستە	-9.19705
▁سەد	-9.19861
تەوە	-9.19892
▁سەیری	-9.20018
▁فەرەنسا	-9.20048
▁بەداخەوە	-9.20133
▁کارکردن	-9.20288
▁هاتنی	-9.20306
▁جێگای	-9.20323
▁دابەش	-9.20375
▁واتا	-9.20401
▁ئەمرۆ	-9.20627
▁بەگشتی	-9.20773
▁پێشووی	-9.20975
کردووە	-9.20998
▁مرۆڤایەتی	-9.21118
▁سەربەخۆی	-9.21255
▁ماوە	-9.2131
▁هێرش	-9.21325
▁بووم	-9.21374
▁سەیر	-9.21399
▁یادی	-9.21437
یانە	-9.21496
▁سوپاسی	-9.21579
▁پێناو	-9.21727
▁سەرکەوتن	-9.21753
▁زۆرینەی	-9.21774
▁تورک	-9.21944
دەکات	-9.22041
▁دەگەڕێتەوە	-9.22069
ەکانیش	-9.22112
▁خۆیەوە	-9.22318
▁کام	-9.22344
▁ببێت	-9.22362
▁گومان	-9.22412
خ	-9.22661
▁نەتەوەی	-9.22673
▁ڕەوانەی	-9.22732
▁درێژ	-9.2275
بەر	-9.22766
▁40	-9.22834
ج	-9.22994
▁ئاسمانی	-9.23051
ەوەو	-9.23156
▁کۆبانێ	-9.23156
ڵ	-9.23179
▁هتد	-9.23279
▁خۆتان	-9.23305
▁مەبەست	-9.23372
▁داهاتوودا	-9.23386
▁دەستووری	-9.23431
▁140	-9.23527
▁تە	-9.2355
▁یارییەکانی	-9.23579
▁خوێندنەوەی	-9.23606
▁کۆن	-9.23666
▁بینی	-9.23667
▁یەکگرتوو	-9.23696
ات	-9.23817
▁باشی	-9.23834
▁خزمەتی	-9.24037
▁سەدەی	-9.24059
▁کوڕی	-9.24204
▁بڵێین	-9.24206
▁دنیای	-9.2422
▁گوێ	-9.24347
(	-9.24429
▁بەجێ	-9.24669
▁ئامادەیی	-9.24842
▁هەینی	-9.24874
▁باوکی	-9.24924
▁پێوە	-9.24971
▁ناوەڕاست	-9.24988
▁چاوەڕوانی	-9.25031
▁دەقی	-9.25214
▁ئەمریکی	-9.25274
▁خواست	-9.25433
▁سەعید	-9.25459
▁www	-9.25593
ییە	-9.25685
ەکەم	-9.25706
▁ڕەخنە	-9.25721
▁شارۆچکەی	-9.25765
▁پایتەختی	-9.25867
▁پەروەردە	-9.25873
▁لێرە	-9.25965
▁ئینگلیزی	-9.26026
▁ژنانی	-9.2605
▁زۆرێک	-9.26127
▁چۆنیەتی	-9.26165
▁بەردەوامی	-9.26376
▁ڕێز	-9.26393
▁لەگەل	-9.26415
▁ر	-9.26457
▁شارەوانی	-9.26668
کار	-9.26685
▁هەریەک	-9.26686
▁هاووڵاتی	-9.26729
▁کانی	-9.26771
▁100	-9.26916
▁پێشوو	-9.26945
▁ترس	-9.26975
▁حەمە	-9.27056
▁توند	-9.27169
نەوە	-9.27358
▁نێونەتەوەیی	-9.27376
▁بگرێت	-9.27417
▁باڵا	-9.27576
▁لێدوانێکی	-9.27656
▁بەڕێوەبەرایەتی	-9.27704
▁کەرتی	-9.27811
▁هەموومان	-9.27893
لی	-9.27939
▁ئافرەت	-9.2807
▁مێژوویی	-9.28195
▁ڕێگا	-9.28254
▁تیرۆریستی	-9.28377
▁لەهەر	-9.28413
▁لی	-9.28451
▁هێڵی	-9.28537
▁ناکەن	-9.28548
▁دەنگدان	-9.28656
▁هەموویان	-9.28663
▁هەزاران	-9.28735
▁ئێستای	-9.28839
▁گەیشتن	-9.2906
▁خودا	-9.29093
▁دانانی	-9.29104
▁شت	-9.29169
▁ئارامی	-9.29187
▁پەکەکە	-9.29213
▁وڵاتەکەی	-9.29237
▁0	-9.29296
▁دەستنیشان	-9.293
▁بوونە	-9.293
▁کوشتن	-9.29366
▁پارە	-9.29384
▁ئەزموونی	-9.29446
▁هاوبەشی	-9.29507
▁بکرێن	-9.29517
▁سەدام	-9.29593
▁هێرشی	-9.29628
▁چینی	-9.29839
▁کێشەکانی	-9.29843
▁58	-9.29933
کا	-9.29954
ێکە	-9.30026
▁دەزگا	-9.30034
▁ڕە	-9.3006
▁ئەدەب	-9.30359
▁کێشەکان	-9.30386
▁لەهەرێمی	-9.30399
▁هەڵبژاردنەکان	-9.3053
▁خەریکی	-9.30569
▁چییە	-9.30666
ەکانمان	-9.30681
▁ماڵپەڕی	-9.30815
▁لێپرسراوی	-9.30921
▁شتی	-9.31109
▁لەبەرئەوەی	-9.31192
▁خزمەت	-9.31256
▁شێعری	-9.31278
▁نییەو	-9.31309
▁بەشدار	-9.31485
▁تاوانی	-9.31642
▁پی	-9.31685
▁ئێستادا	-9.31786
به	-9.31998
▁دەیهەوێت	-9.32049
▁ئاوێنە	-9.32139
▁ڕووبەڕووی	-9.32195
▁کاتێ	-9.32215
▁لەئێستادا	-9.32224
▁کان	-9.32328
دار	-9.3237
▁سینەمای	-9.32389
▁تاوان	-9.32393
▁دەتوانیت	-9.32413
▁پێگەی	-9.32469
▁سنوری	-9.32755
▁درێژەی	-9.32767
چی	-9.32779
▁گۆران	-9.32818
▁فۆتۆ	-9.32916
▁بەدی	-9.33095
▁دەبوو	-9.33112
▁بدەین	-9.33129
رێت	-9.33235
گ	-9.33293
▁کەوا	-9.33398
▁کردووەتەوە	-9.33531
▁حەوت	-9.33573
▁ماوەیەکی	-9.33678
▁داهاتووی	-9.33937
▁ئاگاداری	-9.34055
▁باران	-9.34058
▁پەیوەندیی	-9.34121
▁ڕاپەڕین	-9.34334
▁هاو	-9.34424
▁یەکگرتووەکانی	-9.34513
▁کاریگەریی	-9.34566
▁ژی	-9.34771
▁خاک	-9.34784
▁سەید	-9.34792
▁پەروەردەی	-9.35056
داو	-9.35089
▁وتیشی	-9.35133
▁یش	-9.35255
▁دەدا	-9.3527
▁ئەل	-9.35327
▁ئەمر	-9.35345
یدا	-9.35371
▁دوایی	-9.3541
▁پێویسته	-9.35478
▁نووسینی	-9.35491
▁ماددەی	-9.35582
▁هێندە	-9.35738
▁دەس	-9.35754
▁ناچار	-9.35763
▁سەنتەری	-9.35829
▁گوندی	-9.35968
▁نەکردووە	-9.36015
▁تشرینی	-9.36048
انەدا	-9.36097
▁دەکەوێتە	-9.36194
▁موحەممەد	-9.36227
اری	-9.36259
▁وەها	-9.36277
دانی	-9.36346
▁بەیانی	-9.3636
▁کەسە	-9.36661
▁لایەک	-9.36825
▁نهێنی	-9.36853
▁کەرکووک	-9.36893
▁ڕاپۆرتی	-9.36918
▁کەناڵی	-9.36924
▁ئەوانه	-9.37052
▁خۆیەتی	-9.37088
▁بڵێم	-9.37145
▁دەکەوێت	-9.37229
شەوە	-9.37306
ئەو	-9.37347
▁بوە	-9.37468
▁گیان	-9.37483
با	-9.37496
▁سوود	-9.37631
▁لاوان	-9.37657
▁پەسەند	-9.37829
▁کەلار	-9.37867
سەر	-9.37927
انەش	-9.37972
▁جیهاندا	-9.37976
▁ستراتیژی	-9.38037
▁کوردستانیش	-9.38126
▁گرتووە	-9.38222
▁خێزان	-9.38266
▁بەسەردا	-9.38268
▁ئەگەرچی	-9.38332
▁چاکسازی	-9.38355
▁سەرکەوتوو	-9.384
▁بڵێ	-9.38463
▁دەزانین	-9.38789
دەر	-9.39099
▁گوتەبێژی	-9.39117
▁قەیرانی	-9.3921
▁ناتوانن	-9.39244
▁پشتی	-9.39322
▁کی	-9.39406
▁کوردە	-9.39502
▁بهێنن	-9.39565
▁سەردەشت	-9.39573
▁ڕیزبەندی	-9.39685
▁فەرماندەی	-9.39703
▁دەوێت	-9.39832
▁کورتە	-9.39847
▁لێکۆڵینەوە	-9.39898
▁فەرمانی	-9.39947
▁ئاوا	-9.39955
▁ئەسەد	-9.39966
▁دۆخی	-9.40088
رێ	-9.40093
▁هێنانی	-9.40157
▁بگرە	-9.40506
▁لەلای	-9.40709
▁پاڵ	-9.40771
▁ڕەخنەی	-9.40786
▁بکرێ	-9.40824
▁حزبە	-9.40884
e	-9.4092
▁خورماتوو	-9.41115
▁هەردوولا	-9.41227
▁میانەی	-9.41275
▁مردن	-9.41342
▁لەبواری	-9.41373
▁دین	-9.4139
▁ڕزگاری	-9.41479
▁هەڵبژاردنەکانی	-9.41535
▁خانەقین	-9.41536
▁برا	-9.41568
▁بنکەی	-9.41632
▁شانۆی	-9.41634
▁جارێک	-9.41655
▁نەکراوە	-9.41844
یەو	-9.41847
▁سیاسییەکانی	-9.41874
▁پێمان	-9.41918
لا	-9.41969
▁گۆڕانکاری	-9.41972
▁سەرچاوەیەک	-9.42002
▁ڕەسمی	-9.42021
▁بۆیان	-9.42063
▁نەکرد	-9.42135
▁باشوور	-9.42166
▁زانست	-9.42184
▁کۆمەڵە	-9.42292
چ	-9.4238
▁ڕوسیا	-9.42406
▁تیپی	-9.42425
ەکانەوە	-9.4246
▁فیلم	-9.42547
▁دابەشکردنی	-9.42625
▁لەکوردستان	-9.42647
▁نەوشیروان	-9.42739
▁دەهێنێت	-9.4275
ووە	-9.42861
▁بووەو	-9.42908
ته	-9.43067
▁هەنگاو	-9.43225
▁خۆپیشاندان	-9.43258
▁بەناو	-9.43503
▁قوتابی	-9.43569
▁سبەی	-9.43647
▁نەبوون	-9.43726
▁هۆڵی	-9.43746
▁ئەنجامدا	-9.43821
▁پێشوازی	-9.4387
▁لێک	-9.43921
▁تو	-9.44104
یشی	-9.44199
▁دێتە	-9.4425
▁پارەی	-9.44441
▁وڵاته	-9.44462
▁بون	-9.44464
▁ج	-9.44521
▁چەپ	-9.44582
▁نیشتمان	-9.44604
▁شەوی	-9.447
▁ساڵەی	-9.44917
▁دەروونی	-9.44922
ێش	-9.44983
▁بکەیت	-9.45083
▁ڕی	-9.4514
▁حیزبە	-9.45185
▁زۆرترین	-9.45338
بون	-9.45438
▁کران	-9.45453
▁گە	-9.4553
▁شیعە	-9.45636
▁ئایین	-9.45645
▁خزمەتگوزاری	-9.45735
▁وێڕای	-9.45748
▁هەواڵ	-9.45769
▁2003	-9.45879
▁http	-9.45921
▁گونجاو	-9.46023
▁بتوانێت	-9.46079
▁علیە	-9.46134
▁سوور	-9.46191
▁هەنگاوی	-9.46301
▁حوکمی	-9.46302
▁هەشت	-9.46393
▁ڕاشیگەیاند	-9.46581
کراوە	-9.46705
▁کوردو	-9.46733
▁پزیشکی	-9.46759
▁کتێب	-9.46817
▁پیرۆز	-9.46841
▁ساڵانی	-9.47171
▁بتوانن	-9.47211
▁ئافرەتان	-9.47215
▁بەردەوامە	-9.47262
▁پێچەوانەی	-9.47336
▁ڕەوتی	-9.47341
▁نەکات	-9.47602
▁مانەوەی	-9.47674
▁دەسەلات	-9.47703
▁کاتدا	-9.47945
▁شانۆ	-9.48097
▁چاپ	-9.4813
▁ڕێکخستنی	-9.48132
▁بەڵێ	-9.48141
▁دواجار	-9.48164
▁بیانی	-9.48215
▁ڕۆژە	-9.48225
▁بەهیچ	-9.48365
او	-9.48395
▁ئیسپانیا	-9.48533
▁پارتە	-9.48608
▁دەرکەوت	-9.48874
▁سەرنج	-9.48895
▁بووه	-9.48987
کرا	-9.49229
▁باسە	-9.49231
▁کردەوه	-9.49232
▁ئیسماعیل	-9.49283
▁دانیشتوانی	-9.49343
▁تیا	-9.49381
▁دۆزینەوەی	-9.49471
▁نابێ	-9.49581
▁کۆمپانیا	-9.4961
▁درا	-9.49612
▁گەوره	-9.49723
▁هاوڕێ	-9.49776
▁موزیکی	-9.49869
▁جەنابی	-9.49872
▁زانا	-9.49884
▁ماوەیەک	-9.49933
▁کابینەی	-9.49951
گی	-9.49959
▁دایکی	-9.49962
▁دەوروبەری	-9.50141
▁کرێکار	-9.5016
▁ئاخر	-9.50201
▁دراوە	-9.50317
▁فەرهەنگی	-9.50426
▁لایەنەکانی	-9.50536
▁منداڵی	-9.50734
▁ڕۆحی	-9.5085
▁دژایەتی	-9.50865
▁یاریی	-9.50961
▁سامان	-9.50979
▁سەرچاوەیەکی	-9.51004
▁چەکداری	-9.51011
▁ناکۆکی	-9.51184
▁جگه	-9.51349
▁نیو	-9.51412
▁زیاتری	-9.51437
ایە	-9.51473
▁نوێنەرایەتی	-9.51478
▁کورت	-9.51484
▁×	-9.51578
▁بم	-9.51627
▁ص	-9.51666
مەوە	-9.51716
▁جەماوەر	-9.51716
▁کەلە	-9.51725
▁ئەبێت	-9.52034
▁دابینکردنی	-9.5209
▁دەکەنەوە	-9.52133
▁بیت	-9.52157
▁ئەکات	-9.52159
▁چەکدارانی	-9.52303
▁جاران	-9.52354
▁ز	-9.52483
▁بکرێتەوە	-9.52523
▁کوردستانەوە	-9.52525
▁ناوە	-9.52577
ایی	-9.52633
▁عەبدوڵا	-9.52674
▁پرسیاری	-9.52815
▁داهاتی	-9.52841
▁تورکی	-9.52932
▁فیلمه	-9.52961
یار	-9.53105
▁نازانم	-9.532
▁بەس	-9.53214
▁بەهەمان	-9.53244
▁تێک	-9.53246
▁لەوانەیە	-9.53395
▁بەجۆرێک	-9.53441
▁بەڕێوەچوو	-9.53454
▁شوبات	-9.53533
▁ساڵێک	-9.53534
▁ئایندەی	-9.53575
▁توانا	-9.536
▁هیوای	-9.53713
▁مەجید	-9.53764
اتی	-9.53767
ییەوە	-9.53855
▁شارەکانی	-9.54066
▁چاپکردن	-9.54069
▁تێبینی	-9.5409
▁دانی	-9.54214
▁فوئاد	-9.54295
▁لەوەش	-9.54338
▁بەش	-9.54375
▁کچە	-9.54389
▁پێشبینی	-9.54645
دەکەن	-9.54663
▁ئاب	-9.54727
c	-9.54839
▁لەندەن	-9.5493
▁ئێمەی	-9.55045
▁چیرۆکی	-9.55058
▁پیرۆزبایی	-9.5507
▁فراوان	-9.5508
▁وەزارەت	-9.55162
▁کوردەکان	-9.55227
▁ئێوارەی	-9.55242
▁35	-9.55274
▁وێنە	-9.55284
▁ڕەزامەندی	-9.55347
▁بەرهەمهێنانی	-9.55406
▁ڕۆژانی	-9.55421
▁مان	-9.55464
▁ئێراق	-9.55546
▁دەریا	-9.55551
▁گەورەیە	-9.55574
▁گەڕانەوەی	-9.55611
▁ڕاستەقینە	-9.55634
ەت	-9.55686
▁چیتر	-9.55776
▁مەزن	-9.55924
▁حەز	-9.55929
▁لەسەرەتای	-9.55956
▁وتی	-9.55982
▁ڕێی	-9.56007
▁پاڵپشتی	-9.56036
▁گەلەکەمان	-9.56138
▁نێچیرڤان	-9.56208
▁ململانێی	-9.56223
▁خو	-9.56227
▁مەدرید	-9.56243
▁پێدانی	-9.56292
▁کۆنگرە	-9.56381
▁تەرخان	-9.56397
▁لەعیراق	-9.56406
▁گوڵ	-9.56407
▁گۆڤاری	-9.56466
▁بار	-9.56474
ەکەش	-9.56506
▁کاروان	-9.56544
▁جامی	-9.56589
▁لایەنەکان	-9.56646
▁کۆچی	-9.56754
▁ترەوە	-9.56834
ەکەمان	-9.56836
▁بەگوێرەی	-9.56878
▁هەڵە	-9.56917
▁گوتم	-9.56932
▁ڕو	-9.5704
▁بەڕێوە	-9.57172
▁ڕەنگ	-9.57186
▁کۆمەلایەتی	-9.57302
▁صلی	-9.57335
▁ئەندامێکی	-9.57458
ار	-9.57477
▁تاوانبار	-9.57479
بووە	-9.57531
▁خوێنەر	-9.5758
▁مافە	-9.57603
▁سەرکەوت	-9.57631
▁بریتی	-9.57705
▁یاریزان	-9.57734
@	-9.57743
▁ئازادیی	-9.57773
▁دانا	-9.57865
▁سۆران	-9.57875
▁گەلانی	-9.58039
▁بەهەموو	-9.58092
▁دار	-9.58159
▁خوێنی	-9.58168
▁قبوڵ	-9.58228
▁هاووڵاتیان	-9.58228
▁مین	-9.58277
▁هیوا	-9.58291
▁ئاسان	-9.58329
▁کردبێت	-9.58382
▁لەدژی	-9.58421
▁لێیان	-9.58448
▁سوێند	-9.58488
▁کاتەی	-9.58514
ست	-9.58615
یەکە	-9.58686
▁هەروا	-9.58757
▁ڕێکخراوەکانی	-9.58803
▁ئامادەی	-9.5883
▁وەرزی	-9.5885
▁کردە	-9.58924
بکات	-9.58943
▁زانی	-9.58991
▁بزانن	-9.59019
▁جەمال	-9.59044
▁لقی	-9.59081
شمان	-9.59117
▁زیان	-9.59211
▁مامەڵە	-9.59241
▁کاتە	-9.59269
▁نەخۆشخانەی	-9.59315
▁خێزانی	-9.5953
▁ئەوەندەی	-9.59538
▁جۆر	-9.59542
▁سزا	-9.59562
▁پیشەسازی	-9.59674
▁گەنج	-9.59715
▁میوانداری	-9.59752
▁پێکهاتەی	-9.59756
▁ڕۆژنامەوانی	-9.59823
ً	-9.59833
▁وەبەرهێنان	-9.5984
▁گۆڵ	-9.59885
▁پرسە	-9.5989
▁باوک	-9.59926
▁نەوەی	-9.60027
▁کشتوکاڵ	-9.60083
▁پلانی	-9.60085
▁تیایدا	-9.60094
▁هەمووان	-9.60236
▁گەیشت	-9.60296
▁پیاوان	-9.60299
▁شوێنێکی	-9.60439
▁مەرگ	-9.60474
▁بریتییە	-9.60611
▁هەڵوێست	-9.6063
▁هاتە	-9.60743
▁ئەوسا	-9.60755
▁ناوخۆیی	-9.60772
▁نەماوە	-9.60897
▁لەگەڵدا	-9.60933
▁گفتوگۆی	-9.61028
▁هەرە	-9.61106
▁نەکەن	-9.61106
گە	-9.61226
▁کەمی	-9.61304
▁کشتوکاڵی	-9.61396
اوی	-9.61531
▁باوەڕی	-9.61599
کۆ	-9.61607
▁لاواز	-9.61648
▁45	-9.61656
▁مامۆستای	-9.61725
▁جۆره	-9.61775
▁وسلم	-9.61815
▁ئەردۆغان	-9.61819
▁زیندوو	-9.61928
▁دەخاتە	-9.61949
▁گەلێک	-9.61975
▁ناحیەی	-9.61996
▁دژە	-9.6201
▁ئاست	-9.62029
▁کوردستانە	-9.62061
▁کرێکاران	-9.62146
▁خۆیاندا	-9.62297
▁سیروان	-9.62326
▁دەبات	-9.62407
▁دیموکراتی	-9.62483
▁2006	-9.6251
▁خ	-9.62624
▁بونی	-9.6263
▁00	-9.62661
▁هونەرمەندی	-9.6268
▁کراو	-9.62698
▁پێکرد	-9.62702
▁بارەیەوە	-9.62709
▁لایەنێک	-9.62814
▁لێژنەی	-9.62863
▁قورئان	-9.62929
▁دوژمن	-9.63054
▁میدیا	-9.63226
▁دەرەکی	-9.63261
▁دیاریکراو	-9.63267
▁گوایە	-9.63273
▁دەیانهەوێت	-9.63319
▁هێمن	-9.63485
▁لەمەوبەر	-9.63545
▁بەشداریی	-9.63548
▁یەکسانی	-9.63561
▁گەرم	-9.63568
▁خەم	-9.63585
کەر	-9.63587
▁ڕیزی	-9.63727
▁دەزگاکانی	-9.63856
▁دادوەری	-9.63897
▁ناوداری	-9.64184
▁جەستەی	-9.64211
▁نیگەرانی	-9.64225
ئە	-9.64254
▁کەسوکاری	-9.6429
▁کۆکردنەوەی	-9.643
▁بچووک	-9.64331
▁هەڕەشەی	-9.64623
زی	-9.64626
▁ئەفغانستان	-9.64629
▁واز	-9.64647
یاندا	-9.64652
▁گووتی	-9.64721
▁ئێرە	-9.64725
▁شا	-9.64743
▁دەگاتە	-9.64844
▁ناڕەزایی	-9.6491
▁دیکەوە	-9.64933
▁ئی	-9.65108
▁بەدەستهێنانی	-9.65114
▁ناونیشانی	-9.65208
▁باشوری	-9.6539
▁بەشە	-9.65488
▁ڕۆشنبیر	-9.65636
▁پایتەخت	-9.65669
▁پەیدا	-9.6574
▁بەلای	-9.65754
▁سەرەوە	-9.65756
▁بووین	-9.65765
▁گروپە	-9.65779
▁زۆرجار	-9.65889
▁سەعات	-9.65923
▁ئاین	-9.6595
▁ڕوونیکردەوە	-9.66016
▁إ	-9.66017
▁دەبینێت	-9.66092
▁لایەکی	-9.66093
▁خستە	-9.66103
▁بانگەشەی	-9.66152
▁سینەما	-9.66167
▁کاندید	-9.66194
▁لێرەوە	-9.66214
▁بەمەش	-9.66257
▁لەچوارچێوەی	-9.66305
▁دیسان	-9.66316
▁شوێنە	-9.66351
▁تێکەڵ	-9.66452
▁درێژە	-9.66479
▁پەیوەست	-9.66508
ال	-9.66595
▁ئیتالیا	-9.66737
▁دەردەکەوێت	-9.66866
b	-9.6689
▁سەدر	-9.66956
▁ڕووسیا	-9.66977
▁سەوز	-9.67113
▁پێشەوە	-9.67132
▁پلە	-9.67209
▁تردا	-9.67244
▁کەوت	-9.67265
▁بەشار	-9.67338
▁هەولێری	-9.67393
▁ڤی	-9.67485
▁گیانیان	-9.67648
▁خراپی	-9.67729
▁گواستنەوەی	-9.67774
▁خستەڕوو	-9.67815
▁کاوە	-9.6782
ەکەوە	-9.67848
▁ئەمین	-9.67864
▁دەوری	-9.67964
▁ئەکەن	-9.67982
▁وەکوو	-9.67991
▁ئەوەیان	-9.68008
▁کچان	-9.68078
▁یاریگای	-9.6811
▁دەکەیت	-9.68282
یەوه	-9.68515
▁هێزه	-9.68544
▁دەسەلاتی	-9.6858
▁دانیشتنی	-9.68633
▁کارگێڕی	-9.68637
▁هەژار	-9.68649
کراو	-9.68765
▁کەمێک	-9.68798
▁ناوەند	-9.6889
▁هێندەی	-9.69082
▁قورس	-9.69148
▁لەچەند	-9.69155
▁میدیای	-9.69187
▁کەسانە	-9.69228
داری	-9.69228
▁پارچە	-9.69268
▁دەدەین	-9.69271
▁خواردن	-9.69275
▁پتر	-9.69298
▁ئەڵمانی	-9.69308
▁سەرقاڵی	-9.69318
▁باڵیۆزی	-9.69336
▁ڕاوێژکاری	-9.69413
▁زۆریان	-9.69414
▁گرفتی	-9.69428
▁ڕاستەقینەی	-9.69451
▁دەسەڵاتە	-9.69493
▁بەیەک	-9.6956
▁پرسیارە	-9.69613
▁هاوڵاتیانی	-9.69638
▁سەرنجی	-9.69644
▁گەرمیانی	-9.69679
...	-9.69745
▁حەق	-9.69825
▁هاتنە	-9.69963
▁بودجە	-9.6999
▁دەڵێم	-9.7001
▁مرۆیی	-9.70021
▁وەڵام	-9.70036
▁هەڵگری	-9.70147
▁بڵێن	-9.7016
▁باکووری	-9.7022
وون	-9.70377
▁برینداربوون	-9.70403
▁فرە	-9.70463
▁بەتەواوی	-9.70479
▁ڕووداوەکانی	-9.7052
▁وتەی	-9.70557
▁کۆبوونەوە	-9.70627
▁نۆ	-9.70661
▁شاندی	-9.70696
▁ئیسپانی	-9.70696
▁وەرزشی	-9.70826
▁ڕاگرتنی	-9.70852
▁خۆر	-9.70922
▁بۆچوونی	-9.70988
▁بچێت	-9.70994
▁خێرا	-9.71022
▁وەلی	-9.7113
▁شانازی	-9.71135
کەم	-9.71249
▁ئاگر	-9.71309
▁دەژین	-9.71369
▁گەنجان	-9.7139
▁بەرپرسیار	-9.71395
▁هەڤاڵ	-9.71397
▁میراودەلی	-9.71478
▁درۆ	-9.7159
▁کوردیش	-9.71591
▁بێدەنگ	-9.7178
▁سلێمان	-9.71792
▁ما	-9.71814
▁کەمکردنەوەی	-9.71847
▁فەلسەفە	-9.71861
▁دواتریش	-9.72111
▁خالید	-9.72131
▁دۆسیەی	-9.72151
▁ئامادەبوونی	-9.72162
▁سەخت	-9.72177
▁ڕۆژهەڵات	-9.72207
▁ژنی	-9.72226
شت	-9.72386
▁میللی	-9.72424
▁سەرکردە	-9.72458
▁ویستی	-9.72655
ایەتی	-9.72675
▁بەڵێن	-9.72684
▁چارەنووسی	-9.72713
▁ڕیال	-9.72751
▁زیانی	-9.72819
▁دەرگای	-9.72842
▁نووسەری	-9.72877
▁حکوومەت	-9.7289
▁فیستیڤاڵ	-9.72978
▁ڕەنگی	-9.72995
▁خۆپیشاندەران	-9.73003
▁باکوور	-9.73045
ژ	-9.73066
▁ڕێکخراو	-9.73116
▁ئاسۆ	-9.73147
▁نەورۆز	-9.7317
▁نەخۆش	-9.73171
▁هەوڵەکانی	-9.73186
▁ئاماده	-9.73217
اڵ	-9.73254
▁پار	-9.73357
یەت	-9.7344
▁سوپا	-9.73501
▁لوبنان	-9.73556
▁ئاماژەیە	-9.73578
ستی	-9.73578
▁پەیامی	-9.73618
▁سیاسیەکان	-9.73632
▁بەرنامە	-9.73633
▁بابەت	-9.73642
شم	-9.73759
▁لەمەڕ	-9.73774
▁فراکسیۆنی	-9.73797
غ	-9.73854
▁گەیاندنی	-9.73961
بین	-9.73962
▁ڕەشید	-9.74051
ئاژانسی	-9.74077
▁://	-9.74091
بکەن	-9.74131
▁ئەوەشدا	-9.7415
:"	-9.74198
▁لەیەک	-9.74245
یشدا	-9.74318
▁شوێنێک	-9.74328
▁چوارەم	-9.7433
▁کۆمیتەی	-9.74337
▁ئیش	-9.7443
ەکەشی	-9.74542
▁خاتوو	-9.74603
▁پێدا	-9.74735
▁شارەکە	-9.74763
ینەوە	-9.74808
ەر	-9.74852
▁دەبنە	-9.74954
▁کارەبای	-9.75026
▁دور	-9.75056
▁چوو	-9.75096
▁یەکتری	-9.75115
▁مەیدانی	-9.75217
▁کێشەو	-9.7522
▁نوسەر	-9.75252
▁زمانێکی	-9.75271
▁کوژران	-9.75321
▁دیاردەی	-9.75355
▁کوژراون	-9.75361
▁لاوانی	-9.75369
▁شوان	-9.75481
▁هیچی	-9.75484
▁توشی	-9.75596
▁جەژنی	-9.75613
▁فەرەنسی	-9.75624
▁باکوری	-9.75707
▁کاریان	-9.75801
▁وڵاتێکی	-9.75816
▁کردوون	-9.759
▁هاوڵاتی	-9.75936
▁حوزەیران	-9.75958
▁پەیوەندییە	-9.75991
▁نەتەوه	-9.76033
▁ئەوانی	-9.76053
▁بڕوا	-9.7609
▁ئای	-9.76122
▁2004	-9.76129
▁دەچێتە	-9.76146
▁ئەکتەری	-9.7617
▁کەسانێک	-9.76222
؟!	-9.7634
پێ	-9.7637
▁حیزبەکان	-9.7642
▁دەکرا	-9.76433
▁60	-9.76608
▁حکومی	-9.76708
▁پیاوە	-9.76724
▁مرۆڤەکان	-9.76908
▁لەدەرەوەی	-9.76921
▁مەگەر	-9.76992
▁ژینگە	-9.77141
▁یەکی	-9.77237
▁دەشێت	-9.773
▁مانگە	-9.77396
▁comment	-9.77426
)،	-9.77479
▁سیاسییە	-9.77529
▁دەزانم	-9.77533
▁دروستبوونی	-9.77687
▁گەڕانەوە	-9.77734
▁خۆیشی	-9.77759
▁بازاڕی	-9.77769
▁یەکێکیان	-9.77918
▁هاوکاریی	-9.77993
▁ئاشکرایە	-9.78046
ها	-9.78105
▁کرایەوە	-9.78106
▁پە	-9.78161
▁زاخۆ	-9.78185
▁جەخت	-9.78187
▁دەرهێنەر	-9.78203
▁دەگرێتەوە	-9.78216
▁پارێزگاکانی	-9.78241
▁نەکرێت	-9.78254
▁واقیعی	-9.78279
▁تیرۆریستان	-9.7838
▁ئەگەری	-9.78388
لێ	-9.78424
▁سەرۆکایەتیی	-9.78457
▁بەبۆنەی	-9.78489
؟	-9.78496
▁لەمبارەیەوه	-9.78544
▁بارەیەوه	-9.78545
▁ئاڕاستەی	-9.7855
▁ڕوونی	-9.7856
▁تابلۆی	-9.78563
▁ئاسمان	-9.78699
▁دەستور	-9.78717
▁متمانە	-9.78754
▁ڕەت	-9.78793
▁عیراق	-9.7882
▁هەمیشەیی	-9.78846
▁بزانین	-9.78921
▁حزبی	-9.78978
▁پەرەپێدانی	-9.79076
▁بەدەر	-9.79101
▁34	-9.79101
▁وشە	-9.79126
▁سنوور	-9.79127
▁چالاکوانی	-9.7914
▁برد	-9.79167
▁سامانی	-9.79178
▁فیلمەکانی	-9.79232
▁حاڵەتی	-9.79287
▁بەریتانی	-9.79391
▁ئابووریی	-9.79401
ڕا	-9.79506
▁دڵنیا	-9.79537
▁ڕۆڵێکی	-9.79551
▁یوسف	-9.79605
▁گۆل	-9.79641
▁فێر	-9.7975
▁بڕوای	-9.79767
▁لایەنێکی	-9.79783
▁خۆراک	-9.79784
کێ	-9.79796
▁موزیک	-9.79965
▁مەبەستە	-9.79986
دەکرێت	-9.80075
▁خراپتر	-9.80085
▁of	-9.80127
▁+	-9.80233
▁بەرچاوی	-9.8032
▁کرێکارانی	-9.80496
▁پارێزگاکان	-9.80586
▁ئینسان	-9.80626
▁شەقام	-9.80651
بونی	-9.80692
▁سەرباری	-9.80697
بکرێت	-9.80705
▁سەرمایەداری	-9.80755
▁بەرژەوەندیی	-9.80843
▁نان	-9.80849
▁نەخێر	-9.80851
▁بنەماڵەی	-9.80853
lick	-9.80875
▁fb	-9.80927
▁کانونی	-9.80947
▁بەرپرسیارێتی	-9.81096
▁ڕۆژنامەنووسان	-9.81182
▁برایەتی	-9.81226
▁ئەوکات	-9.81246
▁جەختی	-9.8127
▁دوایین	-9.81319
▁چەندە	-9.81367
▁دەبەن	-9.81427
▁ڕەمزی	-9.81477
▁بەهێزی	-9.81579
▁ئاماژه	-9.81586
▁بەهاری	-9.81596
▁توندی	-9.81631
▁بریتین	-9.81677
▁سەرپەرشتی	-9.81693
▁دۆلاری	-9.81695
ینی	-9.81719
▁دیوانی	-9.8172
▁گرتن	-9.81787
رە	-9.81824
▁بەرپرس	-9.81835
▁ڕۆژنامە	-9.81841
▁بەڵێنی	-9.81901
▁زۆرە	-9.81926
یشیان	-9.82037
▁کچ	-9.82041
▁فێری	-9.82165
تێ	-9.8218
▁جەعفەر	-9.82226
▁بڵاوکردنەوەی	-9.823
▁خەڵکە	-9.82314
▁تیادا	-9.82345
▁وەرزش	-9.82431
▁ئەمه	-9.8244
▁بەراورد	-9.82465
▁سێبەری	-9.82519
▁هەماهەنگی	-9.82553
▁چەمکی	-9.82565
▁مەرج	-9.82656
▁خەیاڵ	-9.82677
▁هاوار	-9.82694
فی	-9.827
▁2005	-9.82769
▁بارەگای	-9.82842
▁هۆڵەندا	-9.82849
▁بزانێت	-9.8302
▁هەل	-9.83129
▁وەرگرتن	-9.8315
▁ئەرک	-9.83214
▁ڕاستیدا	-9.83282
▁لەهەمان	-9.83348
▁وەربگرێت	-9.83391
▁فەرمان	-9.8346
▁لەسلێمانی	-9.83478
هەر	-9.83483
▁ناوەکی	-9.83505
▁ئیداری	-9.83584
▁نمایشی	-9.83585
▁خواستی	-9.83599
▁ورد	-9.83626
▁کوێ	-9.83632
▁بکەینەوە	-9.83638
ستان	-9.83647
▁سەرکردەی	-9.8366
▁دەهێنن	-9.83876
▁دەسەڵاتدارانی	-9.83876
▁جێگیر	-9.83879
▁سەروەری	-9.83916
▁هەربۆیە	-9.83927
▁ڕەگەزی	-9.83944
▁ژنە	-9.83949
▁سەرچاوەکه	-9.83965
▁لاوی	-9.83976
▁لێکۆڵینەوەی	-9.83998
▁ئاشکرای	-9.84026
▁چاوپێکەوتن	-9.84035
▁دادەنرێت	-9.8406
▁ناوچەیەکی	-9.84064
▁قەڵەم	-9.84141
▁نیشانەی	-9.84211
▁دەق	-9.84245
▁مەکەن	-9.84296
▁شی	-9.84425
▁تۆمەتبار	-9.84518
▁ئیرادەی	-9.84522
جی	-9.84533
▁کەوتە	-9.8454
▁چیرۆک	-9.84544
▁پلان	-9.84554
▁نییه	-9.84563
▁لیبیا	-9.84719
▁ئاکامی	-9.84721
▁پەنابەران	-9.84743
▁وەرگرت	-9.84748
▁دێن	-9.84781
▁مامەڵەی	-9.84846
▁ێ	-9.84847
▁خەون	-9.84884
▁لەبەغدا	-9.84923
▁تاکی	-9.85105
▁جدی	-9.85127
▁مەڵبەندی	-9.85136
▁چاوەڕوان	-9.85155
▁ئاراوە	-9.85158
▁دەستوری	-9.8518
▁ڕژێم	-9.85186
▁دیاریکردنی	-9.85201
▁ئەیلول	-9.85299
▁ئازاری	-9.85416
▁ولات	-9.85428
▁ساڵانە	-9.85481
▁ئەزموون	-9.8553
▁بنەڕەتی	-9.85739
▁ترسی	-9.85748
▁درووست	-9.85756
▁پێشکەوتنی	-9.8577
▁گەورەو	-9.85845
▁ڕێبازی	-9.8588
▁دەکاتە	-9.85896
▁حاکم	-9.85975
گەر	-9.86087
▁ناسراو	-9.86141
▁ئاخۆ	-9.8616
▁بیرکردنەوە	-9.86167
▁وایه	-9.86256
▁کورته	-9.86288
▁گرووپی	-9.86311
ماندا	-9.86498
▁پێویستیان	-9.86518
▁توانیان	-9.86605
▁چوونە	-9.86634
بر	-9.86658
▁واته	-9.86702
وان	-9.86744
بار	-9.86771
▁شارستانی	-9.86776
▁32	-9.87106
▁B	-9.87108
ەکا	-9.87166
▁500	-9.87184
▁هاشمی	-9.87197
▁جۆراوجۆر	-9.87211
▁قەبارەی	-9.87228
▁بەرزی	-9.87284
▁هاتن	-9.87345
▁پێشکەوتن	-9.87381
▁هونەرمەندان	-9.87402
▁نادات	-9.8741
▁کاریگەر	-9.87508
▁ئامادەکردنی	-9.87663
▁دەگات	-9.87707
▁کۆریای	-9.87846
▁دەبین	-9.87857
▁36	-9.87862
▁کۆمیسیۆنی	-9.87867
▁گەیشتە	-9.8795
▁لۆ	-9.87991
▁ململانێ	-9.88
▁تەمموز	-9.8801
سە	-9.88049
▁دووەمین	-9.88107
▁ئەبو	-9.88125
▁خاڵە	-9.8816
ئەم	-9.88237
یاری	-9.88258
▁دینی	-9.88259
▁دامەزراوە	-9.8829
▁لەسەردەمی	-9.88315
▁شکست	-9.88324
▁برای	-9.8835
▁لەهەولێر	-9.88419
▁لەرێگەی	-9.88462
▁ئاسیا	-9.88483
▁کر	-9.88488
▁نموونەی	-9.88524
انەیە	-9.88552
▁require	-9.88564
▁منداڵانی	-9.8857
▁ئەوەتا	-9.88575
▁هەڕەشە	-9.88693
▁بەکوردستانی	-9.88733
▁دەبنەوە	-9.88743
▁تاهیر	-9.88795
▁کوردایەتی	-9.88823
▁دەڕوات	-9.88861
▁ڕاهێنەری	-9.88867
▁وەزیر	-9.88935
ەکەت	-9.88964
▁ئێوارە	-9.88998
▁هاوشێوەی	-9.89298
▁بەرجەستە	-9.89465
نگ	-9.89579
▁جاری	-9.89625
زە	-9.89631
▁زاڵ	-9.89632
▁ڕۆڵ	-9.89754
▁بەشێوەی	-9.89775
ئ	-9.89836
▁گەیاند	-9.89852
▁زۆرتر	-9.89875
▁نەبن	-9.899
▁بەها	-9.89901
▁هاتوچۆ	-9.90087
▁مەسیحی	-9.90155
▁توانیویەتی	-9.90176
ووی	-9.90182
▁میللەت	-9.90236
▁بەعسی	-9.9026
کردنەوە	-9.90427
گا	-9.90481
▁هەمووی	-9.90491
▁عێراقەوە	-9.90498
▁ڕووداوی	-9.905
ول	-9.905
▁لەبری	-9.90569
▁شایانی	-9.90583
▁کاتەدا	-9.90583
▁سوننە	-9.90648
▁بووەتە	-9.90833
▁توندوتیژیی	-9.90939
▁بەشێوەیەک	-9.90956
▁وێنەیەکی	-9.91008
▁پەیوەندییەکی	-9.91032
▁پێکهاتەکانی	-9.91045
▁کوشت	-9.91115
رێن	-9.91147
▁دەگوترێت	-9.91194
▁قوتابخانە	-9.91202
▁مردنی	-9.91218
▁شەر	-9.91234
▁لەمبارەیەوە	-9.9143
▁داوه	-9.91472
▁فیدراڵی	-9.91475
▁200	-9.91496
▁مامۆستایان	-9.91564
________________	-9.91572
▁ڤێ	-9.91648
▁دەگەیەنێت	-9.91687
▁تێگەیشتن	-9.91701
▁یەکگرتووی	-9.91706
▁ئاماژەیه	-9.9172
▁فارس	-9.91733
▁هاوپەیمانیی	-9.91771
▁دانە	-9.91816
▁کرن	-9.91837
▁باوەڕیان	-9.91916
▁چوون	-9.91933
▁بەوەدا	-9.91954
پی	-9.9196
▁مووچەی	-9.91969
▁ئەمڕۆی	-9.91993
▁دنیادا	-9.91994
▁ڕێککەوتن	-9.92136
ینە	-9.92145
▁E	-9.92171
▁وەرگرتووە	-9.92176
▁باڵی	-9.92177
▁چووە	-9.92393
▁نیه	-9.92434
▁پارت	-9.92496
▁پێیوایە	-9.92606
▁سەندیکای	-9.92648
▁بەدەستی	-9.92674
▁ئێمەدا	-9.92702
▁داکۆکی	-9.92749
▁تکایە	-9.9277
▁گەشەی	-9.92809
▁حوکم	-9.92844
▁سوپاس	-9.9289
▁بەوەش	-9.93026
▁بنەما	-9.9303
▁موسا	-9.93132
▁مامۆستایانی	-9.93196
اندنی	-9.93299
▁ها	-9.93347
▁پاکستان	-9.93351
▁یاساو	-9.93388
▁خوێندکار	-9.93426
▁تورکمان	-9.93439
▁دۆست	-9.93482
▁کەسەی	-9.93486
▁نەهێشتنی	-9.93486
▁سەردەم	-9.93503
▁سوودی	-9.9351
▁حوکمڕانی	-9.93609
▁کۆنفرانسی	-9.9363
▁نەخشەی	-9.93679
رۆ	-9.93721
▁33	-9.93753
▁ناوچانە	-9.93764
ێنێت	-9.93802
▁95	-9.93876
▁کێشەیەکی	-9.93961
▁بازاڕ	-9.94063
▁پێدەچێت	-9.94084
▁کەسیش	-9.94088
می	-9.94153
▁لەبیر	-9.94164
▁عێراقییەکان	-9.94246
▁سەرتاسەری	-9.94324
▁پەیڕەو	-9.94531
▁داناوە	-9.94533
▁ڵ	-9.94568
▁گرفت	-9.94586
▁کوردان	-9.946
▁دەرببڕیت	-9.94647
▁بێتە	-9.94673
▁ناشرین	-9.94688
▁ئەڤ	-9.9471
▁قسەکردن	-9.94898
▁قوتابیان	-9.94906
▁گەڕان	-9.9492
دوو	-9.94961
▁یانەکانی	-9.95008
▁لەوانەی	-9.95012
▁چاوەڕێی	-9.95056
▁متمانەی	-9.95077
▁دەرهێنەری	-9.95246
▁بەڵگەی	-9.95265
▁کاندیدی	-9.95289
▁ئایار	-9.95332
▁سروشت	-9.95411
▁ئینسانی	-9.95463
▁بینینی	-9.9551
زانی	-9.95638
▁تەقینەوەی	-9.95661
▁ژیانێکی	-9.95684
دەبێت	-9.95774
ەکەیدا	-9.95789
▁گەشەپێدانی	-9.95813
▁کاکە	-9.9582
▁هەندێکیان	-9.95851
▁ئومێد	-9.95877
▁کۆنگرەیەکی	-9.95888
▁شە	-9.95894
▁1991	-9.95916
▁ڕەزا	-9.95932
▁لێدوانێکدا	-9.95954
نێ	-9.95963
▁هۆشیاری	-9.95971
▁ناوچه	-9.95995
t	-9.96059
▁دەگرن	-9.96072
▁جە	-9.96185
▁بەیەکەوە	-9.96329
▁ببن	-9.96382
▁ڕادیۆی	-9.96395
▁بیروبۆچوونی	-9.96411
▁پۆست	-9.96483
ۆری	-9.96575
▁ئاسانی	-9.96629
کردنە	-9.96701
▁داگیر	-9.96733
ەیان	-9.96751
▁دابوو	-9.96805
▁وردە	-9.96813
تۆ	-9.96826
▁A	-9.96837
▁گەورەتر	-9.96903
▁چینایەتی	-9.96925
▁سیاسیەکانی	-9.96938
▁ڕێبین	-9.96957
▁بەڕێوەبردنی	-9.97016
▁بخاتە	-9.97097
▁نەیتوانی	-9.97201
▁وزەی	-9.97235
▁بەرێز	-9.97235
▁پڕۆژەکە	-9.97294
▁دەرمان	-9.97359
▁نیوەی	-9.97407
▁یێ	-9.97413
▁لێوە	-9.97508
▁ڕێزی	-9.97529
▁لەوبارەیەوە	-9.97538
▁ئاڵای	-9.9756
▁واقیع	-9.97594
▁مێ	-9.97635
▁داوایان	-9.97665
▁فرۆشتنی	-9.97821
▁پێشکەشی	-9.97831
▁دەبینن	-9.97832
▁بابەتانەی	-9.97834
▁موسڵمان	-9.97894
ترە	-9.97896
▁وەفدی	-9.97904
▁ڕۆژنامەنوس	-9.98001
▁ڕایگەیاندووە	-9.98064
▁دەکرێتەوە	-9.98078
▁بەرێوەبەری	-9.98119
▁هێزو	-9.98126
▁لەخۆ	-9.98127
▁هزری	-9.98137
▁دێموکرات	-9.98174
▁سەرەتایی	-9.98176
▁دراوسێ	-9.98198
▁ئەکتەر	-9.98233
▁خولەکە	-9.98411
▁چالاک	-9.98424
▁ئ	-9.98465
▁ئەوەبوو	-9.98497
▁هەنگاوێکی	-9.98522
▁خوێندنەوە	-9.98568
▁دەوڵەتە	-9.9858
▁70	-9.98714
▁لەپێناوی	-9.98721
▁هەڵبژاردە	-9.98988
▁ئێن	-9.99023
▁بتوانین	-9.99103
▁دزی	-9.99267
▁خەونی	-9.99329
▁ئاستێکی	-9.99342
▁دیالۆگ	-9.99409
▁هاوکار	-9.99421
ێتەوە	-9.99473
▁خەریکە	-9.99623
▁کشانەوەی	-9.99693
▁بەدوور	-9.99695
▁پارێزگا	-9.99722
▁{	-9.99793
▁هونەرمەندانی	-9.99805
▁38	-9.99815
▁لایەنه	-9.99832
▁ئارەزووی	-9.99934
▁مرۆڤە	-9.99974
▁کارکردنی	-10
▁پۆستە	-10
▁کوردانی	-10.0002
▁مانا	-10.0003
▁گۆڵی	-10.0007
▁کەرکوکی	-10.0007
▁نووسینگەی	-10.0016
وم	-10.0016
▁بەڵکوو	-10.0017
▁ناوچەیە	-10.0026
▁ڕێکخستن	-10.0027
▁ئەبێ	-10.0031
▁بایەخ	-10.0031
▁تەقەمەنی	-10.0032
▁جی	-10.0032
▁دەرکردنی	-10.0039
قی	-10.004
▁ناڕەزایەتی	-10.0057
▁دەستە	-10.0057
▁بچوک	-10.0059
ند	-10.0059
▁وابوو	-10.0062
▁هاتوون	-10.0069
▁بڕیاره	-10.0071
▁بڵاوی	-10.0071
▁کێشەیە	-10.0075
▁بەشەکانی	-10.0085
▁بیان	-10.0092
▁باشترە	-10.0093
▁کۆیە	-10.0099
▁گەڕەکی	-10.0107
▁ئەهلی	-10.0111
▁دەچن	-10.0116
▁بەلا	-10.0116
▁شیوعی	-10.012
▁پیرۆزی	-10.0122
ڤ	-10.0123
▁ڕووداوە	-10.0124
▁ئاشنا	-10.0128
▁موراد	-10.0129
یة	-10.013
▁عێراقیش	-10.0131
▁پێدەکات	-10.0132
▁بوارەکانی	-10.0133
▁سەرچاوەکانی	-10.0136
▁ڕاپۆرت	-10.0136
▁ڕۆژنامەوانیدا	-10.0139
▁یەکسان	-10.0151
▁}	-10.0157
▁ئەوانەش	-10.0162
▁دەزانی	-10.0165
▁کارەساتی	-10.0167
▁هاته	-10.0169
▁ناوچەکەدا	-10.0173
▁شێرکۆ	-10.0174
▁بەری	-10.0179
▁بچێتە	-10.0184
▁39	-10.0186
▁ولاتە	-10.019
▁هەڵدە	-10.019
▁دەبیت	-10.0192
▁ولاتانی	-10.0204
▁نەمر	-10.0205
▁سێیەمی	-10.0206
▁فیلمە	-10.0208
▁فەرمانگەی	-10.021
▁ڕەمەزان	-10.0213
▁مو	-10.0214
ۆی	-10.0216
▁خود	-10.0216
▁بەکاری	-10.022
▁بەرهەمەکانی	-10.0243
▁بووبێت	-10.0245
محەمەد	-10.025
▁مەبەستەش	-10.025
▁ڕووداوەکان	-10.0258
▁بانکی	-10.0266
▁37	-10.0269
▁ئۆپۆزیسیۆن	-10.027
▁حکومەتەکەی	-10.0275
لۆ	-10.0276
▁80	-10.028
قە	-10.0285
▁بیرو	-10.0286
▁داد	-10.0287
▁باراک	-10.0291
▁پەرلەمانتار	-10.0293
▁مانەوە	-10.0301
▁عە	-10.0302
▁نه	-10.0302
▁بەرد	-10.0302
اوە	-10.0303
▁کوڕ	-10.0326
▁ستەم	-10.0329
▁ناتوانێ	-10.033
▁گەشە	-10.0334
▁ئالان	-10.0343
▁حکوومەتە	-10.0344
▁کراوه	-10.0346
▁کەوتووە	-10.0357
▁نووسراوە	-10.0357
▁بڵێت	-10.0357
▁دەرچوو	-10.0358
▁لەمیانەی	-10.036
ەکانم	-10.0362
وتی	-10.0363
▁سیاسەتە	-10.0366
▁دیموکراسی	-10.0366
▁شاندێکی	-10.037
▁گۆڕی	-10.0372
▁زیرەک	-10.0381
▁یەکەی	-10.0388
▁بەهای	-10.0391
▁نیسان	-10.0393
▁واتای	-10.0399
▁هەواڵێکی	-10.0405
▁سەرهەڵدانی	-10.0405
▁دوچاری	-10.0413
▁ببنە	-10.0418
▁جەلەولا	-10.0421
▁کێشەکە	-10.0422
▁هەڵمەتی	-10.0423
▁بگات	-10.0424
گری	-10.0426
▁سارد	-10.0427
▁وتاری	-10.0436
▁پێناوی	-10.0437
▁سور	-10.0439
▁شاخ	-10.044
▁زیندان	-10.0441
▁هەبوونی	-10.0444
▁کۆمەک	-10.0448
▁لایەنگرانی	-10.045
▁گومانی	-10.0451
▁ئامادەیە	-10.0451
▁بەرپرسە	-10.0454
▁48	-10.0456
▁ویست	-10.046
▁پاریس	-10.0463
▁شکستی	-10.0464
▁تەماشای	-10.0466
▁فشار	-10.0469
r	-10.0471
▁هاوولاتیان	-10.0473
یشەوە	-10.0475
▁بەرپرسێکی	-10.0481
▁گرێ	-10.0487
▁شەممه	-10.0495
▁تاوانە	-10.0498
یل	-10.0508
▁یاسایە	-10.0511
▁خواردنی	-10.0511
▁فەلسەفەی	-10.0514
▁پیاوانی	-10.0516
▁بکەوێت	-10.0521
▁ڕۆمانی	-10.0522
▁سەلاحەددین	-10.0522
▁بەشداریکردن	-10.0526
▁ڕابردووی	-10.0529
▁سویسرا	-10.0532
▁کوردیدا	-10.0535
▁ئەحمەدی	-10.0541
▁دروستی	-10.0543
▁عادل	-10.0553
▁ئیسلامیی	-10.0557
▁بێدەنگی	-10.056
▁پێداویستی	-10.056
▁وەردەگرێت	-10.0564
▁تۆڕی	-10.057
▁خەیاڵی	-10.0573
▁ڕۆشنبیریی	-10.058
▁جۆن	-10.0582
▁ڕەسوڵ	-10.0588
▁ڕووداو	-10.0588
▁سەرکردەکانی	-10.0591
▁لەکەرکوک	-10.0592
▁ئاشکرایکرد	-10.0594
▁دەن	-10.0595
▁خەمی	-10.0609
▁عەقڵ	-10.061
▁نادیار	-10.061
▁قۆناغێکی	-10.0615
▁بوارە	-10.0615
▁بناغەی	-10.0617
▁هیوادارم	-10.0617
▁ڕاو	-10.0626
▁مارکس	-10.0627
▁ئیسلامییەکان	-10.0638
وەو	-10.0645
▁ناسنامەی	-10.065
▁کارێک	-10.0652
ئی	-10.0665
▁هەرچەند	-10.0665
▁دەوڵەمەند	-10.0665
▁قوربانیانی	-10.0671
▁نایات	-10.0671
▁قسەکانی	-10.0682
▁لەڕێی	-10.0683
▁بۆنی	-10.0694
▁دیالە	-10.0695
▁ئیئتیلافی	-10.0706
▁تیشکی	-10.0707
▁گۆڕانی	-10.0715
▁ڕاستییە	-10.0717
▁ڕەحمان	-10.072
▁سەربازیی	-10.0721
▁لەدایک	-10.0722
▁خۆشحاڵی	-10.0726
▁ڕوانگەی	-10.0726
دو	-10.0738
درا	-10.0741
▁جیاتی	-10.0742
▁ڕەگەز	-10.0742
▁هۆ	-10.0743
▁شەڕە	-10.0743
▁کا	-10.0743
▁داهێنان	-10.0753
▁خوێندکاران	-10.0761
▁فەرهەنگ	-10.077
▁تاقی	-10.0775
▁جینۆساید	-10.0783
▁یەکلایی	-10.0783
▁هۆکار	-10.0788
▁موچەی	-10.0793
▁بەهەر	-10.0798
▁مۆڵەتی	-10.0802
▁پەیوەندیدارەکان	-10.0815
▁ده	-10.0817
تەر	-10.0828
وت	-10.083
▁لەشکری	-10.0834
▁نیم	-10.0842
▁شارو	-10.0843
جە	-10.0846
▁یەکەمیان	-10.0852
▁ناویان	-10.0855
▁بوش	-10.0857
▁ڕایدەگەیەنێت	-10.0862
▁وەربگرن	-10.0865
اڵی	-10.0866
▁سەرباز	-10.0866
▁عەباس	-10.0874
▁هەرێمە	-10.0876
ێکەوە	-10.0881
▁پاڵەوانێتی	-10.0884
▁تەکنیکی	-10.089
▁بوونەتە	-10.0894
▁ئەستۆی	-10.0896
▁قۆناغە	-10.0903
▁مۆڵەت	-10.0903
▁دروشمی	-10.0917
▁هەژاری	-10.0917
▁خەرج	-10.092
▁هێنان	-10.0923
ەم	-10.0925
▁ڕێنمایی	-10.0925
ەکێ	-10.0932
▁پەلە	-10.0936
▁ڕێککەوتنی	-10.0949
▁مۆدێرن	-10.0954
▁بۆتەوە	-10.0958
▁پەروەردگاری	-10.096
▁دڵشاد	-10.0972
▁دەستگیرکردنی	-10.0972
▁دەمێنێتەوە	-10.0978
▁کۆنە	-10.0978
▁42	-10.0979
▁دادگایی	-10.0979
▁J	-10.0988
▁شەقامی	-10.099
▁خزمەتگوزاریی	-10.0992
▁زۆربەیان	-10.0995
▁لەدوو	-10.0995
▁ماوەتەوە	-10.0996
▁ماددە	-10.0996
2	-10.0998
▁دەشڵێت	-10.1
▁فیکری	-10.1
▁بەندە	-10.1006
▁شانۆگەری	-10.1008
▁ڕق	-10.1011
▁ڕۆژانەی	-10.1013
کانیان	-10.1023
▁خە	-10.1024
▁ئۆجالان	-10.1035
▁جیاوازە	-10.1037
▁سەردەمە	-10.1038
▁کەوتنە	-10.1043
▁کوردستانێ	-10.1044
▁گرنگترین	-10.1044
▁فارسی	-10.1049
دەست	-10.1051
▁ڕانیە	-10.1054
▁چەمچەماڵ	-10.1058
▁کلی	-10.1073
▁بەدەم	-10.1087
کردوە	-10.1087
▁پێموایە	-10.1088
▁تونس	-10.1089
▁لەڕێگای	-10.109
تانی	-10.1093
کر	-10.1093
ییەکانی	-10.1095
▁پیر	-10.1099
▁لەکوردستاندا	-10.1099
▁نازانێت	-10.1107
▁چەکدار	-10.1109
▁چاکی	-10.1111
▁پێناسە	-10.1113
▁ڕۆمان	-10.1121
▁ماندوو	-10.1125
▁کارمەندانی	-10.1135
▁دەتوانرێت	-10.1135
▁هەوڵدان	-10.1145
▁عەبدولڕەحمان	-10.1145
▁کرێکاری	-10.1148
▁بانگ	-10.1152
▁گۆڕەپانی	-10.1152
▁مەرگی	-10.1156
▁خۆشەویست	-10.1157
▁عەشق	-10.1158
▁هەڵبەت	-10.1162
▁ناتوانین	-10.1166
▁خولەکی	-10.1167
▁باو	-10.1169
▁ڕادیۆ	-10.1183
▁ئامادەکاری	-10.1183
کرن	-10.1188
▁بڵاودەکرێنەوە	-10.1188
ەیەکی	-10.1206
▁شتەکان	-10.1207
▁مەزهەبی	-10.1209
▁کورتی	-10.121
▁تێپەڕ	-10.1213
▁تەرمی	-10.1214
▁ژینگەی	-10.1225
کاندا	-10.1225
زا	-10.1225
▁بگاتە	-10.1225
▁یاریزانان	-10.123
▁بێجگە	-10.1234
▁ببینێت	-10.1238
▁لەدەست	-10.1238
▁بری	-10.1258
▁43	-10.1259
▁خانوو	-10.126
▁گوێی	-10.1263
گۆ	-10.1267
▁داهات	-10.1269
▁هۆشیار	-10.1271
▁بەئامادەبوونی	-10.1279
▁بەرمیل	-10.1285
▁کور	-10.1288
▁پەلاماری	-10.1289
▁ماڵەوە	-10.1301
▁یاد	-10.1302
▁هەمیشه	-10.1304
▁ناسراوە	-10.1304
▁دەرفەتی	-10.131
▁ئیمان	-10.132
▁ئێراندا	-10.1321
▁پیاوی	-10.133
ەوەیە	-10.1336
کردەوە	-10.1338
کری	-10.1341
▁ناردنی	-10.1347
▁خانەی	-10.135
▁گرووپ	-10.1356
▁گلەیی	-10.1363
▁قوتابخانەی	-10.1367
▁زیادکردنی	-10.1369
▁دڵسۆز	-10.1377
▁تاوتوێ	-10.1377
▁زێڕین	-10.1378
▁سەرپەرشتیاری	-10.1384
▁دانراوە	-10.1391
رس	-10.1398
▁خوشک	-10.1399
▁پیاوێکی	-10.1401
▁شتە	-10.1403
▁سەلام	-10.1405
▁نو	-10.141
▁ڕەوان	-10.1411
▁زێباری	-10.1414
▁پرس	-10.1415
یس	-10.1419
تری	-10.1421
▁دەوڵەتێکی	-10.1421
▁گەشت	-10.1424
▁گەنجانی	-10.1424
▁تیرۆری	-10.1429
▁شارەزا	-10.1432
▁ناکەم	-10.1433
▁بایەخی	-10.1435
▁دیکتاتۆری	-10.1436
▁ناتۆ	-10.1437
yahoo	-10.1437
▁نازناوی	-10.1441
▁55	-10.1441
▁بڕیارێکی	-10.1445
کەش	-10.1445
▁شیعەکان	-10.1446
▁بەدرێژایی	-10.1448
▁واشنتن	-10.1449
▁بەتەنیا	-10.145
▁فەلسەفی	-10.1451
▁لەئاستی	-10.1456
▁بەرزنجی	-10.1458
▁41	-10.1465
▁شکاو	-10.1469
▁ئەمریکاو	-10.1473
رو	-10.1475
▁نێر	-10.1477
▁یەکەمجار	-10.1481
ووه	-10.1487
مەن	-10.1489
▁ژیانیان	-10.1492
▁پەیڕەوی	-10.1495
▁هەژاند	-10.1495
▁گەورەکان	-10.1505
▁ڕێکەوت	-10.1507
▁مەریوان	-10.1512
▁دادپەروەری	-10.1512
▁لاوازی	-10.1512
▁داخوازی	-10.1529
▁الم	-10.1533
▁مەسەلەیە	-10.1534
▁ڕاگەیاندووە	-10.1538
▁هەردووکیان	-10.1545
▁سەردانەکەی	-10.1548
▁تاوانەکانی	-10.1551
▁سایەی	-10.1555
▁غەریب	-10.1557
▁ڕێکخراوێکی	-10.1557
▁بینیوە	-10.156
▁ئامۆژگاری	-10.1565
▁بەپێچەوانەوە	-10.1568
▁نەژاد	-10.1573
▁بهێنە	-10.1575
▁هەورامی	-10.1577
▁زاری	-10.1577
▁بنەماکانی	-10.1583
▁خاڵێکی	-10.1584
▁ئۆپۆزسیۆنی	-10.1591
▁کامیل	-10.1593
بان	-10.1598
گر	-10.1612
▁لەکار	-10.1615
▁بڕە	-10.1621
▁توێژینەوەی	-10.1621
▁ڕێگری	-10.1623
▁پەرلەمانتاران	-10.1631
▁کەمە	-10.1631
▁دادوەر	-10.1632
▁نابن	-10.1634
▁سەرەنجام	-10.1637
▁دامەزراندن	-10.1638
▁نەداوە	-10.1641
▁قازانجی	-10.1644
▁لەبەرچاو	-10.1647
▁دەنگیان	-10.165
▁سێکس	-10.1653
▁کرابوو	-10.1661
▁ڕوویدا	-10.1664
▁بۆخۆی	-10.1667
▁ئاگری	-10.1669
▁حاڵی	-10.1672
▁میر	-10.1678
بوونەوەی	-10.1683
▁شێ	-10.1693
▁ئیمزا	-10.1695
▁ئامێری	-10.1698
▁بەدیهێنانی	-10.17
ٍ	-10.17
▁ببێتەوە	-10.1704
▁کەریمی	-10.1704
▁پشکنین	-10.1706
▁هەڵەی	-10.1706
کات	-10.1707
ور	-10.1713
▁تریان	-10.1721
▁بەتایبەتیش	-10.1722
▁جەستە	-10.1724
▁بۆسەر	-10.1724
▁گرتنی	-10.1725
▁خەلکی	-10.1728
مدا	-10.1733
▁چە	-10.1734
▁وێنەگری	-10.1736
▁ڕیز	-10.1737
دۆ	-10.174
▁بەخشی	-10.1742
▁شان	-10.1745
▁44	-10.1758
شا	-10.1762
▁We	-10.1764
▁پێشتریش	-10.1769
▁کاتێکیش	-10.177
▁مۆر	-10.1773
▁لەبار	-10.1775
▁کۆشکی	-10.1781
▁دەرکرد	-10.1783
▁شانۆیی	-10.1785
▁کتێبە	-10.1789
▁زەویدا	-10.1789
▁دۆخە	-10.1793
▁P	-10.1795
▁سادە	-10.1797
▁ئەرکە	-10.1804
▁وریا	-10.1806
▁ئۆتۆمبێل	-10.1807
▁شەهیدانی	-10.1811
▁قاسم	-10.1811
ێکیان	-10.1816
▁دووشەممە	-10.1817
▁چل	-10.1818
▁زیاترە	-10.1825
▁بەرازیل	-10.1826
▁بەهرۆز	-10.1831
▁بیەوێت	-10.1833
▁تازەی	-10.1839
▁وردی	-10.184
▁مەرجی	-10.1841
▁لەپەرلەمانی	-10.1841
▁لەکۆتایی	-10.1846
▁تەن	-10.1859
▁ڕووناکی	-10.1861
▁بەشداریکردنی	-10.1862
▁تۆمەتی	-10.1863
▁جیهاد	-10.1863
▁وەردەگرن	-10.1865
▁نەتەوایەتی	-10.1869
▁پەنابەرانی	-10.1872
▁هەردەم	-10.1875
▁دام	-10.1876
▁ئەنجومەن	-10.1876
▁لەلایەک	-10.1877
▁هاووڵاتیانی	-10.1881
وانی	-10.1884
▁حسابی	-10.1893
جا	-10.1895
▁وێران	-10.1895
▁پێغەمبەری	-10.1899
▁بەڕێ	-10.1905
▁سەختی	-10.1908
▁پابەند	-10.1909
ص	-10.1921
▁گەرمی	-10.1921
▁نزیکی	-10.1924
عە	-10.1925
▁ماسی	-10.1928
▁ئۆسکاری	-10.1934
▁دەرئەنجامی	-10.1945
▁ئەوەمان	-10.1951
ۆس	-10.1953
▁ئەخلاقی	-10.1963
▁ئیتالی	-10.1963
▁وەڵامێک	-10.1964
▁لێکدانەوەی	-10.1968
لای	-10.1968
▁46	-10.1976
▁لەپێش	-10.199
▁کچی	-10.1992
▁ناکەین	-10.1995
▁بۆنەی	-10.1997
▁بمانەوێت	-10.2001
▁کارا	-10.2003
▁چەندەها	-10.2007
▁جۆ	-10.2009
▁ڕووخانی	-10.201
▁پیس	-10.2017
▁دەروازەی	-10.2028
▁دەنووسن	-10.2028
▁تیشک	-10.2028
▁فە	-10.203
سێ	-10.203
▁وادەی	-10.2031
▁پەرە	-10.2033
▁D	-10.2035
▁تەلەفزیۆنی	-10.2037
▁خۆشیان	-10.2037
▁بەرگی	-10.204
▁دەمهەوێت	-10.2043
▁خەلیل	-10.2045
▁ئەکادیمی	-10.2045
▁نەوەک	-10.2046
▁دەبینرێت	-10.2052
▁لەجیاتی	-10.2058
▁چۆمان	-10.2058
یزم	-10.2059
▁ڕەوا	-10.2061
▁پیشان	-10.2063
▁بەکوردی	-10.2066
▁47	-10.2067
ران	-10.2069
▁تەماشا	-10.2071
▁هانی	-10.2072
▁گوند	-10.2076
▁گۆ	-10.2082
▁C	-10.2082
▁کردنەوە	-10.2083
▁لێدانی	-10.2087
▁دیکەدا	-10.2088
▁ئازادکردنی	-10.2088
▁سەرانی	-10.2089
▁ڕێکەوتی	-10.2089
▁کۆبوونەوەیەکی	-10.2095
▁دەکەینەوە	-10.2099
▁هاتۆتە	-10.2099
▁هاوسەری	-10.2105
▁خزمەتکردنی	-10.2105
▁هاتوو	-10.211
▁سەرەکیی	-10.2112
ڵی	-10.2112
▁مێشک	-10.2117
ڕو	-10.2121
▁گران	-10.2122
▁زە	-10.2126
▁پله	-10.2127
▁49	-10.2129
▁فەتاح	-10.2132
▁جارە	-10.2134
▁کەسیان	-10.2134
▁بوارەدا	-10.2137
▁تورکیاو	-10.2139
▁ناوەڕاستی	-10.2139
▁بەهێزکردنی	-10.214
▁باوکم	-10.2147
▁تەها	-10.2148
▁ئەستۆ	-10.2149
▁نازانن	-10.2162
عەلی	-10.2163
▁گۆرانیبێژ	-10.2165
▁ئایندە	-10.2165
▁پێکهاتووە	-10.217
ێنن	-10.2171
▁خەلک	-10.2174
▁F	-10.2174
▁300	-10.2176
▁موبارەک	-10.2178
▁ڕوونیشیکردەوە	-10.2179
▁عارف	-10.218
▁کراوەتەوە	-10.2185
▁لەناوبردنی	-10.2185
▁پێکهاتە	-10.2189
▁مل	-10.2189
▁بەنزین	-10.219
▁هەندێ	-10.2191
نووس	-10.2199
▁مەتر	-10.2207
▁سیستەمە	-10.2208
سا	-10.2212
ڕە	-10.2213
▁بەرگریی	-10.2223
▁نەدا	-10.2223
▁لەڕاستیدا	-10.2223
▁یەمەن	-10.2226
▁بریار	-10.2233
▁نێوانیان	-10.2239
▁قەومی	-10.2246
▁چۆڵ	-10.2248
▁شێوەکاری	-10.2248
▁دەنێت	-10.2249
▁خان	-10.225
▁نرخ	-10.225
▁بابەتێکی	-10.225
▁بچن	-10.2252
▁یاسایەک	-10.226
▁سەنگەر	-10.2264
▁خەڵکانی	-10.2267
▁شەرم	-10.2276
▁ست	-10.2276
ڤان	-10.2277
▁ئەمجارە	-10.2281
▁لەبەشێکی	-10.2283
▁فڕۆکە	-10.2284
▁سوکایەتی	-10.2284
▁ڕەفتار	-10.2289
▁خێر	-10.2289
▁لەپاش	-10.2289
▁مەشق	-10.229
از	-10.2293
▁دەمی	-10.2298
▁جودا	-10.2303
▁ئەر	-10.2305
▁تایبەتمەندی	-10.2305
▁ئەنوەر	-10.2308
▁نوێژ	-10.2308
▁ڕۆژەی	-10.231
▁S	-10.2311
▁بەرەنگاربوونەوە	-10.2312
▁سەقامگیری	-10.2312
▁کردەوەی	-10.2314
▁بەڕێوەدەچێت	-10.2323
گرتن	-10.2328
▁بەتەنها	-10.233
▁سەفەر	-10.233
▁90	-10.2333
▁زەرد	-10.2333
▁دایکم	-10.2336
▁حکومەتێکی	-10.2336
▁پڕۆژەیە	-10.2337
▁شیرین	-10.2337
▁نامۆ	-10.2339
▁تایبەتدا	-10.234
▁میسری	-10.234
▁بەزۆر	-10.2342
▁هو	-10.2344
▁کامەران	-10.2351
▁پێشکەوتوو	-10.2356
▁پێشمەرگەو	-10.2356
▁بێکاری	-10.2362
وس	-10.2362
▁بێتەوە	-10.2363
▁ئیخوان	-10.2369
راو	-10.2375
▁باشور	-10.2376
▁درێژی	-10.2377
▁ڕۆژنامەنووسی	-10.2377
▁gu	-10.238
▁کاردانەوەی	-10.2382
▁کۆر	-10.2383
▁پەیوەندییەکان	-10.2385
یک	-10.2394
▁یاساکانی	-10.2395
▁لاو	-10.2396
▁پێشنیار	-10.2399
▁گاز	-10.2412
▁هەژمار	-10.2412
▁ذ	-10.2413
▁وەر	-10.2414
▁ڕێکخراوەکان	-10.2419
▁ڕادەستی	-10.2422
▁نایابی	-10.2422
▁ئەوکاتە	-10.2423
▁51	-10.2423
▁پەیمان	-10.2424
▁بوونەوەی	-10.2425
▁خەو	-10.2429
انەو	-10.243
▁ئەتۆمی	-10.243
▁زمانە	-10.2431
▁کردۆتە	-10.2431
▁بیرۆکەی	-10.2431
▁have	-10.2432
ڵە	-10.2434
▁کۆچ	-10.2435
▁سۆسیال	-10.2435
▁هاوکارمان	-10.2438
▁htm	-10.2444
من	-10.2444
▁پێنجەم	-10.2447
▁حەمید	-10.2447
▁یەکە	-10.2448
داوە	-10.2452
▁ڕایانگەیاند	-10.2452
▁قەیرانە	-10.2453
▁ئێستە	-10.2455
▁دۆزەخ	-10.2458
▁یەکجار	-10.2461
▁بەخوا	-10.2463
▁بەرنامەیەکی	-10.2465
▁ئۆ	-10.247
▁52	-10.2471
▁ڕاهێنان	-10.2486
▁هەفتە	-10.2487
▁کچه	-10.2487
▁کۆنترۆڵ	-10.2489
▁لیژنەیەکی	-10.249
▁خۆپیشاندانی	-10.2492
▁پاکی	-10.2493
▁بەرزکردنەوەی	-10.25
▁خراپە	-10.2502
اند	-10.2502
▁عەدنان	-10.2504
▁بیرکردنەوەی	-10.2506
▁نامێنێت	-10.2506
▁هاوڕێی	-10.251
▁دانیشتووی	-10.2514
▁ئاڵۆز	-10.2518
▁لەسەرجەم	-10.2533
▁نیشتەجێبوون	-10.2536
پە	-10.2536
▁ڕاپۆرتێکی	-10.2539
▁ئاراستە	-10.2541
▁ڕوویان	-10.2544
▁دەستخۆشی	-10.2549
ێوه	-10.2551
▁کەشتی	-10.2557
▁بەشێکە	-10.2561
▁دەستدرێژی	-10.2561
▁موختار	-10.2563
▁ماڵێکی	-10.2565
▁53	-10.2566
▁پەسەندکردنی	-10.2568
▁بەڕێوەبەرایەتیی	-10.2569
▁داب	-10.2572
▁بوونەوە	-10.2573
بکەین	-10.2578
▁جەبار	-10.258
▁قەت	-10.2582
▁بەدواداچوون	-10.2583
▁تۆش	-10.2583
▁لەدەستدا	-10.2592
▁online	-10.2597
▁داو	-10.2597
▁گ	-10.2599
ژی	-10.2604
▁می	-10.2605
▁بەندی	-10.2617
▁وڵاتەدا	-10.2618
هەڵ	-10.2621
▁بینای	-10.2621
جار	-10.2621
▁هێرشەکانی	-10.2621
▁نەناسراو	-10.2624
▁دەستبەرداری	-10.2625
▁کێش	-10.2627
▁هەولێرو	-10.264
▁کیمیایی	-10.264
▁گەردوونی	-10.2641
گای	-10.2644
▁خاوەنەکانیانە	-10.2644
یەدا	-10.2646
▁لێدان	-10.2649
▁هۆکارەکانی	-10.2651
▁عێراقییە	-10.2657
ۆن	-10.2658
▁فکری	-10.2665
▁بەهەشت	-10.2667
▁بەوەشدا	-10.2668
▁بەرهەمە	-10.2669
▁54	-10.2669
▁کولتووری	-10.2673
ests	-10.2674
▁ڕۆشنبیران	-10.2675
▁بینەر	-10.2679
▁بمێنێتەوە	-10.268
▁دەرکەوتنی	-10.2686
▁ڕاپرسی	-10.2688
▁ئەگینا	-10.269
▁هەوڵێکی	-10.2691
▁نارد	-10.2694
▁تیژی	-10.2695
▁لێکۆڵینەوه	-10.2702
▁فەرهاد	-10.2705
▁56	-10.2705
▁هەردی	-10.2708
ذ	-10.2709
▁سو	-10.2714
▁بەدەستهێنا	-10.2714
▁دەبێته	-10.2716
ڵا	-10.2716
▁گێڕانەوەی	-10.2721
▁ڕیاڵ	-10.2725
▁لەمانگی	-10.2727
▁گۆر	-10.2736
▁کردنە	-10.2742
▁پەخش	-10.2751
▁کەنەدا	-10.2752
▁خولەک	-10.2752
▁ببینن	-10.2755
▁پرۆژەی	-10.2757
▁دەرچوون	-10.2757
▁کارەکانیان	-10.2757
▁>	-10.2759
▁دەبێ	-10.2759
▁کڕینی	-10.2766
▁ڕێگه	-10.2768
▁یەکسەر	-10.2769
▁بۆرژوازی	-10.2778
▁لەعیراقدا	-10.2779
▁کەیسی	-10.278
▁خۆرهەڵاتی	-10.2781
دەی	-10.2784
▁ئامانجە	-10.2785
▁هزر	-10.2789
▁پاڵەوانی	-10.2789
▁لەبەرئەوە	-10.279
▁خانمە	-10.2796
▁ئاژەڵ	-10.2798
▁دەبوایە	-10.2802
▁الل	-10.2808
▁ئینتەرنێت	-10.2809
▁لەوەدایە	-10.281
▁سێکسی	-10.2811
▁بەڵگە	-10.2813
▁یێن	-10.2814
▁دەستپێکی	-10.2816
▁نەجمەددین	-10.282
▁پشکنینی	-10.2821
▁لەئەنجامی	-10.2822
▁بەکر	-10.2823
▁کوردەکانی	-10.2824
▁57	-10.2826
▁ڕیزەکانی	-10.2826
▁درێژایی	-10.2826
▁قازانج	-10.2829
▁براوەی	-10.2829
▁دەسەڵاتدار	-10.283
▁شێوازێکی	-10.283
▁دەوڵەتانی	-10.2833
▁دەنا	-10.2836
یەکدا	-10.2842
▁نوێیە	-10.2844
▁هەڵوەشاندنەوەی	-10.2844
▁خۆشە	-10.2849
▁ڕێبوار	-10.2851
▁باسیان	-10.2854
▁کوردستانییەکان	-10.2856
▁چیە	-10.2856
▁هۆکارێکی	-10.2857
▁سەرو	-10.2857
▁بگەڕێتەوە	-10.2857
▁بێبەش	-10.2858
ناسی	-10.2858
▁دەربڕین	-10.2861
▁هەریەکە	-10.2861
▁ژووری	-10.2864
▁کۆبونەوەی	-10.2866
▁پەنجا	-10.2868
▁تاریق	-10.2873
▁قوتابیانی	-10.2883
▁ئاوارە	-10.2896
▁کوردستانیان	-10.2896
▁منی	-10.2899
▁تۆمارکرا	-10.29
▁کارتی	-10.2901
▁کوردییەکان	-10.2906
▁دەستپێکردنی	-10.291
▁یاسین	-10.2911
▁بەفر	-10.2912
یشە	-10.2913
▁قسەکانیدا	-10.2913
ڕی	-10.2914
▁پوور	-10.2916
▁پاڵەوانیەتی	-10.2919
▁150	-10.292
ڤی	-10.292
▁نەتەوەکانی	-10.2922
▁دۆزی	-10.2929
▁مووچە	-10.2936
▁ناخی	-10.2937
▁سەردار	-10.2939
▁هۆکارێک	-10.2942
▁دەستەبەر	-10.2942
▁N	-10.2954
▁هەواڵگری	-10.2959
▁کۆمۆنیستی	-10.2962
▁هەڵبژاردنە	-10.2965
▁ئێوەش	-10.2966
▁لەعێراق	-10.2967
▁مەسەلە	-10.2968
▁بڕوات	-10.2977
▁پێشکەشکردنی	-10.2978
▁پەرلەمانتاری	-10.2979
▁بالای	-10.298
▁خێرایی	-10.2982
▁ڕۆ	-10.2983
▁بەوەشکرد	-10.2986
▁پەیام	-10.299
▁چڕ	-10.2991
▁لەتەک	-10.2995
▁یاساکە	-10.2995
▁نەتەوەیەکگرتوو	-10.2997
▁سود	-10.3005
▁باکور	-10.3007
▁ئاوات	-10.3017
▁یاخی	-10.302
▁ناساندنی	-10.3021
▁بانگەواز	-10.3021
▁یاریگەی	-10.3022
▁ڕووداوێکی	-10.3022
▁پێشانگای	-10.3028
▁دوورە	-10.3029
▁نزیکدا	-10.3044
▁دەنگەکان	-10.3044
دوای	-10.3049
▁پاشا	-10.305
▁لەوانەش	-10.3052
▁میوان	-10.3054
▁یەکێ	-10.3055
فا	-10.3056
▁کیلۆمەتر	-10.3057
▁ئەوروپی	-10.3065
▁کوێت	-10.3066
▁ئەوەیه	-10.3071
بوونەوە	-10.3074
▁مانگێک	-10.3079
▁خستۆتە	-10.3081
اندن	-10.309
▁بریتیە	-10.3096
▁پاداشتی	-10.3099
▁هەڵۆ	-10.3099
▁قاعیدە	-10.3103
هات	-10.3105
▁خۆراکی	-10.3106
▁ویلایەتی	-10.311
▁نەی	-10.3121
▁بەخۆی	-10.3129
▁دەتوانم	-10.3131
▁لەوەدا	-10.3131
▁ئاماری	-10.3132
▁نیوز	-10.3133
▁چوارشەممە	-10.3141
▁مادی	-10.3142
▁دڵم	-10.3145
خۆی	-10.3149
▁منداڵە	-10.3153
▁شەڕو	-10.3161
▁سعودیە	-10.3162
▁پشکی	-10.3166
▁دوکان	-10.3169
▁قەیران	-10.3174
▁لێدوانی	-10.3174
▁بەئاسانی	-10.3175
▁پەیوەندیدار	-10.3177
▁مەیدان	-10.3177
▁بەشدارییان	-10.3182
▁سامانە	-10.3183
▁نەینەوا	-10.319
▁کۆنترۆڵی	-10.319
ەکانتان	-10.3195
▁کفری	-10.3203
▁مەحموود	-10.3205
گەری	-10.3217
▁کەبە	-10.3218
▁حەرام	-10.322
▁چاکسازیی	-10.3225
▁تیۆری	-10.3232
▁دەژی	-10.3234
▁بڕ	-10.3235
▁پێچەوانەوە	-10.3239
▁گەیشتووەتە	-10.3239
▁ماچ	-10.3242
▁ڕێزگرتن	-10.3245
▁خەرجی	-10.3245
▁ئاڵۆزی	-10.3245
▁جیاجیاکانی	-10.3245
▁یەوە	-10.3246
▁پاراستن	-10.3249
خان	-10.3254
▁پێویستمان	-10.3255
▁ناوچەکه	-10.3256
▁هەبوون	-10.3258
کرنا	-10.326
▁لیوا	-10.3261
زان	-10.3262
▁کۆمەڵایەتییەکان	-10.3267
▁پیاوێک	-10.3269
▁شەنگال	-10.3277
▁دهۆکێ	-10.328
▁ڕێبەری	-10.3281
▁قایمقامی	-10.3282
▁پەراوێز	-10.3283
▁ڕوی	-10.3286
▁ئەسڵانی	-10.3286
▁بژی	-10.3289
▁ڕوودەدات	-10.3293
▁ڕۆژنامەنووسانی	-10.3293
▁سەریان	-10.3295
▁وەرگیراوە	-10.3303
▁نەما	-10.3307
▁بخەنە	-10.3309
▁چاویان	-10.331
أ	-10.3311
▁چارە	-10.3311
▁بەرپا	-10.3314
▁نوسینی	-10.3315
▁ئەمنییەکان	-10.332
▁فشاری	-10.3321
▁ئەمڕۆش	-10.3329
▁ئەبوبەکر	-10.333
▁key	-10.3335
▁کوردس	-10.3336
▁غاز	-10.3337
▁دەنگەکانی	-10.3341
▁موو	-10.3341
▁ڕۆح	-10.3342
▁دەرفەت	-10.3342
▁me	-10.3342
نامەی	-10.3345
▁ئەرکێکی	-10.3348
▁سا	-10.3349
▁ڕابردو	-10.3351
▁تەیب	-10.3356
▁فەلەستین	-10.3358
▁بەرێوەچوو	-10.336
▁پیشەیی	-10.3361
▁بان	-10.3363
▁کەمترین	-10.3366
▁بازنەی	-10.3368
▁جیاوازەکانی	-10.3369
▁پێشێل	-10.337
▁نەیتوانیوە	-10.3371
نەوەی	-10.3374
▁پرێس	-10.3374
▁سەرخستنی	-10.3378
▁تۆپ	-10.3381
▁دەربڕینی	-10.3381
▁ئاوارەکان	-10.3382
▁جل	-10.3382
▁ئەیاد	-10.3388
▁باڵ	-10.339
▁زۆریش	-10.3398
▁خوێندکاری	-10.3398
▁کارەسات	-10.3405
▁دێنە	-10.3406
▁نامەی	-10.3413
▁سەرەکییەکانی	-10.3421
▁سالار	-10.3424
ێز	-10.3425
▁تەندروست	-10.3426
▁ئیسلامیەکان	-10.3427
گیر	-10.3431
▁پیادە	-10.3431
▁وڵاتێک	-10.3435
▁زۆرینە	-10.3436
ناس	-10.3438
▁مەترسیدار	-10.3442
▁بەرواری	-10.3443
▁سەرکردایەتیی	-10.3444
▁تێر	-10.3447
▁ئاواز	-10.3447
▁ڕادەیەک	-10.3449
▁یاریزانە	-10.3458
▁ڕووبەرووی	-10.346
▁نووسی	-10.3462
▁لایەنگری	-10.3465
▁پرۆسەیەکی	-10.3466
▁بنکە	-10.3466
▁پێست	-10.3468
▁کوتلەی	-10.3469
▁شەیتان	-10.3477
▁بخرێتە	-10.3481
یانەوە	-10.3485
▁شین	-10.3499
▁ڕێگر	-10.3502
▁وشک	-10.3503
▁وەسف	-10.3515
▁چەشنە	-10.352
▁بریاری	-10.3522
▁کۆتای	-10.3533
▁سەپاندنی	-10.3536
▁گوتیان	-10.3536
▁ستایشی	-10.3536
▁خەڵات	-10.3544
▁هەلی	-10.3549
▁دەفەرموێت	-10.3549
یر	-10.3553
▁بەرهەمهێنان	-10.3554
▁بۆمان	-10.356
▁گوتن	-10.3561
▁نوێدا	-10.3564
▁نایاسایی	-10.3568
▁دووپات	-10.3569
▁نووسەرانی	-10.357
▁یه	-10.3573
پەر	-10.3576
▁تۆمارکرد	-10.3578
نین	-10.3579
▁لەرووی	-10.3587
کەیان	-10.3587
▁فەڕەنسا	-10.3596
▁mail	-10.3605
▁بانگهێشت	-10.3606
▁ئاسیایی	-10.3607
کەدا	-10.3609
▁ژاپۆن	-10.3621
▁حەزی	-10.3622
روو	-10.363
یکی	-10.363
▁ناوەڕۆکی	-10.3635
▁ڕووبەڕووبوونەوە	-10.3635
▁ئاسایییە	-10.3639
▁ماوەکەی	-10.3641
▁حەیدەر	-10.3643
▁سوری	-10.3644
▁خۆڵەمێش	-10.3646
نه	-10.365
▁هێناوه	-10.3651
ەن	-10.3656
▁نووری	-10.3659
▁هونەریی	-10.3662
▁مەهدی	-10.3663
▁ڕێژەیەکی	-10.3664
▁کەناڵەکانی	-10.3667
▁کۆمیسیۆن	-10.367
▁میللەتی	-10.3677
یەکاندا	-10.3679
▁دەستیپێکرد	-10.3682
دن	-10.3682
▁وڵاتان	-10.3684
▁فەرمانبەر	-10.3687
▁شتانەی	-10.3692
▁بەرگریکردن	-10.3695
▁ژنێک	-10.3697
▁ترە	-10.3698
▁ڕووەوە	-10.37
ێنێ	-10.3703
▁الا	-10.3705
▁چالاکییەکانی	-10.3707
▁نەمانی	-10.3708
ماڵ	-10.3713
▁دەسەڵاتداران	-10.3714
▁قوڵ	-10.3723
▁بەستنی	-10.373
▁ئەکرد	-10.3736
▁ئیمەیل	-10.3738
▁ببنەوە	-10.3739
▁موحەمەد	-10.3741
▁تیرۆرکردنی	-10.3743
▁تورکیادا	-10.3746
▁برایم	-10.3749
سن	-10.3752
7	-10.3755
▁دیاردەیە	-10.3757
▁دەیەوێ	-10.3758
▁لەپاڵ	-10.3763
▁کۆتاییدا	-10.377
▁بەزمانی	-10.377
▁موڵکی	-10.3772
ث	-10.3777
▁کۆمپانیاکانی	-10.3785
▁دڵسۆزی	-10.3786
▁دڵنیام	-10.3788
دین	-10.379
▁ڕژێمە	-10.3791
▁کاربەدەستانی	-10.3793
n	-10.3795
▁فەرامۆش	-10.3795
▁تیرۆریست	-10.3797
▁گەشەکردنی	-10.3799
▁پێت	-10.3799
کراون	-10.3801
▁کاتێکی	-10.3802
▁تەشهیر	-10.3802
▁پرۆسەکە	-10.3802
▁دووباره	-10.3805
خۆ	-10.3807
▁ئو	-10.3809
▁وزە	-10.381
ed	-10.3814
▁کوڕە	-10.3815
▁جارێ	-10.3823
▁نێودەوڵەتیی	-10.3831
▁بانگهێشتی	-10.3831
ؤ	-10.3835
▁عوسمانی	-10.3836
▁ئەمینداری	-10.3837
▁دێرین	-10.3842
▁بڵێی	-10.3844
▁دەرباز	-10.3847
▁بلاو	-10.3853
▁سەرپێچی	-10.3857
▁ترسناک	-10.386
ناو	-10.3863
▁گوندەکانی	-10.3864
▁دەربەندیخان	-10.3867
دراوە	-10.3884
▁چەسپاندنی	-10.3885
▁لەبەرامبەردا	-10.3893
▁مەسەلەکە	-10.3894
▁بارودۆخەکە	-10.3899
▁سەرلەنوێ	-10.3899
▁دەرچووە	-10.3903
▁دیاله	-10.3905
رین	-10.391
▁یۆرۆ	-10.3911
▁بەدواداچوونی	-10.3913
▁ئۆتۆمبێلەکانی	-10.3917
▁نوسینگەی	-10.3921
▁ئەمەیش	-10.3923
▁نادەن	-10.3929
▁نووسەران	-10.393
▁ئەورووپا	-10.3931
▁پزیشک	-10.3932
▁ڕوونکردەوە	-10.3934
▁مایەوە	-10.3936
▁شایەنی	-10.3946
نج	-10.3948
▁کوژرا	-10.3949
▁59	-10.3949
▁ئێ	-10.3956
▁هاوسەرگیری	-10.3959
▁ئێواره	-10.3964
▁قەتەر	-10.3965
▁بکردایە	-10.3971
▁ڤان	-10.3971
▁ئەنبار	-10.3981
▁موسڵمانان	-10.399
کەن	-10.3992
کس	-10.3996
ەری	-10.4
▁ڕزگارکردنی	-10.4016
▁داواکراو	-10.4021
▁سالا	-10.4021
▁کارەساتە	-10.4021
▁هاتوە	-10.4022
ەکانە	-10.4022
▁سۆز	-10.4026
▁بنیاتنانی	-10.4026
▁ماڵە	-10.403
▁کانوونی	-10.4043
▁گۆلی	-10.4043
▁کۆمەڵگادا	-10.4043
▁سەروەت	-10.4045
▁دەیانەوێ	-10.4046
▁هاوچەرخ	-10.405
▁یۆنان	-10.405
▁چەندان	-10.4052
▁فراوانی	-10.4065
▁لەناوچەی	-10.4069
▁بارودۆخە	-10.408
ام	-10.4083
▁شەشەم	-10.4089
▁دەمانەوێت	-10.4093
▁ڕۆژنامەگەری	-10.4094
▁عەبدول	-10.4098
▁باڵەک	-10.41
▁پۆل	-10.41
▁محەممەد	-10.4101
▁نەدەکرد	-10.4101
▁s	-10.4102
▁دانیشتووانی	-10.4102
لەم	-10.4106
ڕێ	-10.4112
▁بەهاوکاری	-10.4113
▁سەرژمێری	-10.4114
▁نوێترین	-10.4114
▁ڕووت	-10.4115
▁سان	-10.4116
▁پێیانوایە	-10.4116
▁مزگەوت	-10.4117
▁تاریک	-10.4118
▁بووەوە	-10.4118
ط	-10.4118
▁not	-10.4119
▁تێکۆشان	-10.4119
مانە	-10.4124
▁نەخۆشخانە	-10.4126
▁گەش	-10.4129
▁ئێس	-10.4131
▁تەنیایی	-10.4135
▁گوتاری	-10.4136
▁زوڵم	-10.4137
▁شێوازە	-10.414
▁ناخۆشی	-10.414
▁ئەنقەرە	-10.4148
ێل	-10.415
▁سودان	-10.4155
▁کۆسرەت	-10.416
▁جەژن	-10.4162
▁لەئەنجومەنی	-10.4168
!!	-10.417
▁کۆڕ	-10.4171
▁مار	-10.4179
▁ئاغا	-10.4188
▁لابردنی	-10.4193
▁دابێت	-10.4202
▁زانایانی	-10.4206
▁لێکرا	-10.4207
▁جۆرج	-10.421
▁قەندیل	-10.4212
▁ڕاستەوخۆی	-10.4215
▁تێکڕای	-10.4216
j	-10.4216
▁پەیەدە	-10.4218
▁پەروەردەو	-10.422
▁هان	-10.422
▁دەرکەوتووە	-10.4221
▁پابەندی	-10.4222
▁گوناه	-10.4228
گرتنی	-10.4228
▁مەی	-10.423
▁سیاسیدا	-10.4233
▁دەنگە	-10.4237
▁نیشتەجێ	-10.4239
▁پتەو	-10.4244
▁بەرێوەبەرایەتی	-10.4244
▁ئیجابی	-10.4246
▁ناوچەکەو	-10.4246
▁خۆیانەوە	-10.4248
▁حساب	-10.4249
▁قووڵ	-10.4257
▁خوێناوی	-10.4258
▁نمونەی	-10.4265
ەکانت	-10.4269
▁ڕێکخەری	-10.4275
▁دەبینی	-10.4275
▁قەرز	-10.4276
▁لوتکەی	-10.4276
▁گازی	-10.4277
▁ئێزدی	-10.4281
▁چەکدارەکانی	-10.4282
▁سەرمایە	-10.4282
▁تەلەفۆن	-10.4284
▁پاسەوانی	-10.4284
▁یەکشەممە	-10.4284
▁بەرشەلۆنە	-10.4286
▁یانەکەی	-10.4292
▁شایستەی	-10.4293
▁کەنداو	-10.4294
▁چیخۆف	-10.4295
ration	-10.4304
▁تاکەکان	-10.4307
▁ناخۆش	-10.4309
▁خەریک	-10.4312
▁will	-10.4313
▁بت	-10.4315
▁هاتوچۆی	-10.4315
▁کەمتەرخەمی	-10.4318
▁لینکەی	-10.432
یتەوە	-10.4321
▁پێشبڕکێی	-10.4321
▁خۆرئاوا	-10.4322
▁فراوانتر	-10.4325
▁بدەم	-10.4331
▁شەخسی	-10.4338
▁بڕوایان	-10.4344
▁گەشتیاری	-10.4345
▁گوزارشت	-10.4347
▁بردنی	-10.4347
▁دەدەم	-10.4356
▁بداتەوە	-10.4356
راوە	-10.436
▁نێودەوڵەتییەکان	-10.4362
▁جیاکردنەوەی	-10.4363
▁ولا	-10.4363
▁سێشەممە	-10.4365
▁بەڕای	-10.4368
▁کاڵ	-10.4368
▁400	-10.437
▁خوێندکارانی	-10.4373
آ	-10.4374
▁تایبەتە	-10.4376
▁زانیارییەکانی	-10.4379
▁بنەماڵە	-10.4382
▁ئار	-10.4388
▁شاعیری	-10.4391
▁چون	-10.4393
▁سیناریۆی	-10.4396
▁مەلی	-10.4397
▁پێشوازیی	-10.4398
کدا	-10.4398
▁نامە	-10.4403
▁کۆبوونەوەکە	-10.4406
▁شارەدێی	-10.4408
▁ئامانجەکانی	-10.4411
▁لێکەوتەوە	-10.4415
▁فایله	-10.4422
▁دەنووسێت	-10.443
▁مۆبایل	-10.4431
ۆک	-10.4432
بیر	-10.4434
▁ناوبژیوانی	-10.4435
▁94	-10.4437
لەو	-10.444
▁زاگرۆس	-10.4444
▁بینین	-10.4445
▁بەند	-10.4448
▁کەلتوری	-10.445
▁دانوستان	-10.4453
▁بەسە	-10.4457
▁بگرین	-10.4461
فە	-10.4462
▁داوەو	-10.4465
▁نیشاندا	-10.4466
تنی	-10.4467
ێر	-10.4472
ەکەو	-10.448
▁ئاگا	-10.4481
▁جاریش	-10.449
▁قەدەغە	-10.4496
▁ویلایەتە	-10.4496
▁چیای	-10.4499
▁دوژمنی	-10.4501
▁دەرونی	-10.4503
▁بچنە	-10.4507
▁شەرعی	-10.4515
▁دەقە	-10.4516
▁بەتاڵ	-10.4516
▁نەخشە	-10.4516
▁ئەنجامداوە	-10.4516
▁بژێوی	-10.4523
▁بەرلین	-10.4528
▁ناوەڕاستە	-10.4529
▁گەلە	-10.453
▁ئۆکتۆبەر	-10.4536
گەلی	-10.4539
▁بەبڕی	-10.454
▁جاڕنامە	-10.4545
▁بژین	-10.4547
▁Share	-10.4548
▁Add	-10.4548
▁ڕەنگدانەوەی	-10.4548
▁هەروەکو	-10.4549
▁سابیر	-10.4555
▁ڕاپەڕینی	-10.4555
▁ئۆکرانیا	-10.4555
ێکیش	-10.4557
▁نیاز	-10.4558
▁گواستنەوە	-10.4558
ض	-10.4559
▁هەنگاوە	-10.4559
▁بوایە	-10.456
▁ئاوەدانی	-10.4563
▁کەلتووری	-10.4566
▁a	-10.4573
▁قۆناغ	-10.4575
▁بۆچوون	-10.4576
▁وەفدێکی	-10.4579
▁ڕادە	-10.458
▁ئەوتۆ	-10.4581
▁پشتیوان	-10.4582
▁چار	-10.4585
▁ڕەجەب	-10.4586
دێ	-10.4586
▁شێوەیه	-10.4587
▁ماوەیەدا	-10.4587
▁شیعر	-10.4588
▁هەڵسوکەوت	-10.4589
▁سدیق	-10.4595
▁هەڵمەتێکی	-10.4595
▁کوژرانی	-10.4596
▁پێشەنگی	-10.4599
▁عەقڵی	-10.46
درێت	-10.4601
▁ژیاندا	-10.4603
▁پێشنیازی	-10.4611
▁تەماوی	-10.4612
انەیان	-10.4616
▁دەوروبەر	-10.4616
▁نەرویج	-10.4617
▁سەباح	-10.4617
▁ویژدان	-10.462
▁یانە	-10.4621
▁the	-10.4623
▁بەهێزتر	-10.4628
▁هەوا	-10.4629
▁وایکردووە	-10.4633
▁تاریکی	-10.4633
▁پەروەردگار	-10.4634
▁زیانێکی	-10.4638
▁بکاتە	-10.4638
▁هادی	-10.4638
▁نیشتیمان	-10.4639
▁حەقیقەت	-10.4642
▁ئال	-10.4644
▁پێشنیاری	-10.4649
▁نەتەوەیەک	-10.4649
▁کارەکان	-10.4649
نێت	-10.4657
▁پێناسەی	-10.4657
▁هەڵوێستە	-10.4658
▁بەهار	-10.4664
▁Name	-10.4665
▁دەگۆڕێت	-10.4666
پا	-10.4666
▁بوونیان	-10.4667
▁باسه	-10.467
▁دەبینم	-10.4671
▁ڕۆژنامەنوسان	-10.4672
▁هەرچەنده	-10.4675
▁شارەزایی	-10.4675
▁پێکەنین	-10.4676
▁فەرمانبەران	-10.4678
▁مارس	-10.4681
▁دوێت	-10.4685
▁بەخۆیەوە	-10.4685
▁ڕۆژەدا	-10.4686
▁دیاردە	-10.4689
▁کۆنترۆڵکردن	-10.4693
بیت	-10.4702
▁کردم	-10.4704
▁لەوێدا	-10.4709
کەس	-10.4709
▁شەرەف	-10.471
▁and	-10.471
▁دەبەخشێت	-10.471
▁چاودێریی	-10.471
▁تۆفیق	-10.4711
▁دانیشتوان	-10.4715
▁هۆش	-10.4724
▁ببات	-10.4726
توورەج	-10.473
hotmail	-10.4732
▁دەستبەجێ	-10.4733
▁نای	-10.4744
▁تاکەکانی	-10.4745
▁وڵاتەکەیان	-10.4748
▁هاوسەنگی	-10.4749
▁ڕێوشوێنی	-10.475
▁دەستدا	-10.4754
▁حیزبێک	-10.4756
▁چاکە	-10.4757
▁نەکرا	-10.4758
▁دەشنی	-10.476
▁لەتیف	-10.4761
▁پێشخستنی	-10.4767
▁دەرچوونی	-10.477
▁ڕۆشنایی	-10.4771
▁دیدار	-10.4772
▁گەورەکانی	-10.478
▁شۆرش	-10.4785
▁یەکێکی	-10.479
▁لانی	-10.4791
▁کەڵک	-10.4792
▁کوتلە	-10.4794
▁دۆستی	-10.4798
▁ڕۆژێکی	-10.4798
▁ئاڵا	-10.48
▁لێبوردن	-10.4801
▁هەڵبژێردراوانی	-10.4802
▁بەردی	-10.4805
▁#	-10.4807
▁دەسەڵاتێکی	-10.4808
▁چێژ	-10.4808
▁بنیات	-10.4812
▁ڕەئوف	-10.4813
▁ڕەوای	-10.4821
▁دووری	-10.4826
▁لێدوان	-10.483
▁فەرەج	-10.4834
▁کەسەو	-10.4834
▁ژیر	-10.4835
▁چوونی	-10.4836
▁دوبارە	-10.4837
گەلێکی	-10.4839
▁ماددی	-10.484
▁c	-10.4845
▁دیناری	-10.4847
▁میهرەبان	-10.4853
▁هەرێمدا	-10.4855
▁سڵاو	-10.486
▁ئافرەتانی	-10.486
▁شنگال	-10.4862
▁دروستکردووە	-10.4866
▁زنجیرە	-10.4868
▁پەیمانگای	-10.487
▁شاد	-10.487
▁هاتووه	-10.4874
▁فر	-10.4876
▁ڕێککەوتننامەی	-10.4877
▁بۆشایی	-10.4882
▁بالا	-10.4884
▁مانگانە	-10.4886
▁دابنرێت	-10.4888
▁کارەی	-10.489
▁جەوهەر	-10.4893
▁خواو	-10.4895
▁گا	-10.4895
▁میلان	-10.4895
▁نەرم	-10.4896
▁کردار	-10.4898
▁گیراوە	-10.4898
▁کون	-10.4898
▁دیاردەیەکی	-10.4901
▁جاف	-10.4903
تن	-10.491
▁باج	-10.4911
▁بورهان	-10.4911
▁دەبینێتەوە	-10.4917
▁styl	-10.4918
▁ڕاپ	-10.492
▁ئەدات	-10.492
▁فۆنت	-10.4932
▁تاڵ	-10.4933
▁کۆلێژی	-10.4934
اس	-10.4937
▁بێن	-10.4938
▁یاسایەکی	-10.4939
▁دیسانەوە	-10.4945
▁class	-10.4947
▁غ	-10.4948
▁خسته	-10.4952
▁بڕوانامەی	-10.4953
▁یاریدەدەری	-10.4959
▁سکاڵای	-10.496
▁قە	-10.496
▁text	-10.496
▁خۆیەوه	-10.4963
▁دیداری	-10.4965
▁سالی	-10.4966
share	-10.4971
▁وایان	-10.4976
▁گەشەپێدان	-10.4978
▁خۆماڵی	-10.4979
▁ساڵانەی	-10.4981
▁ئومێدی	-10.4987
▁کیبۆرد	-10.499
▁بەرە	-10.4991
▁چەکدارەکان	-10.4993
▁نمایشەکەی	-10.5
▁سویدی	-10.5
▁دیکتاتۆر	-10.5001
▁ئەمساڵدا	-10.5008
▁تیمی	-10.5015
▁داخستنی	-10.5015
▁ئەن	-10.5016
▁جددی	-10.5016
وەر	-10.5017
▁گەنجێکی	-10.5019
▁return	-10.5023
▁وتار	-10.5024
▁گۆڕانکاریی	-10.5024
▁بتوانێ	-10.5027
▁p	-10.5028
▁سەرکوت	-10.5029
▁پەیمانی	-10.503
▁پاڵتۆکەی	-10.503
▁خدر	-10.5032
انەوه	-10.5033
▁target	-10.5033
▁بەدەستەوە	-10.5034
▁دادەنێت	-10.5038
▁مەبەستم	-10.5045
▁کورددا	-10.5046
▁پیش	-10.5048
▁پەشیمان	-10.5048
▁کرێ	-10.5048
▁بەرژەوەندییەکان	-10.505
▁بنووسیت	-10.5055
▁لێم	-10.5056
▁deco	-10.5056
▁none	-10.5056
▁هەموان	-10.5058
▁onc	-10.5061
ڕۆ	-10.5061
utton	-10.5061
▁کوژراو	-10.5062
▁سیستمە	-10.5063
▁لەسنووری	-10.5069
blank	-10.507
▁لیستە	-10.507
▁دەری	-10.5073
▁لێدەکات	-10.508
▁دواکەوتنی	-10.5082
▁دەهات	-10.5084
▁ڕادەی	-10.5085
▁هەڵسەنگاندنی	-10.5086
▁برزۆ	-10.5087
▁لەهەمانکاتدا	-10.5089
▁وڵاتانە	-10.5092
▁نوسین	-10.5093
▁قیامەت	-10.5099
باری	-10.5101
er	-10.5103
▁جیاوازەکان	-10.5104
▁هیدایەت	-10.5105
▁بێزار	-10.5106
▁بارە	-10.5111
کو	-10.5112
▁وڵاتدا	-10.5114
▁گەنجی	-10.5114
سۆن	-10.5119
▁تابلۆ	-10.5119
▁فەرمانبەرانی	-10.512
▁وتیان	-10.5125
▁شەریف	-10.5128
▁بگیرێت	-10.5131
▁هێزێک	-10.5134
▁یارییەکە	-10.5139
▁تائێستاش	-10.5142
▁ئوردن	-10.5145
▁دواوە	-10.5146
▁پرۆژه	-10.5147
نەی	-10.515
l	-10.5151
▁تێکۆشانی	-10.5151
▁بەیاننامەیەکدا	-10.5154
▁ئۆپۆزیسیۆنەی	-10.5155
▁ژمارەیان	-10.5157
▁پۆلی	-10.516
▁پەیوەندیەکانی	-10.5161
▁نوی	-10.5161
دایەو	-10.5167
▁هاتووچۆ	-10.5168
ەسەر	-10.5168
▁یارییەکی	-10.5171
▁باژێڕوان	-10.5171
▁خێڵ	-10.5173
▁بەمشێوەیە	-10.5175
▁بکرێتە	-10.5176
▁ة	-10.5178
▁دەچنە	-10.5179
▁بڵاوبوونەوەی	-10.5181
▁لیست	-10.5185
▁لەناوچەکەدا	-10.5186
▁هەزارو	-10.519
▁ڕوونکردنەوەی	-10.5194
▁خوار	-10.5195
▁وتەبێژی	-10.5195
ەتە	-10.5198
▁ناکوڵێت	-10.5204
▁گۆڕ	-10.5206
▁غازی	-10.5211
▁بڵاویکردەوە	-10.5211
▁هەلومەرجی	-10.5212
▁پەیوەستە	-10.5213
▁تەڕ	-10.5213
▁ئەرسەلان	-10.5214
▁پەرلەمانتارانی	-10.5217
▁کراوەو	-10.5218
▁ڕەفتاری	-10.5223
کەری	-10.5224
گەرایی	-10.5224
هەروەها	-10.5225
▁بۆردومان	-10.5227
▁دەخات	-10.5228
▁کوێر	-10.523
▁ئازادیخواز	-10.5232
▁دراو	-10.5238
▁سبەینێ	-10.5239
▁لەسایەی	-10.5241
▁کەوتۆتە	-10.5241
▁کۆمەڵایەتیی	-10.5244
▁بوار	-10.5247
▁...	-10.5251
▁وێستگەی	-10.5252
▁یاوەری	-10.5254
▁یوتوبو	-10.5254
▁بەوردی	-10.5254
▁ئوسترالیا	-10.5255
لۆفێست	-10.5258
▁بڕیارەکانی	-10.5258
▁W	-10.5264
وری	-10.5264
ٌ	-10.5264
▁زراندن	-10.5265
▁سیستەمێکی	-10.5266
ِّ	-10.5268
▁بڵند	-10.5274
▁دانوم	-10.5274
▁میسی	-10.5275
▁دیمەشق	-10.5276
▁لەئاست	-10.5276
▁بەرفراوان	-10.5282
▁محمد	-10.5283
▁دەڵێین	-10.5284
▁گرینگ	-10.5287
▁عەمید	-10.5289
عی	-10.529
▁قا	-10.529
دەکرد	-10.5294
▁هیچیان	-10.5296
▁ویلایەته	-10.5296
بینی	-10.5298
▁نەمان	-10.5303
▁زانیاریی	-10.5303
▁سیاسەتەکانی	-10.5303
▁هۆرگێڵنەر	-10.5305
▁نائاسایی	-10.5307
▁بڕیاریدا	-10.5309
▁کردوەو	-10.5312
▁سامی	-10.5313
▁داواکارییەکانی	-10.5315
▁یەکەمدا	-10.5316
▁شانی	-10.5316
▁مافەکا	-10.5318
کم	-10.5321
▁ئاماژەیدا	-10.5323
▁ئێک	-10.5325
▁گووتیشی	-10.5325
▁هێرشیان	-10.5327
▁تێکدانی	-10.533
▁ڕاگەهاند	-10.5331
▁یارییەکه	-10.5332
▁بەڕێوەچوونی	-10.5333
▁دەریای	-10.5335
▁شەقامەکان	-10.5335
▁ئەمنییەکانی	-10.5338
▁لەقۆناغی	-10.5344
▁باڵادەست	-10.5344
▁ئیمانداران	-10.5346
نەر	-10.5347
▁عیماد	-10.5353
▁زانایان	-10.5355
▁دەیکەن	-10.5363
▁لەمێژووی	-10.5365
▁کیمیاوی	-10.5368
▁سنور	-10.5371
▁لەخۆی	-10.5371
▁هەرکەسێک	-10.5373
▁ژماره	-10.5375
▁بال	-10.5378
▁لەوێوە	-10.5384
▁ڕووداوەکە	-10.5384
▁ئەوپەڕی	-10.5387
▁لەوانه	-10.5392
▁دانیشتن	-10.5394
▁شارێکی	-10.5396
▁لیژنە	-10.5403
کەت	-10.5404
▁کەئەو	-10.5406
▁فیلمێکی	-10.5412
مانەوە	-10.5413
▁خاو	-10.5415
▁درەنگ	-10.5419
▁بەرەنگاری	-10.542
▁لەبەرژەوەندی	-10.5422
▁کوا	-10.5423
▁کۆنی	-10.5425
▁یونس	-10.543
▁ڕاهێنەر	-10.5432
▁توانیویانە	-10.5439
▁هەیەتی	-10.544
▁نەکردنی	-10.5441
▁دابنێت	-10.5442
▁پشتگیریی	-10.5444
▁دەولەتی	-10.5445
▁حەمەغەفور	-10.5446
▁داگیرکەر	-10.5446
▁بنچینەی	-10.5447
▁دەڤەری	-10.5448
▁ناشیرین	-10.5449
▁بپارێزن	-10.545
▁درامای	-10.5455
▁up	-10.5461
▁بردنەوەی	-10.5461
▁شیاو	-10.5465
▁بەردەست	-10.5465
▁داگیرکردنی	-10.5466
▁گەندەڵ	-10.5468
▁ئەرکەکانی	-10.5471
▁ڕابردودا	-10.5471
▁دیدی	-10.5473
▁سەربە	-10.5477
▁فرمێسک	-10.5478
▁دڵنیایی	-10.5482
دەکەین	-10.5483
▁تاڵیبان	-10.5483
▁دوێنی	-10.5489
▁بەرێوە	-10.5492
▁چوارەمی	-10.5497
▁مەعنەوی	-10.5498
▁ئەمیر	-10.5498
▁یەکیەتی	-10.5504
▁زار	-10.5509
▁گەلان	-10.5516
▁قەرەبوو	-10.5519
▁فۆرمی	-10.552
▁ناوەوەی	-10.5522
▁بگرێتەوە	-10.5522
▁واش	-10.5523
▁زریان	-10.5529
زۆر	-10.5531
▁سەیرە	-10.5531
خواز	-10.5532
▁دروستکراوە	-10.5532
▁لەناوچە	-10.5534
▁میدیاکانی	-10.5539
▁پان	-10.554
▁دەکردەوە	-10.5542
▁بەیاننامەی	-10.5549
▁کاره	-10.555
▁دوژمنانی	-10.5551
▁K	-10.5555
▁پارێزگار	-10.5557
نۆ	-10.5558
حە	-10.557
▁but	-10.557
▁بێگانە	-10.5571
▁پەیوەندییان	-10.5574
▁لەمەودوا	-10.5582
هەموو	-10.5582
ئۆ	-10.5584
▁بردووە	-10.5586
▁بنێت	-10.5587
▁دووشەممه	-10.559
▁1988	-10.559
بێتەوە	-10.5595
▁ئەمەی	-10.5596
▁تێڕوانینی	-10.56
▁کۆیلە	-10.56
▁ئەمانەش	-10.5604
▁باهۆز	-10.5607
▁داود	-10.5612
▁ڕەهەندی	-10.5613
▁بردەوە	-10.5615
▁توندو	-10.5616
▁ڕۆژنامەوان	-10.562
▁زاته	-10.5623
▁تەوافوق	-10.5626
▁کافر	-10.5628
▁ّ	-10.5629
▁هەنگاوەکانی	-10.563
▁بوونه	-10.5631
▁ئاسمانەکان	-10.5635
▁یەکێتیدا	-10.5636
▁ئاراس	-10.5639
▁فێستیڤاڵی	-10.5644
▁وەرگێڕانی	-10.5644
▁بهێنین	-10.5646
▁ڕاستیە	-10.5649
▁سوورە	-10.565
▁هەڵبژارد	-10.5652
▁نامەیەکی	-10.5654
▁قورسایی	-10.566
▁نیشانی	-10.5661
▁هاوپەیمانێتی	-10.5662
▁پارێزراو	-10.5663
▁فەوجی	-10.5663
کراوی	-10.5666
▁گول	-10.5667
▁گریان	-10.5669
▁sorani	-10.567
▁75	-10.5671
▁گرینگی	-10.5675
▁کچێکی	-10.568
▁مال	-10.568
▁لەگەڵیدا	-10.5681
▁چینە	-10.5684
▁پەڕی	-10.5689
▁بەرنامەو	-10.5691
▁display	-10.5694
▁یانه	-10.57
▁ناوکی	-10.5701
▁شام	-10.5701
▁ملی	-10.5704
board	-10.5705
▁گەیشتووە	-10.5705
▁ڕادەربڕین	-10.5705
▁Send	-10.5705
▁بڵاوکراوەتەوە	-10.571
▁پەی	-10.5713
▁دەستکەوت	-10.5713
▁زیادبوونی	-10.5715
▁ئیران	-10.5719
▁ئاڵ	-10.5723
▁لەهیچ	-10.5723
▁بینووسیت	-10.5726
▁دەردەچێت	-10.5727
▁گرتووەتەوە	-10.5727
▁دەشتی	-10.5729
▁فەرمووی	-10.5731
▁ئاهەنگ	-10.5732
▁شێت	-10.5736
▁follow	-10.5741
▁ناوەرۆکی	-10.5741
▁کرداری	-10.5742
▁لەپارێزگای	-10.5742
▁باوە	-10.5743
▁ڕۆیتەرز	-10.5744
▁دەرگا	-10.5745
logos	-10.5751
▁سال	-10.5752
فر	-10.5753
▁دەرناکەوی	-10.5755
▁بێکەس	-10.5756
▁ئەنجامەکانی	-10.5758
▁نەچێت	-10.5758
▁خۆزگە	-10.5761
▁ئەدرەسەکە	-10.5761
▁پەرلەماندا	-10.5763
▁ئیماراتیەکان	-10.5765
▁Cancel	-10.5766
▁lexi	-10.5766
▁ئەنجامدرا	-10.5766
▁تێبینییەکت	-10.5766
▁بەرزبوونەوەی	-10.5767
▁هەڵەیە	-10.5768
▁لەپشت	-10.5769
▁سەروەر	-10.5773
▁تێبینیەکەت	-10.5774
▁کێبڕکێی	-10.5775
▁نیگەران	-10.5777
▁بەرهەمه	-10.578
▁بەباشی	-10.5783
▁عەبدولکەریم	-10.5784
▁کۆسپ	-10.5785
▁Notif	-10.5787
Comment	-10.5789
▁هێشت	-10.5791
▁بکەوێتە	-10.5795
▁دەکەونە	-10.5797
▁حەمەی	-10.58
▁تۆمارکردنی	-10.58
▁هێزانە	-10.5801
▁شارەکان	-10.5802
▁خۆشگوزەرانی	-10.5806
▁پارێزەر	-10.5806
▁بەتوندی	-10.5809
▁سوڵتان	-10.5809
▁بدە	-10.5809
▁ڤە	-10.5812
▁فایەق	-10.5812
▁عەللاوی	-10.5812
▁پیلان	-10.5813
خانەی	-10.5819
▁ئاماژەیان	-10.5823
▁مەزهەب	-10.5823
▁گروپێکی	-10.5826
▁لایان	-10.5827
▁بریتانیا	-10.5828
▁ئاهەنگی	-10.5839
▁پارێزەری	-10.5841
▁دەستپێدەکات	-10.5842
▁ولاتی	-10.5845
▁ئیمارات	-10.5845
▁بەوه	-10.5847
▁کچانی	-10.5856
▁خوازیاری	-10.5858
▁جۆراو	-10.5861
▁سەلیم	-10.5864
▁ڕەتکردنەوەی	-10.5865
▁تێگەیشتنی	-10.5869
▁کەوتن	-10.5873
▁کەناڵە	-10.5874
▁ناوچەیی	-10.5875
▁لەسەرەتاوە	-10.5877
▁جیاوازیی	-10.5881
▁ه	-10.5883
▁هاواری	-10.5891
▁دەیەوێت	-10.5893
پر	-10.5894
▁ئین	-10.5908
▁پتەوکردنی	-10.5916
▁شەڕێکی	-10.5919
▁تاوتوێکردنی	-10.592
▁دەیکات	-10.5922
▁خوایە	-10.5923
▁نەوەکانی	-10.5926
یاره	-10.5926
▁لەچاو	-10.5932
▁نەبووایە	-10.5937
▁بازار	-10.5943
▁بگەن	-10.5951
▁شێواز	-10.5952
▁فەرماندەیی	-10.5956
▁دەبا	-10.5957
▁ڕوخانی	-10.5958
▁پسپۆر	-10.596
▁گەڕ	-10.5962
▁لەدەستداوە	-10.5962
▁سیستەم	-10.5964
▁خستنە	-10.5964
▁تەئکیدی	-10.5968
▁جوانە	-10.597
▁پرۆژەیەکی	-10.5971
▁گوێبیس	-10.5971
▁سیاسیە	-10.5972
▁نییەکە	-10.5972
▁هیندستان	-10.5972
▁دەدرێن	-10.5974
کران	-10.598
▁ڕێکەوتن	-10.5981
▁بڵاوکردەوە	-10.5982
▁گرنگتر	-10.599
▁فڕۆکەخانەی	-10.599
▁ئێوەی	-10.5991
ێکم	-10.5993
▁کلتوری	-10.5993
▁ڕووسی	-10.5994
▁یارییەکان	-10.5994
▁دەمەوێ	-10.5997
ەیەک	-10.5998
▁تاوانباران	-10.5998
نەوه	-10.6
▁سەرانسەری	-10.6
▁ئامادەن	-10.6001
خوازی	-10.6001
▁گفتوگۆکردن	-10.6002
بەری	-10.6002
▁نەیان	-10.6003
▁سڤیل	-10.6006
▁الن	-10.6009
▁میوانی	-10.601
▁هەڵبەتە	-10.6011
کەوتن	-10.6017
▁بەگ	-10.602
▁زانیارییەکان	-10.6022
ڤە	-10.6025
▁بەوەکرد	-10.603
دەکاتەوە	-10.6032
وار	-10.6032
▁ئاس	-10.6032
▁هانا	-10.604
▁کوردیت	-10.6042
▁شەری	-10.6049
▁بەچەند	-10.6053
▁ئەندامان	-10.6055
▁پسپۆڕی	-10.6055
▁زووتر	-10.6055
k	-10.6059
▁دۆر	-10.6059
▁کردەی	-10.6064
▁حاڵەتە	-10.6065
▁قۆناغەکانی	-10.6067
دەم	-10.6068
▁دادە	-10.607
مار	-10.6074
▁گەورەیان	-10.6074
▁کۆمەڵگایەکی	-10.6082
▁دەنگدەران	-10.6085
▁کۆڵ	-10.6085
▁کایەوە	-10.6085
▁کاردەکات	-10.6087
▁کۆمەڵکوژی	-10.6091
▁مرۆڤێک	-10.6091
▁ئەرێ	-10.6099
▁پیشەی	-10.6103
▁نەکەین	-10.6108
"ـ	-10.6108
▁هیوادارین	-10.6109
▁ڕکابەری	-10.6116
▁پێیەی	-10.6117
▁ئیشی	-10.6118
▁تەلەفزیۆن	-10.612
▁2000	-10.6121
▁مسوەگەر	-10.6121
▁ڕۆژدا	-10.6122
▁جەمیل	-10.6122
▁دەزگایەکی	-10.6125
▁سیمای	-10.6125
▁وادەکات	-10.6128
▁لام	-10.6128
▁نیەو	-10.6129
▁خوارد	-10.613
▁کەسانێکی	-10.6132
▁ئەمان	-10.6137
▁دارا	-10.6139
▁دەکەمەوە	-10.6141
▁بەئاشکرا	-10.6141
▁لێدەکرێت	-10.6144
▁هەناسە	-10.6144
▁ساڵدا	-10.6145
▁هاوسەر	-10.6146
h	-10.6149
▁بکەمەوە	-10.6155
▁نەبو	-10.6155
▁ستراتیجی	-10.6155
▁بایز	-10.6156
▁عێڕاق	-10.6158
▁ئەرێنی	-10.6158
▁دووپاتی	-10.6166
▁پەنابەری	-10.6167
چە	-10.617
▁پێکردووە	-10.6182
▁دەرەوه	-10.6197
گرت	-10.6198
▁نەدات	-10.6198
▁هۆکارە	-10.62
▁چاوەڕێ	-10.6205
▁سیاسەتێکی	-10.6206
▁شارەزای	-10.6209
▁بخات	-10.6215
▁نیازی	-10.6217
▁بەپەلە	-10.6218
▁نەوزاد	-10.6219
▁هەڵی	-10.622
▁ئەمشەو	-10.6221
▁هۆیەوە	-10.6222
▁عەسکەری	-10.6224
ویست	-10.6228
▁ناتوانم	-10.6229
▁دەروون	-10.6232
▁مەنسوور	-10.6241
m	-10.6241
▁دەربڕی	-10.6247
▁أن	-10.625
▁مافێکی	-10.6267
▁حەکیم	-10.6267
▁پەروەردەیی	-10.6272
▁ببێته	-10.6276
▁چوارچێوەیەدا	-10.6283
▁فیکر	-10.6285
▁سینەماکاری	-10.6288
▁نیوە	-10.6293
هم	-10.6295
▁نەدە	-10.6296
▁دەستکاری	-10.6304
▁چارەی	-10.6305
▁الس	-10.6305
▁سەعدی	-10.6309
▁تایبەتیش	-10.6311
▁ماڵئاوایی	-10.6313
▁وال	-10.6313
▁بڕیاردان	-10.6315
▁ساڵان	-10.6316
▁کێشی	-10.6321
▁بەردەوامن	-10.6327
▁داڕشتنی	-10.6328
▁بنێن	-10.6333
▁وەستا	-10.6336
▁یاریزانانی	-10.6336
▁سەربازییەکانی	-10.6339
▁ڕۆژنامەکە	-10.6344
▁هەوڵێک	-10.6344
▁ڕاپەرین	-10.6349
▁گوزەرانی	-10.6354
▁مانگه	-10.6355
▁تەندروستیی	-10.6357
ده	-10.6358
▁عەلاوی	-10.6358
▁پێیە	-10.636
▁ڕەشی	-10.636
▁ڕەها	-10.636
مین	-10.6361
▁باجی	-10.6361
▁سەرسام	-10.6365
▁بکەی	-10.6367
▁ماڵپەر	-10.637
▁نەهامەتی	-10.6373
▁خاڵەکانی	-10.6374
i	-10.6376
▁گەیشتنە	-10.6386
دەبن	-10.6387
▁دۆخێکی	-10.6389
ئەوەی	-10.6389
کردنیان	-10.6389
▁پرسیارێکی	-10.6391
زای	-10.6392
▁تەواوبوونی	-10.6398
زم	-10.6399
▁ئۆتۆمبیل	-10.64
▁گرتبوو	-10.64
▁هاتنه	-10.6401
▁خست	-10.6402
▁هەواڵە	-10.6403
▁کۆبوونەوەکانی	-10.6406
▁لەحکومەتی	-10.6411
▁قسەو	-10.6413
▁قو	-10.6421
▁کاروانی	-10.6424
▁سفر	-10.6425
▁لیژنەیەک	-10.6426
▁هونەرمەندە	-10.6432
▁زەمینەی	-10.6435
▁ساڵیادی	-10.6435
▁نەدەن	-10.6435
▁جۆرەکانی	-10.6443
▁ئیدانەی	-10.6446
▁سیتی	-10.6451
▁وتووێژ	-10.6452
▁سەرۆکوەزیرانی	-10.6455
▁@	-10.6456
▁بۆچوونە	-10.6459
▁بیروڕا	-10.646
گه	-10.6462
▁دەستم	-10.6465
▁ئەدەن	-10.6468
▁نەشتەرگەری	-10.6469
▁ڕوودانی	-10.6476
▁تەقە	-10.6477
▁بەکورتی	-10.6483
▁پێشەوەی	-10.6483
وڵ	-10.6488
▁دروستکرد	-10.6488
▁نەریتی	-10.6488
▁دەت	-10.6489
▁دیمانە	-10.6492
▁نووسیوە	-10.6492
▁تریشەوە	-10.6493
▁دیکۆمێنتی	-10.6495
▁دیاریکراوی	-10.6498
خستنی	-10.6498
▁خوە	-10.6501
▁چوونکە	-10.6505
▁شادی	-10.6509
▁شیر	-10.651
▁بەزەیی	-10.6513
وین	-10.6514
چوو	-10.6518
▁فەراهەم	-10.6519
تیان	-10.652
▁بەشداریان	-10.6521
▁پلانێکی	-10.6521
▁تفەنگ	-10.6522
▁نزم	-10.6522
ڤا	-10.6524
▁تەسلیم	-10.6527
▁کردنیان	-10.6531
▁ئۆتۆمبێلی	-10.6532
▁بەپێچەوانەی	-10.6535
ئا	-10.6538
▁ژنێکی	-10.6547
▁ساغ	-10.6549
▁بانگەوازی	-10.6549
▁بەمجۆرە	-10.655
▁قەدەغەکردنی	-10.6554
▁کوردیی	-10.6555
▁بوونەتەوە	-10.6557
در	-10.6558
▁گەیشتنی	-10.6561
▁اڵا	-10.6566
▁سەلامەتی	-10.6567
▁خانەوادەی	-10.6572
▁مرۆڤێکی	-10.6577
▁هاوسەرەکەی	-10.6578
▁نەوە	-10.6583
▁مانایەکی	-10.6587
▁نەیانتوانی	-10.6587
▁کاتیشدا	-10.6589
▁ئەکەم	-10.6589
▁ئێش	-10.6589
▁گرتەوە	-10.6591
▁نووسیویەتی	-10.6595
▁لەتورکیا	-10.6597
▁in	-10.6598
▁ناسک	-10.6601
▁دووپاتکردەوە	-10.6603
▁گرنگەکانی	-10.6605
ێوەچوو	-10.6609
▁ڕووداوەکه	-10.6609
▁جوانترین	-10.6611
▁کەرەستەی	-10.6614
▁یۆلیۆ	-10.6616
▁هۆشداری	-10.6618
▁بەسەرۆکایەتی	-10.662
▁بەلکو	-10.6622
▁دەستەڵات	-10.6623
▁مێشکی	-10.6625
▁دوابەدوای	-10.6626
▁لاوە	-10.663
▁پێداویستییەکانی	-10.6634
▁مەسعوود	-10.6638
▁ئاش	-10.6639
▁سیناریۆ	-10.6642
▁لەژیانی	-10.6642
▁سووک	-10.6644
▁ناچێت	-10.6645
▁سکاڵا	-10.6647
▁لیوای	-10.6653
▁نەتەوەو	-10.6656
al	-10.6658
ید	-10.6659
▁هاندانی	-10.6661
▁250	-10.6661
▁مەڕ	-10.6664
▁پڕۆژەیەکی	-10.6667
▁کێشەیەک	-10.6675
▁ولە	-10.6678
▁دیکەوه	-10.6684
▁ئەوەیش	-10.6685
▁داخەوە	-10.6685
لان	-10.6689
▁دەسته	-10.669
▁گرفتە	-10.6695
▁بگۆڕێت	-10.6697
ییەکەی	-10.6698
▁بێلایەن	-10.6699
▁گەنم	-10.67
▁تەئکید	-10.6701
بری	-10.6706
▁خوێندەوە	-10.6706
▁کەسێتی	-10.6707
▁برسی	-10.6712
▁هەڵوێستێکی	-10.6713
▁لێکرد	-10.6713
▁دووەمیش	-10.6718
▁زانین	-10.6718
▁خۆپ	-10.6721
▁منداڵێکی	-10.6723
▁ژیانە	-10.6725
▁هێرشێکی	-10.6726
▁چوارشەممه	-10.6728
▁نەتوانێت	-10.6731
▁بنەمایەکی	-10.6734
▁قوڕ	-10.6743
▁تەواوەتی	-10.6743
▁زیادی	-10.6744
▁شەماڵ	-10.6746
▁حە	-10.6747
▁جەستەیی	-10.6748
▁پەنجە	-10.6751
▁پێچەوانە	-10.6751
▁نیمچە	-10.6756
▁پێشینەی	-10.6762
▁کۆمپانیاکان	-10.6762
▁ئارەزوو	-10.677
▁عەرەبەکان	-10.6772
▁دەکاتەوه	-10.6773
▁بەمانای	-10.6773
▁شۆڕ	-10.6774
لیستی	-10.6774
▁کۆمەڵانی	-10.6774
▁ئیسرائیلی	-10.6777
▁پاشەکشە	-10.6779
▁ط	-10.6779
▁پارچه	-10.6779
▁قووڵی	-10.6779
▁گۆشت	-10.6779
▁هاشم	-10.6783
▁بۆتان	-10.6784
▁شتانە	-10.6796
▁کاندیدەکانی	-10.6801
▁بەڵکە	-10.6805
▁I	-10.6805
▁مێژوی	-10.6809
▁دزەیی	-10.6812
▁یاساکان	-10.6814
▁دەستکەوتی	-10.6814
▁ئامادەبوون	-10.6821
▁لەقەڵەم	-10.6825
▁نوێژی	-10.6833
سان	-10.6843
▁دەخوازێت	-10.6847
▁خواردنەوە	-10.6848
▁نادرێت	-10.6848
▁ڕەوشت	-10.685
▁ڕون	-10.685
▁ڕابەر	-10.6851
▁ئەوکاتەی	-10.6851
▁ڕۆشن	-10.6852
▁گەرچی	-10.6853
▁ڕوویداوە	-10.6853
▁بێنێت	-10.6853
▁گرنگیی	-10.6853
▁پەنابەر	-10.6855
▁بەرپرسان	-10.6856
▁دایەوە	-10.6858
▁تۆن	-10.6861
▁یادەوەری	-10.6862
▁پشوو	-10.6862
کوردستان	-10.6863
▁بەشداربوون	-10.6864
▁ئیمام	-10.6865
A	-10.6871
بم	-10.6872
▁پێدراوە	-10.6875
▁هاتبوو	-10.6876
▁مۆسکۆ	-10.6879
▁ئەوقاف	-10.688
▁پێشێلکاری	-10.6883
▁خۆکوژی	-10.6884
▁دەنگدەر	-10.6886
▁ئەوێ	-10.6886
▁دواخستنی	-10.6886
▁کرابێت	-10.6886
پێش	-10.6887
▁هاریکاری	-10.6891
▁جێبەجێکردن	-10.6894
▁خوێنەری	-10.6899
▁بەدوو	-10.6902
▁تاقیکردنەوەی	-10.6905
▁کوردوستان	-10.6905
پڕ	-10.6907
▁مەسەلەیەکی	-10.6908
▁لەدوا	-10.6908
بڕ	-10.6913
▁بەرگ	-10.6916
▁ئەمن	-10.6918
▁کەر	-10.6919
▁هەڵەبجەی	-10.6922
▁بەغدای	-10.6924
▁بەدەستهێناوە	-10.6925
▁مەزنی	-10.6926
▁جوانتر	-10.6926
▁گوڵی	-10.6929
▁بهێنرێت	-10.6929
دنی	-10.6935
▁بگەڕێنەوە	-10.6937
▁الع	-10.6939
▁بابەتەکە	-10.694
▁ئۆسکار	-10.6941
▁خانم	-10.6941
کوژ	-10.6942
▁خول	-10.695
▁لەهەوڵی	-10.695
دایه	-10.695
▁پرۆسەیە	-10.695
▁میکانیزمی	-10.695
▁خوازراو	-10.6952
▁ئەندازیار	-10.6956
▁پێشنیاز	-10.6957
▁کێشه	-10.6959
▁زۆرن	-10.696
▁مەرکەزی	-10.696
▁ئەمەیە	-10.6962
▁M	-10.6966
▁تاکێکی	-10.6967
▁پایە	-10.6968
▁زانکۆکانی	-10.697
▁بیرم	-10.697
▁کۆمەڵه	-10.6977
▁سەندیکا	-10.6978
▁تۆمەت	-10.6979
▁چاودێر	-10.698
▁موچە	-10.6985
▁سەردەمەدا	-10.6985
▁یارییە	-10.6986
▁خۆپیشاندانەکان	-10.6987
هیچ	-10.6989
▁هەنووکە	-10.6989
▁خەڵکدا	-10.699
▁وڵاتانەی	-10.6995
▁لەکاتێکدایە	-10.6997
▁سەرئەنجام	-10.7001
▁تۆم	-10.7003
▁حزبێکی	-10.7003
ونی	-10.7006
▁نزیکە	-10.7007
▁ئاکۆ	-10.7008
▁شێر	-10.7009
▁پرۆگرامی	-10.701
▁گرووپە	-10.7011
▁گۆرانیبێژی	-10.7013
▁دۆستایەتی	-10.7013
▁to	-10.7014
تس	-10.7023
▁بەکۆمەڵ	-10.7026
▁ئاوەدان	-10.703
▁کچێک	-10.703
▁خانەنشینی	-10.7033
▁نارەزایەتی	-10.7038
▁دەرەوەو	-10.7042
▁ماستەر	-10.7044
▁ئاکامدا	-10.7044
▁1999	-10.7047
▁قەوم	-10.7053
▁گرێبەستی	-10.7053
▁دەنگدانی	-10.7053
▁خۆڵ	-10.7056
انەوەی	-10.7059
▁لەدیدارێکدا	-10.7059
▁ئۆتۆمبێلێکی	-10.7062
▁پڕۆژەکان	-10.7062
▁گرژی	-10.7063
▁گۆی	-10.7072
▁بەستن	-10.7073
▁پارەیە	-10.7073
▁شێوەکار	-10.7074
▁نەجەف	-10.7076
▁فیلمەکە	-10.7076
▁هەرسێک	-10.7076
سک	-10.7076
▁زەردەشت	-10.7078
▁ڕاهێنانی	-10.708
▁لەوەشکرد	-10.7082
▁لەهەرێم	-10.7082
خا	-10.7083
▁بگەیەنێت	-10.7085
▁وەرە	-10.7086
a	-10.7092
▁باڵیۆزخانەی	-10.7098
▁ڕووبەر	-10.7099
خوا	-10.71
▁کۆمکاری	-10.7101
▁شک	-10.7103
▁کۆمپیوتەر	-10.7104
نەکردنی	-10.7105
کەو	-10.7106
▁ناچاری	-10.7106
▁یەکدی	-10.7113
▁پەر	-10.7115
▁ئەستێرە	-10.7115
وڵات	-10.7117
▁لاپەڕەی	-10.712
▁نەهاتووە	-10.7122
هێنانی	-10.7122
▁هاوپەیمانان	-10.7122
▁حاڵ	-10.7123
▁گەلێ	-10.7125
ەبەر	-10.7131
▁کولتوور	-10.7135
▁فەزای	-10.7137
▁نەمێنێت	-10.7138
▁کارەکەی	-10.7147
رێتەوە	-10.7148
▁فۆرم	-10.7151
▁دەبم	-10.7151
▁ناوەندە	-10.7153
▁سنوورەکانی	-10.7153
▁کوردەواری	-10.7157
▁دیجلە	-10.7157
▁دانمارک	-10.7161
▁دەردەخات	-10.7161
▁ناڕازی	-10.7162
▁مێژووە	-10.7162
▁ڕەحیم	-10.7163
▁بڕیارێک	-10.7168
دەدات	-10.7168
▁ئەڵێت	-10.717
▁کۆمپانیایەکی	-10.7172
▁ئۆگۆست	-10.7179
▁گەنجە	-10.718
▁مانگەدا	-10.7183
ەکانیاندا	-10.7184
▁سۆفی	-10.7188
▁نەکردوە	-10.719
▁لەسەرتاسەری	-10.7191
▁کێشانە	-10.7191
▁خێزانەکەی	-10.7194
▁ملکەچی	-10.7195
▁باوەشی	-10.7197
▁گوشار	-10.7198
▁ئیمە	-10.7204
▁دەخەنە	-10.7205
▁دیمەنی	-10.7208
▁قۆناغەدا	-10.721
▁ئافرەتی	-10.7212
▁جیاجیا	-10.7218
▁بەڕووی	-10.7228
▁تەقینەوە	-10.7229
▁فڕێ	-10.7231
▁شوێنەکانی	-10.7231
▁سزادانی	-10.7234
▁بەڕێوەبەر	-10.7234
▁دوژمنان	-10.7241
▁لەکۆی	-10.7246
▁بووەتەوە	-10.7248
▁چەپی	-10.725
▁سوننەکان	-10.7251
▁1992	-10.7253
ێی	-10.7254
▁ث	-10.7257
▁یەکان	-10.7258
▁ماڵپەری	-10.7259
▁ڕێکەوتنی	-10.7261
▁کۆتا	-10.7261
▁ناتوانرێت	-10.7262
▁ئەژمار	-10.7262
▁یەکلا	-10.7264
اب	-10.7267
▁پاڵەوان	-10.7272
▁جیهانە	-10.7274
▁بریکاری	-10.7275
▁پێشوازییکرد	-10.7278
▁وتویەتی	-10.7282
▁سازکرد	-10.7283
▁سوریادا	-10.7284
بوونە	-10.7284
▁گوتەی	-10.7287
▁ئافرەتێک	-10.7289
ئەگەر	-10.7289
▁دیواری	-10.7294
▁ناوچانەی	-10.7297
▁وەبەرهێنانی	-10.73
ئێستا	-10.7301
▁لەلێدوانێکی	-10.7302
▁باخ	-10.7307
▁شوێنەواری	-10.7309
▁یەکشەممه	-10.7311
▁ئەڵماس	-10.7314
▁نەبونی	-10.7317
▁ئەکرێت	-10.7317
▁لاپەڕە	-10.7317
▁بردن	-10.732
▁سازدانی	-10.7323
▁حەماس	-10.7323
▁ڕوکن	-10.7327
▁پەردەی	-10.7328
▁فیدراسیۆنی	-10.7328
▁دەداتەوە	-10.7329
▁عاشق	-10.7329
▁عن	-10.7339
▁مێرد	-10.7339
▁چاودێرانی	-10.734
▁ئەمریکادا	-10.7343
▁ڕام	-10.7345
▁لەنزیک	-10.7345
▁لو	-10.7346
▁توڕە	-10.7346
▁نەتەوەکەمان	-10.7348
▁چوارەمین	-10.7349
زو	-10.7349
▁کرماشان	-10.7353
▁لێدوانەکەیدا	-10.7358
in	-10.7358
▁بەپێ	-10.7359
▁هەڵبژاردندا	-10.736
▁ئامادەبووان	-10.7361
▁ڕۆڵە	-10.7364
▁سات	-10.7365
▁ژێرخانی	-10.7366
▁تێپەر	-10.7372
▁بابەتێک	-10.7375
▁هەرەس	-10.7377
▁شای	-10.7377
▁دروشم	-10.7385
▁خۆڕاگر	-10.7385
▁تەبایی	-10.739
▁ڕاستییەکان	-10.7391
▁پشتگوێ	-10.7393
▁دەستمان	-10.7393
▁هەنگاوێک	-10.7394
▁بەست	-10.7394
▁حزبەکەی	-10.7398
▁بەرژەوەندییە	-10.7399
جێ	-10.7403
ەشدا	-10.7403
▁بەدڵنیاییەوە	-10.7404
▁سەما	-10.7412
▁جوگرافی	-10.7413
▁فیرعەون	-10.7414
▁مادام	-10.7419
شار	-10.7421
▁گۆرانکاری	-10.7422
▁بزووتنەوە	-10.7423
▁سندوقی	-10.7423
▁جەنگە	-10.7424
▁هاولا	-10.7426
▁گشتییەکان	-10.7427
▁هەموار	-10.7428
کردو	-10.7428
▁ئەدەبیاتی	-10.7431
▁ئەستێرەی	-10.7433
▁ئاوەدانکردنەوەی	-10.7437
▁ڕەنگه	-10.7439
▁ئازا	-10.7439
▁یەکڕیزی	-10.7442
▁ویژدانی	-10.7449
بات	-10.745
▁دیپلۆماسی	-10.7453
▁سۆڤیەت	-10.7464
▁فریاکەوتنی	-10.7465
▁هەندێکی	-10.7465
باس	-10.7471
▁ڕۆژانه	-10.7472
▁بەغداو	-10.7477
▁زەحمەت	-10.7482
▁وبە	-10.7485
▁داخ	-10.7486
ەکدا	-10.7489
▁کۆمەکی	-10.7491
an	-10.7494
▁تۆڵەی	-10.7499
▁سۆزی	-10.7499
▁هێمای	-10.75
▁قەرزی	-10.7503
▁ڕایان	-10.7503
▁چێ	-10.7503
▁ڕاگەیاندنەکان	-10.7505
سکی	-10.7507
▁لەوەزارەتی	-10.7508
▁نیش	-10.7508
▁لەیەکتر	-10.7509
نوری	-10.7509
▁کارگێری	-10.751
▁جەوهەری	-10.7514
یەکانیان	-10.7515
▁بەبڕوای	-10.7518
▁کارگەی	-10.7523
▁ڕاکێشانی	-10.7526
▁ئەزمونی	-10.7528
▁مزگەوتی	-10.753
▁بۆمب	-10.7531
▁ڕیفۆرم	-10.754
▁پاداشت	-10.7543
لین	-10.7546
▁ساڵه	-10.7547
▁پڕە	-10.7548
بووم	-10.7548
▁ناوەراست	-10.7551
▁خانەنشین	-10.7554
▁پەخشی	-10.7554
خو	-10.7555
ود	-10.7555
▁سیستمێکی	-10.7557
▁ماڵەکەی	-10.7558
▁دەرمانی	-10.7558
▁ناکەوێت	-10.7561
▁لەدەستدانی	-10.7562
▁شیعری	-10.7562
▁گوتوویەتی	-10.7568
▁ئەرشیف	-10.7573
▁چارەنوسی	-10.7573
▁ڕۆژێ	-10.7576
▁شەهیدی	-10.7576
▁پرۆسە	-10.7578
▁Kurdistan	-10.758
▁بەردە	-10.758
▁کۆبوونەوەکەدا	-10.758
▁65	-10.7581
▁لەڕۆژی	-10.7584
▁باز	-10.7585
▁دادەنێن	-10.7586
▁مەن	-10.7587
▁درێژخایەن	-10.7591
حی	-10.7592
▁بەهۆیەوە	-10.7592
بدات	-10.7593
▁هێرشە	-10.7598
▁ستراتیژیی	-10.76
▁ئەوتۆی	-10.7601
خی	-10.7604
▁کەموکوڕی	-10.7608
وز	-10.7613
چوون	-10.762
▁کرانەوەی	-10.7621
هەولێر	-10.7623
▁بەشەی	-10.7623
▁چەقی	-10.7623
▁دەکەون	-10.7625
▁پسپۆڕ	-10.7626
کردبوو	-10.7631
رد	-10.7634
▁کوردەوە	-10.7641
▁گو	-10.7644
▁سەرکردەیەکی	-10.765
▁هەرکەس	-10.765
▁خشتەی	-10.7654
▁قازی	-10.7655
▁وردەکاری	-10.7656
▁تواناکانی	-10.7658
▁لەدەستی	-10.766
▁بڕێک	-10.7661
▁جو	-10.7661
▁موڵک	-10.7662
▁نییەلە	-10.7669
▁نەبوە	-10.767
▁سەرقاڵ	-10.7671
▁کارمەندی	-10.7673
▁ئەمەریکایی	-10.7674
▁دواییدا	-10.7678
▁خزم	-10.7678
نامە	-10.7679
دێت	-10.768
▁گرفتەکانی	-10.768
▁سەدا	-10.7682
▁کوردیان	-10.7685
▁ڕەسەن	-10.7685
ئەسوات	-10.7691
▁تارق	-10.7692
▁بەفەرمی	-10.7692
▁یارمەتیدانی	-10.7698
▁خوایه	-10.7711
▁تەواوکردنی	-10.7713
▁پیرە	-10.7715
▁دەسەڵاتدا	-10.7717
▁پانتایی	-10.7717
▁ئاڵوگۆڕی	-10.7718
▁پێشەوا	-10.7721
کەوە	-10.7723
▁ئەندازیاری	-10.7727
▁هەفتەیەک	-10.7727
▁سوودێکی	-10.7731
▁ڕێبەر	-10.7735
▁لێپرسینەوە	-10.7742
▁کاریگەرییەکی	-10.7743
▁بکرێنەوە	-10.7747
▁دەرهەق	-10.7748
مەند	-10.7749
▁کرانەوە	-10.775
▁سەڵاح	-10.7753
▁شکاندنی	-10.7753
▁مەر	-10.7753
▁بپارێزێت	-10.7754
▁لەوەتەی	-10.7754
▁داهێنانی	-10.7755
▁یانەکە	-10.7757
▁وەلامی	-10.7758
▁زی	-10.776
وایە	-10.776
▁وەسفکرد	-10.7763
▁وەستان	-10.777
ییەی	-10.7775
▁پارچەکانی	-10.7776
▁هێرۆ	-10.7776
ولا	-10.7777
▁کرده	-10.7778
▁مانچستەر	-10.7779
▁پێکهات	-10.778
▁تورکیاوە	-10.7781
▁بەخشینی	-10.7781
▁تێی	-10.7783
▁خیانەت	-10.7784
▁هەڵەیەکی	-10.7784
▁دەستنیشانکردنی	-10.7788
▁پێشکەشکرد	-10.7788
▁نەریت	-10.7789
▁بەرهەمێکی	-10.7792
چو	-10.7792
▁هاوولاتی	-10.7797
▁گۆڵچی	-10.7801
▁ستەمکار	-10.7804
▁وەرگێڕ	-10.7804
ێتەوه	-10.7809
▁ناودار	-10.7809
▁سەرشانی	-10.7812
▁بڕینی	-10.7816
▁یار	-10.7818
ۆل	-10.782
▁هەورامان	-10.7823
▁G	-10.7826
▁گەورەیی	-10.7826
▁ئاری	-10.7827
ڕوو	-10.7833
▁دلێر	-10.7834
▁ئیماندار	-10.7838
▁چیرۆکە	-10.784
▁سێشەممه	-10.7841
▁حزبەکانی	-10.7841
▁دانان	-10.7841
▁شوانی	-10.7842
▁ناوەڕاستدا	-10.7843
▁ڕامیاری	-10.7844
▁سۆسیالیست	-10.7844
▁سوودمەند	-10.7845
▁تورکمانی	-10.7848
▁پارلەمانی	-10.7851
▁توێژینەوە	-10.7858
▁کل	-10.7858
▁پەیامێکی	-10.786
▁جۆراوجۆری	-10.786
▁ئەندامەکانی	-10.7861
▁دۆخەکە	-10.7861
▁پێدەکرێت	-10.7863
▁قوبادی	-10.7863
زار	-10.7871
▁زەمەن	-10.7871
▁چاوپۆشی	-10.7872
▁سوریاو	-10.7876
سۆ	-10.7877
▁بەرین	-10.7877
▁دامەزراوەی	-10.7881
▁چاپی	-10.7881
▁بانگی	-10.7887
▁بەشداربوو	-10.7887
▁جاش	-10.7889
▁بۆمبێکی	-10.7889
گیری	-10.789
▁زەرەر	-10.789
▁خەڵکێکی	-10.7892
▁سەرچاوەکەی	-10.7893
▁دیکەیان	-10.7899
▁نانی	-10.7901
اد	-10.7903
▁داگیرکەران	-10.7903
رانی	-10.7907
▁گەیاندن	-10.7911
×	-10.7914
▁کلیپ	-10.7915
فەر	-10.7915
▁کۆپی	-10.7915
▁لەهەندێک	-10.7917
▁بڕیارەی	-10.7919
▁موحسین	-10.792
▁هەڵسەنگاندن	-10.7921
▁واژۆ	-10.7921
▁ۆ	-10.7923
▁کارانە	-10.7924
▁لێدەکەن	-10.793
▁The	-10.7936
▁ناز	-10.7936
▁ڕەق	-10.7938
▁شاراوە	-10.7938
▁هاوەڵ	-10.7939
▁دەکردو	-10.794
▁مامەڵەکردن	-10.7941
▁پەنای	-10.7943
▁گیرا	-10.7943
▁پێشێلکردنی	-10.7943
▁ئایە	-10.7949
▁باسکردنی	-10.795
▁فەرەیدون	-10.795
▁کتێبخانەی	-10.7951
▁وایکرد	-10.7954
▁کۆشش	-10.7954
▁گوندەکان	-10.7955
▁پێشوی	-10.7957
▁ڕێگرتن	-10.7961
▁مرد	-10.7961
▁بەربەست	-10.7961
اکانی	-10.7961
▁یەکەکانی	-10.7964
فرۆش	-10.7967
▁چەمکە	-10.7968
▁شەست	-10.7983
▁پێنجشەممە	-10.7983
▁بەرن	-10.7989
▁حکومەتدا	-10.7993
▁مامە	-10.7995
▁ئەفریقا	-10.7998
▁ستافی	-10.7999
یەکیان	-10.7999
▁نیوەڕۆی	-10.8
سازی	-10.8002
▁عێراقە	-10.8003
▁نووسیندا	-10.8004
▁ئەدیب	-10.8006
▁ئازادیخوازی	-10.8008
▁گیر	-10.8012
▁سوک	-10.8019
▁ڕووناک	-10.8024
▁ئایندەدا	-10.8025
▁دروستکردن	-10.8026
تای	-10.8027
▁ناوێت	-10.8028
توانی	-10.8029
▁قەزافی	-10.8031
▁ئەزموونە	-10.8033
▁ملکەچ	-10.8038
▁قبووڵ	-10.804
▁کولتوری	-10.804
▁جێبەجێکردنەوە	-10.8043
خۆش	-10.8043
▁سیستم	-10.8044
▁لەمیانی	-10.8045
▁فا	-10.8047
▁سروود	-10.8048
▁هێدی	-10.805
▁عیشق	-10.805
▁بڕین	-10.8051
▁بیانووی	-10.8055
▁سووتەمەنی	-10.8057
▁زەق	-10.806
▁بگەنە	-10.8063
▁مێژوویەکی	-10.8066
شتی	-10.8067
▁عەبادی	-10.8067
▁نیوەڕۆ	-10.807
▁پێغەمبەران	-10.807
▁منداڵەکانیان	-10.807
▁بانگەشە	-10.8072
▁لۆژیکی	-10.8075
▁ئاستە	-10.8076
▁جگەرە	-10.8077
▁خەڵکەکەی	-10.808
▁وتارێکی	-10.8081
▁ئەشکەنجە	-10.8083
▁سک	-10.8084
▁بینا	-10.809
ژن	-10.8091
لەسەر	-10.8091
▁شێرزاد	-10.8093
▁شارەزوور	-10.8094
▁جەولەی	-10.8095
▁ئیسلامدا	-10.8096
▁پرسیارێک	-10.8097
▁دەستگیرکران	-10.8098
▁فێڵ	-10.8102
▁عەلمانی	-10.8102
▁مەکە	-10.8106
▁نائارامی	-10.8107
▁شەپۆلی	-10.8109
▁زەمینە	-10.811
▁سەپتەمبەر	-10.8112
▁دیل	-10.8113
▁کایەی	-10.8124
▁دیدارەدا	-10.8127
▁لەزۆر	-10.8129
▁دەش	-10.813
▁ماوەیەکە	-10.813
بونەوە	-10.8134
نوس	-10.8135
▁فڕۆکەی	-10.8136
▁نوێنەر	-10.8137
وڵاتانی	-10.8141
▁ڕووبەری	-10.8143
خۆر	-10.8144
کەوت	-10.8145
▁کلتووری	-10.8147
▁قژ	-10.8147
▁نەهات	-10.8147
▁سیاسییەوە	-10.8149
▁ڕەتکردەوە	-10.8149
▁براوە	-10.8156
▁باب	-10.8157
▁بەتەواوەتی	-10.8157
▁پاشماوەی	-10.8159
رەو	-10.8163
▁پێشەکی	-10.8167
▁حەوتەم	-10.8167
▁بینیمان	-10.8167
▁ئامەد	-10.8172
▁هەوڵە	-10.8172
re	-10.8174
▁ترو	-10.8176
وشەی	-10.8177
بایە	-10.8179
چوونی	-10.8183
بوە	-10.8185
▁وێنا	-10.8189
▁سێدارە	-10.8189
▁بڕگەی	-10.819
▁نابێتەوە	-10.8192
▁ئاسا	-10.8193
▁لەدرێژەی	-10.8194
▁هەرێمەوە	-10.8195
▁بابان	-10.8196
▁کیمیاباران	-10.8197
▁بەخۆوە	-10.8199
▁ماونەتەوە	-10.82
ێتە	-10.82
▁بۆمبی	-10.8201
▁بدەیت	-10.8205
▁ئەز	-10.8207
▁باوەر	-10.8207
▁دەنگێکی	-10.8209
▁پارک	-10.8212
▁دەستبەسەر	-10.8214
▁بهێت	-10.8215
▁ڕێور	-10.8219
ستە	-10.822
▁دەوام	-10.8222
▁عیراقی	-10.8226
▁گڕ	-10.8227
▁مه	-10.8227
▁ئادەمیزاد	-10.823
▁پەنجەی	-10.823
▁دراما	-10.823
▁تایبەتمەند	-10.8231
en	-10.8231
مەر	-10.8232
▁هونەرە	-10.8237
کارانی	-10.8237
▁بڕیاردرا	-10.8238
▁سواری	-10.8238
▁وێرای	-10.8239
▁مەهاباد	-10.8239
▁سێیەمین	-10.8239
▁بڕێکی	-10.824
چەند	-10.824
▁ناتوانیت	-10.8243
▁ئایندەیەکی	-10.8245
▁کوری	-10.8247
▁ئەدا	-10.8248
▁پرسێکی	-10.8248
▁شاره	-10.8249
▁شیکردنەوەی	-10.825
▁لەسوریا	-10.825
▁ڕۆژه	-10.8257
▁نکۆڵی	-10.8259
▁ڕۆژنامەو	-10.8261
▁زەمین	-10.8264
▁فیدرالی	-10.8265
▁هاوکاریکردنی	-10.8265
▁ڕەوانە	-10.8266
یەکانیش	-10.8267
▁سنە	-10.8267
ێوەبەری	-10.8269
▁دز	-10.8269
▁پیرۆزە	-10.8269
▁بەوپەڕی	-10.827
ادی	-10.8275
▁تەوەری	-10.8276
▁سووری	-10.8277
▁کۆنفرانس	-10.8281
وەتەوە	-10.8283
▁ئێستاکە	-10.8286
▁بەرزە	-10.8287
▁ناسی	-10.8287
▁جلوبەرگ	-10.8289
▁داواکاریی	-10.8289
▁نیویۆرک	-10.8294
لەر	-10.8294
▁لەوان	-10.8296
▁هەلە	-10.8298
بدەن	-10.8299
▁ڕەچاو	-10.8302
▁ژان	-10.8304
▁در	-10.8307
▁مانایە	-10.8308
▁دڵخۆش	-10.8311
▁پێدان	-10.8316
▁هەموارکردنی	-10.8322
▁بارەوە	-10.8324
▁ڕووداوانە	-10.8327
▁لەشوێنی	-10.8327
▁سەروەریی	-10.8328
▁بەراستی	-10.8329
▁جۆرێکی	-10.8329
▁بڕوانە	-10.8329
▁هەستکردن	-10.8332
▁ئاژانسا	-10.8335
▁سەرف	-10.8337
▁تاکوو	-10.8337
▁سەقامگیر	-10.8338
▁قوربانیان	-10.834
▁هەژاران	-10.8345
▁ڕێکخراوەیی	-10.8346
▁مۆسیقا	-10.8348
▁ناوبانگی	-10.8352
▁ڕەحمەتی	-10.8356
▁مردوو	-10.8361
▁حەج	-10.8362
▁الت	-10.8367
▁میدیاکان	-10.8369
▁هێنایە	-10.8372
▁داخراو	-10.8374
▁کردوو	-10.8374
▁بوارەکاندا	-10.8374
▁قۆڵی	-10.8374
▁پارچەی	-10.8377
▁توێژە	-10.838
▁عەرەبە	-10.8382
▁سەربەست	-10.8382
ئەل	-10.8383
▁ڕۆمانە	-10.8384
▁بەرشلۆنه	-10.8386
▁ددان	-10.839
▁موفتی	-10.8391
▁فەر	-10.8391
▁هەڵب	-10.8391
▁کۆبونەوە	-10.8396
▁نەدەبوو	-10.8396
▁کەبۆ	-10.8397
▁لانیکەم	-10.8401
▁دامودەزگا	-10.8401
▁قەناعەت	-10.8402
▁لەپەرلەمان	-10.8402
▁چاوم	-10.8404
▁هەردو	-10.8405
ێنی	-10.8408
زەر	-10.8409
▁لەیەکەم	-10.8412
▁پاساو	-10.8415
▁زانینی	-10.842
▁دەبرد	-10.842
▁برایانی	-10.8423
خە	-10.8424
▁چارەنووس	-10.8428
▁کۆنتڕۆڵ	-10.8428
▁هەڵەبجه	-10.8437
▁بەرێ	-10.844
▁حسێن	-10.8441
▁پێکدادان	-10.8441
▁2001	-10.8441
▁بەسەریاندا	-10.8445
▁کلاسیکی	-10.8445
▁هەڵەبجەو	-10.8447
▁مانگرتن	-10.8449
▁600	-10.845
▁پێگە	-10.8451
▁هەڵسوکەوتی	-10.8455
▁لەدەرەوە	-10.8468
▁بکەنە	-10.8469
▁بەهەشتی	-10.8469
▁تاکه	-10.847
▁تایفی	-10.8471
▁نەبەز	-10.8473
▁خۆشبەختانە	-10.8477
▁ئەمەریکای	-10.8481
▁دامودەزگاکانی	-10.8482
▁ڕەوتە	-10.8484
▁کرێی	-10.8486
▁سەرووی	-10.8486
▁هەستم	-10.8493
▁پاس	-10.8493
▁قەدەر	-10.8499
▁لێدە	-10.8502
▁کۆنگرەکە	-10.8503
▁نەبین	-10.8505
بەند	-10.8511
▁بەهێزە	-10.8512
▁بایدن	-10.8514
▁سودی	-10.8517
▁داوەتە	-10.8518
▁نایابەکانی	-10.8519
▁سێبەر	-10.852
▁ئاڵوگۆڕ	-10.8521
▁بەڕێزان	-10.8522
▁قەد	-10.8525
▁ڕەخنەگرتن	-10.8525
▁160	-10.8526
▁فرۆشتن	-10.8531
▁لەهۆڵی	-10.8532
▁ئاسۆی	-10.8533
▁ڕاشکاوانە	-10.8534
▁لەهەڵبژاردنی	-10.8535
▁هەوڵەکان	-10.8536
▁پرۆژەکانی	-10.8537
▁ئاوارەکانی	-10.8542
▁توندڕەو	-10.8545
▁خوێند	-10.8545
▁ڕەوشەنبیری	-10.8548
▁بەتوانا	-10.8552
▁d	-10.8554
▁کونسوڵی	-10.8554
▁گوتار	-10.8555
▁لەگەلا	-10.8557
▁لەرێگای	-10.856
▁ئان	-10.856
▁H	-10.8561
▁هەشتەم	-10.8561
▁بەرنامه	-10.8562
▁هەریەکەیان	-10.8563
▁هەستیار	-10.8564
▁ڕەچاوی	-10.8568
▁نەخۆشییە	-10.8569
▁کاربەدەس	-10.857
▁بزانم	-10.857
▁اب	-10.8571
▁ببەن	-10.8575
▁هەندرێن	-10.8575
▁لێبوردنی	-10.8576
▁نەخۆشیی	-10.8577
▁بنکەکانی	-10.8583
▁داواکارین	-10.8585
▁قانون	-10.8589
▁ئەنفالکراوەکان	-10.8589
▁بروسک	-10.8592
▁دەگەن	-10.8593
▁هوشیار	-10.8594
▁جیابوونەوە	-10.8595
▁هاوتا	-10.8599
▁لوبنانی	-10.86
بەست	-10.8601
بۆوە	-10.8603
▁نایەوێت	-10.8606
▁قاعیده	-10.8606
▁قەوارە	-10.861
▁خەونە	-10.8611
▁چاوە	-10.8616
▁سەنتەر	-10.8619
داین	-10.8619
ەکانى	-10.8621
▁ئاماژەشی	-10.8622
▁کەسانه	-10.8623
▁ئێمەیە	-10.8625
▁شەوە	-10.8625
▁بادینان	-10.8626
▁وازی	-10.8626
▁پێوەری	-10.8627
▁کۆمەڵگایە	-10.8628
▁تۆی	-10.8629
▁شێوەیەی	-10.863
▁دەمێکە	-10.863
لەی	-10.8631
▁ئاوەدانکردنەوە	-10.8631
▁شێرپەنجەی	-10.8631
▁کارمەند	-10.8632
▁سر	-10.8632
▁گاڵتە	-10.8633
▁پێوەندیی	-10.8634
o	-10.8636
▁گفتوگۆکان	-10.8636
بەندی	-10.8637
▁قوتابخانەکان	-10.8641
▁شو	-10.8641
▁ئاشکراکرد	-10.8643
▁کتێبێکی	-10.8643
▁پێشوەخت	-10.8644
▁ڕامان	-10.8645
▁ناوەوە	-10.8646
▁داوامان	-10.8647
▁ئاکام	-10.865
▁ڕێکخراوەکە	-10.8652
▁قسانە	-10.8654
توو	-10.8655
▁000	-10.8656
▁هەموولایەک	-10.8658
▁قارەمان	-10.8661
▁گەورەش	-10.8665
▁ئاوارەی	-10.8665
▁ڕۆیشت	-10.8665
▁ڕووبار	-10.8665
ستا	-10.8669
ێکمان	-10.8671
▁ڕوسی	-10.8675
الی	-10.868
▁لێبووردن	-10.868
▁کوڕەکەی	-10.8681
▁زمانەوانی	-10.8688
▁de	-10.8693
▁ڕەنج	-10.8699
▁خۆرئاوای	-10.87
▁گەشتوگوزار	-10.8704
▁قەرەداغی	-10.8706
▁هاتی	-10.8709
w	-10.8709
▁ئەنجامدراوە	-10.8712
میر	-10.8712
▁هێما	-10.8719
▁هەبوە	-10.872
انەن	-10.8721
▁بڕۆ	-10.8721
کت	-10.8723
▁لیژنەکە	-10.8723
▁ناسنامە	-10.8724
▁پڕۆژەکانی	-10.8727
▁پەروەردگارا	-10.8729
▁نووسەرە	-10.8733
▁تەنگ	-10.8735
▁کڕین	-10.8736
▁داری	-10.8736
u	-10.8742
ۆڵ	-10.8743
▁خەڵ	-10.8747
▁مەکتەب	-10.8747
▁شێعرەکانی	-10.875
▁بەندەکانی	-10.8751
کل	-10.8752
نییە	-10.8755
▁جوتیاران	-10.8756
▁حیکمەت	-10.8758
▁تاد	-10.8765
▁ئەندازەی	-10.8765
▁منداڵەکانی	-10.8766
▁هەوای	-10.8767
▁پرۆفیسۆر	-10.8767
▁دەکرێ	-10.8771
▁حاڵەتێکی	-10.8772
▁لەخولی	-10.8773
▁دەمان	-10.8777
▁دیوی	-10.8778
▁خاوەنەکەی	-10.8778
▁شەپۆل	-10.8787
▁فاکتەری	-10.879
▁ئەڵێ	-10.879
▁ناسینی	-10.8792
▁بڕیارەکەی	-10.8793
▁سەرمایەی	-10.8793
ساڵی	-10.8797
▁ئەڵێن	-10.8798
▁بەچاوی	-10.8799
▁وێنەگرتنی	-10.8806
▁تێکست	-10.8808
▁میل	-10.8809
▁دەستەڵاتی	-10.881
▁حزب	-10.8815
▁دواییەی	-10.8815
▁لەلا	-10.8818
ەل	-10.8818
▁کێیە	-10.8819
ەکەیەوە	-10.8821
▁کوردییە	-10.8825
▁دیاریکراوە	-10.8826
هێنان	-10.8827
▁پەیکەری	-10.8829
ar	-10.8833
▁پەرۆشی	-10.8835
▁یۆنیۆ	-10.8838
▁سەرەک	-10.8839
ترو	-10.8839
▁لەکوێ	-10.8841
▁دەیانەوێت	-10.8842
▁برینداری	-10.8843
ێنین	-10.8844
▁کێن	-10.8845
▁زەمەنی	-10.8845
▁داواشی	-10.8847
▁دەگمەن	-10.8847
▁پارەیەکی	-10.8848
▁فلمێ	-10.8849
▁کاتەوە	-10.8851
▁زاراوەی	-10.8853
▁ئۆر	-10.8854
▁قال	-10.8856
▁بەڵگەو	-10.886
▁دەرهێنان	-10.886
▁ئاستەنگ	-10.8863
▁2002	-10.8864
چەندین	-10.8864
▁سەفەری	-10.8865
▁ئەدی	-10.8866
▁پاشەکشەی	-10.8867
▁دگەل	-10.8869
▁نەیانتوانیوە	-10.8871
▁خێزانە	-10.8871
▁فۆتۆگرافی	-10.8872
▁گوێم	-10.8873
▁نمایشکرا	-10.8874
▁بزوتنەوە	-10.8874
or	-10.8875
▁جیهانیدا	-10.8875
ەدین	-10.8877
▁ئاسانکاری	-10.8879
▁تێپەڕبوونی	-10.888
▁پەردە	-10.8881
▁منداڵێک	-10.8882
▁جولەکە	-10.8882
▁مافەکانیان	-10.8884
▁بەشیر	-10.8885
▁ڕێزلێنان	-10.8887
▁خاوێن	-10.889
▁تاوانەکان	-10.8893
▁مێژوودا	-10.8895
▁ئایەت	-10.8898
▁ڕەگ	-10.89
▁خۆپیشاندانەکانی	-10.8902
▁قسەیان	-10.8904
▁قەزا	-10.8904
▁ئوسامە	-10.8905
▁دەکەوێتەوە	-10.8905
تدا	-10.8905
ێوە	-10.8907
▁تاچەند	-10.8908
▁مەرجەکانی	-10.891
▁ناسراوی	-10.8912
▁فەرمانڕەوایی	-10.8917
▁داکۆکیکردن	-10.8918
▁شێرپەنجە	-10.8918
▁تیپ	-10.892
▁خودای	-10.892
▁ئادەم	-10.8921
فت	-10.8924
▁پاڵەوانیتی	-10.8928
وک	-10.8928
▁دەبەستێت	-10.8929
▁کارنامەی	-10.8932
▁ڕەسەنی	-10.8939
▁لەوڵاتانی	-10.894
دەدەن	-10.894
▁زانستە	-10.8945
▁پیت	-10.8945
▁ڕابەری	-10.8945
▁خوێنەران	-10.8947
▁گەیاندە	-10.8949
▁تەنیشت	-10.8951
دانە	-10.8952
▁ژنانە	-10.8954
▁پڕۆژه	-10.8955
گەلێک	-10.8956
f	-10.896
▁خراوەتە	-10.8965
رای	-10.8968
▁خرایە	-10.8968
خست	-10.897
▁شارەزایانی	-10.8975
▁سەربەرزی	-10.8975
▁دەگرت	-10.8981
▁گەلێکی	-10.8982
▁لەکۆبوونەوەکەدا	-10.8983
▁بیروباوەڕ	-10.8984
▁پاشای	-10.8987
▁بەختەوەری	-10.8989
▁تاقە	-10.8989
▁تیرۆریستانی	-10.8991
▁وەزارەتەکان	-10.8993
▁ڕۆیشتن	-10.8994
▁پەروەردگارت	-10.9
▁دامەزراند	-10.9001
ێس	-10.9001
▁دەچوو	-10.9002
کاران	-10.9004
▁کردوه	-10.9004
▁چا	-10.9004
▁تۆڵە	-10.9005
▁مێینە	-10.9009
▁سادق	-10.9009
▁هۆڵەندی	-10.9013
یەش	-10.9015
▁دابنێن	-10.9015
▁پەیمانگا	-10.9016
▁تۆکمە	-10.9022
▁عیسا	-10.9023
زەی	-10.9023
▁کەسایەتیی	-10.9024
▁ئاسن	-10.9026
▁بڕیارەکە	-10.9028
ەکەتان	-10.9029
▁لێدوانەکانی	-10.903
▁بیروڕای	-10.903
▁پلاندانان	-10.9031
▁چالاکییە	-10.9032
▁بەرێت	-10.9032
▁ناوخۆو	-10.9033
▁بەدواوە	-10.9035
▁پا	-10.9036
▁سەرە	-10.9037
▁ژوور	-10.9037
▁تەل	-10.9037
▁خواردنەوەی	-10.9039
▁ئیسلامییە	-10.904
▁یاوەر	-10.9042
▁فەیسبووک	-10.9042
▁نەدرێت	-10.9045
▁شوباتی	-10.9047
▁شارێک	-10.9049
▁بخەینە	-10.9049
▁دەڵێیت	-10.9049
▁فیدراسیۆن	-10.9051
هەم	-10.9052
▁ڕۆما	-10.9052
▁تەسک	-10.9052
▁باخچەی	-10.9057
▁پێشکێش	-10.9058
▁نواندن	-10.9062
▁نوجێفی	-10.9062
▁بەهرەمەند	-10.9063
▁الر	-10.9067
▁لادن	-10.9069
▁پەری	-10.9069
▁وەلا	-10.907
برا	-10.9074
▁دەور	-10.9076
اش	-10.9076
▁هۆکارەکەی	-10.9077
▁لایە	-10.9081
▁ئەستەمە	-10.9083
▁کۆک	-10.9084
▁مورسی	-10.9084
▁ڕووباری	-10.9084
▁شاعیرە	-10.9091
▁دارستان	-10.9091
▁نەگرت	-10.9095
تریش	-10.9095
▁باشیان	-10.9095
▁چۆنە	-10.9095
▁بڕۆن	-10.9099
▁بابەتەکان	-10.9105
▁پێکەوه	-10.9108
▁هێمنی	-10.911
یتە	-10.9111
جۆ	-10.9113
▁نازانین	-10.9115
▁حەمەد	-10.9116
▁بەشدارن	-10.9116
▁شوناسی	-10.9118
▁دێته	-10.9119
پێک	-10.912
لام	-10.9121
▁بەخش	-10.9122
▁T	-10.9124
▁ئاخ	-10.9125
ستن	-10.9125
▁بپرسین	-10.9126
▁کوشندە	-10.9127
▁دەباغ	-10.9129
▁یەکگرتنەوەی	-10.9131
▁هێڵ	-10.9133
▁بباتەوە	-10.9137
▁خەڵکەکە	-10.9138
▁کەل	-10.9141
▁تواناو	-10.9144
▁ڕۆزی	-10.9152
▁ئێرانەوە	-10.9154
▁پەل	-10.9155
▁ڕێنموویی	-10.9155
▁لق	-10.9157
▁خولەکەکانی	-10.9161
▁کایە	-10.9163
▁دەربچێت	-10.9163
▁کۆمسیۆنی	-10.9164
تاندا	-10.9164
▁کەلوپەل	-10.9168
▁سەعد	-10.9169
▁ئەس	-10.917
p	-10.9174
▁دژوار	-10.9174
▁گرانی	-10.9176
▁ڕێبەرانی	-10.9178
▁کوبانێ	-10.9182
▁دابەزینی	-10.9185
▁سەرلەبەیانی	-10.9187
▁هاوولاتیانی	-10.9191
▁دەروێش	-10.9192
▁گەلەکەی	-10.9192
▁دەخۆن	-10.9194
▁بەدیار	-10.9195
▁بەهمەن	-10.9195
▁سەرچاوەکان	-10.9199
▁بەئاوێنەنیوزی	-10.9202
▁پێشەنگ	-10.9204
▁دیموکراسیەت	-10.9206
▁مەڵبەند	-10.9206
▁ببینین	-10.9209
▁تەلاری	-10.9212
▁گەنجێک	-10.9214
▁ئیتاڵیا	-10.9217
▁ئاڕاستە	-10.9217
▁سلیمانی	-10.9218
▁بەرژەوەندیەکانی	-10.9219
▁گۆشتی	-10.9221
▁دەبرێت	-10.9221
▁پرسیارەکە	-10.9225
▁پێشانگایەکی	-10.9227
19	-10.9227
▁دوەم	-10.9228
بردنی	-10.9229
▁ئیس	-10.9231
▁2015	-10.9237
چاو	-10.9237
▁بەد	-10.9239
▁بۆندی	-10.9242
▁پشتیوانیی	-10.9242
باز	-10.9242
خانە	-10.9243
▁لەوەودوا	-10.9243
▁وێنەگرتن	-10.9245
ووت	-10.9247
ازی	-10.9251
▁نێوانیاندا	-10.9252
▁لەهەردوو	-10.9256
▁ڕاپۆرتە	-10.9257
▁ملم	-10.9259
ێڵ	-10.9259
▁کارێ	-10.9259
▁ساتێک	-10.9261
▁کۆمەڵگەدا	-10.9263
▁شایەتی	-10.9264
▁پێکەوەژیان	-10.9264
▁کامیان	-10.9266
▁عاشقی	-10.9271
اندووە	-10.9272
▁بنکەیەکی	-10.9272
▁کەربەلا	-10.9273
▁دەیگوت	-10.9273
▁تێڕوانین	-10.9273
▁تەلەفۆنی	-10.9274
▁چارەنووسساز	-10.9277
ەکەیەتی	-10.928
▁میوە	-10.928
▁تەمەنیان	-10.928
▁گۆڤار	-10.9283
بووین	-10.9284
▁شۆڕشە	-10.9286
▁تاڕادەیەک	-10.9286
▁دیت	-10.9289
▁ئێراقی	-10.9289
▁e	-10.9293
▁بەخشین	-10.9295
▁ئاوازی	-10.9299
▁لێکردن	-10.9301
گان	-10.9302
یست	-10.9304
کردووه	-10.9308
▁بڵاوکرایەوە	-10.9308
▁نەتەوەیەکی	-10.9308
▁دەگوت	-10.9309
▁خەڵکەوە	-10.9309
▁جلی	-10.9313
▁پارەو	-10.9313
▁دڵیان	-10.9317
▁یەکیتی	-10.9317
▁یەحیا	-10.9319
ساڵ	-10.9321
▁ئێرانیش	-10.9332
▁تۆماری	-10.9332
▁مەحکوم	-10.9335
▁سەختە	-10.9335
بونەوەی	-10.934
▁کۆبوونەوەیەدا	-10.9342
▁نەفرەت	-10.9342
▁ئەوجا	-10.9343
▁بەختەوەر	-10.9349
▁دەرچووی	-10.9349
ویەتی	-10.935
ڕۆژ	-10.9352
▁ئۆفیسی	-10.9352
▁سەرکۆماری	-10.9353
▁شیعەو	-10.9354
▁ئاگای	-10.9357
▁پێهات	-10.9357
کەمان	-10.9359
▁لێدوانێکیدا	-10.936
▁کۆت	-10.9361
▁ئاژانس	-10.9364
تم	-10.9365
▁کەئێستا	-10.9368
▁دەدوێت	-10.937
▁نەیارانی	-10.937
▁ئازیز	-10.9374
▁ڕیفراندۆم	-10.9375
▁گەڕەک	-10.9377
▁یەکگرتوەکان	-10.9377
▁سەرچاوه	-10.9377
▁کەمپینی	-10.938
▁بدەنەوە	-10.9381
▁بخەن	-10.9382
▁نها	-10.9382
▁گەشەکردن	-10.9384
▁هەفتەیەدا	-10.9384
▁شوێنەی	-10.9387
▁ڕەواکانی	-10.9388
▁فاشیزم	-10.9388
▁چارەسەرکردن	-10.9394
▁ئەلقاعیدە	-10.94
ئێمه	-10.9402
▁تووڕە	-10.941
▁قەرەبووی	-10.9413
▁مرۆڤدا	-10.9414
▁لەکۆتاییدا	-10.9416
▁سڕینەوەی	-10.9419
▁بەخۆیان	-10.9419
▁شۆک	-10.9419
▁بەرنامەکانی	-10.9419
▁ئەمریکای	-10.9433
▁کەوتوون	-10.9434
▁هەرێمیش	-10.9436
▁کم	-10.9437
▁بزر	-10.9438
▁ڕۆڵەکانی	-10.9438
▁سونە	-10.9439
▁جوانەکانی	-10.9441
▁دووچاری	-10.9442
▁لاتینی	-10.9443
اق	-10.9444
▁ناڕاستەوخۆ	-10.9447
▁نەمسا	-10.9449
▁ئەخلاق	-10.9452
▁خۆشم	-10.9455
▁زۆرمان	-10.9455
▁لایەنانە	-10.9457
▁ڕێباز	-10.9458
▁چارەسەرێکی	-10.9458
▁کۆمەڵگەیەکی	-10.946
▁ڕۆژان	-10.9462
▁حزبایەتی	-10.9462
ریک	-10.9463
▁پەروەر	-10.9463
▁بەیاننامەیەکی	-10.9467
▁مەعریفە	-10.9469
▁ئازادییە	-10.9469
▁کۆمپانیاکە	-10.9469
▁هێزەکان	-10.947
▁جێگە	-10.9471
▁ماون	-10.9472
▁لێدوانەکەی	-10.9472
▁گەمەی	-10.9476
بکاتەوە	-10.9477
▁ڕێکخست	-10.9481
▁میانی	-10.9481
▁مەحاڵە	-10.9482
▁نەم	-10.9483
▁بەناوبانگی	-10.9483
▁زێڕ	-10.9484
▁ڕۆژهەلاتی	-10.9489
▁نالی	-10.9492
▁تەکنەلۆژیا	-10.9497
▁ئینگلتەرا	-10.9498
گار	-10.95
▁هەمیش	-10.95
▁چیا	-10.95
▁نادر	-10.9505
▁دایه	-10.9506
▁ستایش	-10.9506
▁ڕۆژگار	-10.9512
▁ڕەحمەت	-10.9515
▁یەپەگە	-10.9516
▁پێکدێت	-10.9516
▁ئاشکراکردنی	-10.9518
▁سعودی	-10.9523
▁پێتان	-10.9527
▁ئەفسەری	-10.953
▁کردین	-10.9533
▁نێ	-10.9533
▁وەربگرین	-10.9533
▁ڕێوڕەسمی	-10.9536
انیش	-10.9537
▁ئامێز	-10.954
▁عەتا	-10.954
▁لەسنوری	-10.9541
یلی	-10.9542
▁کادر	-10.9545
▁کاکەیی	-10.9547
▁مۆن	-10.9549
▁دەنگۆی	-10.9551
▁یەکانی	-10.9551
▁پردی	-10.9552
▁شیاوی	-10.9554
▁120	-10.9555
▁گومانلێکراو	-10.9556
▁بەپلەی	-10.956
▁ساڵەدا	-10.9561
▁دابڕاوەکان	-10.9565
▁بەسرە	-10.9566
▁وەزارەتە	-10.9568
▁نیسانی	-10.9568
▁سەفین	-10.9569
▁پێدەکەن	-10.9571
▁هەبووەو	-10.9571
▁پێداچوونەوە	-10.9573
▁بەئاگا	-10.9573
▁قورئانی	-10.9574
▁بەدڵ	-10.9576
تێر	-10.9576
تو	-10.958
▁بەسەرچوو	-10.9581
▁لێپرسراوانی	-10.9581
▁سنوورەکە	-10.9583
▁ڕاپۆرتەکە	-10.9583
دەری	-10.9585
▁کەلتوور	-10.9585
▁وەستاوە	-10.9588
▁گەشتیار	-10.959
▁فەلاح	-10.9594
▁جێگر	-10.9594
ورد	-10.9594
▁کۆنسێرت	-10.9596
ێم	-10.9597
▁بەعسییەکان	-10.9599
▁دەسەڵاتداری	-10.9601
▁لەحکومەت	-10.9602
▁لم	-10.9602
▁بیرەوەری	-10.9607
▁کوژراوە	-10.9611
▁مون	-10.9612
▁لەدایکبوونی	-10.9613
کردووەو	-10.962
▁ابن	-10.962
▁کێشا	-10.9621
▁ژەهراوی	-10.9622
▁لەوه	-10.9622
▁گەڕایەوە	-10.9623
▁بوختان	-10.9623
1	-10.9626
▁zwn	-10.9628
▁ڕیش	-10.9629
▁دەهێنرێت	-10.963
ترن	-10.963
▁شەرعییەتی	-10.9631
▁لەکۆنگرەیەکی	-10.9633
▁خانووی	-10.9634
▁لەوەکرد	-10.9635
▁چرکە	-10.9636
▁ئازایەتی	-10.9636
تار	-10.9636
▁پەیوەندیان	-10.9644
▁جینۆسایدی	-10.9645
▁دراوی	-10.9646
▁شارۆچکەکانی	-10.9647
▁ستی	-10.9648
▁مندا	-10.9649
کردۆتەوە	-10.9653
▁شۆرشی	-10.9654
▁ڕاستگۆ	-10.9655
▁باوەڕتان	-10.9655
ەمان	-10.9656
▁سۆرانی	-10.9657
▁دهوکێ	-10.9658
▁لەزۆربەی	-10.9662
▁پشدەر	-10.9666
▁پێبدرێت	-10.9668
▁ئێواران	-10.9669
▁ڕێگایەکی	-10.9669
▁توو	-10.9671
▁ئەمەیان	-10.9673
▁لەداهاتوودا	-10.9673
▁تازه	-10.9673
▁جان	-10.9676
▁ئۆپ	-10.9677
ۆڤ	-10.9678
▁سەگ	-10.9679
▁لەنزیکەوە	-10.9683
▁یارییەکەی	-10.9684
▁بەخت	-10.9686
▁هەناردەکردنی	-10.9686
▁پژاک	-10.9687
گێڕ	-10.9688
ستانی	-10.9691
▁موقتەدا	-10.9692
▁زانای	-10.9693
▁دینارە	-10.9693
▁کەناری	-10.9695
▁کۆمەڵەکانیش	-10.9695
▁قەزاو	-10.9697
▁ڕێکخراوه	-10.9701
ۆر	-10.9706
▁تورکیای	-10.9706
▁دەنێن	-10.9707
▁ئەفسانە	-10.9708
▁85	-10.9709
▁ئەنفالکراوان	-10.9712
▁کوژ	-10.9712
▁کوڕان	-10.9716
پارێز	-10.9717
▁ئێستایش	-10.9719
▁چیدی	-10.972
▁ڕۆڵەی	-10.9721
▁ئەقڵ	-10.9726
▁پەرەسەندنی	-10.9727
▁مانایەی	-10.9729
▁نەزانی	-10.9738
▁لەیاد	-10.9738
▁فراوانکردنی	-10.9744
▁بۆیەش	-10.9747
دابوو	-10.9747
▁ڕزگاریخوازی	-10.9747
▁دەرئەنجامەکانی	-10.9748
▁گەیاندووە	-10.9749
▁بڵاوکردۆتەوە	-10.975
▁کریم	-10.9751
▁بەرزترین	-10.9752
▁پڕۆژەیەک	-10.9753
▁هاوڕێکانی	-10.9753
▁نمایشکردنی	-10.9756
▁جارێکیتر	-10.9761
▁کەسایەتییەکی	-10.9764
▁ناگرێت	-10.9765
بکەنەوە	-10.9774
▁هاتوونەتە	-10.9774
▁دراون	-10.9774
▁تێپەڕی	-10.9777
▁بەهەمانشێوە	-10.9778
▁تایمز	-10.9778
▁گەڕاندنەوەی	-10.9779
پەرست	-10.9782
▁دامەزراوەکانی	-10.9783
▁تاڵان	-10.9785
▁دەخرێتە	-10.9786
▁بەڕێوەبردن	-10.9786
▁فرۆش	-10.9786
▁دێتەوە	-10.9788
▁هاوپەیمان	-10.9789
▁بگەین	-10.979
▁دراوسێی	-10.9791
▁لەناوچەکە	-10.9792
▁سەلاح	-10.9795
کورد	-10.9797
کاتێک	-10.9797
▁بای	-10.9804
نس	-10.9805
▁بونیاد	-10.9809
▁زاهیر	-10.9809
▁خایاند	-10.9811
▁پاڵەوانەکانی	-10.9812
▁ئەزموونێکی	-10.9813
▁شەشەمی	-10.9818
▁ساختە	-10.9826
▁ڕاستیەکان	-10.9826
▁نازو	-10.9828
▁پێداگری	-10.9829
▁لەجیهاندا	-10.9831
▁نائومێدی	-10.9833
▁شەق	-10.9833
▁کردۆتەوە	-10.9834
▁دەگێڕێتەوە	-10.9835
▁کەسایەتییە	-10.9838
▁فکر	-10.9838
رام	-10.984
▁قەززافی	-10.9841
▁ڕیشەیی	-10.9841
▁داعشەوە	-10.9843
▁دیالۆگی	-10.9843
▁گشتگیر	-10.9843
▁ئەنجامێکی	-10.9846
▁سڕ	-10.9846
▁گرێبەست	-10.9846
▁ئەمجارەیان	-10.985
▁حمە	-10.9851
▁ئەمریکاوە	-10.9853
▁جیاوازن	-10.9853
▁چاکتر	-10.9855
▁ئامرازی	-10.9862
▁نەرێنی	-10.9871
▁بەرزنجەیی	-10.9879
▁جێهێشت	-10.9883
▁لەلێدوانێکدا	-10.9884
▁پەسند	-10.9887
▁دەسەڵاتەکانی	-10.9889
▁هن	-10.9891
▁ئەمنیەکان	-10.9891
▁بەرزو	-10.9892
▁گرتوە	-10.9893
ُّ	-10.9893
▁ئەندامەی	-10.9894
▁بۆند	-10.9894
خت	-10.9894
▁کۆنترۆڵکردنی	-10.9895
▁بزاڤی	-10.9897
▁مەراسیمی	-10.99
▁بکه	-10.9902
▁هەتاوی	-10.9903
سەری	-10.9904
▁داوەتەوە	-10.9906
▁هەبو	-10.9907
ندی	-10.9911
▁مۆندیال	-10.9913
▁لەبەرامبەریشدا	-10.9921
ئەحمەد	-10.9922
▁org	-10.9923
▁سەربازانی	-10.9923
▁دەمێننەوە	-10.9927
▁سەنگی	-10.9931
▁ڕستە	-10.9933
▁ڕووبەڕوو	-10.9933
▁ئیرادە	-10.9934
▁72	-10.9935
▁ناسر	-10.9937
▁تەم	-10.9942
▁ئەواندا	-10.9946
▁خۆپێشاندان	-10.9947
▁سەرکەوتنێکی	-10.995
قا	-10.9951
پەیامنێر	-10.9952
بل	-10.9952
▁دووەمیان	-10.9953
▁کۆشک	-10.9953
▁ڕزق	-10.9957
▁سەوا	-10.9958
▁گرفتەکان	-10.996
▁خواستەکانی	-10.9965
▁چێلسی	-10.9965
▁کۆنتڕۆڵی	-10.9967
▁پشێوی	-10.9968
▁پاشکۆی	-10.9969
▁ڕۆمانەکە	-10.997
▁سەلماند	-10.997
▁بانک	-10.9974
▁نالین	-10.9975
▁فەلەستینی	-10.9976
▁ڕۆژنامەگەریی	-10.9981
▁ئافرەتێکی	-10.9983
▁گوێیان	-10.9983
▁پەیوەندیەکی	-10.9983
▁بڵاویکردۆتەوە	-10.9988
▁بدۆزێتەوە	-10.9989
▁مەترسیی	-10.9989
▁ئەوەم	-10.9991
▁شایستە	-10.9992
▁کەسەکان	-10.9993
▁پەروەردگاریان	-10.9994
▁پابەندبوون	-10.9995
▁قەوارەی	-10.9997
▁جەهانگیری	-10.9998
▁لەپرۆسەی	-10.9998
▁میری	-10.9999
▁دیدارەکەدا	-10.9999
▁سنوورە	-11.0001
▁شانۆکار	-11.0002
کای	-11.0003
▁خانی	-11.0003
▁لێمان	-11.0005
▁نیشاندانی	-11.0006
▁ئێمەو	-11.0007
▁بەرپرسیاریەتی	-11.0011
▁دیوە	-11.0016
▁ئەوروپادا	-11.0016
▁89	-11.0018
▁بەڕێوەبچێت	-11.002
▁شەممەی	-11.0021
▁62	-11.0023
▁ساکار	-11.0026
▁میلیشیا	-11.0028
▁بەسەرپەرشتی	-11.0028
▁کارزان	-11.0029
▁نەتەوەکان	-11.0032
▁مەعسوم	-11.0036
▁کەهەموو	-11.0042
▁ئازادانە	-11.0043
▁دوژمنایەتی	-11.0044
▁ئیئتلافی	-11.0044
▁وەڵامدانەوەی	-11.0049
▁مەک	-11.0052
▁کوتله	-11.0053
▁تەکنەلۆژیای	-11.006
▁خۆشمان	-11.006
▁کێشانەی	-11.0061
▁خوادا	-11.0067
▁گەمارۆی	-11.0072
▁نموونەیەکی	-11.0076
▁بکەون	-11.0079
▁ئەیلوول	-11.0079
کانمان	-11.008
▁دەستەواژەی	-11.0081
▁ڕێگەیان	-11.0084
▁زور	-11.0085
▁پێگەیەکی	-11.0086
▁باپیر	-11.0086
▁خەڵکیش	-11.009
▁شەوێک	-11.009
▁بخرێت	-11.0093
▁بەرگەی	-11.0096
▁تاقمە	-11.01
پەڕ	-11.01
▁دامەزرا	-11.0103
▁دروستدەکات	-11.0105
▁ڕێزو	-11.0109
▁شێعردا	-11.0115
▁ئاشتەوایی	-11.0116
▁عەقید	-11.0117
▁دواخرا	-11.0117
▁ساتی	-11.0118
▁زل	-11.0122
▁دەکرێنەوە	-11.0123
▁شایەت	-11.0123
▁سەرەوەی	-11.0124
▁لەمەش	-11.0125
▁هەڵگرتنی	-11.0125
▁ئاژاوە	-11.0128
▁دەسەڵاتدارێتی	-11.0131
▁میترۆ	-11.0132
وێ	-11.0134
▁بەلجیکا	-11.0135
▁مێژووییە	-11.0136
▁چێنراو	-11.0142
▁بۆچونی	-11.0143
▁سەدە	-11.0144
▁ئاستێک	-11.0145
▁ئابی	-11.0146
▁برسێتی	-11.0146
▁دەڵێ	-11.0147
▁مسۆگەر	-11.0147
مۆ	-11.0154
▁ڕەوشتی	-11.0154
لو	-11.0154
▁سڵ	-11.0156
▁لەگەڵیاندا	-11.0157
▁کوفر	-11.0159
▁گفت	-11.0161
▁لەمەوپێش	-11.0162
▁وەرگێڕان	-11.0163
▁نەکراو	-11.0163
سور	-11.0166
▁دەستەو	-11.0169
▁کەئەم	-11.017
▁خۆکوشتن	-11.0171
▁وەربگیردرێت	-11.0173
▁ئەوەدا	-11.0174
▁داوایکرد	-11.0182
▁ڕووناکبیری	-11.0185
▁جوگرافیای	-11.0186
▁نابێتە	-11.0186
▁هەرکاتێک	-11.0189
▁درێژەدان	-11.019
▁واڵا	-11.0192
هەزار	-11.0194
▁بەخێرایی	-11.0198
▁کەمپی	-11.02
▁کەمئەندامان	-11.0205
ڤەر	-11.0205
▁تورکەکان	-11.0207
▁کەرەستە	-11.0208
▁خەلیفە	-11.0213
▁داهێنەر	-11.0214
وشە	-11.0214
▁تۆیە	-11.0215
▁زیندو	-11.0216
▁نوسراوە	-11.0216
▁ئێمەوە	-11.0219
▁هەستە	-11.0219
▁لەیەکێک	-11.022
▁دنیایە	-11.0222
▁دێرسیم	-11.0223
▁پێکهاتبوو	-11.0225
▁بۆردومانی	-11.0225
▁چەمک	-11.0227
▁ڕۆشنبیرانی	-11.0231
▁پارتێکی	-11.0237
▁هەیانە	-11.0239
▁دژایەتیکردنی	-11.0243
▁باشترکردنی	-11.0243
▁گەشتی	-11.0245
▁ساڵیدا	-11.0248
▁دوعا	-11.0248
▁پڕکردنەوەی	-11.0248
▁be	-11.025
▁دۆنم	-11.025
▁سروشتییەکان	-11.0251
▁بەڕەسمی	-11.0251
دراو	-11.0255
گێر	-11.0259
▁کەسه	-11.026
▁کوردا	-11.0261
▁گوو	-11.0261
دەنگ	-11.0262
▁عێراقیەکان	-11.0266
ەب	-11.0267
▁لەناوچەکانی	-11.027
▁گوی	-11.0271
▁ساتە	-11.0273
▁سالارکەرکوکی	-11.0274
▁سەرنجڕاکێش	-11.0274
▁مرۆ	-11.0275
▁لەبەشی	-11.0276
g	-11.0276
▁بیروباوەڕی	-11.0278
یات	-11.0278
کراوەکان	-11.0278
▁چەن	-11.0283
وەری	-11.0283
▁کەژاڵ	-11.0285
▁نووس	-11.0288
▁وەری	-11.029
▁کوشتار	-11.0291
▁بەردەوامیش	-11.0291
▁ڕەشە	-11.0292
▁کیمیابارانی	-11.0295
▁مێردەکەی	-11.0295
▁شارەدا	-11.0296
تەق	-11.0297
▁قاهیرە	-11.0298
▁نام	-11.0298
▁تەق	-11.03
▁نەدراوە	-11.0301
▁بخۆن	-11.0304
ێنەوە	-11.0304
ێنە	-11.0304
▁وەرگر	-11.0305
▁پلەو	-11.0308
▁بۆمبڕێژکراو	-11.0308
وب	-11.0309
▁نووسراو	-11.0309
▁تەک	-11.031
▁ئەلیکترۆنی	-11.031
▁لەماڵ	-11.0313
▁دەڕۆن	-11.0315
▁ستەمکاران	-11.0318
▁ناکۆک	-11.0322
▁ئەکا	-11.0325
▁نەکەوت	-11.0326
ڤین	-11.0328
▁چەکدارە	-11.0329
S	-11.0333
▁خانە	-11.0333
کێش	-11.0334
ووم	-11.0337
▁کەموکورتی	-11.034
▁ناوبژیوان	-11.034
▁دادو	-11.0343
▁1990	-11.0344
▁بەکاتی	-11.0345
▁ئەجێندای	-11.0348
▁کوردێک	-11.0348
▁دووەمدا	-11.0353
وڵاتی	-11.0353
▁بەسەریدا	-11.0354
▁ئەنجامە	-11.0355
▁شێخان	-11.0359
▁ڕوونکردنەوەیەک	-11.036
▁پەند	-11.0363
▁بەردەوامەو	-11.0364
▁سۆسیالیستی	-11.0366
▁ببەخشێت	-11.0368
▁ئەکرەم	-11.037
▁سەرچاوەکە	-11.0373
▁پێوەر	-11.0373
▁ڕوونیشی	-11.0373
▁دەردە	-11.0374
لاو	-11.0375
▁شەریک	-11.0376
▁قسانەی	-11.0376
ir	-11.0378
دەن	-11.0384
▁گرتە	-11.0388
▁هه	-11.0388
▁ئەکادیمیای	-11.0388
▁کەلوپەلی	-11.0389
▁گەردوون	-11.0389
▁چاودێران	-11.039
▁فێرکردن	-11.0391
▁قسەیەکی	-11.0391
▁هێناو	-11.0392
▁پێشمەرگه	-11.0392
▁بێزاری	-11.0393
گەکانی	-11.0395
▁زستان	-11.0396
▁ئاسوودە	-11.0399
▁دەبینیت	-11.0407
کۆن	-11.0408
▁عەبدولمەهدی	-11.0409
بکرێن	-11.041
▁مەرجێک	-11.0415
▁حەزم	-11.0416
▁لەوڵاتی	-11.0416
دروست	-11.0418
بای	-11.0419
▁ساڵێکە	-11.042
▁دەیەی	-11.042
▁ئارارات	-11.0421
▁بیکات	-11.0421
▁نەبی	-11.0421
▁نەکەیت	-11.0423
▁هەڵوێستەی	-11.0425
▁دۆ	-11.0426
▁حیزبەکەی	-11.0428
▁زنجیرەیەک	-11.0428
▁گۆڕانکارییە	-11.0431
▁لەناکاو	-11.0432
▁کاراکتەری	-11.0434
▁باسمان	-11.0435
▁هەڤال	-11.0439
▁بەکردەوە	-11.0447
▁خولێکی	-11.0448
▁درێژکردنەوەی	-11.045
▁بەخۆ	-11.0453
▁بەبەراورد	-11.0453
▁شەهرستانی	-11.0455
▁مووسڵ	-11.0455
▁لێبێت	-11.0455
▁بووبوو	-11.0457
▁بەجێهێشت	-11.0457
▁ئەوانەن	-11.0461
▁زو	-11.0462
▁بەرلەوەی	-11.0462
▁سیروانی	-11.0463
▁سەردانێکی	-11.0466
▁زیاتریش	-11.0471
▁تەقەی	-11.0472
▁پڕۆسەی	-11.0472
▁گەمە	-11.0473
▁سەددام	-11.0473
▁ڕاز	-11.0473
▁دەرئەنجام	-11.0474
▁بتوانرێت	-11.0474
▁شوێنانەی	-11.0478
▁میللەتە	-11.0478
▁خێرو	-11.0478
▁پەیامە	-11.0479
بڕی	-11.0481
▁بمێننەوە	-11.0485
▁گفتوگۆو	-11.0487
▁مۆزەخانەی	-11.0489
▁بەمەرجێک	-11.049
▁خوایش	-11.0491
▁پیلانی	-11.0491
▁وەسفی	-11.0492
▁لەیلا	-11.0492
▁گفتوگۆیەکی	-11.0494
▁نیوان	-11.0498
▁بێگەرد	-11.0504
▁پەرلەمانتارێکی	-11.0507
▁کەنار	-11.0507
▁ئەوروپاو	-11.0507
باران	-11.0514
▁قورسە	-11.0515
▁دەمێک	-11.0519
▁سەلماندنی	-11.0519
▁m	-11.0521
▁بەڕێزیان	-11.0522
▁تیڤی	-11.0523
▁ئیبن	-11.0524
▁هەی	-11.0532
ایه	-11.0533
▁دیاریکراودا	-11.0534
▁ڕاگەیاندنەکانی	-11.0537
▁سۆ	-11.0537
▁برین	-11.0538
▁ئەمنیی	-11.0542
▁تێنسی	-11.0543
▁جۆش	-11.0545
▁ئاوە	-11.0545
▁لەرێی	-11.0546
▁ڕابگرێت	-11.0547
▁پێکان	-11.0548
at	-11.055
▁ئەنجامبدرێت	-11.0551
▁شۆر	-11.0553
▁گێڕانەوە	-11.0554
▁کیلۆ	-11.0555
▁پاساوی	-11.0558
▁کوردن	-11.0558
▁وڵاتەکە	-11.0559
▁دەگیرێت	-11.0559
▁یاریزانێکی	-11.0559
سم	-11.056
▁دادی	-11.0561
▁تەرخانکراوە	-11.0562
▁حەڵاڵ	-11.0564
▁فەرمانەکانی	-11.0565
▁ڕیسوا	-11.0566
▁کێشەکەی	-11.057
▁کۆنەکان	-11.0572
▁حیزبانە	-11.0575
▁لەبارەوە	-11.0579
▁سزاو	-11.0579
▁نایاب	-11.058
▁پێچ	-11.0583
▁ڕەوشە	-11.0583
▁شل	-11.0583
▁دەربر	-11.0584
▁یۆنانی	-11.059
▁میللەتەکەمان	-11.0593
▁ناڤ	-11.0593
▁پیشەسازیی	-11.0594
▁هەندەران	-11.0594
▁جوولەکە	-11.0596
▁میدیایی	-11.0596
▁پاشگەز	-11.0597
کارە	-11.0597
ارە	-11.0598
درێن	-11.0598
▁قەڵادزێ	-11.0598
▁تۆقاندن	-11.0598
▁ڕزگاریان	-11.0599
▁یەکخستنی	-11.0601
تەنها	-11.0601
▁بریندارەکان	-11.0602
تەی	-11.0603
▁تاو	-11.0603
▁غە	-11.0605
▁لەبن	-11.0605
▁ڕیکلام	-11.0606
نت	-11.0611
▁بابە	-11.062
▁وەزارەتەکانی	-11.062
▁توانیمان	-11.0622
▁ئەوەکرد	-11.0624
▁هەمبەر	-11.0625
▁بەردەوامبوونی	-11.0629
▁فراکسیۆن	-11.063
▁تیژ	-11.0633
▁تایبەتمەندیی	-11.0634
▁گفتوگۆیان	-11.0635
▁دەهێنا	-11.0636
▁دەکەنە	-11.0639
le	-11.064
▁سەنگاوی	-11.0642
▁مع	-11.0644
▁شەونم	-11.0647
▁شکاند	-11.065
▁پێشمەرگایەتی	-11.0651
▁ئۆتۆمبێلێک	-11.0653
▁لەرۆژی	-11.0654
▁ڕێگەیەکی	-11.0654
▁بەناوبانگ	-11.0656
▁مەعریفی	-11.0656
▁بەکورد	-11.066
▁داوی	-11.066
شین	-11.0662
▁جۆراوجۆرەکانی	-11.0663
▁پڕۆژەیاسای	-11.0663
▁کارەکە	-11.0664
وای	-11.0668
ۆکی	-11.0669
▁کەوتنی	-11.0669
▁تێیاندا	-11.067
▁زەحمەتە	-11.0674
▁سەنگ	-11.0675
▁بدۆزنەوە	-11.0675
▁زەرەرمەند	-11.068
▁پێشڕەوی	-11.0682
▁نامەیەک	-11.0683
عێراق	-11.0687
▁پەلامار	-11.0688
▁بڕگە	-11.0691
▁ڤه	-11.0693
▁ئەمنیەکانی	-11.0693
درێ	-11.0696
▁تەقەیان	-11.0697
▁پراکتیکی	-11.0699
▁1975	-11.07
▁ند	-11.07
▁قوربان	-11.0702
▁گوێگرتن	-11.0702
▁بارودۆخ	-11.0708
▁داهاتو	-11.0708
▁عەبدولقادر	-11.0709
▁نابین	-11.0709
▁سەند	-11.0712
مام	-11.0712
هاتنی	-11.0712
▁700	-11.0713
▁ناوەندەکانی	-11.0715
دەدا	-11.0715
▁لەکاری	-11.072
▁خوالێخۆشبوو	-11.0721
▁جیاوازدا	-11.0722
▁دەستکەوتەکانی	-11.0725
▁گۆت	-11.0726
▁بارانی	-11.0727
ژێ	-11.0729
▁63	-11.073
▁ئاماژەم	-11.0733
▁دەربڕیوە	-11.0735
▁هەرێما	-11.0735
▁خستەسەر	-11.0736
شن	-11.0736
▁باقی	-11.0738
▁وام	-11.0739
▁نیعمەت	-11.0739
▁ڕەتی	-11.074
▁نەزان	-11.0742
▁ڕووبدات	-11.0742
▁جیابوونەوەی	-11.0742
▁پۆزەتیڤ	-11.0744
▁ڕژێمەکەی	-11.0745
▁نوح	-11.0745
▁نەگۆڕ	-11.0745
▁کۆمۆنیست	-11.0746
▁ڕوخساری	-11.0746
▁بۆته	-11.0747
▁مەخمور	-11.075
▁بەکارهێناوە	-11.0752
▁گرنگیدان	-11.0754
▁کەمینە	-11.0755
▁سەرا	-11.0757
▁لەخۆیدا	-11.0761
▁ئایەتی	-11.0762
▁سەعدییە	-11.0763
▁خۆشحاڵ	-11.0769
تیک	-11.077
▁داخوازییەکانی	-11.0772
سیا	-11.0773
ساز	-11.0773
کۆڵ	-11.0774
▁ئیست	-11.0776
▁جیهانیی	-11.0779
▁دامەزراو	-11.078
▁دوازدە	-11.078
▁کراوەتە	-11.0781
▁کەرت	-11.0784
▁هەور	-11.0784
▁دیکتاتۆرییەت	-11.0785
دەبێتەوە	-11.0786
▁دووپاتیکردەوە	-11.0786
▁هەوڵدەدات	-11.0789
▁ئیمزای	-11.0792
▁دەسەڵاتیان	-11.0797
▁هاوکێشە	-11.0798
▁لێدەکەوێتەوە	-11.0803
▁قایل	-11.0804
ەکانیشی	-11.0809
▁پشتیان	-11.0809
▁کۆمە	-11.0812
▁ڕاوێژ	-11.0812
▁ناونیشان	-11.0814
▁سووکایەتی	-11.0818
دری	-11.0822
▁دەگەڕێت	-11.0824
▁هێ	-11.0826
ویت	-11.0828
▁ڕاوێژکار	-11.0831
▁بەقەد	-11.0832
▁پرسیارانە	-11.0832
▁حوسنی	-11.0833
▁بەرەبەیانی	-11.0834
▁ڕوونە	-11.0835
▁عبداللە	-11.0836
▁قسەیە	-11.0836
▁وەلام	-11.0837
▁هێلکە	-11.0838
▁فریای	-11.0838
▁پشووی	-11.0843
▁ژین	-11.0845
▁نیشتەجێی	-11.0848
چۆ	-11.0849
▁جیاوازییەکی	-11.0851
▁بیرە	-11.0852
▁دانیشتنەکانی	-11.0854
▁حیزبەکانی	-11.0854
▁خانمان	-11.0854
▁تورکیاش	-11.0855
▁نیزامی	-11.0856
▁پەیکەر	-11.0856
▁بیابان	-11.0857
▁ڕێنماییەکانی	-11.0858
▁هەڵنە	-11.0863
▁سرووشتی	-11.0868
▁ئێسک	-11.0869
▁لەمە	-11.0871
▁دێر	-11.0871
▁ئایدۆلۆژی	-11.0874
▁پیری	-11.0875
▁لیستەکەی	-11.0876
کەوتنی	-11.0879
کاو	-11.088
▁هەناسەی	-11.0881
▁گرد	-11.0881
▁102	-11.0883
▁مەودای	-11.0883
▁مر	-11.0885
نانی	-11.0887
دوا	-11.0889
▁دڵنیاییەوە	-11.0889
▁دەستگیرکراون	-11.0889
▁هاوپەیمانەکانی	-11.089
▁خانووبەرە	-11.0891
▁پەیوەند	-11.0892
▁ڕاس	-11.0894
▁دەستەیەک	-11.0899
▁توێژەکانی	-11.0899
▁هەقی	-11.0904
▁چاودێریکردنی	-11.0905
▁قەڵای	-11.0907
▁الج	-11.0908
▁بێئەوەی	-11.0914
▁زەوت	-11.0921
▁هەڵدەگرێت	-11.0923
یشمان	-11.0923
▁وەدەست	-11.0927
سەی	-11.0927
▁قادری	-11.0927
▁لەشی	-11.0928
▁جوتیار	-11.0929
واز	-11.093
لاند	-11.093
▁ڕاسپارد	-11.093
دەکرێن	-11.0932
▁گوللە	-11.0932
ەڕ	-11.0933
▁بەناچاری	-11.0934
▁بیانییەکان	-11.0938
▁چەکدارێکی	-11.0942
▁ناساندن	-11.0942
▁گر	-11.0943
کوڕ	-11.0948
▁نەیویست	-11.0952
▁ببین	-11.0954
▁کامل	-11.0955
یز	-11.0956
▁بەپێویستی	-11.0957
▁کاته	-11.0957
▁تازەیە	-11.0958
▁دەرفەتێکی	-11.096
ژە	-11.096
▁ڕەوەندی	-11.0963
▁پەرەی	-11.0964
▁شەفاف	-11.0964
▁تەلار	-11.0964
▁هاورێ	-11.0965
▁شاجوانی	-11.0965
▁زێر	-11.0966
▁بەرفراوانی	-11.0969
▁مەزنە	-11.0971
ەکانیدا	-11.0971
▁گفتوگۆکانی	-11.0973
دانەوەی	-11.0973
▁ڕووداوه	-11.0974
▁هێڵە	-11.0975
▁ئێمەیان	-11.0978
▁1979	-11.0978
▁ئازادە	-11.0979
▁وتەکانی	-11.0981
▁ناس	-11.0987
▁گورگ	-11.099
▁عەممار	-11.0994
▁سەرەرای	-11.0996
▁نییەبۆ	-11.1002
مەسعود	-11.1003
▁ئینسانەکان	-11.1003
▁کۆبوونەوەکەی	-11.1004
▁پێکردنی	-11.1005
▁دانرا	-11.1007
▁قر	-11.1008
▁بیانوو	-11.1008
▁یەکدا	-11.1011
▁سوتەمەنی	-11.1012
▁سەرجەمی	-11.1016
▁هێنانەدی	-11.1019
▁پەیامەکەی	-11.1021
نێر	-11.1022
وتە	-11.1022
▁ئێجگار	-11.1024
▁خولە	-11.1025
▁هەشتەمی	-11.1026
▁مەترسیدارە	-11.1027
▁دەبوون	-11.1027
▁نەتەوەییەکان	-11.1029
▁مەسیحییەکان	-11.1029
▁ڕادەگەیەنێت	-11.103
▁ئامادەکردن	-11.1031
▁یەنایەر	-11.1031
▁هەڵبژاردنێکی	-11.1033
▁بدرێن	-11.1033
▁مۆدێلی	-11.1038
وق	-11.1039
▁واشنتۆن	-11.1042
▁جۆرەها	-11.1051
کۆل	-11.1053
▁مەمک	-11.1053
▁فریاکەوتن	-11.1054
▁لاوەکی	-11.1058
▁دەستپێشخەری	-11.106
▁الق	-11.106
▁شۆڕشگێڕ	-11.1062
▁فەڕەنسی	-11.1063
▁ئاگایی	-11.1065
▁تێپەڕاندنی	-11.1069
ۆژ	-11.1069
▁ڕەخنەو	-11.1072
▁حکومەتەوە	-11.1073
▁نوو	-11.1073
▁حوزەیرانی	-11.1075
▁هەڵمەت	-11.1075
▁بەڵ	-11.1075
▁تووش	-11.1077
جان	-11.1082
▁پێکدادانی	-11.1083
▁پارتەکەی	-11.1083
▁پیشە	-11.1084
▁61	-11.1085
▁ات	-11.1087
▁ئامادەبوو	-11.109
▁مەس	-11.1095
▁توانرا	-11.1096
▁ترین	-11.1096
▁قێزەون	-11.1098
تین	-11.1102
▁ڕێگەگرتن	-11.1104
▁بەرامبەردا	-11.1105
▁لێکراو	-11.1108
▁بلا	-11.1109
▁پڕوپاگەندەی	-11.111
▁ناوزەد	-11.1113
▁بەتۆمەتی	-11.1115
▁دەستکەوتە	-11.1115
▁گروپێک	-11.1115
▁ئەسڵی	-11.1116
بەخش	-11.1117
▁شۆفێری	-11.1117
▁ڕۆڵیان	-11.1118
▁بەدرۆ	-11.1119
ێکى	-11.1122
▁ئەمساڵیش	-11.1123
▁ئامادەیه	-11.1123
▁تاقیکردنەوە	-11.1126
▁دەکوژرێن	-11.1127
▁شێواندنی	-11.1128
نووسی	-11.1131
کن	-11.1131
▁ناکاتەوە	-11.1134
▁سەرەخۆشی	-11.114
▁بینەران	-11.114
▁ئەگەرنا	-11.1142
ژین	-11.1143
▁مەشقی	-11.1144
▁n	-11.1145
▁تەعریب	-11.1145
▁نەهێنا	-11.1148
▁ڕاپۆرتەکەی	-11.1151
▁شەوانە	-11.1151
it	-11.1152
سو	-11.1153
▁یارمەتیی	-11.1155
▁فەرموو	-11.1155
▁سازش	-11.1156
▁بێتاوان	-11.1156
▁کۆمەڵایەتییە	-11.1157
▁نەبووەو	-11.1157
▁هەندی	-11.1157
وتن	-11.1158
گەڕ	-11.1158
▁ئەفغانی	-11.1162
دەکەم	-11.1164
▁زاتەی	-11.1165
▁ئەنجومەنە	-11.117
اکان	-11.1171
ومە	-11.1172
▁زووترین	-11.1175
▁ڕێژ	-11.1175
▁تانک	-11.1177
▁دەگەڕێن	-11.1178
▁منەوە	-11.1179
▁بکاتەوەو	-11.1184
خەر	-11.1186
▁پەرلەمانەوە	-11.1188
▁کێوی	-11.1192
▁نەجیب	-11.1192
▁ئاخاوتن	-11.1193
▁پێدە	-11.1194
▁ئەنجومەنەکە	-11.1195
ندە	-11.1197
▁نێردراوە	-11.1198
▁بکوژ	-11.12
▁یادە	-11.1203
▁سەرنووسەری	-11.1205
▁ملیارو	-11.1208
▁ناخ	-11.121
وات	-11.1216
▁حەبیب	-11.1217
▁دارو	-11.122
▁تاوانبارانی	-11.1222
▁گەمارۆ	-11.1222
▁لەباری	-11.1223
▁لێکراوە	-11.1225
یەکەوە	-11.1228
▁نارەزایی	-11.1228
on	-11.1229
▁دەستپێکرد	-11.1229
▁دڵەڕاوکێ	-11.1229
▁مۆدێرنە	-11.123
▁پێکهێناوە	-11.1233
▁مەتری	-11.1234
اف	-11.1235
▁f	-11.1239
▁خۆپیشاندانەکە	-11.124
شیدا	-11.1242
▁دانوستاندن	-11.1243
▁ئیدریس	-11.1243
▁67	-11.1245
▁مۆسیقای	-11.1246
▁دەگەڕێنەوە	-11.1246
▁شانبەشانی	-11.1249
▁دەگێڕێت	-11.125
▁کەسوکار	-11.1255
▁نەتوانن	-11.1256
▁فرانس	-11.1256
▁چونە	-11.1257
▁سەروو	-11.1258
▁ئەدای	-11.1258
ڕەو	-11.1258
▁دەوڵەتێک	-11.1258
▁بەرەکانی	-11.126
▁سەلەفی	-11.1261
▁لەهەمبەر	-11.1262
▁کتێبەکانی	-11.1263
▁نوسراو	-11.1264
▁بابەتەکانی	-11.1264
ناوە	-11.1264
ریت	-11.1265
مای	-11.1265
▁باسکردن	-11.1265
▁ڕاستگۆیی	-11.1266
▁کارگە	-11.1266
▁تاوانێکی	-11.1268
▁ئەوەشکرد	-11.127
رەی	-11.1271
ێنێتەوە	-11.1273
▁هۆتێل	-11.1273
▁چو	-11.1277
▁ئایەتەکانی	-11.128
ڕێژ	-11.128
▁لەسێدارەدانی	-11.128
▁68	-11.128
▁ستران	-11.1282
▁گروپه	-11.1283
▁ئەکەین	-11.1284
▁چۆتە	-11.1284
▁پاشایەتی	-11.1285
نەبوونی	-11.1285
▁سازکردنی	-11.1287
▁جەختیان	-11.1288
▁لەچەندین	-11.1288
▁شێعرە	-11.1292
▁ئایاری	-11.1294
▁باڵاکانی	-11.1296
▁باخی	-11.1297
▁گوڵە	-11.1298
▁پارێزگەها	-11.1299
▁دەستەبەرکردنی	-11.1302
خستن	-11.1303
▁گوندە	-11.1303
▁بتوانم	-11.1303
▁الح	-11.1305
ظ	-11.1308
▁بەشێوازی	-11.131
▁لەوێش	-11.1311
▁مەع	-11.1313
▁پەرتووک	-11.1314
▁لەکۆبوونەوەی	-11.1314
ەکانیشیان	-11.1314
▁77	-11.1316
▁پایەی	-11.1317
▁هەڵکەوت	-11.1319
▁لەسەرەتادا	-11.1319
اج	-11.1319
▁ڕامیاریی	-11.1321
▁کەوابوو	-11.1321
▁سزایەکی	-11.1326
▁ڕوداو	-11.1328
▁خاڵێک	-11.1332
▁تەکنیک	-11.1334
سین	-11.1339
▁تێکچوونی	-11.1339
▁شێوازێک	-11.1342
▁بریارە	-11.1345
▁یو	-11.1345
ێنم	-11.1346
▁ڕایگەیاندبوو	-11.1346
▁ئەرسناڵ	-11.1351
▁دەمەی	-11.1353
▁شێوه	-11.1356
▁ڕێککەوتنە	-11.1357
▁کۆمەڵگاو	-11.1358
▁خزمەتکردن	-11.1359
▁وابێت	-11.1359
▁b	-11.1361
▁جگەلەوەی	-11.1362
▁باڵاو	-11.1362
▁پسپۆری	-11.1365
▁بەراز	-11.1366
بەرهەم	-11.1369
▁قەڵا	-11.1372
▁نائومێد	-11.1373
▁ڕەخنەگر	-11.1373
▁دەوامی	-11.1378
ۆش	-11.1379
▁بەرزتر	-11.138
▁ڕۆناڵدۆ	-11.1381
▁کەسێ	-11.1382
▁بازرگانیی	-11.1386
▁بەرەوڕووی	-11.1386
▁سەرەتاوە	-11.1387
مەت	-11.1388
▁خۆماندا	-11.1389
▁لەخۆیان	-11.139
▁نەکردن	-11.1391
▁ناساند	-11.1394
▁توندوتیژ	-11.1395
20	-11.1397
▁دەستگیرکرا	-11.1399
▁مسۆگەرکردنی	-11.14
▁خەڵکانێک	-11.1402
▁ناسیۆنالیزمی	-11.1403
▁نووسەرو	-11.1404
▁سازی	-11.1406
▁ترسناکە	-11.1409
▁جەزائیر	-11.141
بکەم	-11.1411
▁لەماوەیەکی	-11.1411
▁زنجیره	-11.1416
▁بزانە	-11.1418
▁شارەزایان	-11.1421
▁کەمبوونەوەی	-11.1428
▁بێژەر	-11.1428
راس	-11.1428
▁خەڵاته	-11.1428
▁تیرۆرستی	-11.1433
▁سنووردار	-11.1433
▁ئەمڕۆدا	-11.1434
▁ئەفریقیا	-11.1435
▁حەیدەری	-11.1435
▁زەمان	-11.1435
▁شوێنەوار	-11.1437
▁بیمەی	-11.1438
▁لەتەمەنی	-11.1441
▁کاسب	-11.1442
▁جەعفەری	-11.1443
▁k	-11.1444
▁کچەکە	-11.1445
▁سەرم	-11.1446
▁بارودۆخێکی	-11.1449
▁بەخشرا	-11.1451
▁ئەمجۆرە	-11.1451
▁بەرتەسک	-11.1454
▁گەشتیاران	-11.1457
▁فیلمەکەی	-11.1457
▁بوێر	-11.1459
زر	-11.1459
▁سەپاند	-11.1461
▁تائیفی	-11.1462
▁گیرفانی	-11.1462
▁شوێنانە	-11.1462
▁دەستێوەردانی	-11.1463
▁بچووکی	-11.1464
▁براو	-11.1466
▁ئارادایە	-11.1467
ێنەر	-11.1471
▁گوزەر	-11.1473
▁کردۆتەوه	-11.1475
▁1980	-11.1475
▁ئۆتۆمبیلی	-11.1477
▁دەکردن	-11.1477
▁لایەنانەی	-11.1477
▁منداڵەکە	-11.1477
▁کۆم	-11.1478
▁هۆز	-11.1478
▁قایم	-11.1481
▁شوو	-11.1482
▁خاکە	-11.1482
ri	-11.1483
▁تاوتوێکرد	-11.1486
el	-11.1486
هاو	-11.1487
▁ناعەدالەتی	-11.1487
▁هاوشێوە	-11.1487
▁ئینگلیز	-11.1488
15	-11.1488
▁کۆبوونەوەکان	-11.149
la	-11.1492
دڵ	-11.1495
▁گوشاری	-11.1496
▁لێنە	-11.1496
▁چێندراو	-11.1496
▁ڕێژە	-11.1498
▁سەرکوتکردنی	-11.1498
پاش	-11.15
▁مەسیح	-11.1501
▁لەسێدارەدان	-11.1502
▁سوار	-11.1503
▁گۆڕاوە	-11.1511
باش	-11.1512
▁فێربوون	-11.1513
▁پێشهات	-11.1515
▁بگەیەنن	-11.1517
▁خوێندنگە	-11.1517
▁تیر	-11.1523
سەد	-11.1523
▁دەسەڵاتێک	-11.1526
▁ئیقلیمی	-11.153
▁میهرەبانی	-11.153
▁سەلمان	-11.153
▁ئام	-11.1532
▁ڕۆژنامەنوسی	-11.1534
▁بردنەوە	-11.1536
▁ڕوبەڕوی	-11.1538
▁باوەش	-11.1542
رۆژ	-11.1545
گوێز	-11.1546
▁لل	-11.1547
▁کامە	-11.1547
▁ئەویتر	-11.1548
▁تاکەکەس	-11.1549
ائی	-11.155
▁ئەبوو	-11.155
▁نەخش	-11.1552
▁گوتویەتی	-11.1552
▁پێویستیی	-11.1553
بت	-11.1554
▁شەبەک	-11.1556
ێوەبەرایەتی	-11.1558
سل	-11.156
▁پارەیەی	-11.1561
▁مریشک	-11.1562
50	-11.1568
▁گێل	-11.1572
▁بگۆڕن	-11.1575
▁گل	-11.1576
▁باسێکی	-11.1576
▁بەڵگەیەکی	-11.1579
▁لەزانکۆی	-11.1581
▁ستار	-11.1582
▁800	-11.1582
▁ڤ	-11.1584
▁هێل	-11.1584
▁نار	-11.1585
▁بارزان	-11.1585
▁کڕی	-11.1586
il	-11.1588
رک	-11.1589
▁فیدرال	-11.1589
▁مەم	-11.1595
▁ئێم	-11.1595
زمی	-11.1595
49	-11.1596
▁بەشێوازێکی	-11.1599
▁هەمویان	-11.1601
▁هەندێکجار	-11.1601
▁قەبوڵ	-11.1602
▁شاهۆ	-11.1602
▁یەکیان	-11.1604
▁بەچ	-11.1604
▁دوورو	-11.1606
▁هێنانە	-11.1606
راوی	-11.1607
▁زاتی	-11.1608
ژەن	-11.1609
بەی	-11.1611
▁دیوار	-11.1613
▁لەیەکێتی	-11.1614
▁ڕۆلی	-11.1614
▁دەستکەوتێکی	-11.1615
▁هێند	-11.1615
▁واتایەکی	-11.1619
▁لاوازە	-11.1619
▁عەرەبیدا	-11.1619
▁قەرەبووکردنەوەی	-11.162
▁دەستوورە	-11.162
▁جیهانییەکان	-11.1621
▁العرب	-11.1621
است	-11.1622
ناوی	-11.1623
▁وتارە	-11.1624
▁کوردیەکان	-11.1629
▁هیند	-11.1631
▁چالاکیی	-11.1632
▁ئەوانەوە	-11.1634
▁لێکدانەوە	-11.1635
▁کتێبێک	-11.1635
کۆی	-11.1637
▁بازرگان	-11.1638
▁بەهەند	-11.1638
بکە	-11.1641
▁زانکۆکان	-11.1643
▁ساڵێکی	-11.1648
▁نەش	-11.165
▁ڕۆژێکدا	-11.165
▁دیارترین	-11.1651
▁هێنایەوە	-11.1653
▁بوێت	-11.1653
▁کچەکەی	-11.1654
ەکانیانەوە	-11.1654
▁تۆزێک	-11.1655
▁76	-11.1656
▁ڕووخاندنی	-11.1657
لیا	-11.1659
▁تێکستی	-11.1659
▁نووسینە	-11.1663
▁ڕێگەیەوە	-11.1663
▁شاخەوان	-11.1664
▁پێگەیشت	-11.1665
وڵا	-11.1665
▁خوو	-11.1667
سر	-11.1668
▁بەهێزترین	-11.1668
▁باسم	-11.1669
▁پێشووتر	-11.167
▁پێشوودا	-11.1671
▁دیاربەکر	-11.1673
▁دابەزی	-11.1676
▁خراپترین	-11.1677
▁بەشێکن	-11.1679
مەی	-11.168
▁چاوەکانی	-11.168
تەوه	-11.1682
▁مس	-11.1682
▁دەڤەرە	-11.1685
▁ئامار	-11.1686
▁جین	-11.1687
▁مێزی	-11.1687
▁مەست	-11.1689
▁ڕۆژنامەکان	-11.1691
▁ئاماژەشیدا	-11.1691
▁ئەف	-11.1693
نز	-11.1694
▁سەردان	-11.1696
١	-11.1696
▁فەیسبوک	-11.1698
ەمین	-11.1698
▁وەرگرتنەوەی	-11.1699
▁کوشتووە	-11.1699
3	-11.1703
غە	-11.1703
▁ئامانجێکی	-11.1705
لة	-11.1706
▁دۆلارە	-11.1706
C	-11.1708
▁کورستان	-11.171
ایەوە	-11.1715
▁ئەزمون	-11.1717
▁دەرێ	-11.1717
▁گووت	-11.1718
▁لەسێ	-11.1719
▁جێگا	-11.1721
▁شەقامەکانی	-11.1721
تۆن	-11.1722
▁لەئەنجامدا	-11.1723
▁فاروق	-11.1724
▁بەهاو	-11.1728
▁قەیرانێکی	-11.1729
▁لەبەرانبەر	-11.1733
▁on	-11.1735
).	-11.1736
▁حازر	-11.1737
▁خواز	-11.1737
▁هاوبیر	-11.1739
▁ئەمیش	-11.1741
▁هەژموونی	-11.1743
قەی	-11.1745
▁پەت	-11.1745
▁گوێبیستی	-11.1745
▁هەشتا	-11.1745
▁کۆتاییهێنان	-11.1745
▁ژنەکەی	-11.1745
▁سالم	-11.1746
10	-11.1747
نای	-11.1749
P	-11.175
▁بازاڕەکانی	-11.1751
▁پێرس	-11.1751
▁سلێمانیدا	-11.1753
▁شیری	-11.1753
▁فیشەک	-11.1754
▁سەربەستی	-11.1755
شێو	-11.1755
▁سەیدسادق	-11.1757
▁توندڕەوی	-11.1758
▁پێنجەمی	-11.1759
▁بەرازیلی	-11.1759
دوور	-11.1759
▁هەناردەی	-11.1759
▁چواری	-11.176
نەکراوە	-11.1761
▁هەفته	-11.1764
▁کۆمۆنیزم	-11.1767
▁زانیوە	-11.1767
▁پەروەردگارتان	-11.177
▁ئەدەبیات	-11.1771
مێ	-11.1774
▁گۆشەی	-11.1775
▁مامەند	-11.1775
▁ناوێکی	-11.1779
▁ستەمی	-11.1779
▁پاککردنەوەی	-11.178
هەست	-11.1781
▁لەئێستا	-11.1781
▁کێشاوە	-11.1781
▁پێوەی	-11.1783
▁سەرکەوتنیان	-11.1783
▁ڕەزامەندیی	-11.1786
▁إلی	-11.1789
▁کارئاسانی	-11.179
▁ئەفسەر	-11.179
▁لیژنەکانی	-11.179
▁دڵخۆشی	-11.179
▁کری	-11.1791
▁تەوافوقی	-11.1792
▁بەواتای	-11.1794
▁دڕندە	-11.1797
▁دەمێ	-11.1797
لەگەڵ	-11.1799
▁تۆپباران	-11.1802
مر	-11.1803
▁پەیمانگەی	-11.1803
▁1000	-11.1803
▁دید	-11.1804
گل	-11.1807
▁هیندی	-11.1807
▁شاعیران	-11.1808
▁هۆڵ	-11.1809
▁لەساڵانی	-11.181
▁چالاکوانانی	-11.1811
E	-11.1812
▁1970	-11.1818
▁شیرینی	-11.182
▁بۆلای	-11.1821
▁سەراسەری	-11.1821
▁خۆشەویستیی	-11.1823
▁بەڵگەنامەی	-11.1823
▁تۆماربکات	-11.1826
▁مایۆ	-11.1828
▁درەخت	-11.183
▁دێرینی	-11.1832
▁دەرد	-11.1834
▁پەخشان	-11.1836
▁سالانە	-11.1837
یف	-11.1838
▁ئەندامێتی	-11.1838
▁دوورخستنەوەی	-11.1839
▁گرنگییەکی	-11.1843
▁دابڕان	-11.1843
▁پێشان	-11.1846
▁سەرەکیەکانی	-11.1848
▁کۆمەڵایەتیەکان	-11.1851
▁چەقۆ	-11.1853
کانەوە	-11.1855
▁وێڵ	-11.1856
▁تاکێک	-11.1856
▁هەوادارانی	-11.1858
▁شیعه	-11.1861
▁کتێبەکە	-11.1862
▁وەفدەکە	-11.1865
▁ئیحسان	-11.1867
▁ڕفیق	-11.1868
ەته	-11.187
ەڵ	-11.187
▁کەڵکی	-11.187
▁کارانەی	-11.1871
▁مەرامی	-11.1871
▁کەمترە	-11.1872
▁دیسەمبەر	-11.1873
▁إن	-11.1879
▁کەواته	-11.188
▁سمکۆ	-11.1882
دەکەنەوە	-11.1884
▁کاربکەن	-11.1886
▁دەوڵەمەندی	-11.1887
▁پێکهاتەکان	-11.1889
▁باوەڕان	-11.1892
▁ستاندارد	-11.1893
▁کراوی	-11.1893
▁پەیوەندیە	-11.1895
▁زەردەشتی	-11.1896
▁دەیبینین	-11.1896
▁بەرپرسیاری	-11.1897
▁گروپ	-11.1901
▁دەبو	-11.1902
▁بەرنامەکە	-11.1905
▁شاکر	-11.1906
▁حسن	-11.1909
▁خزمەتێکی	-11.1909
▁فیدڕاڵ	-11.1911
▁بەنداوی	-11.1913
▁سەردانە	-11.1913
▁فازڵ	-11.1914
▁گەندەڵیی	-11.1914
▁66	-11.1914
▁بەئاژانسی	-11.1914
▁هەبن	-11.1915
▁دواین	-11.1917
جو	-11.1918
▁عەبدولعەزیز	-11.192
▁شەرمەزاری	-11.1921
▁لەهەمو	-11.1924
▁دەستپێک	-11.1925
▁هەرزان	-11.1925
▁ئەوروپای	-11.1926
▁بەحرەین	-11.1927
▁مارکسی	-11.193
▁شەرعییەت	-11.193
▁کودەتا	-11.1931
▁عبد	-11.1933
▁ناڤێ	-11.1935
اح	-11.1937
▁ناردووە	-11.1937
ەندە	-11.1938
▁پاڵپشت	-11.194
▁داگیرکەرانی	-11.1941
▁ساڵەکانی	-11.1941
▁پەرلەمانتارە	-11.1946
▁گیرفان	-11.1947
▁کۆبوونەوه	-11.1948
▁فێستیڤاڵ	-11.195
▁سن	-11.1951
▁داون	-11.1952
▁ڕاب	-11.1952
▁ماک	-11.1957
▁کاس	-11.1959
▁نەقشبەندی	-11.196
▁بەتوانای	-11.196
▁آ	-11.1963
▁تام	-11.1964
▁داواش	-11.1965
▁سەنگەری	-11.1967
▁لادان	-11.1967
▁شیعریی	-11.1967
▁خوازی	-11.1967
▁بارو	-11.1968
▁دیبلۆماسی	-11.1968
دەو	-11.1968
▁کەمن	-11.1971
▁هێشتنەوەی	-11.1972
▁دووجار	-11.1973
▁دیدە	-11.1974
▁زانیاریانەی	-11.1976
▁دڵە	-11.1977
▁دەنێرێت	-11.1979
▁خۆمم	-11.1982
▁بیریان	-11.1982
▁جەماوەریی	-11.1985
▁کەرکوکدا	-11.1986
▁گەرما	-11.1987
برد	-11.1991
▁گفتوگۆیەک	-11.1992
▁هێرشبەر	-11.1992
▁کێڵگەی	-11.1993
▁دیکەشەوە	-11.1994
z	-11.1995
▁ڕەسول	-11.1995
▁یەکجاری	-11.1998
▁شاردنەوەی	-11.1999
▁وێت	-11.2001
▁ئاشتیانە	-11.2002
▁بەلاوە	-11.2005
هێنا	-11.2006
▁قسه	-11.2007
گرێ	-11.2008
ریا	-11.2009
▁پارکی	-11.2012
!	-11.2013
بەو	-11.2013
▁دایان	-11.2014
ولی	-11.2014
▁ئەمریکییەکان	-11.2015
نەتەوە	-11.2018
▁نوسی	-11.2019
▁دیزاینی	-11.2022
مة	-11.2023
▁یەکڕیزیی	-11.2024
کردنەوەو	-11.2025
▁هەنگاوەی	-11.2026
▁سێو	-11.2027
▁بەشێکیان	-11.2027
▁خۆشیەوە	-11.2029
▁قورسی	-11.2033
▁زمانێک	-11.2034
▁فیستیڤاڵە	-11.2035
▁شەکر	-11.2039
▁ڕۆم	-11.2041
▁هەڵیان	-11.2042
▁نادروست	-11.2042
▁ماڵێک	-11.2043
ڤێ	-11.2045
چون	-11.2046
▁ڤیتامین	-11.2046
▁بەزووترین	-11.2046
▁دیدارێکی	-11.2047
▁وامان	-11.2047
▁جلوبەرگی	-11.2048
فل	-11.2048
لک	-11.2049
▁دروستبووە	-11.2051
▁سیخوڕی	-11.2052
▁هاندەر	-11.2053
▁دەخایەنێت	-11.2054
دێر	-11.2055
▁ئۆمەران	-11.2057
▁هەڵگرتووە	-11.2059
▁پەتی	-11.2061
ڕەش	-11.2066
▁کارم	-11.2066
▁ژوورەوە	-11.2067
▁ناگەیەنێت	-11.2069
▁هۆیەوه	-11.2069
▁بۆچوونەکانی	-11.2073
وف	-11.2075
▁ڕێکخستنەکانی	-11.2077
▁سەرەکییە	-11.2079
▁گۆڕانکارییەکانی	-11.208
▁ئازارو	-11.208
▁گۆڕانە	-11.2084
▁زین	-11.2085
▁ناڕەوا	-11.2088
▁جنێو	-11.2089
▁ئاسانە	-11.209
▁پارتەکانی	-11.209
▁سنورەکانی	-11.2092
ing	-11.2094
▁پەیمانگاکان	-11.2094
▁زۆرەی	-11.2097
▁دل	-11.2097
▁دایکان	-11.2099
▁ئەلعێراقییە	-11.2101
▁دیم	-11.2101
▁ئیدارە	-11.2102
ێری	-11.2107
بکرێتەوە	-11.2108
▁نەخوازراو	-11.2109
▁ئەلبوم	-11.2113
▁بێکار	-11.2115
▁درک	-11.2117
▁تەقلیدی	-11.2118
▁٣	-11.2119
▁توڕەیی	-11.212
▁بەیانیان	-11.212
▁پیادەکردنی	-11.2123
▁ئۆتۆنۆمی	-11.2123
اڵح	-11.2125
▁لەمافی	-11.2127
ناکات	-11.213
▁موزایەدەی	-11.2132
▁لێدێت	-11.2133
▁زادە	-11.2133
▁نەقیب	-11.2135
▁بەرپ	-11.2136
▁خوێنەرانی	-11.2138
▁کۆڵان	-11.2138
▁ئاستەی	-11.2139
▁ڕاپۆڕتی	-11.214
▁بەڕاست	-11.2142
▁هار	-11.2145
▁گەورەکەی	-11.2149
▁بنێرێت	-11.2151
▁هێنابوو	-11.2152
▁بەخەڵکی	-11.2155
کیان	-11.2156
▁1998	-11.2159
▁مەقام	-11.2167
رز	-11.2167
▁دەستگیرکرد	-11.2169
▁ڕابوردوو	-11.217
▁بەیەکێک	-11.2173
▁دادگایەکی	-11.2173
▁درکاند	-11.2175
▁کۆنەپەرستی	-11.2177
ادە	-11.2178
▁بۆنموونە	-11.218
گوێ	-11.2181
▁پێشڕەو	-11.2181
▁دیوان	-11.2184
▁جووت	-11.2185
▁جیدی	-11.2185
▁ناسیۆنالیزم	-11.2185
کردەوه	-11.2187
▁داگیرکاری	-11.2189
▁دڵنیابن	-11.219
▁کاتژمێری	-11.2191
▁بەرهەمهێنەر	-11.2192
▁پاسەوان	-11.2198
▁تیرۆریستییەکان	-11.2203
▁گوتمان	-11.2203
▁ڕەواندزی	-11.2205
ئاو	-11.2205
▁الش	-11.2209
▁هاوردە	-11.2209
▁زا	-11.221
▁هاوشانی	-11.2212
▁ڕادەیەکی	-11.2215
▁هۆشیاریی	-11.2218
عا	-11.2222
▁سینەماکانی	-11.2223
▁چەکە	-11.2223
▁دەرخستنی	-11.2223
▁تۆڕە	-11.2229
▁مەترسییەکانی	-11.223
▁ئاژانسەکان	-11.2231
▁یارییەدا	-11.2233
بازی	-11.2234
▁تێدەپەڕێت	-11.2234
▁دەیویست	-11.2237
ەوێت	-11.2238
▁ئێزدییەکان	-11.2239
▁تووشبوون	-11.2239
▁ض	-11.224
▁خاتری	-11.2245
▁وانییە	-11.2246
▁لەئەندامانی	-11.2247
▁نور	-11.2247
▁خۆکوژ	-11.2247
▁قوباد	-11.2248
▁خوی	-11.2248
▁لوت	-11.225
ۆنی	-11.2251
▁بۆخۆیان	-11.2256
▁دەقێکی	-11.2258
▁کەوتەوە	-11.226
▁مۆندیالی	-11.2262
کراوەتەوە	-11.2263
▁بارودۆخەی	-11.2264
▁دانیشتوانەکەی	-11.2268
▁نۆڤەمبەر	-11.2269
إ	-11.227
▁خەت	-11.227
▁قاچ	-11.227
▁ڕۆن	-11.2271
▁توێژەران	-11.2272
▁ئەنجامدەدرێت	-11.2272
▁خێڵەکی	-11.2272
▁پۆستەکەی	-11.2274
▁ئەنتەرمیلان	-11.2276
▁دەربکەوێت	-11.2277
▁ڕاگەیەنرا	-11.2278
▁زێدە	-11.2278
▁ئەلمانیا	-11.228
▁پیادەی	-11.2282
▁حەشار	-11.2284
رن	-11.2285
وازی	-11.2285
▁وڵاتەی	-11.2286
▁لێکۆڵینەوەکان	-11.2287
▁لینین	-11.2289
▁بەغداد	-11.2291
▁جیاجیاکان	-11.2292
▁ڕوناکی	-11.2293
▁بۆنە	-11.2295
چێ	-11.2297
▁دەداتە	-11.2297
شەو	-11.2297
▁سام	-11.2299
ینگ	-11.2301
▁مۆ	-11.2302
گۆر	-11.2305
▁تەزویر	-11.2307
▁بایەخێکی	-11.2309
▁ئامارێکی	-11.2311
▁سینەماکارانی	-11.2313
▁کاتێکدایە	-11.2313
▁دەکوژێت	-11.2319
▁دۆڵی	-11.2323
▁پلانە	-11.2323
▁هالیوود	-11.2324
▁سەڵاحەدین	-11.2325
▁باڵندە	-11.2326
▁دابڕێنراوەکان	-11.2328
▁هاولاتی	-11.2329
▁کز	-11.233
▁ئاسەواری	-11.2331
▁ئەسعەد	-11.2331
پۆ	-11.2332
▁فاشی	-11.2334
▁هەنگاونان	-11.2335
زه	-11.2336
▁بەزۆری	-11.2337
▁زادەی	-11.2338
بەم	-11.2339
▁غەم	-11.2341
اتە	-11.2344
▁ساردی	-11.2344
▁وێنەکان	-11.2346
ئەمەش	-11.2347
سام	-11.2348
دەکا	-11.2348
▁یۆتۆبۆری	-11.2352
▁هێناوەتە	-11.2352
تەو	-11.2354
▁هێناوەو	-11.2355
▁مامەڵەیان	-11.2355
▁سەرما	-11.2356
▁کۆدەنگی	-11.2356
▁سم	-11.2357
▁وتووە	-11.2357
سار	-11.2358
دەکەوێت	-11.2358
▁گەشتوگوزاری	-11.2362
▁مەکسیک	-11.2362
▁هەناوی	-11.2363
▁فیلمێک	-11.2363
▁گرینگە	-11.2364
▁شمەک	-11.2364
▁دیمەنەکانی	-11.2374
▁داستان	-11.2375
▁میز	-11.2379
نەوەو	-11.238
▁گشتییەکانی	-11.238
▁هاوڕێیەتی	-11.2382
▁بەکاریان	-11.2384
▁بایرن	-11.2385
▁گەشەسەندنی	-11.2386
▁بەستووە	-11.2388
▁فرۆشی	-11.2389
▁یەکگرتو	-11.2389
▁بوین	-11.2389
▁ندی	-11.2389
▁یەو	-11.239
▁1987	-11.239
باسی	-11.2396
▁پیاوەکانی	-11.2396
▁لێدوانەی	-11.2397
▁چوارچێوە	-11.2397
▁یاریکردن	-11.2397
▁سەربازییەکان	-11.2399
▁هەڵبژاردنەکاندا	-11.2402
▁سەرکردەو	-11.2402
▁نەهێناوە	-11.2402
گەل	-11.2407
حا	-11.2409
▁پێبکات	-11.2413
▁ڕەوایە	-11.2415
▁64	-11.2418
▁لوتکە	-11.2418
▁ئەح	-11.2418
▁لەراستیدا	-11.2421
▁شمشێر	-11.2425
کرابوو	-11.2425
▁گوندێکی	-11.2426
▁نایانەوێت	-11.2426
▁بەشه	-11.243
▁دەریایی	-11.2433
ــ	-11.2435
باب	-11.2436
▁پێگەیاندنی	-11.2437
▁کرابوون	-11.2439
▁لاسایی	-11.2439
▁چەشنی	-11.2439
▁تەوەرێکی	-11.2439
▁مانچستەریۆنایتد	-11.2442
▁وڵاتەکەمان	-11.2442
▁کۆنفرانسەکە	-11.2442
▁پەرستی	-11.2444
▁تکریت	-11.2447
▁شوێنه	-11.245
▁ماد	-11.2451
▁توانایەکی	-11.2452
▁بەدەنگی	-11.2453
30	-11.2453
▁لەئارادایە	-11.2454
▁نیین	-11.2455
▁کردۆته	-11.2455
ئەنجام	-11.246
▁پێشمەرگەدا	-11.246
▁نەو	-11.2462
▁ڕوداوە	-11.2463
▁شۆڕشگێڕی	-11.2465
▁پێکراوە	-11.2466
▁حیزبەکە	-11.2468
یشم	-11.2468
▁بەسەرۆکایەتیی	-11.247
▁لەئێستاشدا	-11.2472
کراوەو	-11.2473
▁هەرێمێکی	-11.2476
قل	-11.248
▁تیرۆرستان	-11.2482
▁ئامێرە	-11.2482
▁خا	-11.2482
▁بەکارهێنان	-11.2483
▁کۆمەلگا	-11.2485
▁کەمئەندام	-11.2485
▁ئاوو	-11.2487
▁پێدەدرێت	-11.249
▁دیمۆکراسی	-11.249
▁پشک	-11.2491
▁بزانیت	-11.2491
▁ئیمامی	-11.2496
▁ڕێگایەک	-11.2497
▁تیپە	-11.2498
▁تۆمارکردووە	-11.25
▁دۆستەکانی	-11.2504
▁عەدالەت	-11.2506
▁دەگرین	-11.2508
دەستی	-11.2508
زێ	-11.2509
▁ئاسوودەیی	-11.2509
▁ئامادەکردووە	-11.251
▁کێبڕکێ	-11.2515
▁گری	-11.2516
▁شەڕەکە	-11.2516
▁ڕایگەیاندووه	-11.2516
▁مەحاڵ	-11.2517
▁کەمەوە	-11.2517
▁بەیاننامەکەی	-11.2518
▁پارێزگاکە	-11.2519
▁ڕوانگە	-11.2519
▁ناوچەکان	-11.2519
▁لەئێران	-11.2521
▁دەرکردووە	-11.2521
▁خستنەڕووی	-11.2521
▁جەنگێکی	-11.2524
▁جیددی	-11.2525
▁بەردەستی	-11.2526
▁ئێکێ	-11.2528
▁چالاکیەکانی	-11.2528
▁ئێرانییەکان	-11.2529
▁بەسەرهات	-11.2529
▁ئیعدام	-11.2532
▁پەرەپێدان	-11.2533
60	-11.2535
▁میرزا	-11.2537
▁هەول	-11.2538
▁پەروەرده	-11.2538
ژان	-11.2539
▁پۆ	-11.2539
▁بەبۆچوونی	-11.2541
▁فریشتەکان	-11.2543
▁توندتر	-11.2545
هاتن	-11.2546
یەکیش	-11.2547
▁حاڵەت	-11.2547
▁خودایە	-11.2547
▁گوڕ	-11.2552
▁ڕانە	-11.2554
▁وەستانی	-11.2558
▁پرۆگرام	-11.2561
▁یۆڤانتۆس	-11.2561
▁یەکگرتوی	-11.2562
▁هام	-11.2562
▁نازم	-11.2563
▁دەرکەوتن	-11.2566
▁لافاو	-11.2566
▁گی	-11.2566
▁دانیشتووان	-11.2567
▁بەشوێن	-11.2567
▁دەربکات	-11.2568
▁هێنانەوەی	-11.2569
▁اس	-11.2569
▁بۆری	-11.257
▁لەکوردستانی	-11.2574
▁تەقینەوەکانی	-11.2575
▁دکتۆرا	-11.2576
رات	-11.2576
▁قەدری	-11.2577
▁بنێین	-11.2581
▁باوی	-11.2584
▁نایەکسانی	-11.2584
▁گور	-11.2585
▁کوش	-11.2591
▁دەولەت	-11.2592
▁هەڵوەشانەوەی	-11.2593
▁میرانی	-11.2593
▁ئازادو	-11.2594
▁یاریدەدەر	-11.2596
▁بیستەم	-11.26
▁R	-11.2601
▁بنبڕکردنی	-11.2602
▁ڕووناکبیر	-11.2604
▁بوەتە	-11.2605
یەکانەوە	-11.2605
▁بەدەیان	-11.2605
▁ام	-11.2606
▁هیج	-11.2606
▁پیتی	-11.2607
زادە	-11.2608
▁دەمە	-11.2608
▁غەیرە	-11.261
▁هەستێکی	-11.2611
▁1994	-11.2612
▁شەرمەزار	-11.2613
سال	-11.2613
▁ڵا	-11.2615
▁نەرمی	-11.2618
▁بەیاننامە	-11.262
▁بناری	-11.2622
▁ئاڵۆزتر	-11.2624
▁ڕوونیکردەوه	-11.2625
▁ئیداریی	-11.2625
90	-11.2625
▁دیکەیش	-11.2626
▁بازاری	-11.2626
▁هەنوکە	-11.2626
▁دوبەی	-11.2627
▁فێربوونی	-11.2632
▁شارەکه	-11.2632
▁ڕوداوەکانی	-11.2637
▁نابەجێ	-11.2638
▁تۆمارکراوە	-11.2638
▁بزانرێت	-11.2639
▁نەشیاو	-11.264
▁یارمەتیدەر	-11.2641
▁جەواد	-11.2647
تاو	-11.2648
▁ناوەڕۆک	-11.2649
▁هەڕەشەکانی	-11.2651
▁خوێندنەوەیەکی	-11.2651
et	-11.2652
▁دۆزرایەوە	-11.2655
▁بەبەردەوامی	-11.2655
▁نزار	-11.2656
▁براکەی	-11.2657
ەکەیە	-11.2658
▁ئاشت	-11.2658
▁تیم	-11.2658
▁وەفا	-11.266
▁خامۆش	-11.266
▁یەخەی	-11.266
▁لێو	-11.2661
▁کامکار	-11.2661
▁ڕەز	-11.2662
▁دیو	-11.2663
▁ڕایس	-11.2665
▁پایز	-11.267
▁سەرای	-11.2673
▁سەرەتاکانی	-11.2677
پرس	-11.2679
▁وێنەکانی	-11.2682
▁جێبەجێی	-11.2683
▁مەغریب	-11.2684
▁گێمی	-11.2684
▁خوێ	-11.2686
▁1996	-11.2687
▁منە	-11.2687
▁ئەمساڵی	-11.2688
▁ناوچەیەک	-11.2688
▁گرتنەبەری	-11.2689
▁سەربازێکی	-11.2689
▁دەشت	-11.269
▁74	-11.2691
دور	-11.2693
▁بیناسازی	-11.2693
▁بەزۆرینەی	-11.2696
▁ڕێکخستنەوەی	-11.2697
نگی	-11.2699
▁سەرکوتی	-11.27
▁ببینە	-11.2701
غی	-11.2701
▁شاعیرانی	-11.2702
▁درۆی	-11.2702
▁هەنگ	-11.2703
▁دەگەرێتەوە	-11.2703
کیش	-11.2705
▁شارستانییەت	-11.2708
ێنرێت	-11.2709
▁احمد	-11.271
▁دەف	-11.2714
▁هاوین	-11.2716
▁توێژینەوەیەکی	-11.2717
▁تیمێکی	-11.2719
▁یانەکان	-11.272
▁کراونەتەوە	-11.2721
▁لەچوار	-11.2721
▁لەگەڕەکی	-11.2722
▁جوو	-11.2724
▁کوەیت	-11.2725
▁بونە	-11.2727
▁قەرە	-11.2727
▁پاکس	-11.273
▁ئەڵلا	-11.2731
دەنگی	-11.2733
کەشی	-11.2734
▁گرفتێکی	-11.2739
▁ڕونیکردەوە	-11.274
▁کینە	-11.2745
▁ساختەکاری	-11.2746
▁کلاسیک	-11.2747
▁یاریگا	-11.2748
▁کاغەز	-11.275
▁ئاوێنەی	-11.2752
▁ببەسترێت	-11.2752
▁خاوەندارێتی	-11.2754
▁شوناس	-11.2754
▁چەق	-11.2755
▁بەرایی	-11.2756
بەیاننامەیەکدا	-11.2756
▁کۆمۆنیستەکان	-11.2757
▁کتێبه	-11.2758
▁گۆڕین	-11.2759
▁دوورگەی	-11.276
▁ترمان	-11.2762
▁هەڵپەسێردراو	-11.2763
▁تێبگەن	-11.2764
▁خۆپیشاندانە	-11.2766
▁ناوەندیی	-11.2768
▁توندڕەوەکان	-11.2768
▁1997	-11.2769
▁جاسم	-11.2772
▁باڵادەستی	-11.2774
▁موس	-11.2775
ۆف	-11.2775
▁مت	-11.2775
▁لێرەو	-11.2776
▁پوچەڵ	-11.2779
▁خستنی	-11.2779
▁پێکهێنا	-11.278
▁کۆنگرەیە	-11.2781
رة	-11.2783
▁بەجیا	-11.2784
▁لەخەڵکی	-11.2784
▁وتارەکەی	-11.2785
▁هەفتەیه	-11.2786
▁نەکراون	-11.2786
ڕاست	-11.2787
▁توێژی	-11.2787
▁ئەبێتە	-11.279
▁نەیار	-11.2791
ئامێز	-11.2792
▁ئاماژەمان	-11.2792
▁بوویت	-11.2794
▁جوانکاری	-11.2795
▁حکومەتیش	-11.2795
▁هەبووه	-11.2797
▁تیمەکانی	-11.28
▁دووان	-11.2801
▁بەڕێزتان	-11.2802
خانی	-11.2803
▁کپ	-11.2804
▁مەیلی	-11.2805
▁شرۆڤە	-11.2805
▁هۆزی	-11.2806
▁نزیکەوە	-11.2808
▁سوریای	-11.2808
وج	-11.2809
▁بونیادی	-11.2814
▁ڕۆژانەدا	-11.2816
▁حکومییەکان	-11.2818
▁پێکهاتەیەکی	-11.2818
کاریگەری	-11.2818
▁هەڵسوڕاوی	-11.2819
خاڵ	-11.282
▁بنێرن	-11.282
وسی	-11.2821
▁ئۆڵۆمپی	-11.2822
▁جووڵە	-11.2822
▁بەڕێژەی	-11.2822
هێڵ	-11.2825
ابی	-11.2827
▁زۆرەوە	-11.2827
▁هەژدە	-11.2828
کردوون	-11.283
▁داخە	-11.2832
▁هەبووبێت	-11.2837
▁تاراوگە	-11.2839
▁قابیلی	-11.284
▁ڕێبەرایەتی	-11.2841
▁مەبەستمان	-11.2841
▁زەوییە	-11.2841
▁ئیل	-11.2842
▁وەبیر	-11.2842
▁گومڕا	-11.2842
▁جۆرێکە	-11.2843
▁لەیاریی	-11.2843
▁چەواشە	-11.2843
▁هەموومانە	-11.2843
▁یانیش	-11.2844
▁ژمارەیە	-11.2848
▁بارێکی	-11.285
▁قانونی	-11.2852
▁کادری	-11.2852
▁بێشکچی	-11.2854
▁کرایەوه	-11.2855
▁پای	-11.2855
▁تاکەکەسی	-11.2858
▁گوتە	-11.286
▁73	-11.2861
▁لەخۆدەگرێت	-11.2861
▁دانیان	-11.2864
▁سەرنجە	-11.2864
بز	-11.2866
▁دەخوات	-11.2869
▁بەڕۆژ	-11.287
▁پێویستیمان	-11.2872
▁ڕوخسار	-11.2873
▁جیهادی	-11.2873
▁دروستبونی	-11.2873
▁دەسەلمێنێت	-11.2876
▁زۆرم	-11.2876
▁لات	-11.2877
▁مەرجە	-11.2877
▁دکەت	-11.2878
▁هەڵس	-11.2878
▁1993	-11.2878
▁دەڵی	-11.288
▁گفتوگۆکه	-11.2881
▁زیادە	-11.2882
▁ڕابەرایەتی	-11.2884
کێشی	-11.2884
▁بەغداوە	-11.2884
▁قسەیەک	-11.2884
▁نادەین	-11.2886
▁سەقامگیریی	-11.2887
▁ڕۆژنامەیەکی	-11.289
▁چێژی	-11.2891
▁الب	-11.2892
▁کەسێکیش	-11.2892
یانکرد	-11.2893
امی	-11.2894
▁نەخۆشییەکانی	-11.2895
▁وەهمی	-11.2896
چین	-11.2896
▁بد	-11.2898
▁سایکۆلۆژی	-11.2899
ڕاو	-11.2899
▁لێهاتوو	-11.29
▁بەدەسەڵات	-11.2901
▁ڕوانین	-11.2901
▁بێدار	-11.2902
▁فڕ	-11.2902
▁کامیرۆن	-11.2904
▁زلهێز	-11.2908
▁مانچستەرسیتی	-11.2912
▁دەسەڵاتەوە	-11.2912
بردن	-11.2913
▁ڕەخساندنی	-11.2913
▁دنیایەکی	-11.2917
▁86	-11.2918
▁نابینێت	-11.2918
▁ئامریکا	-11.2919
▁تاڵە	-11.292
▁گونجاوە	-11.292
▁کەناڵێکی	-11.2923
▁دوورن	-11.2923
▁باژێرێ	-11.2923
▁میللەتێک	-11.2923
▁زام	-11.2923
▁بەرو	-11.2924
▁ڕاپۆرتێک	-11.2925
▁قەتیس	-11.2929
▁چاڵ	-11.2932
▁لەوکاتەدا	-11.2932
یۆن	-11.2933
▁Friday	-11.2934
کرنی	-11.2937
▁پاڵێوراوی	-11.2937
▁ڕوانگەیەوە	-11.294
▁عەرەبستانی	-11.294
▁ئادار	-11.2947
▁جیاوازیان	-11.2948
ەسمی	-11.2953
▁کێشەکانیان	-11.2953
▁ئاوڕ	-11.2954
▁دەهێنێتەوە	-11.2955
▁کارەساتێکی	-11.2957
▁مەش	-11.2958
▁خواستە	-11.2959
▁ناوچەیەدا	-11.2961
▁نەتەوەییە	-11.2961
▁لێب	-11.2963
▁ڕقی	-11.2963
▁لەپڕ	-11.2963
بەت	-11.2964
▁خانو	-11.2965
لێک	-11.2965
▁کن	-11.2966
▁زەمینی	-11.2967
▁بەسوود	-11.2968
▁هاندەرانی	-11.297
▁نەجات	-11.2971
▁پەیوەندییه	-11.2972
▁بەلایەنی	-11.2973
تەن	-11.2977
▁مای	-11.2977
لایەن	-11.2977
▁لەنێوانیاندا	-11.2979
▁لاساییکردنەوە	-11.2979
هام	-11.2981
▁هونەرییەکانی	-11.2981
شتان	-11.2981
گرتووە	-11.2988
▁عێراقیان	-11.2993
سەن	-11.2999
▁ناکاو	-11.2999
▁دەرفەتێک	-11.3
هەل	-11.3001
▁ئاغای	-11.3002
▁باشه	-11.3002
▁توانایی	-11.3003
▁نیشتمانە	-11.3004
ماوە	-11.3006
▁کانت	-11.3007
M	-11.301
▁ڕێککەوتنێک	-11.301
▁شەوکەت	-11.301
یستی	-11.3012
▁پێداویستیەکانی	-11.3013
▁حەقە	-11.3013
▁مشک	-11.3014
مۆن	-11.3015
▁ناوەر	-11.3015
▁شارەکەی	-11.3016
▁بەهەڵە	-11.3018
▁بوبێت	-11.3019
▁وەرگێر	-11.3019
شک	-11.3022
▁دەردەسەری	-11.3022
▁لایەکەوە	-11.3025
▁مۆرکرد	-11.3025
▁پۆسته	-11.3027
▁گۆڕێ	-11.3028
▁71	-11.3029
▁خەوی	-11.3031
▁88	-11.3033
▁دەردەکەوێ	-11.3033
▁کورسییەکانی	-11.3035
▁فارسیی	-11.3035
▁توێژینەوەکە	-11.3037
▁خۆرهەڵات	-11.304
▁هەڵەو	-11.3042
▁دوودڵی	-11.3045
▁ڕۆژا	-11.3046
▁بەیاننامەکەدا	-11.3047
اندنەوەی	-11.3047
▁ڕونکردنەوەیەک	-11.3047
اڤ	-11.3049
▁دەرماڵەی	-11.3049
▁دۆستانە	-11.3049
▁فرۆکەخانەی	-11.3049
▁هێرشه	-11.3053
▁تەرمەکەی	-11.3053
▁چەم	-11.3054
داد	-11.3055
داوا	-11.3055
▁نەکردبێت	-11.3057
I	-11.3058
زن	-11.3058
▁خۆڕاگری	-11.306
▁خوایەکی	-11.3062
▁بەگەرمی	-11.3063
▁هونەرمەندێکی	-11.3063
▁ئاواتی	-11.3065
▁بەخێر	-11.3066
▁زەنگی	-11.3067
▁ئەفسەرێکی	-11.3068
▁گوێز	-11.3071
▁پرنسیپی	-11.3072
▁مەبەسته	-11.3073
▁چەتری	-11.3074
▁دەسەڵاتەکان	-11.3075
▁هەڵبژاردنەکە	-11.3079
باڵ	-11.308
▁بونەتە	-11.308
▁بیکەن	-11.3081
▁بچینە	-11.3085
▁سازکرا	-11.3087
شێت	-11.3087
ئەن	-11.3087
ڕەنگ	-11.3089
▁ئەیوب	-11.3089
▁لەسەدا	-11.3091
▁بترسن	-11.3093
▁ڕزگاربوون	-11.3093
▁بڕیارو	-11.3095
▁false	-11.3096
▁فڕۆکەوان	-11.3096
▁هیتلەر	-11.3096
▁حکومڕانی	-11.3105
▁پێشکەوتووی	-11.3106
هێناوە	-11.3111
▁ببرێت	-11.3111
▁نامەکەی	-11.3114
▁قوربانیدان	-11.3115
▁کاتژمێرێک	-11.3116
▁خێرخوازی	-11.3116
▁ژنانەی	-11.3117
▁خوانەناسان	-11.3118
▁پەڕ	-11.3118
▁پەروەردگارم	-11.312
▁بەلێ	-11.3121
دز	-11.3122
بەغدا	-11.3125
▁جگەر	-11.3126
▁ساڵانێکی	-11.3129
▁پێڵاو	-11.3131
▁تور	-11.3132
▁خواردووە	-11.3133
▁حکومەتێک	-11.3133
▁چەوری	-11.3133
▁بنەڕەتدا	-11.3135
▁ئەستەم	-11.3135
▁چاندنی	-11.3136
▁کارەش	-11.3138
▁کاول	-11.314
▁زانیارییانەی	-11.3141
▁کۆبکاتەوە	-11.3141
▁چیک	-11.3142
▁جیهانیش	-11.3143
25	-11.3143
▁گێڕا	-11.3144
▁هاندان	-11.3146
▁کەشێکی	-11.3148
▁ڕەتدەکاتەوە	-11.3149
▁دەخەینە	-11.315
▁بەدوا	-11.315
▁ئەمیری	-11.3151
▁داستانی	-11.3151
▁ڕەهەندە	-11.3153
▁هەڵەکانی	-11.3155
▁ناهێنن	-11.3158
▁خەڵاتەکانی	-11.3158
▁پەیماننامەی	-11.3159
▁سکی	-11.3162
▁زنجیرەی	-11.3163
▁نیشانە	-11.3163
▁کوت	-11.3164
تاک	-11.3166
▁بەڵگه	-11.3171
▁دەپارێزێت	-11.3173
▁تۆدا	-11.3174
▁شۆڤێنی	-11.3174
▁خولەکه	-11.3174
▁سوێندی	-11.3175
فرین	-11.3177
▁یاسادانان	-11.3179
▁ناهێڵێت	-11.3182
▁خۆری	-11.3182
▁ئەلعێراقیه	-11.3183
▁مامۆستایەکی	-11.3184
▁پیشانی	-11.3184
▁دروستبکات	-11.3185
شتن	-11.3187
بور	-11.3188
▁پەرلەمانیش	-11.3189
▁ئەردەن	-11.3191
▁پڕوپاگەندە	-11.3192
▁ئیسلامیدا	-11.3193
▁سینەماکار	-11.3193
▁سەردانەی	-11.3193
جەلال	-11.3194
▁شانازیی	-11.3194
لیس	-11.3197
▁ولاتەکەی	-11.3198
▁هەناردە	-11.3199
▁ڕەوایەتی	-11.3201
▁لەجێی	-11.3204
▁ڕۆژوو	-11.3205
▁ژاپۆنی	-11.3205
▁ئەنفالی	-11.3207
▁کۆریا	-11.3208
حەسەن	-11.3209
▁تۆر	-11.321
▁هێرشبەری	-11.3216
▁کاتێکدایه	-11.3223
ەها	-11.3223
هێشت	-11.3224
▁نەبووبێت	-11.3224
▁کارەکتەر	-11.3225
▁پارێز	-11.3226
▁دەیانوت	-11.3228
؛	-11.323
14	-11.3233
اغ	-11.3235
ۆد	-11.3236
▁پڕۆژەکەی	-11.3237
▁دەترسن	-11.3238
▁دەربازبوون	-11.3238
▁تشرین	-11.3239
▁کردوویەتی	-11.324
▁گریمان	-11.324
▁چالاکوان	-11.3241
▁نامەوێت	-11.3241
نەکردن	-11.3244
▁کەرامەتی	-11.3244
▁کلینتۆن	-11.3245
▁لویس	-11.3246
▁ئەنجوومەن	-11.3248
▁بکەت	-11.3249
▁دەسەلاتە	-11.3249
▁ژیاوە	-11.3252
▁خەتەنەکردنی	-11.3253
▁ئەمریکاش	-11.3254
▁گەیشتۆت	-11.3254
▁نەگەیشت	-11.3255
▁تەنێ	-11.3255
▁خرای	-11.3255
▁باڵیۆز	-11.3255
11	-11.3256
▁وەرن	-11.3259
▁بگوترێت	-11.326
▁فەرمانبەری	-11.3261
▁ڕاگرت	-11.3261
▁لێبکات	-11.3262
▁منداڵەکان	-11.3263
▁سیستانی	-11.3264
▁یەکیەتیی	-11.3265
▁پێستی	-11.3267
▁کۆڕی	-11.3267
id	-11.327
▁ڕێچکەی	-11.327
▁دۆخەی	-11.3271
▁دەنگدەرانی	-11.3272
▁بەدەنگ	-11.3274
▁ئارادا	-11.3274
▁خومەینی	-11.3275
▁نگ	-11.3277
▁گوتەیەکی	-11.3277
▁بێئاگا	-11.3277
▁ئەڤین	-11.328
▁دەرفەتە	-11.328
▁سەرتاپای	-11.3281
سکۆ	-11.3286
▁پەیامێک	-11.3288
▁جوانەکان	-11.3289
▁غەمگین	-11.3291
▁چاککردنی	-11.3291
▁هاوسەنگ	-11.3291
▁بەکۆی	-11.3293
▁تارمایی	-11.3293
▁وشەکان	-11.3293
▁ئەنجامەکان	-11.3293
▁ئاپۆ	-11.3296
▁موسل	-11.3298
▁بەعسیەکان	-11.33
▁دیزاین	-11.3301
▁سنوردار	-11.3303
▁نزیکبوونەوەی	-11.3303
▁شتێکدا	-11.331
ڵاو	-11.3311
▁فریشتە	-11.3313
▁شاردا	-11.3314
▁هەستیاری	-11.3316
▁مەلای	-11.3317
▁ڕێککەوتنێکی	-11.3318
▁91	-11.332
قر	-11.3321
هۆ	-11.3322
▁تەقینەوەکەی	-11.3323
▁نەتەوەیە	-11.3325
▁پرۆگرامێکی	-11.3325
رب	-11.3325
▁ڕادیکاڵ	-11.3326
▁دانیش	-11.3327
▁چاکترین	-11.3328
▁هەوێنی	-11.3329
ol	-11.3329
تەمەن	-11.3331
▁ڕسول	-11.3332
ماڵی	-11.3336
▁ئەردۆگان	-11.3336
▁سکالا	-11.3338
▁ژێ	-11.3339
▁بووک	-11.3339
▁داوایەکی	-11.3339
35	-11.3339
یەوەو	-11.3343
▁بگەڕێن	-11.3344
▁مەلیک	-11.3344
▁کوڵ	-11.3344
▁گەشبینی	-11.3345
▁فەیلەسوف	-11.3345
▁83	-11.3346
▁حەفتا	-11.335
▁هاتبێت	-11.3351
▁بارەگاکانی	-11.3351
▁پیرەمێرد	-11.3351
▁قوت	-11.3352
▁دەخرێت	-11.3354
▁ئازادیخوازان	-11.3355
ییەت	-11.3357
▁تاوانباری	-11.336
▁دراوه	-11.336
▁لادانی	-11.3361
گوڵ	-11.3361
▁ببەستێت	-11.3362
▁ئەلف	-11.3363
▁وەڵامێکی	-11.3363
▁کەوتوونەتە	-11.3364
ur	-11.3366
▁ناوەراستی	-11.3366
▁قۆناغەی	-11.3367
▁دەورو	-11.3367
▁بەردەمی	-11.3369
زاری	-11.3371
رت	-11.3373
▁ئامادەکاریی	-11.3374
▁لۆژیک	-11.3377
▁ڕۆژنامەکانی	-11.3378
ic	-11.3378
▁پردێ	-11.3379
▁بەبەشداری	-11.3381
▁دامەزرێنەری	-11.3382
▁شەراکەتی	-11.3383
▁بەدەپە	-11.3383
▁ڕوونتر	-11.3384
▁1989	-11.3389
▁ئەمڕۆکە	-11.3389
▁هەنار	-11.3391
▁w	-11.3391
چاک	-11.3392
▁بابل	-11.3392
▁فرەیی	-11.3392
خوێن	-11.3394
▁هاتینه	-11.3396
▁کرایە	-11.3397
▁هێور	-11.34
▁ئاماژەیەکی	-11.3401
▁بەڕوونی	-11.3401
▁هاتووچۆی	-11.3402
▁بووایە	-11.3402
▁قوربانیی	-11.3403
▁بداتە	-11.3404
▁بەرۆکی	-11.3408
▁ڕەوشەکە	-11.3411
▁دیموکرات	-11.3412
▁شەفافییەت	-11.3412
▁حەمەڕەشید	-11.3413
▁ناحیەکانی	-11.3414
▁بایکۆتی	-11.3414
▁دەکێشێت	-11.3415
▁69	-11.3416
▁حیزبایەتی	-11.3417
▁هەمومان	-11.3419
▁ڕواە	-11.342
▁دابەشکردن	-11.3423
▁بەهۆکاری	-11.3426
▁سیا	-11.3427
▁نیچە	-11.3427
▁عەبدولرەحمان	-11.3428
ەلە	-11.3428
▁ئەوەیشی	-11.3429
▁ئەمانیش	-11.3429
▁فەبرایەر	-11.3429
▁جڤاکی	-11.3431
یای	-11.3432
▁کاریگەرییان	-11.3432
بانی	-11.3433
نەبێت	-11.3435
▁تاوانانە	-11.3435
▁هەمە	-11.3438
▁ناوبانگ	-11.3438
▁یەکێتییە	-11.3441
12	-11.3444
▁ئامادەین	-11.3444
▁جوڵەی	-11.3444
▁چڕی	-11.3446
▁وێنای	-11.3446
▁ناوخۆییەکان	-11.3446
▁تێکۆشەر	-11.3448
▁مژدەی	-11.3449
▁دهوک	-11.3449
▁هەموارکردنەوەی	-11.345
▁سالانی	-11.345
▁بهێنم	-11.3457
▁پۆستەکان	-11.3458
▁دزینی	-11.3458
▁کازم	-11.3459
داوای	-11.346
▁دەیتوانی	-11.3461
▁واقیعە	-11.3461
▁لامان	-11.3463
بەش	-11.3465
▁خوارەوه	-11.3466
▁کراوەیە	-11.3467
رم	-11.3468
▁ئەنجامه	-11.3468
▁کردەوەو	-11.3477
▁مناڵان	-11.3478
▁مرۆییەکان	-11.348
کەرە	-11.3481
▁فاتیح	-11.3482
مەندی	-11.3482
▁کۆمەڵگەیە	-11.3482
▁پەرست	-11.3485
▁یەکەوە	-11.3485
▁خۆشناو	-11.3487
▁بەئەنجام	-11.3487
▁لة	-11.3489
▁بەناونیشانی	-11.349
▁گەڕا	-11.349
▁وشەیە	-11.3491
▁سه	-11.3492
▁ڵە	-11.3492
▁زیندانیانی	-11.3493
▁الص	-11.3493
▁نیت	-11.3495
▁پێنجشەممه	-11.3496
▁کۆکردنەوە	-11.3497
▁ئەند	-11.3498
ڕای	-11.3499
▁نەوتە	-11.3502
01	-11.3506
▁کڵاو	-11.3506
▁پێیەتی	-11.3507
▁کوبانی	-11.351
▁شیعەی	-11.3512
▁ژینگەو	-11.3514
▁موسلیمین	-11.3514
ناز	-11.3515
زوو	-11.3516
▁داعشدا	-11.3518
نابێت	-11.352
▁ڕەقیب	-11.352
▁بەخشیوە	-11.3521
▁کلیلی	-11.3522
▁داخست	-11.3524
▁وشەیەکی	-11.3525
▁چۆنییەتی	-11.3526
▁قوڵتر	-11.3526
▁گەشبین	-11.3527
▁نەجم	-11.3528
▁بچوکی	-11.3528
▁خوارەوەی	-11.3528
▁ئەیلولی	-11.3528
کارو	-11.3528
▁دەخوازن	-11.3528
▁بەئامانجی	-11.3529
سوور	-11.353
وست	-11.3531
▁سەرمایەدار	-11.3531
ستەر	-11.3533
یب	-11.3533
ەکیان	-11.3535
▁ناوەرۆک	-11.3536
▁بژاردەی	-11.3538
▁فیل	-11.3538
▁کامێرا	-11.3538
▁توێژەر	-11.3539
▁دەرک	-11.354
لم	-11.3541
▁سەرفراز	-11.3543
▁جەمسەری	-11.3544
پاڵ	-11.3545
▁وێنەگر	-11.3545
▁داهاتوویەکی	-11.3546
وود	-11.3547
▁قوتابخانەو	-11.3548
▁قوڵایی	-11.355
▁ژیانم	-11.355
▁بوم	-11.3553
کرایەوە	-11.3554
▁وەرزشکردن	-11.3554
▁پێکەوەژیانی	-11.3556
▁سەرسامی	-11.3561
بەس	-11.3562
▁عەقڵییەتی	-11.3564
▁وەهای	-11.3564
▁چەوساندنەوە	-11.3566
▁دڕندانە	-11.3568
▁ڕوداوەکە	-11.357
ینەی	-11.3571
▁تایبەتیان	-11.3573
▁گەڕاندەوە	-11.3573
▁وەخت	-11.3575
000	-11.3575
دەبێ	-11.3577
▁لەقەزای	-11.3577
▁سەرەتادا	-11.3578
▁ئامێرژەنی	-11.3578
▁هێلی	-11.358
▁مالی	-11.3582
▁هەولی	-11.3583
▁بهێنێتە	-11.3585
ەوی	-11.3586
▁دوورکەوتنەوە	-11.3588
کانیش	-11.3588
▁79	-11.359
▁دێموکراسییە	-11.359
▁ئیسلامە	-11.3593
▁هۆشبەرەکان	-11.3594
▁کوردسات	-11.3596
▁بینیم	-11.3601
"(	-11.3601
▁نێوەندی	-11.3602
▁ژوان	-11.3602
▁هەڵدەستێت	-11.3602
▁ئەت	-11.3606
اخ	-11.3606
▁ئەبن	-11.3606
gmail	-11.3606
▁لاشەی	-11.3612
▁لەمیسر	-11.3613
▁دەرزی	-11.3613
▁PKK	-11.3614
▁شیعرێکی	-11.3615
▁ئەندێشە	-11.3615
▁دەردەکەون	-11.3615
▁زێدی	-11.3617
▁بچێتەوە	-11.3622
▁سەرەتاییەکان	-11.3626
▁مارکسیزم	-11.3627
▁ڕێڕەوی	-11.3627
تاڵ	-11.3628
▁بیرۆکە	-11.3629
▁خڕ	-11.363
▁سارا	-11.363
▁گوایه	-11.3631
▁1968	-11.3633
▁بەهێزو	-11.3634
▁کۆنەپەرست	-11.3636
▁خێراتر	-11.3637
کێی	-11.3638
▁زۆرو	-11.3638
▁نزیکترین	-11.3639
▁فیزیکی	-11.3639
▁ئیم	-11.364
▁نووسینەوەی	-11.3641
گور	-11.3643
▁لەبەرژەوەندیی	-11.3645
▁گوزەران	-11.3647
▁ڕوح	-11.3647
▁78	-11.365
▁تەفسیر	-11.365
88	-11.3651
▁دەخەن	-11.3653
دران	-11.3654
▁سەلاحەدین	-11.3654
▁حیزبێکی	-11.3656
▁خێرای	-11.3658
sh	-11.366
▁بەمە	-11.366
▁لەبەرنامەی	-11.3661
▁ناوەکەی	-11.3662
خەڵکی	-11.3663
▁لەبوارەکانی	-11.3664
▁زەنگەنە	-11.3666
▁بایی	-11.3667
▁دێرینەکان	-11.3668
▁لەمەو	-11.3669
▁مانگدا	-11.3669
▁دەموچاو	-11.3669
▁ئاوایی	-11.3672
▁الف	-11.3673
▁پێکهاتوون	-11.3676
▁نەکردووەتەوە	-11.3678
▁ئاکرێ	-11.3681
بۆیه	-11.3683
▁تاوانێک	-11.3684
▁کول	-11.3686
▁دەکران	-11.3687
▁سەرەتاییەکانی	-11.3687
▁99	-11.3689
نەبوو	-11.3693
▁81	-11.3696
قەت	-11.3697
▁هەڕەشەو	-11.3698
▁بەرچاویان	-11.3699
▁گەرەکی	-11.3699
سپی	-11.3701
گو	-11.3701
لۆن	-11.3702
▁ناوچەکەی	-11.3704
شۆ	-11.3704
▁حەقی	-11.3705
▁پەک	-11.3705
▁نەبون	-11.3706
▁مارە	-11.3707
▁87	-11.3707
▁بەکارهێنا	-11.371
▁پێیدا	-11.371
▁شیعی	-11.3714
▁گوێڕایەڵی	-11.3715
▁لەژیان	-11.3715
▁بودجه	-11.3716
▁کەرکوکیش	-11.3717
▁هەفتەیە	-11.3718
▁قۆناغێک	-11.3721
▁بگرێتە	-11.3722
شێخ	-11.3724
پێی	-11.3729
▁کارای	-11.3731
▁شارۆچکە	-11.3732
▁وەزعی	-11.3734
▁لەخزمەتی	-11.3734
▁یادگاری	-11.3734
▁پاسەوانەکانی	-11.3734
▁شەرەفی	-11.3735
▁مۆڵ	-11.3736
▁هاتەوە	-11.3738
اک	-11.3739
▁خەسرەو	-11.374
▁عێراقەوه	-11.374
▁co	-11.3742
▁شتێکە	-11.3744
پێدانی	-11.3744
▁بوترێت	-11.3747
▁هەریری	-11.3748
▁ئایدیۆلۆژیا	-11.3749
پار	-11.3749
▁دۆخ	-11.375
لیک	-11.3751
▁داهاتێکی	-11.3754
ەکەیاندا	-11.3755
▁موشەکی	-11.3758
▁یەکێتیش	-11.3759
▁دێموکراسیی	-11.376
▁بەبیر	-11.3761
▁ڕوناک	-11.3761
▁خەڵکانێکی	-11.3763
▁لێیە	-11.3763
▁لێکۆڵینەوەیەکی	-11.3763
▁نیگار	-11.3765
▁هەڵدا	-11.3766
▁خەمخۆری	-11.3766
▁ئەلبومی	-11.3768
▁ڕەهەند	-11.3769
▁ڕووداوێک	-11.377
▁دووبەرەکی	-11.3772
▁بەیاننامەکە	-11.3772
▁پێنوسەکان	-11.3773
▁نیگا	-11.3774
تانە	-11.3774
x	-11.3775
▁جگەلە	-11.3778
▁لێت	-11.378
▁زیاتریان	-11.3781
▁تێکەڵی	-11.3781
کەین	-11.3781
▁قورئانه	-11.3781
▁پێب	-11.3782
▁لەشارەکانی	-11.3783
▁لەوێشەوە	-11.3783
▁بۆماوەی	-11.3785
▁بەرێوەدەچێت	-11.3787
▁کاندیدەکان	-11.3788
نەو	-11.3789
▁پێکردن	-11.379
▁لەدەسەڵات	-11.379
▁یەکگرتوەکانی	-11.379
40	-11.3792
▁گەڵا	-11.3798
تون	-11.38
▁شەم	-11.3804
▁News	-11.3804
▁باڵەخانەی	-11.3805
ۆلی	-11.3809
70	-11.381
▁باوەڕم	-11.381
بەڕاستی	-11.3811
▁لۆس	-11.3811
گێ	-11.3812
▁گۆرانییە	-11.3812
▁حەقیقەتی	-11.3812
▁لەدەوری	-11.3813
▁سەرەکییەکان	-11.3813
▁بەدەستبهێنێت	-11.3814
رۆی	-11.3816
هر	-11.3817
▁لەعێراقدا	-11.3817
▁زایینی	-11.3821
ۆم	-11.3822
▁داگیرکەری	-11.3823
▁بەنیازی	-11.3824
▁دەرچووانی	-11.3824
▁بەڵی	-11.3825
67	-11.3826
▁لوقمان	-11.3826
گەیاندنی	-11.3827
▁پێغەمبەرەکەی	-11.3829
▁تاپۆ	-11.3829
▁زۆرداری	-11.3829
▁چەواشەکاری	-11.3832
▁تەقینەوەیەک	-11.3833
▁سورەتی	-11.3835
بکرێ	-11.3836
▁سەوزە	-11.3836
▁نەدەکرا	-11.3838
▁لەیەکتری	-11.384
▁شەکرە	-11.3843
32	-11.3844
▁تاکتیک	-11.3844
▁قیامەتدا	-11.3845
▁قەزاکە	-11.3845
▁بابەتانە	-11.3845
▁خوشکی	-11.3846
کردنێکی	-11.3847
man	-11.3847
گوت	-11.3848
▁فراکسیۆنە	-11.385
▁کۆنگرێس	-11.3853
▁میرات	-11.3855
▁فریاد	-11.3859
▁دواکەوتوو	-11.3859
▁موسەوی	-11.386
▁no	-11.386
▁کوردییەکاندا	-11.386
▁جووتیاران	-11.3866
▁دەرس	-11.3867
▁ورە	-11.3867
▁شاشەی	-11.3868
▁پێمانوایە	-11.3869
▁ڤیدیۆ	-11.3869
▁هەندێکیشیان	-11.387
▁گوتەنی	-11.3872
نیا	-11.3872
یدی	-11.3873
▁ڕێژەیە	-11.3874
▁خوارێ	-11.3875
▁لەکورد	-11.3876
▁شەقڵاوە	-11.3876
▁کۆتاییان	-11.3876
ڕەوی	-11.3877
▁ئازادییەکان	-11.3878
ورە	-11.388
▁پەیڤ	-11.3881
▁فەزا	-11.3882
یزمی	-11.3882
▁ڕاکێشا	-11.3883
پۆش	-11.3883
▁بەوپێیەی	-11.3885
▁سوودیان	-11.3885
80	-11.3886
▁کاربکات	-11.3888
▁ئێستاو	-11.3889
▁بابەته	-11.389
▁ناڕاست	-11.389
▁ئەفغانس	-11.3895
▁حەڤدەی	-11.3897
▁کوڕێکی	-11.3897
▁هاوڕێیان	-11.3899
▁چاوەروانی	-11.39
▁گۆرانییەکانی	-11.3901
ۆڕ	-11.3902
▁دنیابینی	-11.3904
▁جێگرەکەی	-11.3904
▁ئەندامە	-11.3906
▁هاوری	-11.3906
▁سەوزی	-11.3908
▁هەرسێ	-11.3908
▁کارمەندان	-11.3909
▁بڕیاریان	-11.3909
▁کردەوەیەکی	-11.391
▁نەبووم	-11.391
▁هەڵبژێردرا	-11.3911
▁بکرایە	-11.3911
ریس	-11.3912
وزی	-11.3912
▁کۆب	-11.3912
▁خاڵانەی	-11.3914
▁کردەوانەی	-11.3915
▁دەستکرد	-11.3917
▁بنرێت	-11.3917
▁ملیون	-11.3917
▁کەمیی	-11.3918
▁سنوورەکان	-11.3918
▁برینداربوو	-11.3918
▁سندوقەکانی	-11.3919
▁بەنهێنی	-11.3919
▁ڕۆنی	-11.392
▁ئینتەر	-11.3921
یاسی	-11.3921
نزیک	-11.3922
ۆکە	-11.3926
▁کاڵا	-11.3927
پرسی	-11.3928
▁Wed	-11.3929
▁کۆیلەی	-11.3929
▁بێوار	-11.3929
▁سالح	-11.393
▁شاڵاوی	-11.393
▁دیمانەی	-11.3931
▁ئەکاتەوە	-11.3931
▁هەربۆیەش	-11.3932
▁چەوساندنەوەی	-11.3933
ناکەن	-11.3934
▁هاریکاریی	-11.3938
04	-11.3939
▁فرۆکە	-11.3941
▁فرسەت	-11.3942
▁ڕەهای	-11.3944
▁ناوخۆییەکانی	-11.3948
کاریی	-11.3948
▁وەلامێک	-11.395
▁بخوێنێت	-11.395
▁خوێندنگەی	-11.3952
▁چاوەر	-11.3953
تێک	-11.3954
▁وەرگرتوە	-11.3954
▁ڕەگی	-11.3955
▁زەبری	-11.3956
▁بکەنەوه	-11.3958
▁ڕێکخراوەی	-11.3958
▁فەرماندە	-11.396
▁84	-11.396
▁هەواڵەکان	-11.3962
v	-11.3963
▁زیانەکانی	-11.3963
▁ڕیشەی	-11.3966
▁باڵەکایەتی	-11.3966
▁دادگاییکردنی	-11.3969
▁مندالان	-11.397
▁زێتر	-11.3971
▁بەڕێوه	-11.3971
▁یارییه	-11.3971
▁بایەخدان	-11.3971
▁مات	-11.3972
▁مەنووچێهر	-11.3972
▁ڕێکەوتننامەی	-11.3974
▁بوێرانە	-11.3974
▁تەخت	-11.3975
▁لەشەڕی	-11.3975
▁کۆچکردوو	-11.3977
▁دانیشتوی	-11.3978
▁چێڵسی	-11.398
▁نەتەوەکەی	-11.3981
▁قائیمقامی	-11.3981
▁وەڵامدا	-11.3982
رف	-11.3983
ڵێ	-11.3984
▁عین	-11.3984
▁110	-11.3985
42	-11.3987
▁بناغە	-11.3987
▁برۆ	-11.3987
▁لەدروستکردنی	-11.3988
دەچێت	-11.3989
▁نازی	-11.3991
▁مەبەستیان	-11.3991
▁گەردون	-11.3991
▁کەیسە	-11.3992
▁ڕاستیی	-11.3992
▁بیرمان	-11.3994
▁خوێندەوار	-11.3996
دارانی	-11.3999
چەر	-11.3999
▁ڕۆژگاری	-11.4003
▁عیرفان	-11.4005
▁کەمتەرخەم	-11.4006
خر	-11.4008
▁سەرهەڵ	-11.4009
▁فیکریی	-11.401
▁بەدرخان	-11.401
▁پێشبڕکێ	-11.4011
ەکەشیان	-11.4011
▁کوم	-11.4012
▁عەلمانییەت	-11.4014
▁وتوویەتی	-11.4014
▁بمان	-11.4016
▁ئاک	-11.4017
▁پزیشکان	-11.4018
▁گفتوگۆیەکدا	-11.402
▁نەبرد	-11.4021
▁ڕەوت	-11.4022
▁هەوڵدەدەین	-11.4022
▁پێشمەرگەکانی	-11.4022
▁هێرشکردنە	-11.4025
nesda	-11.4026
بع	-11.4027
▁مح	-11.4033
▁قۆرخ	-11.4036
▁کەمدەرامەت	-11.4038
▁ڕەو	-11.4038
▁بەشداربووانی	-11.4039
▁کش	-11.404
▁خی	-11.4042
▁بخەمە	-11.4042
▁فەرمانگەکانی	-11.4046
▁چر	-11.4047
▁هاتبوون	-11.4047
▁شیکاری	-11.4048
▁چای	-11.4049
▁ئازارەکانی	-11.4049
بەرز	-11.4049
▁سەمای	-11.4051
▁بەلیستی	-11.4051
▁ئامادەباشی	-11.4052
▁فیلمەدا	-11.4053
▁تورکیایە	-11.4053
▁تەلەفیزیۆنی	-11.4054
▁نەبینی	-11.4054
▁میتۆدی	-11.4054
▁ئەلفوبێی	-11.4056
▁تەڵاق	-11.4059
▁زاخو	-11.4059
بوار	-11.406
▁ئافرەتە	-11.4061
▁دەنگدانەوە	-11.4061
▁موسلیم	-11.4061
▁محەمەدی	-11.4063
▁سەرمایەداران	-11.4064
▁ژیانمان	-11.407
▁میراتی	-11.4071
▁جۆرەکان	-11.4073
▁نەخوێندەوار	-11.4074
▁زاتە	-11.4074
▁لیس	-11.4075
▁دیمەنە	-11.4075
▁ئاشکراشیکرد	-11.4076
▁ناوچەکەیان	-11.4078
▁لەڕوانگەی	-11.4078
لێت	-11.4079
▁ببینم	-11.4082
▁سەرکەوتنە	-11.4083
▁پێکبهێنرێت	-11.4087
▁ئێستاوە	-11.4089
▁لەبارەگای	-11.4089
▁فەریق	-11.409
▁هەبیت	-11.4091
▁ڕەچاوکردنی	-11.4092
▁ڤیدیۆیی	-11.4095
▁1974	-11.4096
دراون	-11.4097
▁گۆڕانیش	-11.4097
▁ماوه	-11.4098
▁دابەزین	-11.41
▁فۆڕمی	-11.4107
ێژ	-11.411
▁بهێنیت	-11.4115
▁تیرۆرو	-11.4115
▁هۆشبەر	-11.4118
▁سیر	-11.4118
▁مەترسییەکی	-11.4119
▁بەپ	-11.4119
▁گڵ	-11.412
▁شەهرام	-11.4121
مەحمود	-11.4122
▁زیندووی	-11.4122
▁ماری	-11.4124
▁کیشوەری	-11.4125
▁لەترسی	-11.4125
▁کۆمسیۆن	-11.4126
▁ژوورە	-11.4126
▁لەشکر	-11.4127
▁تێبگەین	-11.4128
▁خەبەر	-11.413
درێتەوە	-11.413
▁هەوڵدەدەن	-11.413
▁عەدالەتی	-11.4131
▁وەزار	-11.4131
▁تێبینییەک	-11.4132
▁هەو	-11.4138
▁ئازادییەکانی	-11.4139
▁پاڵێوراو	-11.4139
▁لەسەرووی	-11.4141
▁زان	-11.4142
▁چاومان	-11.4145
▁بۆکان	-11.4147
▁وشیار	-11.4147
▁هەتاو	-11.4149
▁چەوساوە	-11.415
▁هەستیان	-11.415
▁بة	-11.415
▁برینی	-11.415
▁شورای	-11.4152
▁بەرەیەکی	-11.4152
▁نوێنەرێکی	-11.4155
سیر	-11.4156
▁خۆپیشاندەر	-11.4156
▁is	-11.4159
▁کەپێویستە	-11.416
▁مەککە	-11.4161
▁پارتەکان	-11.4161
▁موحەمەدی	-11.4161
لات	-11.4162
▁بەرکەوت	-11.4162
دل	-11.4162
▁دەمرێت	-11.4163
▁نەبووه	-11.4164
▁خەرجکردنی	-11.4167
▁سویسری	-11.417
▁پاشانیش	-11.4171
▁بینەری	-11.4171
بکەینەوە	-11.4172
▁دەسەڵاتەکەی	-11.4173
کین	-11.4175
▁وێنەو	-11.4175
چەک	-11.4176
▁پێداوە	-11.4177
▁سەرگەردان	-11.4177
▁نزا	-11.4178
یەتە	-11.4179
مال	-11.4179
▁سوو	-11.418
▁کتوپڕ	-11.4185
▁نازانیت	-11.4185
▁ناردنەوەی	-11.4192
▁لڤین	-11.4194
▁گرێبەستە	-11.4195
▁سەرکردەکان	-11.4196
▁بەخێرهاتنی	-11.4198
▁بەڵگەوە	-11.4199
▁ئاسودە	-11.4199
▁گوتارە	-11.42
▁دیلان	-11.4201
▁موستەفا	-11.4202
▁وأ	-11.4203
بێژ	-11.4203
▁گەشتە	-11.4203
▁سودمەند	-11.4203
▁ئەکتیڤ	-11.4204
▁هاتووەو	-11.4206
us	-11.4206
▁حو	-11.4206
▁دەریان	-11.4207
▁بەنێو	-11.4212
▁ئەوانەشی	-11.4212
▁هاوینی	-11.4213
▁پیاوەکە	-11.4216
▁ڕۆیشتنی	-11.4219
▁واقیعدا	-11.4219
▁نەمری	-11.422
▁حاشا	-11.4221
▁کۆمەلگای	-11.4222
▁پۆڵ	-11.4222
24	-11.4222
▁شاهیدی	-11.4223
▁لێتان	-11.4223
▁یاسایه	-11.4225
▁نەکردووه	-11.4226
▁گوێمان	-11.4228
▁براوەکانی	-11.4229
▁v	-11.4231
سون	-11.4234
▁جیاکاری	-11.4235
▁بەکەم	-11.4235
ئین	-11.4239
تەری	-11.4241
بەن	-11.4242
▁عەبد	-11.4246
▁هەلومەرجە	-11.4247
▁ڵێ	-11.4247
وور	-11.4249
16	-11.4249
▁ڕێسا	-11.4251
▁قبوڵی	-11.4251
▁لیژنەکان	-11.4253
▁جەلیل	-11.4254
▁هەشتی	-11.4254
▁دەکوژن	-11.4256
▁ساڵانه	-11.4256
▁نیشانەکانی	-11.4258
شەم	-11.4258
ro	-11.4258
▁بانکەکان	-11.4259
▁بەچی	-11.426
▁هەڵبگرێت	-11.4265
وڵاتە	-11.4268
61	-11.4268
▁هەڵبژاردنەوە	-11.4269
▁لەیاسای	-11.4269
▁مێژو	-11.4269
▁ئیراق	-11.4269
▁داواکردنی	-11.427
▁مینا	-11.4271
▁قووڵتر	-11.4271
▁ئارا	-11.4273
▁ڕۆژگارە	-11.4274
▁نەمام	-11.4274
▁چیرۆکێکی	-11.4275
▁ڕونیشیکردەوە	-11.4277
▁وێنەیەک	-11.4277
▁کۆششی	-11.4277
▁تێکەڵاو	-11.4278
ویانە	-11.4278
▁ئەستوور	-11.4278
36	-11.428
▁کانون	-11.428
▁شوکر	-11.4282
ra	-11.4283
▁حکوومەتەکەی	-11.4284
▁زمانەکانی	-11.4286
▁بەرگرتن	-11.4287
18	-11.4288
▁کۆبوونەوەیەک	-11.4288
▁ئاسانتر	-11.4289
▁گرنگیان	-11.4289
ره	-11.4292
ناک	-11.4293
▁لیستەکانی	-11.4294
▁ئەرجەنتین	-11.4295
▁فەیلی	-11.4295
ترا	-11.4297
▁هۆزان	-11.4298
▁10000000	-11.4299
▁ژەنەڕاڵ	-11.4302
▁زوممار	-11.4302
▁ناسیۆنالیستی	-11.4303
▁پووچ	-11.4305
▁لەڕوی	-11.4306
▁ێک	-11.4306
▁ولاتێکی	-11.4307
مەد	-11.4307
▁ترسناکی	-11.4307
▁جووتیار	-11.4308
▁دروشمە	-11.4308
لف	-11.4308
▁لەمانە	-11.4309
▁پازدە	-11.4309
▁بەرژەوەندیە	-11.4311
▁کەهەر	-11.4311
▁پەتای	-11.4312
▁هۆیەک	-11.4312
▁دێموکراتەکان	-11.4315
▁لەشێوەی	-11.4315
▁82	-11.4316
▁هەوڵیان	-11.4317
▁مەنسور	-11.4319
▁گیرۆدەی	-11.432
▁کوردۆساید	-11.4322
▁زاراوە	-11.4322
▁گەرەکە	-11.4322
ارد	-11.4323
چونی	-11.4326
▁دانیشتنەکە	-11.4327
▁خۆمدا	-11.4327
▁بگەڕێینەوە	-11.4328
▁نوێوە	-11.433
▁پەرلەمانە	-11.433
▁خوداوەند	-11.4331
▁نوێیەی	-11.4333
▁خوارووی	-11.4335
وخ	-11.4335
▁دەردی	-11.4335
▁یەکلاکردنەوەی	-11.4339
▁Comment	-11.4339
▁نووسینەکانی	-11.4339
▁ئاوەکە	-11.4341
▁هاوارێک	-11.4342
▁تورکیە	-11.4343
▁شەهاب	-11.4345
▁هەوڵەکانیان	-11.4346
دارە	-11.4347
چۆن	-11.4349
▁تەوەر	-11.4349
▁درۆزن	-11.4349
▁گیروگرفت	-11.4349
▁مۆری	-11.435
بەشی	-11.4352
مەز	-11.4353
▁بونەوەی	-11.4354
باو	-11.4357
▁سوتاندنی	-11.4357
▁پەراوێزی	-11.4359
لەبەر	-11.436
▁درێغی	-11.4361
▁غەفور	-11.4361
▁زەین	-11.4361
▁ئاسای	-11.4362
▁هەمەجۆر	-11.4362
33	-11.4362
دیار	-11.4363
اون	-11.4365
▁بەیاسا	-11.4365
▁پرۆژەکە	-11.4366
▁نواندنی	-11.4366
▁گێران	-11.4368
▁لەئارادا	-11.437
ەندی	-11.437
▁توێژەری	-11.437
64	-11.4373
ad	-11.4373
▁بەرەوپێش	-11.4375
▁ڕاڤە	-11.4375
▁مێژویی	-11.4377
▁دەیوت	-11.438
▁بدەینەوە	-11.438
▁هاوکێشەی	-11.4381
ڕۆڵ	-11.4381
▁مزگەوتەکان	-11.4383
▁ڵام	-11.4383
▁خەسڵەتی	-11.4386
▁گەلاوێژ	-11.4386
▁t	-11.4387
ئاسمان	-11.4388
▁پەنایان	-11.4389
▁گەورەدا	-11.4389
▁بەرقەرار	-11.4391
رێک	-11.4393
▁دەستەیەکی	-11.4396
▁ستەمکاری	-11.4398
▁نازناو	-11.4399
▁ئەرکانی	-11.4401
▁وەزیرەکانی	-11.4403
▁ئاژەڵی	-11.4404
▁ئامێر	-11.4405
▁دیارو	-11.4406
دیا	-11.4407
▁لێپرسینەوەی	-11.4408
▁خەباتە	-11.4411
تینی	-11.4411
▁Tuesday	-11.4411
▁دیبەگەیی	-11.4412
▁ئەمانەن	-11.4413
صر	-11.4416
▁دەگەر	-11.4417
▁لەهەمانکاتیشدا	-11.442
▁بەبڕیاری	-11.442
▁دەربەدەر	-11.4424
37	-11.4426
09	-11.4427
▁وازیان	-11.4427
▁بوارێکی	-11.4428
کەرانی	-11.4429
▁ناحیەکە	-11.4429
es	-11.4429
▁زیو	-11.4429
▁L	-11.443
▁باوەڕمان	-11.4431
بگرێت	-11.4433
▁دۆڕان	-11.4434
▁ڕواڵەت	-11.4435
▁قوربانییەکان	-11.4435
▁ئایەتە	-11.4435
▁نەتەوەیەکگرتوەک	-11.4436
45	-11.4437
▁پرسیارەکانی	-11.4438
خەن	-11.4438
▁بەگرنگ	-11.4438
▁ڕۆژاوا	-11.444
▁مەلە	-11.4441
▁پیا	-11.4443
▁کەرنەڤاڵی	-11.4445
▁بادی	-11.4446
▁بخوێنێتەوە	-11.445
▁بل	-11.445
▁لەهەڵبژاردن	-11.4451
▁لێخۆشبوو	-11.4451
شان	-11.4452
▁کارمان	-11.4452
▁مرۆڤەوە	-11.4453
▁گۆش	-11.4453
▁مەدریدی	-11.4453
▁خەڵاتە	-11.4455
چار	-11.4455
▁ماوەیەی	-11.4455
دەوڵەتی	-11.4455
▁نوێنەرایەتیی	-11.4455
..	-11.4456
▁پرەنسیپی	-11.4456
▁هەڵبژاردووە	-11.4459
▁ئەکاد	-11.446
▁هەرێمایەتی	-11.446
▁ناسین	-11.4462
▁مەولود	-11.4462
▁دروستکراو	-11.4462
77	-11.4465
▁گیرانی	-11.4465
▁تریشیان	-11.4466
▁ڕۆستەم	-11.4466
▁نووسەرێکی	-11.4467
▁ناهێنێت	-11.4467
▁باوکە	-11.4468
13	-11.447
▁نەبیت	-11.4471
▁تەقەکردن	-11.4472
▁پێنە	-11.4472
درێژ	-11.4473
▁پشتڕاست	-11.4474
▁بڵێیت	-11.4477
▁هۆکارانە	-11.4478
▁هەرەشە	-11.4479
▁ئامادەکراوە	-11.4479
▁بەسەدان	-11.448
▁داین	-11.448
▁ناگرێتەوە	-11.4481
▁ئەوانیتر	-11.4483
▁ئەمریکایە	-11.4483
▁واژوو	-11.4486
جل	-11.4487
ورا	-11.4487
▁گەورەیەی	-11.4488
▁سەبار	-11.4489
▁قەرەباڵغی	-11.4489
▁ڕفاندن	-11.4491
گەیشتن	-11.4493
▁نووسەرەکەی	-11.4493
▁کێشەیان	-11.4493
رێژ	-11.4494
▁پێداویستییە	-11.4496
▁ناسراون	-11.4498
مون	-11.4498
▁قسەم	-11.4501
▁دەبینەوە	-11.4501
▁بەشداربووان	-11.4502
▁وەرز	-11.4503
▁دانیشت	-11.4504
▁مشت	-11.4505
▁تیاییدا	-11.4506
▁لەبەرچاوگرتنی	-11.4506
▁بودجەو	-11.4508
▁فەرمانڕەوا	-11.4509
▁ڕەخنەیی	-11.451
پارتی	-11.451
اکی	-11.4511
▁سەردەست	-11.4511
92	-11.4512
پاک	-11.4514
▁بەئازادی	-11.4515
▁کۆنفرانسە	-11.4516
▁جۆرەی	-11.4516
▁بنبڕ	-11.4516
▁دەستیپێکردووە	-11.4516
▁خولیای	-11.452
▁دەستکەوتەکان	-11.4521
▁Monday	-11.4522
▁یادکردنەوەی	-11.4523
▁هاوڕێیانی	-11.4524
▁نوس	-11.4525
▁هۆیەشەوە	-11.4527
سات	-11.4529
▁ماڵوێرانی	-11.4529
▁بارهەڵگر	-11.453
▁دیندار	-11.453
▁ساڵەو	-11.4531
▁ئەسپ	-11.4531
▁گرنگن	-11.4532
▁یۆرانیۆم	-11.4533
▁خەڵکیان	-11.4533
▁عێراقێکی	-11.4533
▁فەرمانڕەوای	-11.4535
▁خۆرهەلاتی	-11.4537
▁All	-11.4537
▁پشکدار	-11.4538
▁ئیرادەیە	-11.4539
▁کەشف	-11.4539
▁موتڵەگ	-11.4539
▁هەڵداوە	-11.4539
▁تاکڕەوی	-11.454
▁ڕەحم	-11.454
▁فایق	-11.454
پوور	-11.4541
▁تەواوکەری	-11.4542
▁تەواویان	-11.4543
▁فریو	-11.4544
▁کۆمەڵگایەک	-11.4544
▁توانیویان	-11.4544
▁دەگوزەرێت	-11.4548
نان	-11.4549
▁قارەمانی	-11.4549
▁گشتیدا	-11.4549
▁جوڵە	-11.4551
▁عەشیرەت	-11.4551
نیە	-11.4552
یاد	-11.4557
▁حەوتەمی	-11.4561
▁بزوتنەوەکە	-11.4562
▁ڕان	-11.4565
گرد	-11.4566
▁تەورات	-11.4567
▁بلۆک	-11.4568
▁پێکهێنرا	-11.4569
▁ببڕێت	-11.457
وونی	-11.457
▁هەزارەها	-11.4571
خواست	-11.4572
st	-11.4573
▁Saturday	-11.4574
▁زانایه	-11.4576
تەوەو	-11.4576
▁بەکاردێت	-11.4577
▁دائە	-11.4579
▁لەوەڵامی	-11.458
▁هاوسۆزی	-11.458
▁هەواڵەکانی	-11.4581
ێدا	-11.4582
▁دەکوژرێت	-11.4582
▁نەخۆشخانه	-11.4583
▁دیاره	-11.4586
چێتی	-11.4588
▁ئاماژەیەک	-11.4588
▁چالاکیەک	-11.4589
▁کەسەکە	-11.4589
▁لیستەکان	-11.4591
▁بەهرە	-11.4593
▁نراوە	-11.4594
▁نابینن	-11.4595
▁خۆئامادەکردن	-11.4595
▁کۆنسێرتی	-11.4599
▁view	-11.4599
▁سنگ	-11.46
▁خولەکانی	-11.4605
▁داواکارییەکان	-11.4605
▁هەرێمەکان	-11.4608
▁فەقێ	-11.4608
▁دەوەستێت	-11.461
▁منداڵەکەی	-11.4612
▁مناڵ	-11.4613
ێین	-11.4613
▁ماندووبوون	-11.4616
▁دەناڵێنن	-11.4616
▁تووڕەیی	-11.4617
▁دیاربوو	-11.4617
▁بەسره	-11.4618
▁بەگژ	-11.4621
زیاتر	-11.4621
پەرستی	-11.4622
▁دەگەنە	-11.4623
▁جیاوازییە	-11.4624
▁کوردییەوە	-11.4624
▁لەولاتانی	-11.4624
▁ئەتاتورک	-11.4625
▁مەینەتی	-11.4626
▁کۆدەبنەوە	-11.4626
▁وەزیرەکان	-11.4628
راد	-11.4628
▁ژنەکە	-11.4628
▁جارانی	-11.4628
▁بەدیل	-11.463
ئار	-11.463
▁بەخێو	-11.4631
▁حەمرین	-11.4634
▁ململانێکان	-11.4635
▁سەعاتێک	-11.4636
▁پرسیارەکان	-11.4637
▁پەله	-11.4639
▁لەشار	-11.4639
▁وەردەگیردرێت	-11.4643
▁کاردانەوە	-11.4644
▁بەرپرسەکان	-11.4645
▁گوتراوە	-11.4646
▁لەبودجەی	-11.4646
▁لسەر	-11.4646
▁تریشی	-11.4647
▁گەواهی	-11.4651
▁وەڵامیان	-11.4651
▁قەرەتەپە	-11.4652
▁1983	-11.4656
▁دەک	-11.4656
▁ئێرانەوه	-11.4657
▁کرمانجی	-11.4657
▁دەفتەر	-11.466
▁گرەنتی	-11.466
▁جام	-11.4662
▁سیاسیش	-11.4664
▁فۆڕم	-11.4664
چوار	-11.4665
▁تەڵەی	-11.4665
▁دۆستانی	-11.4666
▁کتێبەکان	-11.4666
▁هۆرێن	-11.4666
گەیەکی	-11.4667
▁بردە	-11.4668
▁فەزڵ	-11.4668
ماو	-11.4668
▁دایکە	-11.4669
لێر	-11.4671
دید	-11.4673
91	-11.4673
▁مارک	-11.4673
▁خۆپیشاندەرانی	-11.4674
99	-11.4675
▁هەمی	-11.4676
▁ئاژانسەکانی	-11.4677
▁V	-11.4677
▁گەریلا	-11.4678
▁پیاوسالاری	-11.4679
▁ئاودێری	-11.468
▁قەڵەو	-11.468
▁گەورەترە	-11.4681
▁ئۆرگانی	-11.4682
▁بەسەرهاتی	-11.4684
▁لەدایکبووە	-11.4686
▁تێبگات	-11.4686
▁کوردێکی	-11.4687
▁کوالیتی	-11.4687
▁پلەکانی	-11.4689
▁ڕوبەروی	-11.4689
▁ئەوەن	-11.4692
▁تەقاندنەوەی	-11.4692
▁بەستنەوەی	-11.4694
دواتر	-11.4695
▁جەزا	-11.4696
▁ڕێبازە	-11.4698
▁گەڕەکە	-11.4699
▁دەستبەکار	-11.47
▁حیکایەت	-11.4703
▁نەمابوو	-11.4704
▁صاڵح	-11.4704
کردووەتەوە	-11.4705
▁گۆرانییەکی	-11.4705
▁پەیرەو	-11.4705
▁بنچینەیی	-11.4706
▁نێودەوڵەتیەکان	-11.4707
ئەی	-11.4707
▁کامڵ	-11.4708
▁هەڤپەیڤین	-11.4709
▁مەل	-11.471
▁ئەمەریکادا	-11.471
27	-11.4712
▁فەرمانگە	-11.4717
▁نرخەکەی	-11.4718
▁باوکان	-11.4718
▁تۆوی	-11.4719
▁زاناکان	-11.472
▁لێبکەن	-11.4721
▁ئامادەبووانی	-11.4722
▁قەیرانەکان	-11.4722
T	-11.4723
▁کەڵە	-11.4723
▁ناوچەگەریی	-11.4724
▁بەوشێوەیە	-11.4725
▁پێبکەن	-11.4726
ەکەى	-11.4726
▁شارەوانیی	-11.4727
22	-11.4728
▁دیکەیە	-11.4729
▁برەو	-11.4729
▁لووت	-11.4729
▁لێبکرێت	-11.473
▁پرسەکانی	-11.4731
▁پاڕانەوە	-11.4734
▁کوردییەکانی	-11.4736
▁Thursday	-11.4738
ەشەوە	-11.4739
▁الثانی	-11.474
▁قاوە	-11.4741
▁هەژارو	-11.4741
▁تەعبیر	-11.4742
▁چوومە	-11.4742
▁گونجاوی	-11.4743
▁مردووە	-11.4744
سەل	-11.4745
▁ڤینۆس	-11.4747
▁ناوەندێکی	-11.4748
▁کامێرای	-11.4749
▁ڕاگەیاندنە	-11.4749
▁بەرەوپێشبردنی	-11.4752
▁٢	-11.4755
هاتوو	-11.4757
17	-11.4757
▁سەرفرازی	-11.4757
96	-11.4758
▁کۆمەلا	-11.4759
▁هەڵوێستەکانی	-11.4759
▁لیتر	-11.4759
▁دۆستانەی	-11.4759
اع	-11.4761
▁هەواڵێک	-11.4763
▁سنه	-11.4765
▁نموونەیەک	-11.4765
▁پەسەندی	-11.4767
▁پرسەو	-11.4773
▁ناوچەکەش	-11.4775
▁ئیمتیاز	-11.4776
خەو	-11.4779
▁یازدە	-11.4781
▁داهاتودا	-11.4781
▁O	-11.4781
▁بکاتەوه	-11.4782
▁خەونەکانی	-11.4782
▁بەقسەی	-11.4782
واری	-11.4783
▁خواوه	-11.4785
▁ڕوویەکەوە	-11.4785
▁دەمانەوێ	-11.4785
کەرەوە	-11.4787
▁نەیارەکانی	-11.4787
▁نەریتە	-11.4787
تیکی	-11.4788
▁نەبێتە	-11.4789
▁ڕدە	-11.4789
▁لەهەڵبژاردنەکان	-11.479
▁سێدارەدان	-11.4791
▁نازدار	-11.4791
▁وەرزە	-11.4793
▁جیهانبینی	-11.4794
وەتە	-11.4794
▁هەڵگرت	-11.4796
▁ژەهر	-11.4797
▁کەسانەش	-11.4797
▁ئەمجارەش	-11.4798
اللە	-11.4799
زین	-11.4799
▁نەکرێن	-11.48
▁مەترسییە	-11.48
▁خانمه	-11.4801
▁یاسادا	-11.4802
▁هەڤاڵانی	-11.4802
▁کۆمەڵناسی	-11.4806
▁دەخاتەڕوو	-11.4808
▁Sunday	-11.4809
▁هەمانکاتدا	-11.4809
▁مەعروف	-11.4809
▁تازەترین	-11.4811
▁پرۆلیتاریا	-11.4811
▁دەستێکی	-11.4813
▁سۆزان	-11.4814
لەند	-11.4815
▁شەریعەت	-11.4815
▁یارییەکەش	-11.4816
▁حەدبا	-11.4819
▁ئەزانن	-11.4819
▁بنە	-11.4821
▁کاریگەریان	-11.4822
▁ئایدیۆلۆژی	-11.4823
باخ	-11.4823
43	-11.4825
▁دانیشتنێکی	-11.4826
شوێنی	-11.4826
یسی	-11.4826
▁زانیارییەکی	-11.4827
▁سادەو	-11.4828
▁دزەی	-11.4829
▁کوێستان	-11.483
▁چیت	-11.4831
75	-11.4831
▁پێداچوونەوەی	-11.4832
▁لەسەدەی	-11.4832
▁سپارد	-11.4833
جوان	-11.4834
▁فۆ	-11.4835
▁داهاتوی	-11.4837
▁بەنا	-11.4838
▁لەگوندی	-11.4838
▁بڕیاریشە	-11.484
▁سروودی	-11.4844
▁کودەتای	-11.4845
▁سایت	-11.4846
ویل	-11.4847
نامەیەکی	-11.4847
▁دەگێڕن	-11.4849
خس	-11.4853
▁دزێو	-11.4854
▁ئەبی	-11.4856
▁حەسرەتی	-11.4858
▁ناچێتە	-11.4858
▁سەیید	-11.4862
▁پەرەسەندن	-11.4864
خن	-11.4865
–	-11.4866
▁تەختی	-11.4866
▁هەواڵەکە	-11.4868
▁سەرکەوتو	-11.4868
▁دادپەروەریی	-11.4868
▁دەلێت	-11.4869
اهی	-11.4869
▁هاوتای	-11.4869
▁بدۆزرێتەوە	-11.4871
▁نەبێتەوە	-11.4872
▁ڕائید	-11.4873
▁کابرا	-11.4873
▁هێر	-11.4874
▁سیم	-11.4874
▁نەتوانراوە	-11.4874
رێنەوە	-11.4875
▁بس	-11.4876
26	-11.4876
▁بەئاراستەی	-11.4877
▁لەگشت	-11.4882
▁بەردەوامه	-11.4882
وشک	-11.4883
▁قاچی	-11.4883
▁مندال	-11.4885
▁میت	-11.4885
پێچ	-11.4886
▁مەدەنییەکان	-11.4886
٢	-11.4887
گەو	-11.4888
▁تێدابوو	-11.489
ئاوا	-11.489
▁جاک	-11.489
▁بەهادین	-11.489
▁تاکسی	-11.4892
O	-11.4892
چا	-11.4894
▁برادەرانی	-11.4895
▁کشانەوە	-11.4895
▁تراژیدیا	-11.4896
▁مانگانەی	-11.4896
کراوه	-11.4898
▁کارەباو	-11.4902
▁سوننی	-11.4903
▁تێدایەو	-11.4904
▁چاپەمەنی	-11.4904
کانە	-11.4906
▁مەدینە	-11.4907
▁غەدر	-11.4908
▁پۆستەکانی	-11.4908
دەکرێ	-11.4908
▁چاوێک	-11.4909
▁چاوێکی	-11.4909
▁تێڕوانینە	-11.4913
▁نالەبار	-11.4913
▁ڕۆژنامەنوسانی	-11.4914
▁ئالا	-11.4916
▁سنورە	-11.4916
▁خوڵقاندنی	-11.4918
▁نەبینیوە	-11.4919
بۆتەوە	-11.492
▁دەگەڵ	-11.492
▁باڵە	-11.4921
▁شتەکانی	-11.4922
▁کردەیەکی	-11.4922
▁دەوڵەتدا	-11.4923
پێنج	-11.4924
▁ڕێزدار	-11.4924
▁قەدەغه	-11.4924
▁هۆنراوە	-11.4924
یڤ	-11.4925
▁نەوەیەکی	-11.4926
▁قورستر	-11.4928
▁نیگەرانیی	-11.4929
▁ڕێکخراوانە	-11.493
21	-11.493
▁قودس	-11.4931
D	-11.4933
▁وازهێنان	-11.4934
وپ	-11.4934
▁گۆشە	-11.4934
▁لەناوەڕاستی	-11.4936
▁سەرەڕۆیی	-11.4937
▁هەڵبژاردنەدا	-11.4939
▁کەتێیدا	-11.494
▁دەرامەت	-11.494
ییەکە	-11.4941
▁لەوپەڕی	-11.4942
کەیدا	-11.4943
▁گەشەسەندن	-11.4944
▁سێی	-11.4945
▁ئاسۆس	-11.4946
▁دەخاتەوە	-11.4947
▁سەوزایی	-11.4947
▁کەڵەکە	-11.4949
68	-11.495
▁پەشیمانی	-11.495
▁ئەلبووم	-11.4951
▁جەمسەر	-11.4953
▁دەبەخشن	-11.4953
▁بۆئەو	-11.4954
▁لیژنەیە	-11.4957
▁ڕۆژنامەنووسیدا	-11.4958
زاد	-11.496
▁گوتەبێژ	-11.4962
▁موزیکژەن	-11.4962
▁چەوسانەوە	-11.4962
▁نوسەری	-11.4963
▁دەقەکەیەتی	-11.4963
▁سووتا	-11.4965
▁دۆستان	-11.4966
▁بەژێر	-11.4966
▁هێن	-11.4967
▁یاریزانەکان	-11.4968
▁گۆلەکانی	-11.4968
▁وتنی	-11.4969
▁گۆڕە	-11.4969
▁وڵاتەکه	-11.497
گەیشت	-11.497
▁تاڵی	-11.4973
▁سەردەمەی	-11.4973
▁چووه	-11.4975
▁تێڕامان	-11.4976
چن	-11.4977
▁هەلەبجە	-11.4978
▁دەپرسم	-11.4978
▁بکەوێتەوە	-11.4978
▁داوەت	-11.4978
▁نیۆیۆرک	-11.4979
ناکرێت	-11.4979
▁بوەو	-11.4979
▁بەکرێ	-11.498
▁ببەستن	-11.4982
▁بڕیوە	-11.4982
▁لایێ	-11.4984
03	-11.4985
دۆر	-11.4986
کاتی	-11.4987
▁نانەوەی	-11.4987
▁بڕوام	-11.4987
وەته	-11.4988
▁دەستکە	-11.4993
▁پوخت	-11.4995
یەکەیان	-11.4995
▁فەیسەڵ	-11.4996
▁الخ	-11.4998
▁توانییان	-11.4998
▁کاراکتەرە	-11.4999
▁ڕوداوی	-11.4999
▁بەدەوری	-11.5
▁1982	-11.5
فرانس	-11.5
▁بەرنامەیە	-11.5001
▁ئەکتەرە	-11.5002
ماوەی	-11.5003
▁پەلەوەر	-11.5004
▁ئاریتما	-11.5005
▁دۆن	-11.5005
▁نرخاند	-11.5006
▁وەلید	-11.5006
▁هەمەلایەنە	-11.5007
▁زەحمەتکێش	-11.5007
▁هەلبژاردن	-11.5009
▁عەرەبییەکان	-11.5011
▁بخوات	-11.5011
▁جەختیشی	-11.5012
▁جەزیرە	-11.5014
ۆلیس	-11.5014
▁پش	-11.5014
▁دران	-11.5015
بەردەوام	-11.5016
▁مەند	-11.5019
▁فڕین	-11.5019
▁لەناوخۆی	-11.5022
▁جڵەوی	-11.5022
▁هێزانەی	-11.5024
جر	-11.5024
ایەکی	-11.5026
▁ڕێگەیەک	-11.5029
▁چەندێ	-11.5031
▁تیرۆریستەکان	-11.5031
▁پێزانین	-11.5032
▁کاو	-11.5032
▁لەئایندەدا	-11.5032
▁دەستەواژە	-11.5036
▁ویستیان	-11.5036
▁پەرت	-11.5037
اسی	-11.5038
▁92	-11.504
▁کۆبونەوەکە	-11.504
▁دیفاع	-11.5041
▁کۆش	-11.5046
85	-11.5047
▁لێبوردەیی	-11.5048
دێن	-11.5048
ێوەدەچێت	-11.5049
▁باسکەی	-11.505
▁خوه	-11.5053
▁فرمێسکی	-11.5054
▁ململانێیەکی	-11.5055
خەم	-11.5058
▁زر	-11.5059
▁چەپڵە	-11.5061
▁بەشداربن	-11.5064
▁زانستیی	-11.5065
▁نیازه	-11.5065
▁نییەبە	-11.5066
تور	-11.5067
▁بنووسم	-11.5068
▁کۆیلایەتی	-11.5068
▁خولەی	-11.5069
▁پێوەرە	-11.507
▁قانوون	-11.5071
34	-11.5071
یەن	-11.5072
▁پسپۆڕانی	-11.5073
▁بەهاکانی	-11.5073
▁سەربەرز	-11.5076
بیری	-11.5077
▁سەدو	-11.5078
▁دانوستانەکان	-11.5079
▁پارێزەرانی	-11.5082
ژیان	-11.5084
▁بەواتایەکی	-11.5084
▁کتێبەکەی	-11.5084
▁ئوتێل	-11.5086
ولات	-11.5086
▁بز	-11.5086
▁هەنووکەیی	-11.5087
▁ڕاکردن	-11.5091
▁سەرەر	-11.5093
هێنەر	-11.5093
▁عەیب	-11.5093
تێکی	-11.5094
▁it	-11.5095
▁دەخوازم	-11.5095
▁دیکتاتۆرەکان	-11.5095
53	-11.5096
▁بپارێزین	-11.5096
▁ڕەشنووسی	-11.5097
▁لێپرسراو	-11.5098
▁سەردانەکە	-11.5098
ژێر	-11.5099
▁دابنێین	-11.5102
▁پاسپۆرت	-11.5103
▁گەرمای	-11.5105
▁کەپێشتر	-11.5105
دەڵێن	-11.5106
اوەتەوە	-11.5108
▁ەو	-11.5108
▁ڕەخنەیان	-11.511
▁وتوێژ	-11.5112
▁نوسەران	-11.5113
▁کارت	-11.5114
▁خاکەکەی	-11.5114
▁ڕوونکردنەوە	-11.5116
▁دەبێتەوەو	-11.5116
▁کۆمەلێک	-11.5117
▁بونەوە	-11.5118
▁ئیدانە	-11.5119
▁وەزیرە	-11.512
▁لێهات	-11.5122
▁بەرنامەیەک	-11.5122
▁ناش	-11.5122
بینین	-11.5122
▁بنەمایە	-11.5123
▁پاوان	-11.5124
▁وەهم	-11.5125
▁بەسەرۆک	-11.5125
▁بەشەکەی	-11.5126
▁زووە	-11.5128
▁دیارەکانی	-11.5129
لس	-11.5129
▁تراژیدی	-11.5129
کسی	-11.513
▁گەرەنتی	-11.5131
▁ستۆکهۆڵم	-11.5132
▁دیمەن	-11.5135
55	-11.5137
98	-11.5138
▁لەدڵ	-11.5139
▁بینیووە	-11.514
▁هۆشی	-11.514
▁کەناڵەکە	-11.5141
▁ڕاکێش	-11.5142
▁نەورۆزی	-11.5145
▁کوێتی	-11.5145
خات	-11.5146
▁بەسترا	-11.5147
▁گرنگه	-11.5149
▁پیسی	-11.515
▁ئیسلامیش	-11.515
▁پەروەردەکردنی	-11.5153
▁بەغدادی	-11.5155
کور	-11.5155
▁ئیمزاکردنی	-11.5157
▁دوکانی	-11.5158
▁هەرچۆنێک	-11.5161
▁تووند	-11.5162
▁ئەفسانەی	-11.5162
▁ڕووەو	-11.5162
▁مشتومڕ	-11.5163
▁ئەش	-11.5164
بگرن	-11.5165
وێن	-11.5168
▁حەلەب	-11.5168
▁خەتی	-11.5169
بووەو	-11.517
تاش	-11.5171
▁لەئەستۆ	-11.5173
▁شوێنێکدا	-11.5174
▁دیدارێکدا	-11.5174
▁پێشی	-11.5177
▁لەبنەڕەتدا	-11.5177
▁کلتوور	-11.5179
▁لەدایکبوون	-11.5179
▁تارا	-11.5182
▁کەمپین	-11.5183
▁نۆزدە	-11.5184
▁سوننەو	-11.5184
▁چیمان	-11.5188
▁ڤیتۆ	-11.5189
▁نەتەوەییەکانی	-11.519
گومان	-11.519
کۆر	-11.5192
▁بارین	-11.5193
▁برەودان	-11.5195
▁دەرەکییەکان	-11.5196
▁r	-11.5196
▁بەعسدا	-11.5197
▁1995	-11.5198
ئەنجومەنی	-11.5204
▁نەیەوێت	-11.5205
▁دەنگێک	-11.5206
▁ئامادەیبوون	-11.5206
▁سلێمانیش	-11.5207
▁هاتنەوەی	-11.5214
صل	-11.5216
▁نەزاهە	-11.5217
▁سەرابی	-11.5217
▁هەتیو	-11.522
▁شۆڕشێکی	-11.5221
▁تیرۆریزم	-11.5221
▁بگێڕێت	-11.5221
97	-11.5228
▁چارەسەرێک	-11.523
▁زەر	-11.5232
▁وەرگرن	-11.5232
▁Magazine	-11.5232
گۆڕ	-11.5233
▁ڕاشکاوی	-11.5234
قال	-11.5235
▁کیمیا	-11.5235
خوان	-11.5236
▁ڕێکوپێک	-11.5237
ۆلۆژی	-11.5239
▁پێکهاتبوون	-11.524
▁نێچیر	-11.524
▁نێردەی	-11.5241
▁قوتابخانەکانی	-11.5242
▁٥	-11.5243
الیزم	-11.5245
▁سەعدون	-11.5245
▁چوونەتە	-11.5246
▁یەکەیەکی	-11.5246
ia	-11.5249
▁کۆیی	-11.525
وێل	-11.5251
فرۆشی	-11.5253
▁شیعەکانی	-11.5256
ڕێت	-11.5257
گاکانی	-11.5258
▁ناوبرد	-11.5259
▁تایبەتەکان	-11.526
48	-11.526
▁1984	-11.5263
▁سەنتەرێ	-11.5263
▁خانمی	-11.5264
▁خەوتن	-11.5264
▁وتارێک	-11.5266
▁نموونەیی	-11.5267
▁دابن	-11.5267
گن	-11.5268
▁خال	-11.5268
فارس	-11.5268
▁کوێخا	-11.5269
▁هەتایە	-11.5269
▁نووسراوی	-11.527
▁کۆدەکرێتەوە	-11.527
▁دەگرم	-11.5273
▁ساڵرۆژی	-11.5273
▁چووم	-11.5273
▁ڕیشە	-11.5274
▁عەل	-11.5274
▁موشەک	-11.5275
▁بەکاربەر	-11.5276
▁g	-11.5276
▁خانەوادە	-11.5276
▁پووچەڵ	-11.5277
▁دنیاوە	-11.5277
▁بامەرنی	-11.5278
▁تاوانەکە	-11.5279
▁لێهاتوویی	-11.5282
پیر	-11.5284
▁تێگەیشتنە	-11.5285
▁بکوژی	-11.5286
▁بڕیارەکان	-11.5287
▁ئەشرەف	-11.5287
▁سەندنەوەی	-11.5288
▁لەسەد	-11.5288
ۆز	-11.5289
▁بچین	-11.5289
▁گەڕاوەتەوە	-11.5289
▁نەبووەتە	-11.529
▁بەنرخ	-11.529
▁بکەینە	-11.5291
▁نزیکن	-11.5291
▁کەوته	-11.5292
▁ئاوێتە	-11.5296
▁زوڵملێکراو	-11.5297
▁بەکاردەهێنن	-11.5297
▁سەن	-11.5298
▁حەڤد	-11.5298
میل	-11.53
▁دژه	-11.5302
▁قور	-11.5304
▁protect	-11.5306
▁چۆنیەتیی	-11.5311
▁دەگەیەنن	-11.5314
▁چنگ	-11.5314
▁کۆکن	-11.5316
▁تاکتیکی	-11.5316
▁بڵاویان	-11.5317
▁پێناوەدا	-11.5317
▁الدین	-11.5318
58	-11.5319
▁میلەت	-11.5319
▁دێرینەکانی	-11.532
▁ئامراز	-11.5321
▁May	-11.5322
▁بۆنمونە	-11.5322
▁ڕستەی	-11.5322
▁ئەوەندەش	-11.5322
▁96	-11.5322
▁مەسرور	-11.5325
▁بەرشلۆنە	-11.5325
▁لەسەرۆک	-11.5326
▁بیانوی	-11.5327
▁کەنیسە	-11.5327
▁خەفەت	-11.5328
▁لەسەرخۆ	-11.533
▁پێوویستە	-11.5333
▁نەچوو	-11.5334
▁قات	-11.5334
بة	-11.5336
▁پرسیارەوە	-11.5338
▁دێموکراسیدا	-11.5339
▁بیانەوێت	-11.5341
▁فاکتەرێکی	-11.5341
▁بەچاکی	-11.5342
▁ڕوانینی	-11.5342
▁بەفیڕۆ	-11.5344
▁حەویجە	-11.5344
▁شەرع	-11.5344
▁دەچێتەوە	-11.5344
▁اڵاول	-11.5346
▁ڕووخسار	-11.5347
ووش	-11.5347
▁سەرزەوی	-11.5347
▁پارچەیەک	-11.5349
▁مەلاکان	-11.535
▁نۆژەن	-11.5351
▁خۆپاراستن	-11.5352
▁تالەبانی	-11.5352
▁نازانرێت	-11.5352
▁دیموکراتیەت	-11.5352
▁یەکەیان	-11.5354
▁ڕێگەچارەی	-11.5355
گیان	-11.5356
▁تەبا	-11.5357
ئازار	-11.5357
▁جیاوازتر	-11.5358
▁بکەونە	-11.5358
خەڵک	-11.5359
▁گۆڕا	-11.536
▁ئۆغلو	-11.5361
▁پارتیدا	-11.5364
▁شەوان	-11.5364
▁هەڵم	-11.5365
▁مانگرتنی	-11.5365
▁مابوو	-11.5365
▁ڕۆحانی	-11.5366
شیاندا	-11.5366
ئێران	-11.5366
▁پەرتووکی	-11.5368
76	-11.537
▁ئینسایکلۆپیدیای	-11.5371
▁کردەوەکانی	-11.5372
داوه	-11.5373
سەرۆکی	-11.5373
▁هۆکارەکەشی	-11.5375
▁ئەنتی	-11.5375
ma	-11.5375
▁زاڵە	-11.5378
رگ	-11.5378
▁چیرۆکەکە	-11.5378
▁شەریعەتی	-11.5378
▁مالیزیا	-11.5379
انا	-11.5379
دەسەڵات	-11.5381
▁کۆببنەوە	-11.5381
▁بکوژانی	-11.5382
▁بیرکردنەوەو	-11.5385
▁یەعقوب	-11.5389
▁ئامادەکارییەکان	-11.539
▁گرێدانی	-11.5391
ەرە	-11.5393
81	-11.5397
انەمان	-11.5398
▁بابا	-11.5398
▁سەدەکانی	-11.5399
▁دواجاریش	-11.5399
▁مێش	-11.5399
▁تەئکیدیکردەوە	-11.54
▁نەگەیشتنی	-11.5407
نەکراو	-11.5407
های	-11.5407
▁تۆتنهام	-11.5408
▁پرۆژەیه	-11.5409
▁گەڵاڵە	-11.5409
▁بڵاوکردنەوە	-11.5409
▁پەکەکه	-11.5411
ئال	-11.5411
ووەو	-11.5411
▁شانۆکاری	-11.5413
▁هەنگوین	-11.5414
بژێر	-11.5417
وال	-11.5417
▁بەرباس	-11.5418
▁دابمەزرێت	-11.5418
▁زیانیان	-11.5421
▁جێناکۆکەکان	-11.5424
▁لەشکرکێشی	-11.5427
▁الد	-11.5428
▁بەبیانووی	-11.5428
▁پابەندبوونی	-11.5429
▁دێنێت	-11.543
▁ستیڤان	-11.543
▁1976	-11.5432
کەرکوک	-11.5432
▁زلهێزەکان	-11.5433
▁تەسکی	-11.5433
▁گەرانەوەی	-11.5434
▁ئابوریی	-11.5436
▁دەپرسێت	-11.5436
▁ئاشکراو	-11.5436
▁وردو	-11.5438
▁دەقەکە	-11.5438
▁دابەشبوونی	-11.5438
▁درز	-11.5439
▁داڕێژراو	-11.544
▁پەیڕەوکردنی	-11.5441
▁سووتان	-11.5442
▁سەرژمێریی	-11.5442
▁پاڵی	-11.5443
▁داڕشتنەوەی	-11.5444
▁گەیشتوون	-11.5445
▁نوسیویەتی	-11.5446
▁فو	-11.5446
وزە	-11.5446
▁نوور	-11.5448
دم	-11.545
▁شانشینی	-11.5451
هێز	-11.5451
▁بەرزنرخاند	-11.5452
▁بەڵێنەکانی	-11.5454
▁VOA	-11.5455
▁زنجیر	-11.5456
▁بنیاتنانەوەی	-11.5456
▁بڕوانامە	-11.5457
▁چەوسێنەر	-11.546
گانە	-11.546
▁دەیزانی	-11.5461
▁ئایینە	-11.5464
دۆن	-11.5465
▁یەکتریان	-11.5467
▁کێڵگە	-11.5468
مەرگ	-11.5469
▁ترسە	-11.547
▁ڕیاز	-11.5471
▁سست	-11.5472
▁هەقیقەت	-11.5472
▁تەسلیمی	-11.5473
بڕین	-11.5473
▁کاروبارەکانی	-11.5473
▁تەحسین	-11.5474
▁زۆربوونی	-11.5476
▁بش	-11.5476
▁بروا	-11.5477
▁بەنیازه	-11.5477
▁هەبوایە	-11.5478
▁دەبڕێت	-11.5478
▁بەئاوێنەی	-11.548
▁کۆمەلان	-11.5481
▁دڵت	-11.5481
▁وشەیەک	-11.5483
▁ئەلکترۆنی	-11.5484
▁مامۆستاو	-11.5484
▁ئاکار	-11.5485
کراونەتەوە	-11.5486
▁سێدارەدانی	-11.5487
▁پێنچ	-11.5489
▁هەند	-11.5492
قول	-11.5493
▁وڵاتەوە	-11.5494
▁پێشمەرگەکان	-11.5495
▁ئەزانی	-11.5495
جۆر	-11.5496
▁خەریکن	-11.5497
▁تیۆر	-11.5497
▁هەڵکشان	-11.5498
ژمێر	-11.5501
▁کەزۆر	-11.5503
▁دەردەچن	-11.5503
▁هاوبەشە	-11.5504
▁ئەکبەر	-11.5504
رسی	-11.5505
▁پارەکە	-11.5506
▁وتووێژی	-11.5507
▁سۆنیا	-11.5507
78	-11.5509
▁زانیارییە	-11.5509
▁لەیادی	-11.551
▁باوکیان	-11.5511
▁کۆمەل	-11.5511
بەڵام	-11.5511
▁سەرۆکجاشی	-11.5512
▁زەمانی	-11.5512
▁دادپەروەرانە	-11.5514
▁مامەڵ	-11.5517
▁ئۆپۆزسیۆنیش	-11.5518
▁های	-11.5518
▁هەق	-11.5523
▁حەزرەتی	-11.5523
ەتێکی	-11.5523
▁کارتۆنی	-11.5524
▁ناگرن	-11.5524
▁خێزانێکی	-11.5525
▁گۆڕانکارییەکان	-11.5527
▁کۆنفرانسێکی	-11.5528
84	-11.5529
▁لیسته	-11.553
▁لایەنگر	-11.553
▁پارێزگاریکردن	-11.553
▁داواکارم	-11.5532
▁ژناندا	-11.5535
پەل	-11.5535
▁هەواڵه	-11.5536
44	-11.5536
▁پەلاماردانی	-11.5536
▁دەزگایە	-11.5537
▁لیبراڵ	-11.5539
▁بەرای	-11.554
▁خوان	-11.554
▁دەنوێنێت	-11.554
▁سەرسوڕمان	-11.554
▁ئاگرەکە	-11.5541
▁ئەنجامیان	-11.5543
▁دواکەوتن	-11.5544
▁ڕوویانداوە	-11.5545
▁خۆشتر	-11.5545
▁وێنەیە	-11.5545
▁سوننەت	-11.5545
▁ماریا	-11.5546
▁سۆزو	-11.5547
▁ڤایرۆسی	-11.5548
▁نزمی	-11.5548
▁بکەیتەوە	-11.5549
ینا	-11.555
▁لۆکاڵی	-11.555
▁ڕفاندنی	-11.5553
▁سوپاسگوزاری	-11.5554
▁تۆز	-11.5554
▁ناحیە	-11.5555
▁ئەوەشیان	-11.556
▁ئەد	-11.556
▁ئیتاڵی	-11.5561
▁لەئەوروپا	-11.5562
▁خۆپیشاندانێکی	-11.5563
▁ڕێگایە	-11.5563
▁عەشقی	-11.5564
بدەین	-11.5565
گۆی	-11.5568
▁لەسەریان	-11.5568
▁یەکجارەکی	-11.5568
▁gt	-11.5569
▁شێوازەکانی	-11.557
ژێت	-11.5571
▁ئیلهام	-11.5571
▁دەخوازین	-11.5575
▁ڕێگاوبان	-11.5576
▁دەسکەوتی	-11.5576
▁نیشاندان	-11.5577
▁دونیا	-11.5577
▁ئامێدی	-11.5577
▁لیگ	-11.5578
▁ڕویدا	-11.5578
▁دیمەنێک	-11.5579
▁قەر	-11.5581
عەبدول	-11.5581
▁ناکۆکییەکان	-11.5581
یەکەم	-11.5581
▁سەرهەڵدانە	-11.5584
▁ئەکرێ	-11.5584
▁ئالای	-11.5587
▁جەنەراڵ	-11.5588
▁ولێر	-11.5588
▁دڕ	-11.5588
نام	-11.5588
▁فەرید	-11.559
دەکەینەوە	-11.559
هاوکاری	-11.5591
▁چەندینجار	-11.5594
▁ژینگەیەکی	-11.5595
▁دووای	-11.5598
▁فیستیڤاڵەدا	-11.5598
▁پەرتوک	-11.5599
▁خۆمەوە	-11.56
▁قسەمان	-11.5602
▁کاتیش	-11.5603
ئێمە	-11.5603
▁هەڤ	-11.5604
▁زەنگ	-11.5604
▁کەرتە	-11.5604
▁پاکستانی	-11.5605
▁180	-11.5606
▁مولازم	-11.5607
47	-11.561
توان	-11.5611
▁بەخەڵک	-11.5614
▁هەڵبەست	-11.5614
95	-11.5615
▁لەکەس	-11.5616
▁بەرزکردەوە	-11.5616
51	-11.5618
▁داتا	-11.5619
▁سلبی	-11.5619
▁ڕێنماییەکان	-11.562
▁سەرنوسەری	-11.5621
▁گرنگەکان	-11.5621
▁کارەیان	-11.5622
▁یەکینەکانی	-11.5622
▁دێڕە	-11.5623
پێویسته	-11.5624
▁info	-11.5625
▁چوونه	-11.5625
ئێ	-11.5626
یەکه	-11.5626
▁بیل	-11.5627
ۆژه	-11.5627
▁لەشەڕ	-11.5627
▁حەیران	-11.5627
▁بزن	-11.5628
▁دیالەو	-11.5629
▁ئاواش	-11.5632
▁پێشانگایه	-11.5632
▁بەهاوکاریی	-11.5632
▁سەربازەکانی	-11.5632
▁کۆلێژ	-11.5633
▁ناگونجێت	-11.5635
▁باسکرد	-11.5636
▁سیما	-11.5636
▁سعودیه	-11.5637
▁خۆیانیان	-11.5637
کوڵ	-11.5638
▁ڕایانگەیاندووە	-11.5639
▁دارە	-11.5639
▁مانایەک	-11.564
▁ڕێورەسم	-11.5641
▁مرۆڤانە	-11.5642
▁خیانەتی	-11.5643
▁بۆگەن	-11.5644
▁ئۆپەراسیۆنی	-11.5645
▁بەگرنگی	-11.5645
▁ژەنەراڵ	-11.5645
بدرێت	-11.5647
▁بسەلمێنێت	-11.5647
▁دروستکردوە	-11.5648
▁هەندێکیش	-11.5649
ستین	-11.5649
▁لاری	-11.5652
▁دیلی	-11.5653
▁دەگێڕنەوە	-11.5653
▁دیکەشیان	-11.5654
▁حامید	-11.5655
کوت	-11.5656
▁جاره	-11.5656
پۆل	-11.5657
▁پارێزگایە	-11.5657
▁هەڵوێستیان	-11.5659
مات	-11.5663
▁ئەقڵی	-11.5663
موو	-11.5663
▁دەمێنیتەوە	-11.5664
▁بەدر	-11.5665
▁دەربە	-11.5666
▁ئیستاش	-11.5666
▁جیهانەوە	-11.5668
▁کۆچەر	-11.5668
▁یەکپارچەیی	-11.5669
▁هاور	-11.5671
▁هێواش	-11.5672
▁لەتەواوی	-11.5673
▁خوێنرایەوە	-11.5675
▁سەرهەڵدان	-11.5675
39	-11.5677
زانین	-11.5682
▁تێکستە	-11.5682
▁دەمرن	-11.5685
N	-11.5687
▁ستەمیان	-11.5687
▁ئایدۆلۆژیا	-11.5688
▁ڕیک	-11.5688
▁سەرکەوتووی	-11.569
▁دانراون	-11.569
▁جارێکیش	-11.569
▁مرۆڤەکانی	-11.5691
▁ئاساییشی	-11.5691
▁هاوخەمی	-11.5694
هەلات	-11.5697
▁کتێبخانە	-11.5698
لێن	-11.57
▁شۆڕشگێڕانە	-11.57
نەبوون	-11.57
▁مەرجەعی	-11.57
▁ندە	-11.5701
▁کارکردنیان	-11.5701
▁ئیسرایل	-11.5703
▁ناڵێم	-11.5704
▁بەندەری	-11.5705
▁کەئەمەش	-11.5708
دەس	-11.5708
▁بدرێتە	-11.5708
▁ئەنجامبدەن	-11.5711
▁زەحمەتکێشانی	-11.5712
▁کۆنگره	-11.5712
▁سەردانەکەیدا	-11.5713
▁حکوم	-11.5713
▁بۆچون	-11.5716
▁پرۆژە	-11.5717
▁ناکەنەوە	-11.5718
▁کێشان	-11.5718
▁سەل	-11.5722
دەکرێتەوە	-11.5723
▁هەڵه	-11.5724
وەک	-11.5725
se	-11.5725
▁دەفەرموێ	-11.5727
▁دۆسی	-11.5732
هێرش	-11.5732
شێ	-11.5732
کون	-11.5735
▁فەرمیی	-11.5736
شەوه	-11.5738
▁لەروی	-11.5738
▁مەودا	-11.5739
▁بکوژن	-11.574
بوونیان	-11.5741
▁کۆبوونەوەکه	-11.5741
▁جبوری	-11.5741
▁قەدەغەیە	-11.5743
▁دەکرێتە	-11.5743
▁یەکشەممەی	-11.5743
▁کەوەک	-11.5746
▁لۆڤ	-11.5746
زیان	-11.5747
پەیام	-11.5748
▁زامنی	-11.575
▁لەمساڵدا	-11.5751
▁بەڕوو	-11.5752
▁یاساکه	-11.5753
▁کوردمان	-11.5753
▁یەکگرتوویی	-11.5755
▁تامی	-11.5755
▁کورتدا	-11.5756
▁مەترسییەوە	-11.5756
▁پێویستییەکی	-11.5758
▁سوریاوە	-11.5759
▁فڕۆکەیەکی	-11.576
▁ناخۆشە	-11.5761
▁لەپلەی	-11.5764
▁هاوبەشیان	-11.5765
▁دۆزیوەتەوە	-11.5765
▁کۆمپانیایەک	-11.5765
▁لەمافەکانی	-11.5766
▁پرۆ	-11.5768
گرن	-11.5768
▁2-	-11.5768
▁دوایەمین	-11.5768
▁عەباسی	-11.5769
▁بەندکراو	-11.5769
▁سەرۆککۆماری	-11.5771
▁١	-11.5771
▁ببە	-11.5772
▁کەسایەتیەکی	-11.5773
▁یاخیبوون	-11.5773
▁نوێکردنەوەی	-11.5776
07	-11.5777
بخات	-11.5777
▁تار	-11.5778
بەسەر	-11.5778
▁شارەکەیان	-11.5779
▁سەردەمیانە	-11.578
▁وزەو	-11.578
▁چارەنوس	-11.578
is	-11.578
▁خەر	-11.578
▁دەبەستن	-11.5782
▁بێشک	-11.5784
▁دەستەمۆ	-11.5786
▁سوپاو	-11.5789
▁بەهەرحاڵ	-11.579
▁مژدە	-11.579
▁ئەلعێراقییه	-11.579
56	-11.5792
▁٦	-11.5795
▁ڕووداوانەی	-11.5795
بەهۆی	-11.5796
▁لەزمانی	-11.5797
▁دوێنێی	-11.5797
▁کردووەتە	-11.5799
کردنەوه	-11.5799
▁کۆتاییهاتنی	-11.58
▁زیرەکی	-11.58
▁ئەپرێل	-11.5801
وتار	-11.5801
▁سەربازە	-11.5803
66	-11.5805
▁بوونەوەرێکی	-11.5805
▁لەهەندێ	-11.5806
▁هاوڕێیەکی	-11.5806
▁دنیایەک	-11.5807
▁تاوانکاری	-11.5808
th	-11.5808
▁ئەبەدی	-11.5809
▁دیمەنێکی	-11.5809
▁ناپۆلی	-11.5809
داران	-11.5809
▁خستووە	-11.581
▁کۆمپانیایە	-11.581
▁سەردەمێک	-11.581
▁مایکل	-11.581
▁بەنیازە	-11.581
▁هەڵبژاردەکانی	-11.5811
▁گشتیەکان	-11.5813
▁داواکانی	-11.5813
▁گوێگر	-11.5814
رۆک	-11.5815
بۆچوون	-11.5815
▁Net	-11.5816
تال	-11.5817
▁دەگەینە	-11.5819
▁ژیری	-11.582
جن	-11.5822
▁هەڵەبجەیی	-11.5823
ڕەی	-11.5823
▁هەلویستی	-11.5826
▁ناهەقی	-11.5828
▁سیاسەتمەدار	-11.5828
▁دەخ	-11.5829
▁سیل	-11.5829
▁پیشاندا	-11.5829
▁هاوڵاتییان	-11.5829
▁چیرۆکەکانی	-11.5829
▁93	-11.5831
▁نەکاتەوە	-11.5832
▁گوتووە	-11.5833
▁بدرێتەوە	-11.5834
▁بنەماڵەکەی	-11.5835
▁بچمە	-11.5835
▁سیفەتی	-11.5836
▁ماڵەکانیان	-11.5837
▁خش	-11.5837
ئەگەری	-11.5837
ەکى	-11.5838
▁لەوبارەیەوه	-11.5838
▁گرفتێک	-11.584
▁بەردەوامیی	-11.5841
مێر	-11.5842
▁کۆنەکانی	-11.5843
▁ژینگەیی	-11.5845
08	-11.5846
▁ناکرێن	-11.5846
▁لووتکەی	-11.5847
زمان	-11.5848
▁دەستگیرکردن	-11.5849
▁دەتان	-11.5849
▁سڵاوی	-11.5851
▁هۆنراوەی	-11.5851
▁چینێکی	-11.5852
▁فیدڕاڵی	-11.5852
▁98	-11.5853
▁کۆل	-11.5853
▁میلی	-11.5853
▁لەڕابردوودا	-11.5854
▁دڕندەیی	-11.5854
▁وشیاری	-11.5855
▁ساخ	-11.5858
ئەمڕۆ	-11.5858
▁ستا	-11.5858
بیل	-11.5859
کاک	-11.5861
سپێر	-11.5863
▁هەمووتان	-11.5865
کۆمەڵ	-11.5865
▁باک	-11.5865
▁پرسه	-11.5866
▁هاوچەرخی	-11.5867
سوو	-11.5867
▁قورئاندا	-11.5869
▁جێنۆسایدی	-11.587
▁تێگەیشت	-11.5872
▁داخراوە	-11.5872
▁بەعسەوە	-11.5875
▁re	-11.5875
▁دۆڕاو	-11.5876
شوێن	-11.5876
پشت	-11.5877
▁کۆلیژی	-11.5877
▁سەمیر	-11.5878
▁نوێیەکەی	-11.5878
نرێت	-11.5879
▁چواردە	-11.588
▁بەڕ	-11.588
▁ڕاد	-11.588
▁ئەندامەکەی	-11.588
▁بودجەیەکی	-11.5882
▁بەردەکەوێت	-11.5882
قو	-11.5883
▁ڤەکرن	-11.5883
▁گەڕی	-11.5884
▁کردووم	-11.5886
یۆ	-11.5886
▁مەرجەی	-11.5886
▁لێکەوتووەتەوە	-11.5888
B	-11.5888
▁ڕەگەزپەرستی	-11.5888
▁ئۆتۆمبیلێکی	-11.5889
▁مەشهەدانی	-11.5889
▁ئاینە	-11.5889
▁مەرگەیی	-11.5891
ۆژەی	-11.5892
▁بکێشێت	-11.5893
▁ئەمەریکاو	-11.5895
▁You	-11.5895
▁ئاگاداربوون	-11.5897
▁سەرجەمیان	-11.5897
کردوەو	-11.5898
▁بارەگا	-11.5898
پیاو	-11.5898
▁مەزەندە	-11.59
▁پێناس	-11.5901
▁هونەرییەکان	-11.5901
▁پەیوەندییانە	-11.5905
▁ئەنجامبدات	-11.5906
▁Sport	-11.5907
▁بەخاک	-11.5908
▁نەبووین	-11.5908
ییەتی	-11.5909
na	-11.5909
▁تەوبە	-11.5911
▁دانیشتنەکەی	-11.5914
▁فرەژنی	-11.5914
▁هەڵبژێردراوی	-11.5914
▁پەیتا	-11.5917
دەرەوەی	-11.5918
ەف	-11.5918
▁ستە	-11.5919
▁ئەنجامەکەی	-11.5919
▁نزیکانە	-11.592
▁بگرم	-11.5921
دابێت	-11.5921
▁اللە	-11.5922
▁دابەشکراوە	-11.5922
خواردن	-11.5922
ەتەوە	-11.5923
▁بڕگەکانی	-11.5927
▁ئەلمالیکی	-11.5927
▁ماڵپەڕ	-11.5929
▁بدۆزینەوە	-11.593
▁بەڕیز	-11.5931
▁ڕم	-11.5931
▁ڕوودەدەن	-11.5932
پێکردنی	-11.5933
▁ڕۆژئاوایی	-11.5933
▁هاوسەرۆکی	-11.5933
ناڵ	-11.5936
▁ئەمەریکیەکان	-11.5936
▁پێوانەیی	-11.5936
▁یەکلاکەرەوە	-11.5936
▁دەستپێکردووە	-11.5938
▁ئۆرگانەکانی	-11.5938
▁بەهایەکی	-11.5938
▁ڕاوەستان	-11.5939
▁مێز	-11.5941
▁ئەهلییەکان	-11.5941
▁نۆژەنکردنەوەی	-11.5942
▁فڵان	-11.5942
ەند	-11.5944
▁ستراتیژ	-11.5944
▁میسردا	-11.5945
▁گفتوگۆکردنی	-11.5948
تز	-11.5949
▁٤	-11.5949
▁لێپرسراوێتی	-11.5949
▁مالپەر	-11.595
▁هەوار	-11.5954
▁ملیارد	-11.5955
▁پزیشکانی	-11.5956
تاب	-11.5956
▁حوکمڕان	-11.5957
▁هێنرا	-11.5961
ڕن	-11.5963
▁درابوو	-11.5963
▁کێشەیه	-11.5963
41	-11.5963
▁بڵندی	-11.5964
▁چالاکییەکی	-11.5964
83	-11.5965
▁ئاشتیانەی	-11.5966
▁بەکارەکانی	-11.597
▁فەتوای	-11.5972
▁بوونێکی	-11.5972
▁کیش	-11.5974
▁بەمانا	-11.5975
▁عەبدولموتەللیب	-11.5976
قد	-11.5978
▁کاوسی	-11.5978
ئەوە	-11.5978
دارەکان	-11.5979
▁هاوڕا	-11.598
▁بەکاربهێنرێت	-11.598
▁فەرمانگەکان	-11.5981
▁هاتووەتە	-11.5982
▁کاریگەرییەکانی	-11.5984
▁سزادان	-11.5984
87	-11.5984
▁سۆشیالیستی	-11.5987
▁دوەمی	-11.5987
▁سوارە	-11.5987
▁بەڕێوەبەرانی	-11.5988
▁برینداربوونی	-11.5988
▁ساوایان	-11.5988
▁هەشتاکان	-11.5989
یج	-11.5989
یۆلیۆ	-11.5991
▁عەشیرەتی	-11.5992
▁پێبەخشرا	-11.5992
▁سەرۆکوەزیران	-11.5992
79	-11.5993
▁کەنداوی	-11.5994
▁بەخێوکردنی	-11.5995
▁ڕۆژەوە	-11.5996
▁سارکۆزی	-11.5996
▁ئاداری	-11.5997
▁تکا	-11.5997
▁شارچێتی	-11.5998
اندان	-11.5999
▁هەفتانە	-11.6
▁لێکۆڵەر	-11.6001
▁تۆنی	-11.6001
▁ڕێپێوان	-11.6003
▁هەڵبژێرێت	-11.6003
▁لیستێکی	-11.6003
▁کوشتاری	-11.6004
▁گۆڤارە	-11.6004
▁نەژادی	-11.6005
ژیانی	-11.6006
▁سەرچاوەیە	-11.6007
▁پلا	-11.6008
▁بەرکەوتووە	-11.6009
▁ئیر	-11.6009
23	-11.6009
▁دڵتەزێن	-11.601
▁چەپەکان	-11.601
▁گوندەکە	-11.6011
▁ڕێکخراوێک	-11.6013
▁هەڤاڵان	-11.6013
▁نیگای	-11.6014
▁گێم	-11.6015
▁ئافرەتدا	-11.6016
▁دادپەروەر	-11.6016
▁بەراوردی	-11.6017
▁بەقەدەر	-11.6017
▁بیرت	-11.6018
مۆند	-11.6018
▁خستووەتە	-11.6019
▁نامەکە	-11.602
▁ئیلام	-11.6021
▁کوردانەی	-11.6022
عد	-11.6022
57	-11.6023
قام	-11.6024
▁بارەت	-11.6029
▁بێگەردی	-11.6029
▁دەستپێ	-11.6033
▁حەب	-11.6034
کردە	-11.6035
▁تەلەفزیونی	-11.6036
دەبین	-11.6036
▁عەبدولڵا	-11.6037
ەنە	-11.6039
▁لەئێمە	-11.6042
▁ڕێکەوتنە	-11.6045
▁دەترسم	-11.6046
▁ڕۆژێکە	-11.6046
▁ڕابگرن	-11.6046
▁ۆرکشۆپ	-11.6046
▁هونەره	-11.6047
بواری	-11.6047
▁قبووڵکردنی	-11.6048
▁گوفتار	-11.6049
▁هەرچییەک	-11.6052
▁ڕابوون	-11.6052
▁هاوڵاتیەک	-11.6052
▁لەبە	-11.6052
ێکت	-11.6053
▁تەقینەوه	-11.6056
▁دەقیقە	-11.6057
▁لێهاتووە	-11.6058
▁لەسیاسەتی	-11.6059
▁دەنوسێت	-11.6059
▁جومگە	-11.606
▁دەوترێت	-11.6061
▁ناوچانەدا	-11.6063
▁هونەرو	-11.6064
نیشان	-11.6065
▁111	-11.6066
▁بەردەوامبوون	-11.6066
▁سەیران	-11.6066
▁فەجر	-11.6067
▁ببەین	-11.6068
▁گروپەکە	-11.607
▁بگونجێت	-11.607
▁بەبەر	-11.607
▁ورەی	-11.6072
▁بینراو	-11.6073
▁عەمەلی	-11.6073
▁پارێزراوە	-11.6075
▁130	-11.6075
▁لێکتێگەیشتن	-11.6076
دکتۆر	-11.6076
▁وتارەکەیدا	-11.6078
ڵەی	-11.6078
▁دادگاو	-11.6082
▁قانوونی	-11.6082
قین	-11.6082
▁ناوازە	-11.6083
▁بنێ	-11.6083
▁مور	-11.6084
▁بده	-11.6085
▁سەردەمێکی	-11.6086
▁ناوەکانی	-11.6088
تەم	-11.6088
▁ار	-11.6089
▁عەلەوی	-11.6089
▁یاریزانەکانی	-11.609
▁دەکری	-11.6091
▁ناڵە	-11.6092
للا	-11.6095
▁بزوتنەوەیەکی	-11.6096
▁ڕەمەزانی	-11.61
▁ماوەتی	-11.6104
▁نەشتەرگەریی	-11.6107
▁لێکۆلینەوە	-11.6108
▁بزوتنەوەیە	-11.611
right	-11.611
▁لەسەرەوە	-11.6111
حم	-11.6111
▁ناشەرعی	-11.6114
▁ڕۆک	-11.6115
▁تاقم	-11.6115
▁ئید	-11.6116
▁سەدەیەک	-11.6116
▁بزانیین	-11.6116
▁تاڕادەیەکی	-11.6116
▁بڵاوبۆتەوە	-11.6118
مس	-11.6119
▁هەلێکی	-11.6122
ێوەدەچێ	-11.6124
▁خێری	-11.6124
▁گەرەک	-11.6124
زۆ	-11.6124
▁گرتنە	-11.6125
▁قەیرانەکە	-11.6126
▁هەڵدەگرین	-11.6127
▁فراکسیۆنەکانی	-11.6127
▁زبر	-11.6128
▁لەماڵەوە	-11.6129
▁قەبووڵ	-11.6129
کەل	-11.6129
▁نێوەند	-11.6129
▁داڕشت	-11.613
▁هەوڵانەی	-11.613
▁ڕواندز	-11.6132
کارێکی	-11.6134
▁بەدواداچون	-11.6134
▁کۆمیدی	-11.6135
▁پێبدەن	-11.6135
▁هەمیشەو	-11.6135
▁موقەدەم	-11.6136
▁خانەوادەکەی	-11.6136
▁خەتای	-11.6136
▁مەرزی	-11.6137
▁هەڵگیرسانی	-11.6138
▁ئاکەپە	-11.6138
▁تەلەڤزیۆنی	-11.6139
توون	-11.6139
▁قۆڵ	-11.6139
▁سار	-11.6141
28	-11.6141
▁سیادی	-11.6143
▁جوانیی	-11.6143
▁لەناخی	-11.6144
▁فەتوا	-11.6144
▁کۆدەبێتەوە	-11.6145
▁سیاسییەکاندا	-11.6145
▁دهێت	-11.6145
رێز	-11.6145
▁بەربڵاو	-11.6145
وڕ	-11.6146
▁پلینۆم	-11.6146
▁بڵاوکراوە	-11.6147
▁بەژنان	-11.6148
▁حەزیان	-11.6148
▁فڕۆکەوانی	-11.6148
▁بەرهەڵستی	-11.6149
▁بیرکاری	-11.6149
▁پێبەخشی	-11.615
▁وڵامێک	-11.6152
▁دۆڵ	-11.6153
52	-11.6153
▁قایمقام	-11.6153
▁پەسەندکرا	-11.6154
▁کۆنگرێسی	-11.6154
بیا	-11.6156
▁بەپێویست	-11.6156
▁فڕۆکه	-11.6156
▁باشکردنی	-11.616
وش	-11.6161
جد	-11.6161
▁هەریم	-11.6162
▁جمهوری	-11.6163
▁لەوجۆرە	-11.6165
▁بلۆکی	-11.6165
▁مەق	-11.6166
▁پیران	-11.6169
▁پێیوابوو	-11.617
▁٧	-11.617
▁حەمه	-11.6172
▁نەفەر	-11.6173
▁شۆڕشەکانی	-11.6173
▁نەیاری	-11.6174
▁حی	-11.6175
▁قڕ	-11.6176
▁پرسەکە	-11.6177
▁شەمەندەفەر	-11.6177
▁بەنیازن	-11.6178
▁ڕووداوەکەی	-11.6179
▁بوژاندنەوەی	-11.6179
▁ئاییندەی	-11.618
▁1-	-11.618
▁باوەڕدار	-11.6181
▁ئاڵۆزە	-11.6182
▁هاوئاهەنگی	-11.6183
▁ماچی	-11.6183
▁پێنجوێن	-11.6184
▁لاپەڕەکانی	-11.6184
▁هێورکردنەوەی	-11.6188
▁منداڵانە	-11.6191
▁گەمژەکان	-11.6192
▁یاساییمان	-11.6192
▁لەلێدوانێکیدا	-11.6192
▁سازان	-11.6192
▁فریا	-11.6192
▁خۆگر	-11.6193
▁ماهر	-11.6194
73	-11.6194
▁سەرگەرمی	-11.6199
▁هاوکاریان	-11.6199
▁فرۆید	-11.62
▁یاداشت	-11.62
▁مسلم	-11.62
▁کەلتور	-11.6201
▁هەواڵەی	-11.6202
▁تاوانبارە	-11.6203
▁ئوم	-11.6204
▁نۆرم	-11.6204
▁لێڤەرپول	-11.6207
▁ئەنادۆڵ	-11.6207
▁ئیماراتی	-11.6207
▁ڕووبەروی	-11.621
گاو	-11.6213
▁لەلایەکەوە	-11.6213
▁ئەندێشەی	-11.6215
▁هیواشی	-11.6216
▁کەناڵ	-11.6218
▁1986	-11.6219
لێدان	-11.622
▁تیوری	-11.622
▁مۆدێل	-11.622
▁بەژیانی	-11.6222
▁ئەتۆم	-11.6223
▁ژیا	-11.6223
▁ژوری	-11.6225
▁بەیەکتر	-11.6226
▁ئاکاری	-11.6226
▁سیاسەتەی	-11.6226
▁پێبدات	-11.6227
▁شەهیدە	-11.6228
▁ڕۆژەکانی	-11.6228
بوایە	-11.6229
▁داخۆ	-11.623
▁ڕۆژنامەوانان	-11.6234
▁پەیوەندیمان	-11.6235
▁کادیری	-11.6235
▁شاخی	-11.6236
▁دەرخست	-11.6236
▁پێدرا	-11.6236
▁مارتین	-11.6237
▁کیژ	-11.6237
▁پال	-11.6237
▁ئێمەیش	-11.6237
▁مەخموور	-11.6237
▁دادوەریی	-11.6238
▁ڕەسمیی	-11.6241
ووس	-11.6243
▁بەرشلۆنەی	-11.6243
▁وەزیرو	-11.6243
0000	-11.6244
راون	-11.6246
▁ئەسەدی	-11.6247
▁وەختە	-11.6249
▁مژ	-11.625
▁گرانە	-11.625
▁بەرپرسەکانی	-11.6252
▁هاوپشتی	-11.6254
▁ڕاپەڕاندنی	-11.6256
▁خواردەمەنی	-11.6258
▁پێگەو	-11.6259
▁پێشهاتەکانی	-11.626
▁شێعرێک	-11.6261
▁بەرەوپێشچوونی	-11.6263
▁ماس	-11.6264
▁هەرزەکار	-11.6264
▁ئابوورییەکان	-11.6264
▁سالە	-11.6266
▁باشمان	-11.6269
▁لەکاروباری	-11.6269
▁تەمموزی	-11.627
▁هەردولا	-11.6271
▁لەماڵی	-11.6271
▁بێلایەنی	-11.6272
▁نۆیەم	-11.6273
▁ئەرمەنی	-11.6273
▁یەکسانیی	-11.6273
59	-11.6275
▁داوام	-11.6276
کۆم	-11.6276
ئەوه	-11.6277
▁میللەتانی	-11.6278
▁قائید	-11.6278
▁برادەر	-11.6279
ڵێت	-11.628
▁ناپاکی	-11.6282
▁شوێنەکە	-11.6283
فراکسیۆنی	-11.6283
▁پێوانەی	-11.6284
▁داواکەی	-11.6284
▁دورگەی	-11.6285
هەن	-11.6286
▁چەوسانەوەی	-11.6287
▁900	-11.6287
▁بەبی	-11.6289
بەدەست	-11.6289
▁جەژنە	-11.6289
▁چووەتە	-11.6289
▁سیدی	-11.6289
▁پێوانە	-11.629
▁هەڵمەتە	-11.6291
یاس	-11.6291
▁گولە	-11.6293
▁کۆتر	-11.6294
▁پادشا	-11.6294
▁چرا	-11.6296
سێن	-11.6296
▁شکۆ	-11.6296
▁خەندە	-11.6298
29	-11.6301
▁حا	-11.6304
▁دەستبەکاربوونی	-11.6304
▁دادگاکان	-11.6305
▁خانەخوێی	-11.6306
زل	-11.6306
▁سەرەتایەک	-11.6306
▁گوزاری	-11.6309
زانیاری	-11.631
▁ئەنجامدەرانی	-11.631
▁دێم	-11.6311
46	-11.6311
▁گوناهبار	-11.6311
▁بیرەوەرییەکانی	-11.6311
ation	-11.6313
▁لەبوارە	-11.6313
▁ڕۆمانسی	-11.6313
[...]
