<unk>	0
<s>	0
</s>	0
ان	-0
▁ب	-1
ەو	-2
ەر	-3
▁ئ	-4
ەک	-5
ەی	-6
▁ل	-7
▁د	-8
▁ک	-9
▁و	-10
ار	-11
▁ه	-12
وو	-13
▁لە	-14
انی	-15
او	-16
ەن	-17
ای	-18
▁ن	-19
▁س	-20
تی	-21
ەم	-22
▁پ	-23
▁بە	-24
رد	-25
▁ڕ	-26
ست	-27
▁م	-28
ێک	-29
▁ت	-30
دا	-31
▁خ	-32
نی	-33
ات	-34
ام	-35
ێت	-36
ەوە	-37
▁گ	-38
▁دە	-39
ری	-40
▁ئەو	-41
ەڵ	-42
▁بۆ	-43
▁ی	-44
▁کە	-45
اری	-46
ێن	-47
▁ش	-48
ەت	-49
▁چ	-50
▁سەر	-51
اس	-52
ین	-53
ەکانی	-54
▁کو	-55
ەب	-56
▁ج	-57
▁ز	-58
اڵ	-59
ێر	-60
یی	-61
ەتی	-62
ەند	-63
▁ئەم	-64
ێو	-65
▁بەر	-66
▁کورد	-67
ەکان	-68
اد	-69
▁هەر	-70
ێکی	-71
اک	-72
از	-73
ۆی	-74
▁له	-75
▁کۆ	-76
کرد	-77
▁ع	-78
اب	-79
▁ف	-80
ێم	-81
ەش	-82
ەل	-83
ۆر	-84
▁پێ	-85
کی	-86
ەوەی	-87
▁ح	-88
مان	-89
ەری	-90
راو	-91
ەز	-92
▁(	-93
▁2	-94
ەکی	-95
یان	-96
▁دەک	-97
ەس	-98
▁ق	-99
▁1	-100
ەد	-101
یر	-102
شت	-103
ال	-104
اند	-105
▁کرد	-106
▁"	-107
سی	-108
وون	-109
ستان	-110
ون	-111
▁)	-112
▁یەک	-113
▁:	-114
▁ڕۆ	-115
سەر	-116
ەڕ	-117
گەی	-118
شی	-119
▁بک	-120
▁-	-121
▁ناو	-122
ێز	-123
اق	-124
اتی	-125
رێت	-126
▁خو	-127
یس	-128
▁کوردستان	-129
▁/	-130
انە	-131
اش	-132
انەی	-133
▁ژ	-134
ەکەی	-135
ووە	-136
▁دی	-137
▁خۆی	-138
▁هەم	-139
ەنگ	-140
وم	-141
ەیە	-142
ایی	-143
▁ئەن	-144
▁ئە	-145
رۆ	-146
▁دەب	-147
▁هەڵ	-148
▁به	-149
یش	-150
▁20	-151
▁کۆم	-152
▁سی	-153
▁دەر	-154
▁دو	-155
ەخ	-156
ەنی	-157
ۆک	-158
رو	-159
▁ڕۆژ	-160
گر	-161
ێراق	-162
بەر	-163
▁گو	-164
ەوت	-165
ۆن	-166
ید	-167
ەکە	-168
▁بەڵ	-169
وان	-170
▁دا	-171
لی	-172
▁کار	-173
▁پێش	-174
▁لەو	-175
▁دەست	-176
ەه	-177
▁عێراق	-178
ێژ	-179
▁خۆ	-180
▁دوو	-181
▁لەسەر	-182
ێی	-183
اسی	-184
ور	-185
▁بوو	-186
▁ڕا	-187
اڵی	-188
▁هاو	-189
▁وەک	-190
▁پار	-191
ەست	-192
▁هەو	-193
▁لەگ	-194
▁زۆر	-195
می	-196
ایەتی	-197
ارد	-198
کردنی	-199
▁ئەوەی	-200
زی	-201
گەر	-202
وک	-203
▁ئام	-204
ێش	-205
را	-206
ایە	-207
▁که	-208
یل	-209
▁لەگەڵ	-210
▁هەموو	-211
▁نو	-212
ڕی	-213
مانی	-214
کردن	-215
ێست	-216
▁ئا	-217
▁هەرێم	-218
یە	-219
▁کەس	-220
ەدا	-221
ستی	-222
ەیەکی	-223
▁لەم	-224
اوی	-225
▁پەر	-226
اوە	-227
▁پەی	-228
▁لای	-229
رین	-230
▁ئەنج	-231
هێن	-232
ەوه	-233
▁بەش	-234
ێب	-235
کە	-236
ییە	-237
▁جی	-238
وانی	-239
دی	-240
▁دەبێت	-241
▁بەڵام	-242
▁حک	-243
▁ڕوو	-244
▁من	-245
▁گر	-246
▁کۆمەڵ	-247
▁بەه	-248
امی	-249
شتی	-250
▁201	-251
تر	-252
نام	-253
▁بێ	-254
▁چەند	-255
ارەی	-256
گای	-257
▁دەکات	-258
ەف	-259
▁هی	-260
ەق	-261
ەمان	-262
▁ئەوە	-263
ازی	-264
ۆڕ	-265
گەیاند	-266
▁نا	-267
▁نێو	-268
▁تا	-269
▁خەڵ	-270
▁،	-271
دو	-272
ێتی	-273
ارە	-274
اف	-275
▁حکوم	-276
یز	-277
بوو	-278
▁سو	-279
یست	-280
▁بن	-281
ەندی	-282
ۆکی	-283
▁لێ	-284
▁وەز	-285
▁نی	-286
▁هەیە	-287
ەین	-288
▁یان	-289
▁بو	-290
ایب	-291
▁ئێست	-292
▁وڵ	-293
▁بەڕ	-294
▁تۆ	-295
یستی	-296
▁ئاس	-297
▁زی	-298
گرت	-299
▁ئێم	-300
▁بێت	-301
یری	-302
ڕۆ	-303
▁کات	-304
ووی	-305
راوە	-306
ەیەک	-307
▁پێو	-308
کەوت	-309
نە	-310
▁نەب	-311
▁ئەگەر	-312
▁لەن	-313
▁ڕێک	-314
ەیان	-315
▁3	-316
▁دەس	-317
بوون	-318
ڵی	-319
▁ئی	-320
دار	-321
▁تی	-322
▁داو	-323
▁بکات	-324
ژی	-325
خو	-326
رسی	-327
دانی	-328
ەمی	-329
▁ڕێ	-330
گە	-331
رس	-332
▁مو	-333
اتە	-334
اریی	-335
▁هیچ	-336
ۆز	-337
دان	-338
▁هێز	-339
ەور	-340
▁ئیس	-341
▁فەر	-342
وت	-343
اتر	-344
است	-345
▁هەڵب	-346
ەها	-347
▁ئاز	-348
▁کەم	-349
▁هەرو	-350
لای	-351
ەکرد	-352
▁ساڵ	-353
ادی	-354
▁سیاسی	-355
دەو	-356
▁درو	-357
▁هەرێمی	-358
ەلی	-359
ینی	-360
▁لەک	-361
ووری	-362
نەوەی	-363
▁پێک	-364
ۆت	-365
▁ئای	-366
▁وەر	-367
▁گوتی	-368
▁دوای	-369
هات	-370
▁بوون	-371
▁مان	-372
▁سەرۆک	-373
▁دەو	-374
▁0	-375
▁لەب	-376
ەج	-377
▁سەرۆکی	-378
▁خۆیان	-379
ژارد	-380
▁چون	-381
وە	-382
▁بەد	-383
▁گەور	-384
ۆل	-385
▁،]	-386
▁کاری	-387
▁هات	-388
▁نییە	-389
▁یاس	-390
▁200	-391
▁ئێستا	-392
▁شێو	-393
ێند	-394
▁با	-395
▁سیاس	-396
ۆش	-397
▁شار	-398
ێنی	-399
▁تایب	-400
▁پەرل	-401
▁دەکەن	-402
ۆری	-403
▁ئاو	-404
▁ئێر	-405
یت	-406
▁کێش	-407
▁مرۆ	-408
گی	-409
▁وڵات	-410
▁دروست	-411
▁ناوچ	-412
کا	-413
▁بەو	-414
▁هەول	-415
▁بار	-416
جی	-417
ستانی	-418
وونی	-419
▁بڕی	-420
▁تێ	-421
▁بڵ	-422
اژ	-423
▁لایەن	-424
▁لەبەر	-425
ەپ	-426
▁پەیو	-427
▁تور	-428
▁بکەن	-429
▁بەک	-430
▁تر	-431
▁یەکێتی	-432
▁دەڵ	-433
▁هەڵبژارد	-434
ووس	-435
ەیی	-436
ەرک	-437
▁دەسەڵ	-438
ەتە	-439
ۆم	-440
ۆڵ	-441
چی	-442
وار	-443
دە	-444
▁هەروەها	-445
▁تەنی	-446
▁چاو	-447
ەرم	-448
کاری	-449
▁داب	-450
▁5	-451
▁مرۆڤ	-452
زانی	-453
استی	-454
▁نەت	-455
▁ڕای	-456
▁4	-457
▁هەب	-458
▁بەسەر	-459
گری	-460
▁لەلای	-461
ێتەوە	-462
ەستی	-463
وور	-464
▁دەنگ	-465
▁زیاتر	-466
دەک	-467
▁نەک	-468
▁حکومەتی	-469
▁چونکە	-470
▁هەولێر	-471
لێم	-472
ێری	-473
▁سەرب	-474
▁[	-475
▁جیه	-476
▁]	-477
پی	-478
ود	-479
▁تەنیا	-480
▁ال	-481
ەنج	-482
حم	-483
کەی	-484
داری	-485
وب	-486
▁بەم	-487
▁ئەنجام	-488
یزب	-489
▁ئەندا	-490
▁لەه	-491
ەکانیان	-492
نەوە	-493
▁ئێمە	-494
▁ڕۆژنام	-495
▁تەو	-496
▁بب	-497
▁19	-498
▁هون	-499
کر	-500
گیر	-501
▁یاری	-502
▁ئیسل	-503
▁داد	-504
▁پارێز	-505
▁ڕێکخ	-506
ەوێت	-507
ییەکان	-508
▁ساڵی	-509
لێمانی	-510
▁بەپ	-511
گو	-512
▁کۆن	-513
ادا	-514
▁ئاماد	-515
کو	-516
یانی	-517
▁در	-518
▁جێ	-519
▁ڕاب	-520
▁ڕاگەیاند	-521
اوەی	-522
▁ماف	-523
▁ئاش	-524
وس	-525
▁,	-526
دات	-527
▁پاش	-528
▁ژن	-529
▁بەت	-530
▁ئێران	-531
خۆ	-532
▁جۆر	-533
تان	-534
ۆنی	-535
اران	-536
▁ناک	-537
▁زان	-538
▁تورکی	-539
▁شو	-540
▁گۆڕ	-541
ەتەوە	-542
تو	-543
▁مام	-544
▁حیزب	-545
▁یەکەم	-546
▁پێویست	-547
▁سلێمانی	-548
▁بیر	-549
▁چار	-550
▁ئۆ	-551
▁دەکرێت	-552
▁لەد	-553
▁ژم	-554
▁ئاماژ	-555
▁کوردی	-556
▁کر	-557
▁بەرپ	-558
▁دەوڵ	-559
▁کردووە	-560
▁بووە	-561
کردنەوەی	-562
کات	-563
▁نێوان	-564
▁تاو	-565
▁بەره	-566
زان	-567
وکر	-568
▁خەڵکی	-569
▁نە	-570
ەوەو	-571
▁دان	-572
▁گشتی	-573
▁دەگ	-574
▁لەپ	-575
هێنانی	-576
▁باش	-577
یەکان	-578
▁گرن	-579
▁بۆیە	-580
▁پرۆ	-581
▁هەند	-582
مە	-583
ێکدا	-584
ییەکانی	-585
▁ئار	-586
ەرەب	-587
▁بەڕێو	-588
ۆست	-589
▁10	-590
▁فیل	-591
▁نەخ	-592
▁پی	-593
▁ئەنجوم	-594
▁دڵ	-595
وەر	-596
▁کوردستانی	-597
▁ئەوان	-598
▁باو	-599
رێن	-600
داو	-601
مەت	-602
▁پێی	-603
ردنی	-604
▁ئەمەری	-605
ێڕ	-606
اکانی	-607
▁خۆش	-608
الی	-609
▁بد	-610
▁لەلایەن	-611
▁بەردەو	-612
راوی	-613
▁لەناو	-614
▁لی	-615
▁شاری	-616
▁پێن	-617
▁پارتی	-618
▁لەئ	-619
▁وە	-620
▁تایبەت	-621
اندنی	-622
چاو	-623
امبەر	-624
▁بەخ	-625
ێنەر	-626
دوو	-627
▁لێک	-628
▁ڕەو	-629
▁تاک	-630
▁کەرک	-631
▁شت	-632
▁باس	-633
یدی	-634
وی	-635
▁ڕۆژی	-636
▁نیشت	-637
ەوی	-638
▁بەن	-639
▁دەت	-640
▁خوێند	-641
▁کۆت	-642
▁چوار	-643
▁ڕاست	-644
اندا	-645
▁نزی	-646
گا	-647
▁دەڵێت	-648
وڵ	-649
اغ	-650
▁بەب	-651
▁ئەنجومەنی	-652
▁6	-653
▁ڕایگەیاند	-654
انەوە	-655
▁سن	-656
حەم	-657
▁مندا	-658
وری	-659
فر	-660
ەکه	-661
▁لەس	-662
▁پەرلەمان	-663
▁بکرێت	-664
ێل	-665
▁نم	-666
ارەت	-667
▁خاو	-668
▁باب	-669
▁ئاب	-670
ەع	-671
▁قس	-672
دەم	-673
ڕۆژ	-674
مەر	-675
▁دەستی	-676
▁بڕ	-677
▁دەسەڵات	-678
▁هێن	-679
▁مێژ	-680
▁عەرەب	-681
ەسەر	-682
▁بەل	-683
پەڕ	-684
پەر	-685
▁بەردەوام	-686
▁جار	-687
ردوو	-688
▁ئەمری	-689
▁می	-690
تە	-691
▁شی	-692
▁مەس	-693
ژم	-694
کراو	-695
▁یانەی	-696
▁جیاو	-697
▁یا	-698
▁حکومەت	-699
مەتی	-700
▁دیک	-701
▁عەب	-702
▁سێ	-703
▁گەی	-704
▁بر	-705
ەمانی	-706
▁خەڵک	-707
▁دەی	-708
▁شەڕ	-709
▁دەرب	-710
شن	-711
ەبەر	-712
▁هەز	-713
▁تورکیا	-714
▁تەم	-715
▁وەکو	-716
▁بگ	-717
▁گەر	-718
چێت	-719
شک	-720
▁8	-721
▁هە	-722
هەڵ	-723
تەر	-724
▁ئەمڕۆ	-725
▁قور	-726
اکی	-727
▁هەندێک	-728
▁باڵ	-729
▁7	-730
بوونی	-731
▁پل	-732
▁بەهۆی	-733
▁تری	-734
ەنگی	-735
▁داوای	-736
خی	-737
▁ئین	-738
ێنێت	-739
▁وت	-740
▁بەڵکو	-741
▁کۆتایی	-742
▁پێشمەر	-743
▁دام	-744
ەشی	-745
▁ناب	-746
نەی	-747
▁بەرهەم	-748
ڵاتی	-749
▁9	-750
▁ماڵ	-751
▁چی	-752
▁دێم	-753
اع	-754
▁ئەر	-755
ێشت	-756
▁بی	-757
▁گوت	-758
▁ئێو	-759
▁پرسی	-760
کار	-761
ترین	-762
اه	-763
▁تون	-764
پانی	-765
▁تەن	-766
▁پەیوەند	-767
▁بەرامبەر	-768
▁هەوڵ	-769
▁تێک	-770
▁گەل	-771
▁ئەک	-772
▁سەب	-773
▁;	-774
▁ئەمە	-775
▁ناوی	-776
▁سوپ	-777
▁11	-778
زگ	-779
دەی	-780
▁گەش	-781
▁ئازاد	-782
▁گۆڕان	-783
▁منداڵ	-784
▁باز	-785
▁دانی	-786
▁دێموکر	-787
▁کەرکوک	-788
حمەد	-789
▁12	-790
▁پڕۆژ	-791
ارەتی	-792
▁شان	-793
بانی	-794
▁&	-795
▁یەکێک	-796
انه	-797
▁بەغ	-798
▁بڵاو	-799
▁مەب	-800
▁هەردوو	-801
▁2010	-802
▁شوێن	-803
▁هۆی	-804
▁نوێ	-805
ەیر	-806
▁دەم	-807
▁دەد	-808
▁زۆری	-809
▁لەوە	-810
▁نەتەوەی	-811
ەکەدا	-812
▁کردنی	-813
▁ئەمەریکا	-814
ەگ	-815
▁پاڵ	-816
حەمەد	-817
▁نیش	-818
▁ئیسلامی	-819
▁هەی	-820
▁ئەحمەد	-821
▁دۆ	-822
▁لەڕ	-823
▁داهات	-824
▁بز	-825
▁چۆن	-826
▁سەرکەوت	-827
شتن	-828
▁بکەین	-829
▁ژیان	-830
▁ئازادی	-831
▁ئەڵ	-832
▁بەدەست	-833
▁ڤ	-834
▁چەندین	-835
▁ئەمەش	-836
نیش	-837
▁بەئ	-838
▁کاتێک	-839
▁بری	-840
▁تو	-841
▁ئەی	-842
▁زانی	-843
▁ڕابردوو	-844
▁ملی	-845
▁عەبدو	-846
▁نوێنەر	-847
▁دای	-848
بار	-849
روپ	-850
▁شێ	-851
▁بەرەو	-852
▁وێن	-853
▁2011	-854
▁بەرز	-855
ەکاندا	-856
__	-857
▁عێراقی	-858
▁ئەل	-859
▁فەرمان	-860
▁هەزار	-861
▁نەو	-862
▁نوو	-863
▁گۆ	-864
▁هەڵبژاردن	-865
بێت	-866
▁مەر	-867
ایش	-868
▁بەشداری	-869
▁ئاژ	-870
انگ	-871
▁ڕو	-872
▁وەزارەتی	-873
▁چەک	-874
▁وەزیر	-875
یەکانی	-876
مار	-877
▁شەه	-878
▁وەزیری	-879
▁خز	-880
▁خوا	-881
▁گرت	-882
▁سەبارەت	-883
▁بەپێی	-884
▁سین	-885
▁سەد	-886
ووت	-887
▁لەنێو	-888
▁گون	-889
ەوانی	-890
بوونەوەی	-891
▁پەرلەمانی	-892
▁پێویستە	-893
ێبەج	-894
▁بوونی	-895
ەبی	-896
ێڵ	-897
شتر	-898
▁ڕی	-899
ۆناغ	-900
▁گەڕ	-901
▁ژیانی	-902
انسی	-903
▁پەیام	-904
▁بارزانی	-905
ەکەیان	-906
▁چال	-907
راون	-908
▁دژ	-909
▁مە	-910
▁هەڵو	-911
▁بەکار	-912
بەی	-913
▁ژمارەی	-914
▁پەروەر	-915
▁\	-916
▁بەشی	-917
ەندە	-918
پەی	-919
انیش	-920
▁عەلی	-921
▁لەش	-922
▁سیست	-923
خان	-924
▁یەکگرت	-925
▁–	-926
قی	-927
انەوەی	-928
▁هێر	-929
▁ماوەی	-930
▁داع	-931
▁هەمیش	-932
▁نات	-933
ول	-934
▁*	-935
▁کەل	-936
▁بەغدا	-937
وانێت	-938
▁مافی	-939
ونی	-940
گەری	-941
▁ست	-942
▁درێژ	-943
▁پڕ	-944
▁ڕاستی	-945
کۆ	-946
▁پرۆس	-947
▁جیاواز	-948
▁جێبەج	-949
ورد	-950
اوو	-951
▁نیشتمانی	-952
ایەکی	-953
بی	-954
▁نووس	-955
▁گوتیشی	-956
▁سەرکرد	-957
▁دووەم	-958
▁هۆک	-959
▁جیهانی	-960
▁گرنگ	-961
▁پەیوەندی	-962
▁چارەسەر	-963
▁گۆر	-964
▁پشت	-965
▁هەبێت	-966
▁ئەد	-967
▁دیاری	-968
چوو	-969
▁ناس	-970
▁داعش	-971
شتنی	-972
اپ	-973
▁بەتایب	-974
ینە	-975
▁دامەز	-976
▁ڕۆشن	-977
ەفت	-978
▁کەوت	-979
▁ئەوەش	-980
▁تەواو	-981
▁دەن	-982
▁محەمەد	-983
ینەوەی	-984
ەتا	-985
▁سوری	-986
دایە	-987
▁ئاماژەی	-988
▁پیاو	-989
▁جەم	-990
▁نەبێت	-991
▁کاتی	-992
▁غ	-993
▁تەق	-994
اقی	-995
▁بەرنام	-996
▁چاک	-997
کرا	-998
گرن	-999
▁توان	-1000
▁دار	-1001
▁قۆناغ	-1002
▁پۆ	-1003
ەکردنی	-1004
ئاو	-1005
▁14	-1006
▁بنەم	-1007
لا	-1008
▁کۆمەڵایەتی	-1009
▁ڕوون	-1010
خست	-1011
▁نزیک	-1012
▁ئەوانەی	-1013
ڵا	-1014
▁وا	-1015
فی	-1016
▁بڕیار	-1017
ەلا	-1018
▁دەیان	-1019
▁موس	-1020
▁ڕاپ	-1021
▁ئەوا	-1022
▁شۆڕ	-1023
ایان	-1024
▁پیر	-1025
▁پێشک	-1026
▁15	-1027
▁زین	-1028
▁خان	-1029
وز	-1030
▁هەمان	-1031
▁کردوو	-1032
▁دەکەین	-1033
▁باسی	-1034
▁لاو	-1035
تێب	-1036
ێنن	-1037
▁ئیسلام	-1038
ot	-1039
ۆشی	-1040
اکان	-1041
▁لیژ	-1042
▁قوت	-1043
▁مامۆست	-1044
توگ	-1045
لم	-1046
▁ئایا	-1047
جەم	-1048
▁خست	-1049
▁2012	-1050
▁لێر	-1051
ێنێ	-1052
▁ئەوەیە	-1053
▁دنی	-1054
▁تایبەتی	-1055
▁ئەمریکا	-1056
▁دژی	-1057
▁دەرەوەی	-1058
▁گف	-1059
▁خۆپ	-1060
▁لێد	-1061
کردەوە	-1062
▁فر	-1063
ینەوە	-1064
▁شەهید	-1065
▁h	-1066
▁ڕەنگ	-1067
▁پارێزگ	-1068
▁دەکرد	-1069
▁دیم	-1070
▁کەن	-1071
▁مەد	-1072
▁ماد	-1073
حی	-1074
ژەو	-1075
▁دوور	-1076
▁بەوە	-1077
اندن	-1078
▁پێویستی	-1079
ێکە	-1080
وانن	-1081
▁مەت	-1082
▁ماو	-1083
▁بەرپرس	-1084
▁یاسای	-1085
▁تاوان	-1086
گەیەن	-1087
▁بەلام	-1088
▁ئەب	-1089
▁نەد	-1090
▁کۆمپانی	-1091
▁نام	-1092
▁هەنگ	-1093
▁کتێب	-1094
▁ڕۆژنامەن	-1095
بک	-1096
▁هێزەکانی	-1097
▁17	-1098
وود	-1099
▁خاڵ	-1100
ایەوە	-1101
▁18	-1102
ەبەری	-1103
رێ	-1104
چوون	-1105
▁دیکە	-1106
▁کچ	-1107
▁ڕەخ	-1108
li	-1109
کت	-1110
▁16	-1111
▁خولی	-1112
ێرد	-1113
▁قوتاب	-1114
▁هاوو	-1115
▁پشتی	-1116
▁کور	-1117
پێک	-1118
▁توانی	-1119
ێد	-1120
خواز	-1121
ێتە	-1122
▁هەن	-1123
▁بەرپرسی	-1124
گیری	-1125
▁ڕۆشنب	-1126
ەشت	-1127
▁ئابووری	-1128
▁2009	-1129
جار	-1130
▁ڕژ	-1131
▁بەس	-1132
▁ئۆپ	-1133
▁سەرچاو	-1134
▁خاوەن	-1135
▁فیلمی	-1136
ەخت	-1137
سیۆن	-1138
▁بین	-1139
ەوان	-1140
▁ژێر	-1141
▁دەوڵەتی	-1142
▁دەدات	-1143
نا	-1144
ند	-1145
▁دەسەڵاتی	-1146
▁واتە	-1147
▁'	-1148
▁گفتوگ	-1149
بەری	-1150
▁ئەز	-1151
▁نەبوو	-1152
ایەی	-1153
▁ئاستی	-1154
▁باوەڕ	-1155
ێژی	-1156
گرتنی	-1157
ۆزی	-1158
یشاند	-1159
خۆی	-1160
▁پەن	-1161
رێتەوە	-1162
▁هونەرم	-1163
▁ئاگ	-1164
▁لیستی	-1165
ێمی	-1166
▁لەر	-1167
▁ئامان	-1168
▁سەرۆکایەتی	-1169
دەوڵ	-1170
▁بەشێو	-1171
ردن	-1172
▁ول	-1173
ەران	-1174
▁کام	-1175
ەیت	-1176
▁کراوە	-1177
▁یاریی	-1178
▁بخ	-1179
▁زمان	-1180
▁جیهان	-1181
▁کۆماری	-1182
انەت	-1183
▁تێدا	-1184
▁هەست	-1185
رۆری	-1186
▁پارێزگای	-1187
▁بەج	-1188
ارەکانی	-1189
یەک	-1190
▁ناز	-1191
▁خرا	-1192
▁ئەندامی	-1193
▁پەیامن	-1194
▁تەند	-1195
▁کردن	-1196
▁کێشەی	-1197
▁30	-1198
▁هاوپەی	-1199
▁دوا	-1200
qu	-1201
ییەوە	-1202
▁بەهێز	-1203
▁کەو	-1204
▁بڕیاری	-1205
▁گەورە	-1206
▁حەم	-1207
چوونی	-1208
▁سەربەخ	-1209
▁مەک	-1210
▁دەوڵەت	-1211
▁13	-1212
▁سینەم	-1213
دەکات	-1214
▁ئاڵ	-1215
▁ئەف	-1216
▁وەڵ	-1217
▁ڕاد	-1218
▁ڕێگەی	-1219
یانە	-1220
ابوو	-1221
▁گەرم	-1222
▁تیرۆری	-1223
▁داواک	-1224
▁فیلم	-1225
▁ئەویش	-1226
▁بت	-1227
▁کەر	-1228
▁بدات	-1229
انیان	-1230
▁کۆنگر	-1231
▁بەرژەو	-1232
▁2014	-1233
▁ڕێکخراو	-1234
▁هێزی	-1235
جە	-1236
▁نەم	-1237
▁نەخۆش	-1238
▁مەسەل	-1239
▁گەلی	-1240
▁هێرش	-1241
▁حیزبی	-1242
▁پێشکەش	-1243
افی	-1244
▁زمانی	-1245
▁جەل	-1246
یانەی	-1247
ایشی	-1248
ەختی	-1249
▁ژنان	-1250
دەوڵەتی	-1251
▁میل	-1252
ەکانیش	-1253
ایه	-1254
▁دەخ	-1255
▁برین	-1256
ۆس	-1257
▁ڕزگ	-1258
▁نوێی	-1259
▁2008	-1260
▁تەندرو	-1261
▁نەه	-1262
ێکیان	-1263
▁ناوب	-1264
an	-1265
▁ڕووداو	-1266
▁بواری	-1267
کەر	-1268
دوای	-1269
▁خۆم	-1270
▁دیکەی	-1271
▁شک	-1272
عر	-1273
▁قوربانی	-1274
▁مێژوو	-1275
▁بەرگری	-1276
▁ئافر	-1277
▁هەمیشە	-1278
پرس	-1279
لە	-1280
ەکەمان	-1281
یەوە	-1282
▁ملیۆن	-1283
▁خەب	-1284
▁جۆرە	-1285
re	-1286
▁یەکگرتوو	-1287
خانەی	-1288
▁ئەس	-1289
▁مانگ	-1290
انس	-1291
▁سەرەت	-1292
ئەوەی	-1293
وا	-1294
▁خۆپیشاند	-1295
▁لەبارەی	-1296
▁ڕێژ	-1297
▁ئید	-1298
▁داهاتوو	-1299
▁نیی	-1300
▁خۆمان	-1301
▁خزمەت	-1302
▁سەرەکی	-1303
▁حەس	-1304
▁پاراست	-1305
ووم	-1306
▁c	-1307
▁سیاسیی	-1308
▁دواتر	-1309
یستیڤ	-1310
▁سەرد	-1311
▁وڵاتانی	-1312
▁فید	-1313
▁ڕە	-1314
▁تۆمار	-1315
▁تەنانەت	-1316
شدا	-1317
ییەکی	-1318
نج	-1319
▁نێودەوڵەتی	-1320
▁بۆی	-1321
ارێکی	-1322
▁خۆر	-1323
▁نەوت	-1324
اخ	-1325
▁%	-1326
▁هەل	-1327
امان	-1328
▁پیش	-1329
▁هەواڵی	-1330
▁ڕێز	-1331
▁کۆب	-1332
وونە	-1333
▁پرۆسەی	-1334
▁دین	-1335
دەب	-1336
▁تەواوی	-1337
شەم	-1338
▁بەع	-1339
▁ئاژانسی	-1340
▁هێشت	-1341
گوز	-1342
▁ئەمنی	-1343
یم	-1344
▁کرا	-1345
لان	-1346
▁بانگ	-1347
▁چالاک	-1348
▁ئیم	-1349
ها	-1350
▁هەواڵ	-1351
ەنە	-1352
▁جگە	-1353
▁سەردانی	-1354
▁فیستیڤ	-1355
▁وش	-1356
گرتن	-1357
▁پێکهات	-1358
▁حز	-1359
▁ڕووی	-1360
▁لەنێوان	-1361
▁ده	-1362
▁زیاد	-1363
▁مەز	-1364
▁نای	-1365
▁مانگی	-1366
▁ناڕ	-1367
▁فی	-1368
▁عەرەبی	-1369
▁لەوەی	-1370
کەوتن	-1371
▁تاز	-1372
▁سز	-1373
00	-1374
▁دەنگی	-1375
▁هونەری	-1376
on	-1377
▁سوریا	-1378
ەرانی	-1379
▁بینی	-1380
ابی	-1381
▁پێشمەرگە	-1382
▁ئەنف	-1383
▁نەکرد	-1384
▁دەزان	-1385
▁جا	-1386
▁هاوب	-1387
▁هاوکاری	-1388
▁خوێن	-1389
▁دەز	-1390
▁گەنج	-1391
▁کوژ	-1392
▁وڵاتی	-1393
له	-1394
▁ئاشکر	-1395
▁مەبەست	-1396
om	-1397
▁بود	-1398
▁25	-1399
▁ڕەش	-1400
رگ	-1401
ژێر	-1402
▁هونەر	-1403
وای	-1404
▁تەندروستی	-1405
▁ڕاپۆر	-1406
▁بابەت	-1407
▁ئەوروپ	-1408
ێوەی	-1409
وانین	-1410
▁ئەنجامی	-1411
▁qu	-1412
ینەی	-1413
▁گەیشت	-1414
ێوە	-1415
▁نووسەر	-1416
▁تەل	-1417
▁quot	-1418
▁ساز	-1419
ودۆ	-1420
▁ڕێگای	-1421
▁فەل	-1422
گومان	-1423
▁بچ	-1424
▁چاود	-1425
▁ئەندام	-1426
▁یە	-1427
ەمبەر	-1428
▁سوپای	-1429
▁سیاسەت	-1430
▁سەی	-1431
▁سەرجەم	-1432
▁ئۆت	-1433
▁ئاگاد	-1434
▁هاوڵاتی	-1435
▁گۆرانی	-1436
▁بای	-1437
▁پێنج	-1438
▁ڕۆژهەڵ	-1439
بە	-1440
▁جەماو	-1441
▁کردەوە	-1442
▁هەبوو	-1443
▁لێکۆڵ	-1444
▁ئەزم	-1445
▁دابەش	-1446
▁لەت	-1447
ایت	-1448
▁بەگ	-1449
▁کراو	-1450
▁دەبین	-1451
کاریی	-1452
▁پۆل	-1453
وڕ	-1454
▁تێی	-1455
▁تاڵ	-1456
▁خراپ	-1457
▁شەم	-1458
▁ئافرەت	-1459
▁نەتەوەیی	-1460
▁بەتایبەتی	-1461
سا	-1462
▁فیدر	-1463
▁کرێک	-1464
▁کەسی	-1465
ەون	-1466
▁کاک	-1467
▁کۆی	-1468
▁زۆربەی	-1469
▁هەرچ	-1470
انەدا	-1471
▁سەع	-1472
▁دەستگیر	-1473
▁پێم	-1474
▁چاوەڕ	-1475
▁کەسێک	-1476
▁شەر	-1477
ییان	-1478
el	-1479
ێچ	-1480
▁مۆ	-1481
که	-1482
ەموو	-1483
مانە	-1484
▁خێز	-1485
▁دێت	-1486
▁هونەرمەند	-1487
▁شیع	-1488
▁خول	-1489
▁ئێمه	-1490
▁هاووڵاتی	-1491
▁هەفت	-1492
▁ڕێکخراوی	-1493
▁ڕۆژئاو	-1494
کردووە	-1495
▁شۆڕش	-1496
▁لێدوان	-1497
ێنە	-1498
ڤی	-1499
جەی	-1500
▁بەڕێز	-1501
▁بارودۆ	-1502
▁بێگومان	-1503
▁توو	-1504
▁بدەن	-1505
▁لەچ	-1506
▁ئەنفال	-1507
▁ئەوه	-1508
▁پاراستنی	-1509
ۆژ	-1510
▁بەریت	-1511
گرێت	-1512
▁دکت	-1513
▁ئاشتی	-1514
▁دانیشت	-1515
▁دەڵێن	-1516
▁کی	-1517
▁توندو	-1518
ارانی	-1519
ەکەم	-1520
هێنان	-1521
▁موسڵ	-1522
▁سەرباز	-1523
ەدە	-1524
▁حکوو	-1525
ڕینی	-1526
ادر	-1527
▁جوان	-1528
▁بریندار	-1529
▁بەبێ	-1530
▁حوک	-1531
▁بەریتانی	-1532
تری	-1533
▁هاوکات	-1534
▁پاک	-1535
▁هەڵبژاردنی	-1536
▁پر	-1537
▁باک	-1538
ەکەش	-1539
▁لێی	-1540
زم	-1541
▁ڕۆڵی	-1542
▁وات	-1543
▁گەورەی	-1544
▁21	-1545
ۆیی	-1546
▁مال	-1547
▁تەر	-1548
▁بەڕاستی	-1549
ەسەند	-1550
▁دوێنێ	-1551
▁فڕ	-1552
▁خوار	-1553
▁جێی	-1554
▁پەروەرد	-1555
▁باشت	-1556
____	-1557
ەکردن	-1558
▁تێیدا	-1559
▁ئۆتۆم	-1560
ووسی	-1561
ەقام	-1562
en	-1563
▁وایە	-1564
▁دەکەم	-1565
▁لێب	-1566
ڕەو	-1567
▁زانیاری	-1568
▁بریتی	-1569
▁توێژ	-1570
دەر	-1571
ەخش	-1572
▁بازرگ	-1573
▁کوردستاندا	-1574
▁دۆل	-1575
▁میس	-1576
▁عەبدول	-1577
▁چین	-1578
▁بەڕێوەبەری	-1579
پار	-1580
اتری	-1581
▁أ	-1582
وایە	-1583
▁یاسایی	-1584
▁تیر	-1585
▁شتێک	-1586
▁پۆلی	-1587
ۆژی	-1588
▁شوێنی	-1589
▁جەلال	-1590
▁سەرم	-1591
یەکی	-1592
فت	-1593
▁لەهەر	-1594
▁بەناوی	-1595
▁بەز	-1596
▁2013	-1597
ێستی	-1598
▁داوە	-1599
▁بەشێکی	-1600
مەند	-1601
▁دیار	-1602
اجی	-1603
▁جێگری	-1604
▁یاسا	-1605
▁ناوەڕ	-1606
▁شاع	-1607
▁سرو	-1608
▁هاوڕ	-1609
▁نابێت	-1610
▁حەسەن	-1611
▁دەبێتە	-1612
▁یار	-1613
▁جو	-1614
اڕ	-1615
▁پێغ	-1616
خود	-1617
▁ئۆپۆز	-1618
▁هێزە	-1619
▁هەوڵی	-1620
▁مار	-1621
ێین	-1622
▁ستر	-1623
▁بارەی	-1624
▁زەوی	-1625
▁ڕەس	-1626
▁خۆیدا	-1627
▁پشتیوانی	-1628
▁ئەست	-1629
▁ئاست	-1630
▁تە	-1631
▁هاوپەیمانی	-1632
▁بەشدار	-1633
▁ڕاو	-1634
▁دکتۆر	-1635
ران	-1636
▁کان	-1637
▁ئیتر	-1638
▁شەڕی	-1639
▁مێژووی	-1640
ەندا	-1641
ەقی	-1642
▁ترس	-1643
▁هێشتا	-1644
▁ڕۆشنبیری	-1645
ومەر	-1646
ەڕەش	-1647
▁خوارد	-1648
مه	-1649
▁کەچی	-1650
▁میدی	-1651
گێڕ	-1652
▁کل	-1653
▁هەژ	-1654
▁قەیر	-1655
عی	-1656
داوە	-1657
▁گیانی	-1658
نامەی	-1659
▁سەربازی	-1660
مەد	-1661
▁جێبەجێک	-1662
▁سێی	-1663
▁دێموکراتی	-1664
ar	-1665
ێگەی	-1666
▁پیرۆز	-1667
ووه	-1668
▁کۆبوون	-1669
▁داگیر	-1670
▁سەرچ	-1671
▁ناوخۆ	-1672
چە	-1673
▁خاوەنی	-1674
ەزای	-1675
▁گرنگی	-1676
▁لیژنەی	-1677
▁شەو	-1678
ەکانمان	-1679
▁هەنگاو	-1680
یراق	-1681
▁نووسین	-1682
▁22	-1683
▁دایک	-1684
▁یاخود	-1685
▁بەشێک	-1686
ێکیش	-1687
▁ئاشکرا	-1688
تەری	-1689
ەبانی	-1690
▁ورد	-1691
سیۆنی	-1692
▁دەدەن	-1693
کۆی	-1694
▁نەی	-1695
ەدان	-1696
▁ە	-1697
ێس	-1698
▁دامەزر	-1699
▁پرسیار	-1700
واری	-1701
▁گەڵ	-1702
ەلام	-1703
▁چەکدار	-1704
▁زانستی	-1705
▁دابین	-1706
ەوێ	-1707
بن	-1708
▁کۆمەڵگای	-1709
▁دۆز	-1710
▁پاشان	-1711
▁ناوچەی	-1712
ئێست	-1713
▁نوێنەرانی	-1714
▁24	-1715
ێرەی	-1716
▁توندوتی	-1717
ەسەری	-1718
▁دێموکراسی	-1719
▁ڕێب	-1720
▁ئاک	-1721
▁دەهێن	-1722
▁دیموکر	-1723
ڤان	-1724
▁ئاسایشی	-1725
▁برد	-1726
▁لا	-1727
▁دەری	-1728
▁وای	-1729
▁ئەت	-1730
▁کۆمەڵێک	-1731
▁خۆشەو	-1732
▁دەسەل	-1733
▁پێشو	-1734
▁دەبن	-1735
ساڵ	-1736
▁ئەڵمانی	-1737
وەری	-1738
▁عوس	-1739
▁23	-1740
▁ڕۆژنامەنووس	-1741
▁کۆبوونەوەی	-1742
▁هەتا	-1743
▁باشترین	-1744
▁هەڵەب	-1745
ۆچ	-1746
▁ئەندامانی	-1747
انەش	-1748
▁هەڵس	-1749
▁جەنگ	-1750
▁پێشتر	-1751
ەکەت	-1752
▁دروستکردنی	-1753
▁کاریگەر	-1754
گار	-1755
▁کەسایەتی	-1756
▁مەبەستی	-1757
▁ئۆتۆمب	-1758
▁تیرۆر	-1759
▁مەترسی	-1760
▁خێر	-1761
▁بەی	-1762
▁یەکێتیی	-1763
تا	-1764
▁تێب	-1765
▁باڵای	-1766
er	-1767
▁com	-1768
رائ	-1769
▁مەدەنی	-1770
▁پۆلیسی	-1771
▁مەکت	-1772
▁ڕۆژهەڵاتی	-1773
▁ناکات	-1774
▁کاریگەری	-1775
▁تورک	-1776
▁ئاسایی	-1777
ێنم	-1778
▁سیاسەتی	-1779
ردا	-1780
ادەی	-1781
▁نزیکەی	-1782
سپ	-1783
▁کردو	-1784
▁»	-1785
▁هاتووە	-1786
▁لایەنە	-1787
خۆش	-1788
▁بەدی	-1789
▁باشتر	-1790
انێکی	-1791
خستنی	-1792
▁وتی	-1793
▁دیارە	-1794
▁لەکات	-1795
▁سەرکردایەتی	-1796
▁قۆناغی	-1797
▁وەزیرانی	-1798
چەی	-1799
▁چیر	-1800
▁حاڵ	-1801
گه	-1802
▁بەشێوەیەکی	-1803
▁شێوەی	-1804
ووک	-1805
▁نین	-1806
بڕ	-1807
▁پرس	-1808
▁دەگەڕ	-1809
▁ڕوونی	-1810
▁پاس	-1811
ۆتەوە	-1812
ارەکان	-1813
بەڕ	-1814
▁ڕۆڵ	-1815
▁ڕاگەیاندنی	-1816
▁دڵنی	-1817
▁یاریزانی	-1818
▁لەکاتی	-1819
▁پەیامنێر	-1820
ەژ	-1821
▁پێیان	-1822
ەڵی	-1823
استەی	-1824
انەیە	-1825
▁ڕاگەیاندن	-1826
▁ڕەنگە	-1827
▁ڕژێمی	-1828
▁ڕێژەی	-1829
اکە	-1830
▁پۆلیس	-1831
▁ژمارەیەک	-1832
▁یارمەتی	-1833
دانەوەی	-1834
▁پڕۆژەی	-1835
▁نمایش	-1836
▁سال	-1837
▁وەرز	-1838
▁چاودێری	-1839
ەمین	-1840
▁دەچێت	-1841
▁نر	-1842
کراوە	-1843
بینی	-1844
کێش	-1845
▁ژمار	-1846
▁ئامانج	-1847
وباری	-1848
elli	-1849
پەڕی	-1850
هەوێت	-1851
▁خەڵاتی	-1852
سانی	-1853
کردنەوە	-1854
▁قەر	-1855
ەوتن	-1856
ەکەیدا	-1857
ellip	-1858
▁hellip	-1859
▁بازرگانی	-1860
ەکانەوە	-1861
▁زەر	-1862
▁باری	-1863
▁ص	-1864
▁دەستەی	-1865
ەکو	-1866
▁هۆکاری	-1867
▁یەکەمی	-1868
ایک	-1869
▁سۆ	-1870
▁شاعیر	-1871
▁مالی	-1872
▁دەتوانێت	-1873
▁عێراقدا	-1874
▁بکەم	-1875
▁چاپ	-1876
▁کێ	-1877
▁بزووت	-1878
▁ئاین	-1879
▁فیستیڤاڵی	-1880
اوه	-1881
▁گەند	-1882
▁لایەنی	-1883
▁داوا	-1884
دەد	-1885
▁هەستی	-1886
▁پێشنی	-1887
▁فرۆ	-1888
▁گەرمیان	-1889
▁دارایی	-1890
▁ا	-1891
▁پرۆژ	-1892
▁بەیەک	-1893
▁دهۆک	-1894
ەرە	-1895
ەنجام	-1896
▁خەل	-1897
▁سنووری	-1898
ەگەز	-1899
▁نیو	-1900
▁ڕابردوودا	-1901
▁نووسی	-1902
▁پەرلەمانت	-1903
رە	-1904
ێنەری	-1905
سەف	-1906
▁حوس	-1907
▁کارەب	-1908
▁مەحم	-1909
بارەی	-1910
ایەک	-1911
ەبەرایەتی	-1912
سان	-1913
▁ئامادەب	-1914
▁مالکی	-1915
▁27	-1916
▁وەڵام	-1917
▁ئەوروپا	-1918
▁شای	-1919
تیار	-1920
▁بەوەی	-1921
▁کردنەوەی	-1922
عود	-1923
▁لێپرس	-1924
▁توند	-1925
▁ملم	-1926
جۆر	-1927
▁لەخ	-1928
شە	-1929
▁=	-1930
st	-1931
▁لەق	-1932
▁.	-1933
▁هەڕەش	-1934
▁تاڵەبانی	-1935
▁مەکتەبی	-1936
▁یاریزان	-1937
▁ڕزگار	-1938
▁ئیسرائ	-1939
وژ	-1940
تەوە	-1941
▁پێغەمبەر	-1942
کری	-1943
▁26	-1944
ەوتی	-1945
نه	-1946
▁دوژم	-1947
ەیەدا	-1948
▁کۆمەڵگەی	-1949
▁کاند	-1950
نان	-1951
▁ستراتی	-1952
لەی	-1953
▁دێ	-1954
▁199	-1955
▁نەوتی	-1956
▁لێرەدا	-1957
▁لەژێر	-1958
بون	-1959
il	-1960
▁بزوت	-1961
کان	-1962
▁بەعس	-1963
▁دیارد	-1964
▁ڕێکخست	-1965
▁بەرژەوەندی	-1966
▁جیاوازی	-1967
اگ	-1968
راوان	-1969
اتەوە	-1970
ارو	-1971
▁کوڕ	-1972
ائ	-1973
▁خوێندن	-1974
▁28	-1975
▁نوس	-1976
▁ناچ	-1977
▁بەیان	-1978
▁سەردەم	-1979
▁کردوە	-1980
▁دەش	-1981
▁S	-1982
ێنێتەوە	-1983
▁شەش	-1984
کەوتنی	-1985
▁خودی	-1986
▁ناوبراو	-1987
▁مامەڵ	-1988
▁ئێستاش	-1989
▁شێعر	-1990
▁لەدەست	-1991
ستەف	-1992
▁کۆنت	-1993
▁فری	-1994
▁بەرهەمی	-1995
▁بم	-1996
▁نیە	-1997
▁خەری	-1998
▁بەرنامەی	-1999
▁چارەسەری	-2000
▁فەلسەف	-2001
▁سەری	-2002
▁مەی	-2003
▁ناوەندی	-2004
زیش	-2005
▁فەره	-2006
▁دەزگای	-2007
▁فەرەن	-2008
▁ڕاپۆرت	-2009
▁کاتژم	-2010
▁پۆست	-2011
اڵە	-2012
ازیی	-2013
▁لەع	-2014
دەن	-2015
▁سەن	-2016
▁بل	-2017
▁دوایی	-2018
این	-2019
▁هۆ	-2020
▁ناکرێت	-2021
▁ئێوە	-2022
▁جارێکی	-2023
▁ئەرکی	-2024
▁مەلا	-2025
▁کەی	-2026
▁گەورەت	-2027
▁زۆ	-2028
▁هاوبەش	-2029
▁جێگەی	-2030
▁دەکاتەوە	-2031
چێوەی	-2032
ئێستا	-2033
▁پێچ	-2034
اریان	-2035
▁بۆم	-2036
▁نه	-2037
▁توانای	-2038
▁دەڕ	-2039
▁نموونە	-2040
▁ڕۆژنامەی	-2041
▁تاکو	-2042
▁هێند	-2043
▁تەمەن	-2044
▁تۆپی	-2045
▁ولات	-2046
▁بەست	-2047
▁لەدوای	-2048
▁تەلەف	-2049
or	-2050
▁کاروباری	-2051
▁حەز	-2052
اتوو	-2053
▁شتێکی	-2054
سیا	-2055
▁چەم	-2056
▁ڕاستەو	-2057
▁گروپ	-2058
ۆتە	-2059
پێ	-2060
▁کەری	-2061
▁ئیر	-2062
▁دەکەوێت	-2063
▁پێکهێنانی	-2064
▁لەیەک	-2065
▁دەچ	-2066
وچ	-2067
▁قەڵ	-2068
بۆ	-2069
"،	-2070
پارێز	-2071
▁وڵاتە	-2072
▁سون	-2073
ەکاری	-2074
فەر	-2075
▁ئەرک	-2076
▁ئاسایش	-2077
▁پەناب	-2078
▁کورت	-2079
جا	-2080
▁حزب	-2081
پێش	-2082
▁میلل	-2083
ەپێ	-2084
▁دەربارەی	-2085
اره	-2086
▁سەیر	-2087
گەیەنێت	-2088
▁عەق	-2089
▁بەند	-2090
▁هەروەک	-2091
▁تەک	-2092
▁بیست	-2093
هێنەر	-2094
وپ	-2095
▁ڕەز	-2096
ەته	-2097
▁ژین	-2098
▁چونکه	-2099
▁کۆبانی	-2100
▁خوای	-2101
▁دیال	-2102
▁لەبەردەم	-2103
▁بۆئەوەی	-2104
▁مالیکی	-2105
ایینی	-2106
ەبەستی	-2107
▁لەپێن	-2108
▁بەڕێوە	-2109
▁کارێکی	-2110
▁بۆچی	-2111
▁ئۆپۆزسیۆن	-2112
انێک	-2113
گیز	-2114
▁شێخ	-2115
▁بەتایبەت	-2116
▁عوسمان	-2117
▁فڕۆک	-2118
▁نازان	-2119
▁مستەف	-2120
▁بەناو	-2121
تۆ	-2122
▁وەرب	-2123
بکات	-2124
ادە	-2125
▁پایت	-2126
انێ	-2127
▁کەئ	-2128
▁w	-2129
▁پێکەوە	-2130
▁ململان	-2131
▁کۆمپانیای	-2132
▁گشتیی	-2133
in	-2134
▁A	-2135
▁ڕاپەڕ	-2136
▁بەچ	-2137
ناک	-2138
▁2007	-2139
ەدات	-2140
▁29	-2141
▁مامۆستا	-2142
▁تریش	-2143
▁نەتەوە	-2144
اچ	-2145
▁کۆمەڵگ	-2146
زانین	-2147
▁بەردەم	-2148
ەستە	-2149
ەمە	-2150
▁دەتوانن	-2151
▁ڕەت	-2152
▁ئاوێن	-2153
بارە	-2154
▁بودجەی	-2155
▁ڕاستەق	-2156
▁هەڵوێست	-2157
▁پزیش	-2158
▁خەبات	-2159
▁بەدا	-2160
▁سەرکەوتنی	-2161
▁چارەن	-2162
▁پلەی	-2163
▁ڕەگەز	-2164
▁شانۆ	-2165
▁سام	-2166
ۆڤ	-2167
▁بزان	-2168
▁سروشتی	-2169
▁هەرگیز	-2170
▁لەساڵی	-2171
▁مەسەلەی	-2172
▁کارەس	-2173
▁هەیه	-2174
▁سای	-2175
▁ئیت	-2176
یاندا	-2177
▁بەمەبەستی	-2178
▁ئەمساڵ	-2179
▁دەرەوە	-2180
▁هەڵبژاردەی	-2181
شکی	-2182
▁موو	-2183
▁حکوومەتی	-2184
▁وەزیران	-2185
▁ئابوری	-2186
▁ئیسرائیل	-2187
▁تووشی	-2188
▁چەپ	-2189
▁مت	-2190
▁بدرێت	-2191
▁ئاگادار	-2192
رم	-2193
زیک	-2194
دۆ	-2195
▁بابەتی	-2196
▁زانکۆی	-2197
▁ناوچە	-2198
▁سە	-2199
▁ڕووبەڕ	-2200
▁پێشمەرگەی	-2201
راه	-2202
▁شارۆچ	-2203
یروان	-2204
ەندیی	-2205
▁گوند	-2206
▁چالاکی	-2207
شین	-2208
▁قادر	-2209
ابوون	-2210
زە	-2211
▁زیندانی	-2212
▁بەریتانیا	-2213
در	-2214
▁ساڵح	-2215
▁هەبووە	-2216
▁چارەسەرکردنی	-2217
▁یەکی	-2218
▁لەکاتێکدا	-2219
▁کاتژمێر	-2220
▁بڕو	-2221
▁کاب	-2222
کانی	-2223
▁بزووتنەوەی	-2224
▁خۆشەویستی	-2225
▁دەق	-2226
غان	-2227
▁باڵی	-2228
▁سیستەمی	-2229
▁«	-2230
ەکەوە	-2231
▁ژمارە	-2232
▁میسر	-2233
▁کۆمەل	-2234
▁شێوە	-2235
▁لەکورد	-2236
دین	-2237
▁پشتگیری	-2238
▁دادەن	-2239
▁گفتوگۆ	-2240
▁دەبینی	-2241
▁پەسەند	-2242
ردو	-2243
▁ماڵی	-2244
▁سەرەتای	-2245
▁دنیا	-2246
▁کشت	-2247
▁نەبووە	-2248
▁ئەنجامدانی	-2249
ەڵب	-2250
▁جێبەجێ	-2251
▁ئەوەشی	-2252
▁شێوەیەکی	-2253
اون	-2254
ەنەوە	-2255
روپی	-2256
نیشان	-2257
▁هەشت	-2258
▁وه	-2259
بو	-2260
▁خۆت	-2261
▁وەف	-2262
▁قسەی	-2263
▁نیشتی	-2264
▁شێوەیەک	-2265
▁پەک	-2266
▁نوری	-2267
▁گومان	-2268
▁دۆلار	-2269
▁ناوچەکە	-2270
▁دادگای	-2271
▁مافەکانی	-2272
▁وێنە	-2273
▁نوێنەری	-2274
بووە	-2275
▁ئیب	-2276
▁شێر	-2277
لاتی	-2278
▁بان	-2279
▁عەبدوڵ	-2280
▁ئینگ	-2281
▁زوو	-2282
▁خەر	-2283
▁داواکاری	-2284
▁هێم	-2285
▁ئێرانی	-2286
▁نەتەو	-2287
▁بەدو	-2288
▁کەسێکی	-2289
▁وەرگرت	-2290
▁لەی	-2291
▁نیشان	-2292
ەدی	-2293
▁حوسێن	-2294
▁سەردەمی	-2295
▁بەرپرسانی	-2296
▁سوود	-2297
رانی	-2298
ارێک	-2299
▁پارێزگاری	-2300
▁هەمو	-2301
▁خەی	-2302
▁لیست	-2303
▁هێنا	-2304
اما	-2305
▁ڕێککەوتن	-2306
▁تاب	-2307
▁واقی	-2308
وه	-2309
▁ئایینی	-2310
▁هەرچەندە	-2311
▁دراو	-2312
▁ساڵە	-2313
ابێت	-2314
▁نێت	-2315
▁هەیەو	-2316
وێن	-2317
کای	-2318
▁دەسەڵاتدار	-2319
▁ئیسپانی	-2320
خوازی	-2321
ما	-2322
▁کشتوک	-2323
▁ڕێو	-2324
ەوانەی	-2325
اته	-2326
▁بون	-2327
▁وی	-2328
▁t	-2329
▁پەیمان	-2330
▁خۆپیشاندان	-2331
▁گشت	-2332
▁پشک	-2333
▁لەوێ	-2334
▁لەماوەی	-2335
▁هەڤ	-2336
▁گروو	-2337
▁مەحمود	-2338
▁کۆمەڵگا	-2339
▁خەم	-2340
▁پێگەی	-2341
▁سەرک	-2342
حک	-2343
▁بزوتنەوەی	-2344
▁ئەنجووم	-2345
▁سەل	-2346
▁f	-2347
▁یاد	-2348
نیان	-2349
▁کەب	-2350
▁ببێتە	-2351
▁عومەر	-2352
▁شاند	-2353
▁مستەفا	-2354
▁بەختیار	-2355
▁هێ	-2356
▁_	-2357
ۆیە	-2358
▁مەرج	-2359
▁زۆرین	-2360
▁حوکم	-2361
▁هەفتەی	-2362
▁وەزارەت	-2363
▁‬	-2364
کرت	-2365
▁نیشتمانیی	-2366
▁جێبەجێکردنی	-2367
▁ناوەڕاست	-2368
پەرشتی	-2369
تن	-2370
▁ناسی	-2371
▁بیان	-2372
ێران	-2373
▁سووری	-2374
▁چەو	-2375
▁ئۆب	-2376
▁دامەزراندنی	-2377
▁بەرێو	-2378
▁گوڵ	-2379
▁بەرچاو	-2380
▁قەو	-2381
یچ	-2382
▁لیژن	-2383
▁ڕەخنە	-2384
الیز	-2385
▁خۆشی	-2386
▁سنوور	-2387
▁ڕێگە	-2388
▁گرفت	-2389
at	-2390
ینەو	-2391
ووتی	-2392
▁فێر	-2393
▁نارد	-2394
▁07	-2395
نەت	-2396
ەزایی	-2397
کەری	-2398
▁سەرەک	-2399
▁تەمەنی	-2400
▁لەبەرامبەر	-2401
▁ڕۆژانە	-2402
▁ژی	-2403
▁بکاتەوە	-2404
▁مەع	-2405
▁تاران	-2406
▁تۆمەت	-2407
راهیم	-2408
▁تێبینی	-2409
▁پێدا	-2410
▁هەڵوێستی	-2411
▁خەباتی	-2412
▁یەکتر	-2413
▁N	-2414
▁پارت	-2415
▁ئاینی	-2416
▁ئارام	-2417
▁سک	-2418
▁بگەڕ	-2419
زەی	-2420
▁ڕێگ	-2421
▁دووپ	-2422
▁زیان	-2423
▁ئاماژە	-2424
▁بەکارهێنانی	-2425
▁داخ	-2426
اشی	-2427
▁بال	-2428
▁ئەوانیش	-2429
▁سەو	-2430
▁هیو	-2431
ۆتۆ	-2432
مەوە	-2433
▁هاوسەر	-2434
▁کردبوو	-2435
▁سەرن	-2436
ەمەنی	-2437
▁نەبوونی	-2438
▁ڕازی	-2439
▁نوێنەران	-2440
شیان	-2441
▁بنەمای	-2442
▁ئوم	-2443
▁خوارەوە	-2444
ووڵ	-2445
▁خێزان	-2446
▁پەیوەندیی	-2447
▁گواست	-2448
ێنین	-2449
ایەد	-2450
▁هەرچی	-2451
▁بێد	-2452
یه	-2453
ur	-2454
اکەی	-2455
▁خزمەتگوز	-2456
▁پەیامنێری	-2457
بر	-2458
▁31	-2459
بین	-2460
هێنەری	-2461
مەی	-2462
▁تیرۆریستی	-2463
ەڕوو	-2464
▁دەکرێن	-2465
ەشق	-2466
▁لەهەموو	-2467
▁جەماوەر	-2468
▁عەل	-2469
▁خواست	-2470
▁لەلایەکی	-2471
کێ	-2472
▁دیکەش	-2473
گەل	-2474
▁چۆنی	-2475
▁چاوی	-2476
▁ئۆتۆمبێل	-2477
اندنەوەی	-2478
▁ناد	-2479
تەو	-2480
▁سکرت	-2481
▁کارە	-2482
▁ئەدەبی	-2483
▁کێشە	-2484
▁مۆد	-2485
ێنەوە	-2486
▁کۆبوونەو	-2487
▁بەرد	-2488
سن	-2489
▁گفتوگۆی	-2490
▁تائێستا	-2491
تات	-2492
▁گۆڤ	-2493
▁بیری	-2494
ەتێکی	-2495
گاری	-2496
▁سێیەم	-2497
▁گیر	-2498
ay	-2499
▁دووەمی	-2500
▁ئاخ	-2501
▁بارودۆخی	-2502
▁نەز	-2503
خانە	-2504
▁میر	-2505
▁سەرکەوتن	-2506
انبەر	-2507
▁کارو	-2508
کەن	-2509
▁پەنج	-2510
▁دەدرێت	-2511
▁کردووه	-2512
ایم	-2513
▁نیگەر	-2514
▁ڕەم	-2515
▁قسە	-2516
▁گۆڕینی	-2517
▁کۆمەڵەی	-2518
▁جۆراو	-2519
رینی	-2520
ەکانە	-2521
ۆلی	-2522
اح	-2523
▁کۆنفر	-2524
▁سیاسییەکان	-2525
▁تاوەکو	-2526
▁ڕۆشنبیر	-2527
▁چیرۆک	-2528
▁ئەمانە	-2529
▁جوانی	-2530
▁دینار	-2531
▁تەنها	-2532
دەکرێت	-2533
▁دیکتات	-2534
▁گوز	-2535
▁بایەخ	-2536
▁خاڵی	-2537
دای	-2538
▁ئال	-2539
▁مرۆڤی	-2540
▁کوشتنی	-2541
گەڕ	-2542
▁ڕەوشی	-2543
▁گوێ	-2544
▁کەواتە	-2545
▁سوور	-2546
▁گۆڵ	-2547
▁کاندید	-2548
▁وەردە	-2549
ووەو	-2550
▁پێداو	-2551
▁سەردان	-2552
▁دەورو	-2553
▁ڵ	-2554
▁جەماوەری	-2555
▁ئاسمانی	-2556
▁بەڕێوەبەرایەتی	-2557
▁گونج	-2558
گرە	-2559
▁کەسانی	-2560
▁ئەڵڵا	-2561
▁دەستوور	-2562
▁مانای	-2563
▁لەئێست	-2564
▁ببێت	-2565
▁لەمەو	-2566
▁ژمارەیەکی	-2567
▁ناش	-2568
▁وەرگرتنی	-2569
▁فیدراڵ	-2570
▁وێنەی	-2571
▁دوژمن	-2572
▁ئەنجوومەنی	-2573
▁دیس	-2574
▁شێواز	-2575
رۆز	-2576
▁کوت	-2577
ەکەو	-2578
▁ەوە	-2579
▁ڕۆژێک	-2580
▁ئاراستەی	-2581
▁ستەم	-2582
▁پسپ	-2583
▁ـ	-2584
▁ئاوی	-2585
▁مل	-2586
ژین	-2587
▁وەڵامی	-2588
▁هۆشی	-2589
▁عەز	-2590
▁ڕادی	-2591
▁سایتی	-2592
ent	-2593
▁ڕۆژنامەوانی	-2594
▁بەرپرسیار	-2595
▁نەخۆشی	-2596
▁مامۆستای	-2597
▁لەز	-2598
▁عەبدوڵڵا	-2599
▁وەبەر	-2600
▁چاکس	-2601
▁ئیبراهیم	-2602
▁دادگ	-2603
▁فەرمی	-2604
ma	-2605
▁ئاوێنەنی	-2606
▁جەست	-2607
▁گۆڕانکاری	-2608
▁سەرنج	-2609
کەس	-2610
▁دەرکەوت	-2611
واز	-2612
▁دۆخ	-2613
ێزی	-2614
▁فەی	-2615
▁کۆنترۆ	-2616
▁پێشمەرگ	-2617
▁ڕۆمان	-2618
ەمەن	-2619
▁بەق	-2620
▁بنی	-2621
▁فەرم	-2622
هر	-2623
▁وس	-2624
▁تاقی	-2625
▁مس	-2626
▁خەو	-2627
▁زیاتری	-2628
▁ئەوەندە	-2629
هێشت	-2630
▁بهێنێت	-2631
▁سوو	-2632
▁دەستنیشان	-2633
حەممەد	-2634
▁سەف	-2635
▁198	-2636
▁جۆری	-2637
▁پاب	-2638
▁جەن	-2639
▁فراوان	-2640
▁لاواز	-2641
▁دەستووری	-2642
ۆف	-2643
▁جۆرێک	-2644
▁بارودۆخ	-2645
tt	-2646
ویەتی	-2647
▁حەوت	-2648
▁مەل	-2649
▁ڕژێم	-2650
▁100	-2651
دەکەن	-2652
ترە	-2653
▁کلی	-2654
▁09	-2655
تین	-2656
▁دەگرێت	-2657
▁کەریم	-2658
le	-2659
▁توندوتیژی	-2660
▁شارەوانی	-2661
ییەکەی	-2662
▁کۆنگرەی	-2663
ارم	-2664
▁باوک	-2665
حکوم	-2666
▁کول	-2667
▁کەمال	-2668
▁تاری	-2669
راوانی	-2670
▁n	-2671
ەشدا	-2672
وانیت	-2673
▁جەنگی	-2674
یەتی	-2675
▁ڕاستەوخۆ	-2676
داریی	-2677
▁شەهیدان	-2678
▁نیشتەج	-2679
▁پش	-2680
▁گیان	-2681
▁ئیدی	-2682
▁شێع	-2683
▁سوید	-2684
▁ناوخۆی	-2685
▁دەبێتەوە	-2686
▁دیکه	-2687
▁گرنگە	-2688
تانی	-2689
▁ئامادە	-2690
ێرن	-2691
▁دەرهێنانی	-2692
▁چەکی	-2693
ەول	-2694
▁کورسی	-2695
▁کراون	-2696
ەڤ	-2697
▁شێوازی	-2698
ەکر	-2699
شەممە	-2700
▁نەج	-2701
▁d	-2702
▁نموون	-2703
وکی	-2704
▁کیمی	-2705
▁ئینگلی	-2706
▁کاتێکدا	-2707
ئەو	-2708
▁بەجێ	-2709
▁سەرپەرشتی	-2710
▁ئەڵمانیا	-2711
▁ئایین	-2712
▁بکرێن	-2713
▁فار	-2714
▁جێگای	-2715
▁یەکێکە	-2716
▁تێگەی	-2717
خانی	-2718
انت	-2719
▁لێو	-2720
▁50	-2721
▁پێشوو	-2722
▁شەقام	-2723
▁پاڵەوان	-2724
▁باشووری	-2725
▁بۆن	-2726
▁تەرخان	-2727
▁ئێمەش	-2728
▁منیش	-2729
لۆ	-2730
▁هۆڵ	-2731
اڤ	-2732
▁خوێندنەوەی	-2733
▁لەکوردستان	-2734
▁حس	-2735
ردی	-2736
فرۆ	-2737
بان	-2738
▁ئەدەب	-2739
▁بووم	-2740
▁لەوانە	-2741
▁سەرەڕ	-2742
ژیی	-2743
▁لەل	-2744
▁وان	-2745
▁01	-2746
▁نهێنی	-2747
▁خانە	-2748
▁سەدا	-2749
▁کەسانەی	-2750
▁نیشتیمانی	-2751
ستە	-2752
▁ئەمریک	-2753
▁فەرمانبەر	-2754
▁نائ	-2755
▁پەل	-2756
▁بەیاننام	-2757
▁قورئ	-2758
ەبێژی	-2759
▁دیدار	-2760
▁شۆڕشی	-2761
▁پۆستی	-2762
▁تازە	-2763
▁کردووەو	-2764
▁08	-2765
▁ببین	-2766
▁کارەکانی	-2767
ەپێدانی	-2768
▁هاوس	-2769
▁لەسەرەت	-2770
ازان	-2771
▁إ	-2772
▁دەستیان	-2773
▁داڕ	-2774
▁بارە	-2775
▁یەکەمین	-2776
اریش	-2777
▁دەرف	-2778
روو	-2779
▁بەرانبەر	-2780
ەیش	-2781
حمان	-2782
▁مادەی	-2783
لو	-2784
▁ئەمەریکی	-2785
▁سزای	-2786
▁ئاوێنەنیوز	-2787
________	-2788
▁خاکی	-2789
▁بوار	-2790
▁لەدەر	-2791
▁ئارەز	-2792
▁ڕێنم	-2793
▁پێداویستی	-2794
▁بێک	-2795
▁مرۆڤایەتی	-2796
▁دەقی	-2797
..	-2798
▁بۆیان	-2799
▁بەداخ	-2800
▁P	-2801
▁سەرچاوەی	-2802
▁ناوەند	-2803
▁بگرێت	-2804
▁04	-2805
▁ئەوانە	-2806
▁کۆبون	-2807
ەیەکدا	-2808
▁02	-2809
▁فۆتۆ	-2810
▁گوێرەی	-2811
▁03	-2812
▁وەس	-2813
ەکات	-2814
▁مۆڵ	-2815
اج	-2816
ەوەیە	-2817
پشتی	-2818
▁دەسەلات	-2819
▁06	-2820
▁بەرەی	-2821
▁کەه	-2822
گۆڕ	-2823
▁پێب	-2824
▁پێد	-2825
▁مەسعود	-2826
▁تێپەڕ	-2827
▁پێناو	-2828
▁سینەمایی	-2829
▁پڕۆژە	-2830
▁زەو	-2831
▁بیروب	-2832
▁بەڵگ	-2833
▁دەزانن	-2834
▁دووبارە	-2835
▁قەب	-2836
شەی	-2837
▁C	-2838
ەوەر	-2839
▁قەز	-2840
ەکانم	-2841
▁دەنگدان	-2842
▁هەڵەبجە	-2843
کاران	-2844
▁خوێنەر	-2845
▁دڵی	-2846
نەو	-2847
▁05	-2848
▁داک	-2849
ڕە	-2850
هاتی	-2851
▁باشە	-2852
وات	-2853
▁ئێستای	-2854
▁وب	-2855
▁لێدوانێکی	-2856
کیان	-2857
▁ئامانجی	-2858
▁ئاگر	-2859
▁ئۆباما	-2860
▁گەورەترین	-2861
▁زانکۆ	-2862
▁شێوەیە	-2863
▁فراک	-2864
▁کۆمەڵی	-2865
▁بەکورد	-2866
▁مایەی	-2867
▁ئاسان	-2868
▁گروپی	-2869
ەلاح	-2870
▁بەدوای	-2871
▁کارکردن	-2872
▁کوشت	-2873
▁بونی	-2874
▁چوارچێوەی	-2875
▁سکرتێری	-2876
▁ناتوانێت	-2877
▁کری	-2878
ۆمەڵ	-2879
▁نیشتمان	-2880
ەنجامی	-2881
اکرد	-2882
▁ناوچەکانی	-2883
ایدا	-2884
▁خوێندنی	-2885
ییەی	-2886
▁s	-2887
ێڕی	-2888
ەکانیدا	-2889
▁ئاه	-2890
▁سەرەتا	-2891
▁هەریەک	-2892
▁خاک	-2893
ەکار	-2894
▁دەزگ	-2895
▁وشەی	-2896
یەکەی	-2897
▁سەیری	-2898
▁کۆمار	-2899
▁باشی	-2900
▁سپ	-2901
رای	-2902
▁ون	-2903
فتی	-2904
▁تاکە	-2905
▁سەربەخۆ	-2906
▁لەمبارەی	-2907
▁کارگ	-2908
▁گەندەڵی	-2909
▁بچوو	-2910
▁تێدایە	-2911
ڕا	-2912
▁سەپ	-2913
اندووە	-2914
▁کەمتر	-2915
▁شەممە	-2916
ییەک	-2917
▁ئەش	-2918
▁بخو	-2919
▁لەڕێگەی	-2920
▁چوون	-2921
▁بگرن	-2922
▁دەزانێت	-2923
▁میو	-2924
حاڵ	-2925
ەندەی	-2926
اکەوت	-2927
▁مەن	-2928
▁دەتوانین	-2929
▁تێکۆش	-2930
▁لەشاری	-2931
▁زانیاریی	-2932
بهێن	-2933
▁جەژ	-2934
▁ڕاوێژ	-2935
▁حاجی	-2936
▁دەخو	-2937
▁لایەنگ	-2938
تد	-2939
نەتەوەی	-2940
ۆلۆژی	-2941
▁لەپێناو	-2942
▁بڕیارە	-2943
ەغ	-2944
▁ئیش	-2945
▁ڕزگاری	-2946
▁بەگشتی	-2947
▁سەرکەوتوو	-2948
▁ئاشکرای	-2949
▁ڕون	-2950
▁40	-2951
اید	-2952
▁هز	-2953
▁چاوەڕوانی	-2954
▁تێکەڵ	-2955
▁دڵس	-2956
▁مەسی	-2957
▁فش	-2958
▁لەج	-2959
ڕەوی	-2960
▁نەن	-2961
▁گەم	-2962
ەدەر	-2963
▁ویل	-2964
▁گێڕ	-2965
is	-2966
▁پەیوەندییەکانی	-2967
امە	-2968
▁بکەنەوە	-2969
ەدانی	-2970
یەی	-2971
▁یەکگرتووەکان	-2972
▁بچێت	-2973
▁شەری	-2974
▁خزمەتی	-2975
▁ڕۆژئاوای	-2976
▁سەدان	-2977
دەست	-2978
▁دابڕ	-2979
▁ئیدارەی	-2980
▁چۆنیەتی	-2981
▁بۆیه	-2982
ئەم	-2983
▁هێزێکی	-2984
▁ئەمرۆ	-2985
▁ملیار	-2986
▁هێناوە	-2987
▁الم	-2988
▁کۆڵ	-2989
گۆ	-2990
▁گەرمی	-2991
ووەتەوە	-2992
▁کوردو	-2993
کس	-2994
▁لەڕووی	-2995
▁کانی	-2996
▁سەرمایەد	-2997
ەیه	-2998
ێدی	-2999
▁کەڵ	-3000
▁خۆیەوە	-3001
▁ماند	-3002
▁گوم	-3003
▁سیستمی	-3004
▁پێکرد	-3005
▁بدەین	-3006
▁قورس	-3007
▁بۆتە	-3008
▁لەعیراق	-3009
▁مین	-3010
▁لەخۆ	-3011
▁دانیشتن	-3012
▁ئێوه	-3013
▁میللەت	-3014
▁مەج	-3015
▁پێشکەوت	-3016
▁سەربەخۆیی	-3017
▁سەرس	-3018
▁سێک	-3019
یرە	-3020
▁سەنگ	-3021
مێکی	-3022
▁عەزیز	-3023
▁دەبوو	-3024
▁تاوانبار	-3025
▁سپی	-3026
انەو	-3027
▁)-	-3028
▁بازاڕ	-3029
ment	-3030
▁گۆران	-3031
▁بڵاوی	-3032
▁ئینجا	-3033
▁197	-3034
▁نەر	-3035
▁خورم	-3036
▁نرخی	-3037
▁ڕۆی	-3038
▁لەخو	-3039
▁ئاسی	-3040
▁تش	-3041
▁شێعری	-3042
▁دەروونی	-3043
بەست	-3044
▁تاوتو	-3045
▁سۆسی	-3046
▁بنەماڵ	-3047
مەن	-3048
▁00	-3049
▁تەماش	-3050
بوڵ	-3051
▁دیموکراتی	-3052
▁هاوپەیمان	-3053
تووری	-3054
▁ڕۆژئاوا	-3055
بێ	-3056
▁M	-3057
▁بۆچوون	-3058
▁داهاتووی	-3059
▁لەگەل	-3060
▁باوکی	-3061
▁بکە	-3062
اسایی	-3063
راوه	-3064
ەدەغ	-3065
▁کۆچ	-3066
▁پێشووی	-3067
▁re	-3068
ed	-3069
▁ئۆک	-3070
اندان	-3071
▁ژنانی	-3072
▁نێونەتەوەی	-3073
▁ئەزموون	-3074
▁ئامادەیی	-3075
▁لەدا	-3076
▁ئاسمان	-3077
▁بیانی	-3078
▁دەستب	-3079
▁سەرەڕای	-3080
ەبوونی	-3081
بکەن	-3082
▁سەربەخۆی	-3083
▁کتێبی	-3084
▁دایە	-3085
et	-3086
▁خوێندکار	-3087
ەکدا	-3088
توانی	-3089
▁T	-3090
▁دژایەتی	-3091
الیا	-3092
▁هۆش	-3093
▁ناچار	-3094
▁قەزای	-3095
▁هاتنی	-3096
▁هۆکار	-3097
ەکەشی	-3098
▁سوپاسی	-3099
▁چینی	-3100
چاوی	-3101
▁شتی	-3102
▁باخ	-3103
▁شارەز	-3104
▁تەئ	-3105
ێڕای	-3106
راوەکانی	-3107
▁هاوولاتی	-3108
▁یادی	-3109
▁هەموویان	-3110
▁بەداخەوە	-3111
▁دەبینین	-3112
▁ئەمین	-3113
راوەکان	-3114
▁سۆر	-3115
▁سەرق	-3116
اوەو	-3117
▁لەدایک	-3118
▁پەڕ	-3119
زیکی	-3120
▁ڕەوانەی	-3121
▁نەف	-3122
اکردنی	-3123
▁دەردەک	-3124
▁قەدەغ	-3125
ەدەست	-3126
▁چوو	-3127
▁واز	-3128
▁بانگەش	-3129
▁عەم	-3130
▁شوب	-3131
▁مێژوویی	-3132
▁گەرد	-3133
▁بەردەوامی	-3134
▁هاوڵاتیان	-3135
▁سەدەی	-3136
▁هەینی	-3137
▁سووریا	-3138
▁دەگەڕێتەوە	-3139
▁بس	-3140
▁140	-3141
▁داهاتوودا	-3142
▁دەستکەوت	-3143
▁پەروەردگار	-3144
▁موسڵمان	-3145
اعید	-3146
▁دەرئ	-3147
▁وەست	-3148
▁پارەی	-3149
لەتی	-3150
ۆپ	-3151
▁ئەخ	-3152
▁دادگا	-3153
ندا	-3154
به	-3155
▁دۆست	-3156
▁ڕەه	-3157
▁ئەمریکی	-3158
▁سنوری	-3159
باری	-3160
ەکەین	-3161
▁دابن	-3162
▁یارییەکانی	-3163
کێی	-3164
▁دز	-3165
کەکانی	-3166
▁بەلای	-3167
▁پایتەختی	-3168
▁مۆر	-3169
▁هتد	-3170
▁سیم	-3171
گەیەکی	-3172
▁مەترس	-3173
▁منداڵان	-3174
لێک	-3175
▁سەرهەڵ	-3176
▁ئێراق	-3177
ییه	-3178
دەچێت	-3179
مانەی	-3180
▁بڵێین	-3181
▁وڵاتەکەی	-3182
▁خال	-3183
گیرێت	-3184
▁p	-3185
▁زۆرینەی	-3186
▁لێژ	-3187
▁ئازار	-3188
ۆکەی	-3189
تەرن	-3190
▁بەسەردا	-3191
▁واقیع	-3192
▁ڕەفت	-3193
▁هاوش	-3194
ریان	-3195
▁وئ	-3196
▁بەیانی	-3197
▁دنیای	-3198
▁بەڕێوەب	-3199
▁b	-3200
▁ww	-3201
▁ئاڕ	-3202
▁لاد	-3203
▁پەنا	-3204
▁www	-3205
▁ڕاستە	-3206
▁خۆتان	-3207
▁نییەو	-3208
▁پەیدا	-3209
ووچ	-3210
▁ڕێکخراوە	-3211
▁ئەمر	-3212
▁جەختی	-3213
▁سەید	-3214
▁58	-3215
ۆگ	-3216
▁کۆل	-3217
▁ئەکتەر	-3218
▁ئێستادا	-3219
وول	-3220
▁قەرەب	-3221
▁هەولێری	-3222
▁تەس	-3223
▁سەرچاوە	-3224
▁پێناس	-3225
▁کۆبانێ	-3226
▁بابەتە	-3227
▁دەنووس	-3228
▁بەوەش	-3229
▁سەعید	-3230
▁بەڵێن	-3231
▁نان	-3232
▁ڕاپەڕین	-3233
ڕن	-3234
▁ڕۆژنامەنوس	-3235
▁لەوەش	-3236
▁سەم	-3237
وئ	-3238
▁کەرتی	-3239
وق	-3240
خۆشی	-3241
▁لایەک	-3242
▁ئەزموونی	-3243
▁کوڕی	-3244
خت	-3245
▁زۆرێک	-3246
وست	-3247
بردنی	-3248
▁لەهەمان	-3249
▁هێرشی	-3250
▁مۆن	-3251
▁نەش	-3252
▁بەگو	-3253
▁ئەگەری	-3254
▁دروش	-3255
▁بوونە	-3256
ha	-3257
▁علی	-3258
▁هەڵبژ	-3259
▁ڕەزام	-3260
ەمەند	-3261
▁هەموومان	-3262
ەتر	-3263
▁ماوەیەکی	-3264
ڤەر	-3265
▁هەور	-3266
اتن	-3267
ڵاو	-3268
وسی	-3269
اسم	-3270
شەممه	-3271
▁کوردستانە	-3272
وانێ	-3273
▁هێڵی	-3274
بکرێت	-3275
▁کون	-3276
▁بەخو	-3277
▁خانەق	-3278
▁شارستانی	-3279
▁پیشەس	-3280
▁جیاجی	-3281
▁یەکل	-3282
▁کەش	-3283
▁بێب	-3284
ەخانەی	-3285
▁گی	-3286
▁پەلام	-3287
▁بنەڕ	-3288
▁شارۆچکەی	-3289
▁جیا	-3290
▁گووتی	-3291
کراون	-3292
▁زانست	-3293
▁گرێب	-3294
▁کۆمی	-3295
ایل	-3296
▁ناکەن	-3297
▁خودا	-3298
▁نرخ	-3299
▁پێمان	-3300
▁عیراق	-3301
دەخ	-3302
▁کوردستانیش	-3303
▁لەهەرێمی	-3304
▁کۆمەڵگە	-3305
▁دانانی	-3306
▁کێشەکانی	-3307
▁بەتەو	-3308
▁کەسوک	-3309
▁لەبەرئەوەی	-3310
▁کوشتن	-3311
سێ	-3312
▁لەسەری	-3313
یدا	-3314
کردۆتەوە	-3315
▁کوردە	-3316
▁k	-3317
▁دۆسی	-3318
▁کارەبا	-3319
▁ماڵپەڕی	-3320
نگ	-3321
▁تاوانی	-3322
ڕین	-3323
▁ڕاک	-3324
▁بەدوادا	-3325
▁مەزن	-3326
▁ڕاشی	-3327
وێ	-3328
ایەن	-3329
▁فەرەنسا	-3330
▁کارمەند	-3331
وێنی	-3332
▁خەون	-3333
رێژ	-3334
ەشەوە	-3335
▁بەخۆی	-3336
▁هەزاران	-3337
▁پێشوازی	-3338
▁نیگەرانی	-3339
▁چییە	-3340
شینی	-3341
▁گۆل	-3342
▁یەکسانی	-3343
ێنرێت	-3344
▁خەریکی	-3345
▁یش	-3346
▁درێژەی	-3347
▁بەهەمان	-3348
▁دەیهەوێت	-3349
▁لێپرسراوی	-3350
وانم	-3351
▁پارچ	-3352
▁شارە	-3353
▁ویست	-3354
▁ئەوانه	-3355
ودی	-3356
▁ڕووبەڕووی	-3357
▁یەکگرتووەکانی	-3358
▁دەمان	-3359
▁دەتوانیت	-3360
▁ڕوود	-3361
▁واتا	-3362
زای	-3363
وانرێت	-3364
سەی	-3365
▁حکوومەت	-3366
▁35	-3367
▁ناوەر	-3368
▁نار	-3369
▁ململانێی	-3370
▁کاتێ	-3371
▁تاق	-3372
▁دابەز	-3373
ئی	-3374
ەزایەتی	-3375
توری	-3376
ێوی	-3377
▁پاڵەوانی	-3378
▁ئەوکات	-3379
▁گەیشتن	-3380
▁سیاسییەکانی	-3381
▁ئیمان	-3382
نیشانی	-3383
ماع	-3384
وەو	-3385
ێننەوە	-3386
▁ئاگاداری	-3387
گرافی	-3388
▁ئاڵۆز	-3389
▁دەستپێک	-3390
کردنە	-3391
▁ڕیزب	-3392
▁لەکار	-3393
رێنەوە	-3394
al	-3395
▁نەبوون	-3396
▁ئێمەی	-3397
▁لەئێستادا	-3398
لۆم	-3399
▁ئامادەی	-3400
▁فیستیڤاڵ	-3401
▁پێشێل	-3402
▁ماددەی	-3403
▁ڕود	-3404
راوەی	-3405
▁کاریگەریی	-3406
▁سەدام	-3407
▁پێویسته	-3408
▁ئەوانی	-3409
▁فەرمانی	-3410
▁ئارامی	-3411
▁کردووەتەوە	-3412
▁هەڵوەش	-3413
ەکا	-3414
▁نووسینی	-3415
ینا	-3416
▁عەقڵ	-3417
ۆرت	-3418
▁گرین	-3419
وویەتی	-3420
اورد	-3421
▁ئینگلیزی	-3422
▁نێونەتەوەیی	-3423
چەر	-3424
ۆرگ	-3425
▁هاند	-3426
▁هیچی	-3427
▁ڕاپۆرتی	-3428
ییەتی	-3429
▁ماوە	-3430
هەر	-3431
▁گرووپ	-3432
▁نەوەی	-3433
ۆڵی	-3434
▁گەیاند	-3435
▁بێدەنگ	-3436
زا	-3437
▁نێچ	-3438
▁سەنتەری	-3439
▁هاوبەشی	-3440
▁ڕووبەر	-3441
▁لەپەر	-3442
▁پێشان	-3443
▁هاتوچ	-3444
▁تشرینی	-3445
▁تەئکی	-3446
▁دەدا	-3447
▁بکەیت	-3448
ێگای	-3449
رید	-3450
▁کش	-3451
ریش	-3452
▁شانۆی	-3453
▁J	-3454
▁گەڕانەوەی	-3455
ێکەوە	-3456
▁مانەوەی	-3457
▁بەجۆر	-3458
▁موحەممەد	-3459
بیر	-3460
▁دەف	-3461
▁ڕوان	-3462
▁هاوکار	-3463
دەه	-3464
as	-3465
▁خۆیەتی	-3466
▁دەزگا	-3467
انا	-3468
▁ئۆپۆزی	-3469
▁بڵێم	-3470
▁پشکنی	-3471
▁کەناڵی	-3472
▁برو	-3473
▁تێڕ	-3474
▁دەرچ	-3475
▁سینەمای	-3476
اماد	-3477
▁وتیشی	-3478
هیر	-3479
▁هەمووی	-3480
▁پاڵپشتی	-3481
▁نەکردووە	-3482
▁کێشەکان	-3483
ناو	-3484
▁کارب	-3485
▁لێکۆڵینەوە	-3486
▁بەبەر	-3487
▁مزگ	-3488
▁نەیت	-3489
گاکانی	-3490
▁دیاریکراو	-3491
▁جین	-3492
▁ناحی	-3493
▁نوێنەرایەتی	-3494
▁گوندی	-3495
▁زنج	-3496
▁تێر	-3497
▁ڕێی	-3498
▁ڕێگا	-3499
کراوی	-3500
▁زە	-3501
▁جیهاندا	-3502
▁گونجاو	-3503
▁تەلەفزی	-3504
▁وەرزش	-3505
▁تابل	-3506
▁کوردستانەوە	-3507
▁شەرم	-3508
ماندا	-3509
▁ئەنجامد	-3510
انەیان	-3511
▁لێرە	-3512
▁دەکەوێتە	-3513
▁کارەسات	-3514
▁پابەند	-3515
▁ئەوی	-3516
▁دەزانین	-3517
▁مەڵب	-3518
▁نەیتوانی	-3519
گەکانی	-3520
▁کەناڵ	-3521
▁نەیان	-3522
▁ئەگەرچی	-3523
▁قەیرانی	-3524
▁گوتەبێژی	-3525
▁حوز	-3526
مو	-3527
▁هەڵبژاردنەکان	-3528
▁ناه	-3529
▁ناتوانن	-3530
▁قەت	-3531
▁بووەو	-3532
▁سیناری	-3533
▁پەروەردەی	-3534
ەتدا	-3535
نامە	-3536
وف	-3537
▁پەکەکە	-3538
ion	-3539
▁مور	-3540
بونی	-3541
▁بەرش	-3542
ەوا	-3543
▁ڕاشیگەیاند	-3544
دارە	-3545
هێناوە	-3546
▁هەرب	-3547
▁گەشتی	-3548
▁بهێنن	-3549
▁لێکۆڵینەوەی	-3550
▁سەندی	-3551
▁هەت	-3552
▁بیت	-3553
▁ڕەخنەی	-3554
امەی	-3555
▁دەوێت	-3556
ڕانی	-3557
▁بووه	-3558
▁کۆمۆنی	-3559
▁گرتووە	-3560
▁نەوش	-3561
ەسپ	-3562
▁کەرکووک	-3563
▁شەق	-3564
mail	-3565
▁سەرت	-3566
▁هێنانی	-3567
▁W	-3568
یند	-3569
▁خانوو	-3570
▁واش	-3571
▁پیل	-3572
▁کەسە	-3573
▁ئیست	-3574
یەکە	-3575
زمی	-3576
▁وەه	-3577
▁مردن	-3578
▁نەخۆشخانەی	-3579
▁ئەلع	-3580
▁دۆخی	-3581
▁ئەردۆ	-3582
▁کۆنترۆڵ	-3583
▁چاوپێک	-3584
▁سات	-3585
اسەری	-3586
▁ڕەخن	-3587
تیل	-3588
▁لەبواری	-3589
▁زار	-3590
▁بوە	-3591
▁ئازادیی	-3592
راوەو	-3593
▁بەرژەوەند	-3594
ەبوو	-3595
▁ئاوێنە	-3596
▁خەرج	-3597
▁قی	-3598
▁هاوکاریی	-3599
▁بڵێ	-3600
▁ئەمڕ	-3601
▁ئەمەریک	-3602
▁خزمەتگوزاری	-3603
▁ئەڤ	-3604
▁نوسین	-3605
▁میانەی	-3606
▁دور	-3607
me	-3608
▁مەزه	-3609
▁هێندە	-3610
▁هۆڵی	-3611
▁چەوس	-3612
▁هەڵبژاردنەکانی	-3613
▁کشتوکاڵ	-3614
▁بگرە	-3615
▁ناکۆکی	-3616
▁دابەشکردنی	-3617
▁نوسەر	-3618
▁45	-3619
ێلی	-3620
▁بەشداریی	-3621
▁دایکی	-3622
ۆرم	-3623
بایی	-3624
▁B	-3625
▁سیستەم	-3626
هێنا	-3627
▁تیپی	-3628
▁زیندوو	-3629
وش	-3630
▁هاوڕێ	-3631
▁کەوا	-3632
▁خورماتوو	-3633
ویست	-3634
▁سووت	-3635
▁کۆمەلایەتی	-3636
ttp	-3637
▁کۆنە	-3638
▁وەها	-3639
ابن	-3640
▁خوێنی	-3641
▁مەرگ	-3642
▁ر	-3643
▁ئەسەد	-3644
▁فەرماندەی	-3645
▁http	-3646
ۆمی	-3647
▁لوب	-3648
▁کران	-3649
▁باران	-3650
▁بەهاو	-3651
سک	-3652
▁وڵاته	-3653
▁شەوی	-3654
▁سەرچاوەیەکی	-3655
▁دەهێنێت	-3656
▁کۆمیت	-3657
▁F	-3658
بوونەوە	-3659
▁ستراتیژی	-3660
▁برای	-3661
▁لەگەڵدا	-3662
یرڤان	-3663
ۆرک	-3664
▁سۆسیال	-3665
▁بچووک	-3666
▁کەلار	-3667
لام	-3668
▁قازان	-3669
ۆنەی	-3670
▁وەل	-3671
▁هیواد	-3672
▁بنکەی	-3673
▁شاخ	-3674
▁سەرچاوەیەک	-3675
▁تەنگ	-3676
▁لەچوار	-3677
▁جارێک	-3678
▁مێش	-3679
▁پەیوەندید	-3680
امەتی	-3681
▁پێشبینی	-3682
▁سەوز	-3683
▁بپارێز	-3684
▁ئەنجامدا	-3685
▁سەرل	-3686
▁ڕاس	-3687
ەبوون	-3688
ەسی	-3689
ستانە	-3690
▁نەکراوە	-3691
▁دیپ	-3692
▁بکرێ	-3693
▁هەڵمەت	-3694
▁ڕیز	-3695
▁سبەی	-3696
▁داواکاریی	-3697
▁هەرە	-3698
▁ڕێکەوت	-3699
▁کەمی	-3700
▁دەوروبەری	-3701
▁شۆر	-3702
▁تۆمەتبار	-3703
▁2003	-3704
▁بەردەوامە	-3705
▁دروو	-3706
▁حەمە	-3707
▁پەروەردە	-3708
انەکانی	-3709
▁تۆپ	-3710
▁سارد	-3711
▁ئەه	-3712
▁بتوانێت	-3713
▁میواند	-3714
day	-3715
ووەتە	-3716
▁لاب	-3717
▁وێڕای	-3718
▁جۆراوجۆر	-3719
▁وتوو	-3720
▁باشوور	-3721
▁لەکۆ	-3722
▁سەرەتایی	-3723
▁هەنگاوی	-3724
ەکەیە	-3725
▁نەوشیروان	-3726
▁سور	-3727
▁سەردەشت	-3728
ۆتایی	-3729
▁هاش	-3730
▁بڕیارد	-3731
▁دواکەوت	-3732
▁لەچەند	-3733
ینەوه	-3734
▁هەڤاڵ	-3735
▁مێ	-3736
ماعیل	-3737
▁لەبار	-3738
▁عب	-3739
▁کاتدا	-3740
▁پێچەوانەی	-3741
▁یەکتری	-3742
▁هیوای	-3743
▁ڕەوتی	-3744
▁ساڵانی	-3745
ەتان	-3746
ەوانەوە	-3747
ەقیق	-3748
▁بتوانن	-3749
▁هاوڕێی	-3750
▁کاروان	-3751
لیم	-3752
▁منداڵی	-3753
ەشتی	-3754
▁on	-3755
▁حوکمی	-3756
▁وتار	-3757
ۆکانی	-3758
▁قبوڵ	-3759
▁ڕەسمی	-3760
▁کردەوه	-3761
درێت	-3762
▁ساڵەی	-3763
گەریی	-3764
▁ئێوارەی	-3765
▁زۆرترین	-3766
▁دانیشتوانی	-3767
▁شەپ	-3768
▁داکۆکی	-3769
▁واب	-3770
بێژ	-3771
▁داهاتی	-3772
▁تەقینەوەی	-3773
ەڵات	-3774
▁بەرەنگ	-3775
▁بەهیچ	-3776
▁خۆک	-3777
▁ژوور	-3778
▁ئیئ	-3779
▁چەکداری	-3780
▁پەیوەست	-3781
چون	-3782
▁درۆ	-3783
▁ڕێکخستنی	-3784
▁چاکسازی	-3785
ازە	-3786
▁خەیاڵ	-3787
وڵات	-3788
▁دواجار	-3789
▁دۆزینەوەی	-3790
باران	-3791
▁دێتە	-3792
▁D	-3793
▁لایەکی	-3794
▁حەق	-3795
▁وەرگێڕ	-3796
▁لایەنەکانی	-3797
ییەت	-3798
▁پێشکەوتن	-3799
▁علیە	-3800
▁مەه	-3801
▁بەهەر	-3802
تۆن	-3803
▁تەش	-3804
▁زا	-3805
▁گەوره	-3806
کردوە	-3807
با	-3808
▁سەقام	-3809
▁خانەقین	-3810
▁باڵا	-3811
▁ڤی	-3812
▁دەکەنەوە	-3813
▁ڕیزبەندی	-3814
گەیشت	-3815
▁شیو	-3816
▁بەح	-3817
▁ماوەیەک	-3818
کران	-3819
انەن	-3820
ژو	-3821
▁ڕۆژنامە	-3822
▁جەنابی	-3823
▁هەڵبژێرد	-3824
▁بکرێتەوە	-3825
فە	-3826
▁نابێ	-3827
▁دڵسۆز	-3828
ناس	-3829
ەکێ	-3830
رێتە	-3831
▁بەپێچ	-3832
▁پرسیاری	-3833
کردەوه	-3834
▁دیکتاتۆری	-3835
▁لەناوچ	-3836
وئاد	-3837
▁لەجی	-3838
▁پاڵەوانێتی	-3839
▁موزیکی	-3840
▁ئاد	-3841
▁ئامێر	-3842
▁جگه	-3843
▁ئۆس	-3844
ەوەش	-3845
ته	-3846
▁کۆری	-3847
▁جامی	-3848
▁×	-3849
▁بەرج	-3850
ەکەن	-3851
کردنیان	-3852
اوەڕ	-3853
▁ناح	-3854
▁هەڵەبج	-3855
▁بەڵێنی	-3856
▁سامان	-3857
▁گەندەڵ	-3858
ایەت	-3859
▁ناڕەزایی	-3860
▁پزیشکی	-3861
▁زەحم	-3862
▁لاوان	-3863
▁کابینەی	-3864
▁ساڵێک	-3865
▁بەڵێ	-3866
▁دابینکردنی	-3867
▁ڕوسیا	-3868
ێکردنی	-3869
▁ڕێنمایی	-3870
▁ڕووناک	-3871
▁کۆنفرانس	-3872
رۆڤ	-3873
▁گری	-3874
▁نەکات	-3875
▁چر	-3876
▁ئەبێت	-3877
▁سەرو	-3878
▁فیلمه	-3879
▁چەکدارانی	-3880
▁سنور	-3881
▁نوسی	-3882
▁سوپاس	-3883
▁کەمپ	-3884
▁ئەیل	-3885
▁ئەکات	-3886
▁کورتە	-3887
▁حوزەیر	-3888
دوا	-3889
یەت	-3890
▁کەپ	-3891
▁هەردوولا	-3892
▁کردە	-3893
اژانسی	-3894
ەلە	-3895
▁ڕادە	-3896
▁موزیک	-3897
▁دووپات	-3898
▁لەوانەیە	-3899
الیزم	-3900
▁نازانم	-3901
▁ئیسماعیل	-3902
▁گەلەکەمان	-3903
دەمی	-3904
▁ئاڵو	-3905
▁کەرکوکی	-3906
اڕی	-3907
▁سەخت	-3908
ێڵن	-3909
▁کرێکار	-3910
▁ئەوەیان	-3911
ەدین	-3912
▁کوێ	-3913
▁دادپەر	-3914
▁ئەنجومەن	-3915
▁نەتەوەیەک	-3916
رن	-3917
▁تای	-3918
ەکێش	-3919
▁بەرهەمهێنانی	-3920
ەرێکی	-3921
▁نەهێشت	-3922
▁ئایدی	-3923
▁نەری	-3924
▁سوێند	-3925
▁نۆ	-3926
▁بەنی	-3927
▁هیوا	-3928
ەکاریی	-3929
▁ناکۆک	-3930
▁o	-3931
▁چیرۆکی	-3932
▁نادی	-3933
▁کەموک	-3934
▁بەڕێوەچوو	-3935
▁ویستی	-3936
تەی	-3937
▁ترەوە	-3938
▁حیزبە	-3939
▁خواردن	-3940
▁بنەڕەتی	-3941
▁شوبات	-3942
▁ڕایان	-3943
▁جێگیر	-3944
▁نیس	-3945
مەندی	-3946
▁سەلمان	-3947
▁لێیان	-3948
▁پارە	-3949
▁شکست	-3950
▁ڕۆژانی	-3951
▁لاپەڕ	-3952
▁ساد	-3953
▁K	-3954
▁کۆمەڵە	-3955
گرین	-3956
▁پێدانی	-3957
دەکاتەوە	-3958
▁زەرد	-3959
▁دڕ	-3960
▁هەڵد	-3961
ۆمێن	-3962
▁هەرچەند	-3963
▁فوئاد	-3964
▁تار	-3965
▁شارەکانی	-3966
▁بەدەر	-3967
▁بەهەموو	-3968
▁سەعات	-3969
اوەکانی	-3970
▁خەت	-3971
▁گۆڤاری	-3972
▁میت	-3973
غانستان	-3974
▁پێوە	-3975
▁باسە	-3976
▁پیرۆزبایی	-3977
▁ئاخر	-3978
▁حەی	-3979
▁خۆیاندا	-3980
▁ئۆپۆزیسیۆن	-3981
▁چاپکردن	-3982
▁حزبە	-3983
ونج	-3984
▁سەلاح	-3985
▁عەبدوڵا	-3986
▁گوتم	-3987
▁ئێز	-3988
گوت	-3989
▁جەع	-3990
ژمار	-3991
اهەنگی	-3992
▁مەجید	-3993
▁بەگوێرەی	-3994
▁لەپێش	-3995
▁میلی	-3996
▁ئاراست	-3997
▁نێچیرڤان	-3998
▁بانگەو	-3999
▁خەس	-4000
▁ئەمه	-4001
▁ڕۆژە	-4002
▁چیتر	-4003
▁صلی	-4004
وویی	-4005
ۆساید	-4006
▁89	-4007
▁ئاهەنگ	-4008
▁ئەفس	-4009
ەیەی	-4010
▁دراوە	-4011
▁سەلام	-4012
▁پێت	-4013
اداشت	-4014
▁دروستی	-4015
▁گل	-4016
فری	-4017
▁یاریگای	-4018
زاد	-4019
▁ڕیش	-4020
▁هێمن	-4021
▁لۆ	-4022
▁دەه	-4023
▁بەجۆرێک	-4024
▁لەبیر	-4025
لەمانی	-4026
▁فەرهەنگی	-4027
دێکی	-4028
▁ڕابرد	-4029
▁ئاژانس	-4030
▁ئاوەدان	-4031
▁ئەندامێکی	-4032
▁قوڵ	-4033
اوان	-4034
بیری	-4035
▁دەگوت	-4036
▁گەلانی	-4037
▁ئیسپانیا	-4038
▁جاران	-4039
▁کۆمپانیا	-4040
▁کاڵ	-4041
لەمان	-4042
اوەر	-4043
▁فارس	-4044
▁196	-4045
▁پارتە	-4046
▁بکەوێت	-4047
▁زۆرب	-4048
ەواری	-4049
▁دەدەین	-4050
▁E	-4051
▁ئافرەتان	-4052
▁کەت	-4053
▁کاتەی	-4054
ێرانی	-4055
▁بزانن	-4056
▁دینی	-4057
▁میوانداری	-4058
▁زاڵ	-4059
▁پلانی	-4060
▁کوردەکان	-4061
▁کۆچی	-4062
▁ئایندەی	-4063
▁لەسەرەتای	-4064
بڕی	-4065
ێیت	-4066
▁سەرکوت	-4067
بیا	-4068
▁زەم	-4069
▁ئەوەندەی	-4070
وتی	-4071
چن	-4072
▁سۆز	-4073
▁تۆم	-4074
▁گۆڕانکاریی	-4075
▁ئینسان	-4076
▁هەموار	-4077
▁32	-4078
▁خەڵات	-4079
▁فاک	-4080
▁لقی	-4081
▁کردبێت	-4082
▁بۆش	-4083
▁مەدرید	-4084
▁دەرهێنەر	-4085
▁خێزانی	-4086
کەم	-4087
▁لەندەن	-4088
▁سم	-4089
▁بەعسی	-4090
es	-4091
ەولێر	-4092
▁بڕوای	-4093
▁بودج	-4094
▁ڕێکخراوەکانی	-4095
شەوە	-4096
ەزان	-4097
ۆکان	-4098
▁دەریا	-4099
▁هونەرمەندی	-4100
▁ناوە	-4101
▁ڕۆحی	-4102
یب	-4103
نەکانی	-4104
▁گەشت	-4105
▁لەدژی	-4106
▁زۆریان	-4107
▁بەدەستی	-4108
▁بەراورد	-4109
▁گۆش	-4110
یشدا	-4111
▁دەسەلاتی	-4112
مەز	-4113
▁بۆر	-4114
▁دەرگای	-4115
ئە	-4116
▁گەورەیە	-4117
▁بووین	-4118
▁بریتییە	-4119
لین	-4120
▁دەکەیت	-4121
▁کیل	-4122
ووەکان	-4123
▁خۆراک	-4124
▁جۆره	-4125
▁وەرزی	-4126
▁وسلم	-4127
▁موڵ	-4128
▁هەمووان	-4129
▁نەماوە	-4130
▁گواستنەوەی	-4131
▁لێن	-4132
▁شوێنێکی	-4133
▁دانو	-4134
▁هاتوون	-4135
▁خۆڵ	-4136
▁هاتن	-4137
هان	-4138
شیکردەوە	-4139
ارێز	-4140
▁سەرەوە	-4141
▁قوتابی	-4142
▁بەرپرسیارێتی	-4143
▁پێشانگای	-4144
▁تۆڵ	-4145
▁g	-4146
▁دەرمان	-4147
▁دەوری	-4148
▁تیایدا	-4149
▁2006	-4150
▁ڕەزامەندی	-4151
▁وەسف	-4152
ri	-4153
▁وال	-4154
ده	-4155
▁نەهات	-4156
▁تردا	-4157
▁جەمال	-4158
▁لەبەغ	-4159
ۆته	-4160
▁بێز	-4161
ەمبەری	-4162
ۆنە	-4163
▁گرفتی	-4164
▁ژنی	-4165
▁شیعە	-4166
▁گەرمیانی	-4167
▁یۆن	-4168
▁34	-4169
▁بەکارد	-4170
▁فەڕ	-4171
▁ناوخۆیی	-4172
▁دەوڵەمەند	-4173
▁بچوک	-4174
یانه	-4175
▁دەیانهەوێت	-4176
▁دەگێڕ	-4177
زین	-4178
▁سۆران	-4179
▁توێژینەوەی	-4180
▁لایەنەکان	-4181
▁دەزگاکانی	-4182
روست	-4183
▁دەخاتە	-4184
▁دواتری	-4185
▁کۆکردنەوەی	-4186
▁حی	-4187
▁ئەخل	-4188
▁سوت	-4189
ەرب	-4190
▁باشوری	-4191
▁فەرهەنگ	-4192
▁ناوداری	-4193
مدا	-4194
▁گوایە	-4195
پەرستی	-4196
▁بارەیەوە	-4197
ەفی	-4198
▁قاعید	-4199
رەت	-4200
▁هاووڵاتیان	-4201
▁نەکەن	-4202
ارن	-4203
▁هەلومەر	-4204
▁کەسوکاری	-4205
▁تک	-4206
▁زۆرە	-4207
▁بلاو	-4208
▁وەکوو	-4209
▁هاتە	-4210
▁سکاڵ	-4211
▁بۆچوونی	-4212
ۆکە	-4213
ێشەم	-4214
▁زانا	-4215
▁واد	-4216
▁دەستور	-4217
▁وم	-4218
▁دەستپ	-4219
▁جن	-4220
▁ئێک	-4221
▁ئایند	-4222
▁زیندان	-4223
▁ئاوا	-4224
▁ڕیزی	-4225
لێ	-4226
▁سیروان	-4227
▁سع	-4228
▁نیم	-4229
▁تەکن	-4230
▁گرتن	-4231
ck	-4232
▁کچە	-4233
▁درام	-4234
▁لێکەوت	-4235
▁ڕەوش	-4236
▁دەبات	-4237
▁بەدەستهێنانی	-4238
رەو	-4239
▁لێژنەی	-4240
▁هەڵسەنگ	-4241
▁بکوژ	-4242
▁دیموکراسی	-4243
▁ڕۆح	-4244
▁ناونیشانی	-4245
▁ڕێکەوتن	-4246
▁دەگاتە	-4247
▁چاوپێکەوتن	-4248
▁زیر	-4249
گرتووە	-4250
▁قایم	-4251
▁بەڵگەی	-4252
▁دەکاتە	-4253
ەتەوه	-4254
▁تابلۆی	-4255
گەه	-4256
▁ئەکادی	-4257
ڵات	-4258
▁دەبینێت	-4259
▁دەرەکی	-4260
▁هەروا	-4261
فرۆش	-4262
▁هەڕەشەی	-4263
▁پێکهاتەی	-4264
▁تێن	-4265
▁برا	-4266
...	-4267
▁بەشداربوو	-4268
▁باوەڕی	-4269
▁ئەفغانستان	-4270
▁نەخش	-4271
▁زۆرجار	-4272
کەکان	-4273
سین	-4274
دەبێت	-4275
ەوێتەوە	-4276
▁گول	-4277
ێمان	-4278
▁بەخش	-4279
)،	-4280
▁کوردیش	-4281
ارین	-4282
▁دیکەوە	-4283
▁جەخت	-4284
▁ڕاکێش	-4285
▁دادوەری	-4286
▁36	-4287
▁دەرواز	-4288
چەند	-4289
▁ناحیەی	-4290
▁درا	-4291
▁پەس	-4292
▁درووست	-4293
▁ئامر	-4294
▁ئەمج	-4295
▁گیانیان	-4296
▁پیشەسازی	-4297
▁هاوڵاتیانی	-4298
▁هێزه	-4299
▁پای	-4300
▁نووسەری	-4301
ێیە	-4302
اوەکان	-4303
ۆچوونی	-4304
▁بەشار	-4305
▁دووبار	-4306
▁تیپ	-4307
▁تەکنی	-4308
▁پایتەخت	-4309
▁دزی	-4310
▁ئاید	-4311
▁باکووری	-4312
خس	-4313
▁مێرد	-4314
▁گەلێک	-4315
▁بگۆڕ	-4316
▁بەمەش	-4317
▁دانیشتنی	-4318
▁دەردەکەوێت	-4319
ەسمی	-4320
پەرست	-4321
▁خراپی	-4322
ەتەکانی	-4323
قە	-4324
▁تەی	-4325
▁دادوەر	-4326
▁هێندەی	-4327
▁ئاژەڵ	-4328
▁کاتە	-4329
▁پیاوان	-4330
▁میهر	-4331
ڕێت	-4332
ژیان	-4333
▁ئەمڕۆی	-4334
▁ئێ	-4335
▁سەرنجی	-4336
he	-4337
▁دادگایی	-4338
کاتە	-4339
▁پێشەوە	-4340
▁ئومێد	-4341
▁نیشانەی	-4342
ec	-4343
▁خستەڕوو	-4344
هەل	-4345
ەنسی	-4346
▁قەرز	-4347
▁لەمەوبەر	-4348
▁ڕاستەقینەی	-4349
▁وپ	-4350
▁بەخشی	-4351
▁لوت	-4352
▁دۆزەخ	-4353
▁دل	-4354
▁لەکۆتایی	-4355
▁لایەنێک	-4356
▁قار	-4357
▁وتو	-4358
▁ڕوونیکردەوە	-4359
▁نمون	-4360
▁باڵیۆزی	-4361
چاری	-4362
▁سەرش	-4363
▁سوک	-4364
▁فەلەستی	-4365
▁پاشەک	-4366
کردنەو	-4367
▁دەرچوو	-4368
▁دیسان	-4369
▁حاک	-4370
▁هێنان	-4371
؟!	-4372
ێستیڤ	-4373
▁لەوبارەی	-4374
▁بەری	-4375
▁لەچوارچێوەی	-4376
▁پێشنیاز	-4377
▁دووپاتی	-4378
▁کرێکاران	-4379
▁سێب	-4380
▁پەرت	-4381
▁ڕایدە	-4382
▁مافە	-4383
▁دەڵێم	-4384
▁پرۆگر	-4385
ئەندا	-4386
ایەتیی	-4387
▁یوس	-4388
ەپە	-4389
ێرە	-4390
راود	-4391
▁لەخۆی	-4392
▁قوتابخان	-4393
ژن	-4394
▁بدۆز	-4395
▁لێرەوە	-4396
:"	-4397
▁جاری	-4398
▁پەراو	-4399
▁قەیران	-4400
▁قوتابخانەی	-4401
▁چەندە	-4402
▁ئاماژەیە	-4403
▁ئەکەن	-4404
▁ئامادەبوونی	-4405
بخ	-4406
▁ڕاگرتنی	-4407
▁کاریان	-4408
▁سێشەم	-4409
راوەتەوە	-4410
▁شاندی	-4411
اسانی	-4412
▁بناغ	-4413
▁میکانی	-4414
لێمان	-4415
شار	-4416
▁مەو	-4417
ەوەری	-4418
ەگەری	-4419
جۆرە	-4420
نەک	-4421
اهی	-4422
▁دەژین	-4423
بژارد	-4424
▁دیاردەی	-4425
ەبێت	-4426
▁ئیمار	-4427
▁خۆرئاو	-4428
▁نەورۆز	-4429
▁60	-4430
▁میراود	-4431
▁لەسن	-4432
▁پاری	-4433
▁ڕێگری	-4434
▁قان	-4435
▁کەمکردنەوەی	-4436
▁لەمێژ	-4437
▁وەلی	-4438
▁عاد	-4439
▁زیانی	-4440
▁ئەوەشدا	-4441
▁کشتوکاڵی	-4442
ودەز	-4443
▁هەناس	-4444
▁ڕووداوەکانی	-4445
▁جەستەی	-4446
▁ئەوسا	-4447
▁میراودەلی	-4448
▁وتەی	-4449
▁خۆشەویست	-4450
موز	-4451
▁ئەردۆغان	-4452
▁ئازادیخواز	-4453
di	-4454
▁بڵێن	-4455
▁سەرقاڵی	-4456
▁گەن	-4457
▁33	-4458
▁گۆڕەپ	-4459
▁کردەوەی	-4460
▁برینداربوون	-4461
▁ساخ	-4462
▁لەمان	-4463
▁مرۆیی	-4464
ments	-4465
▁منی	-4466
▁تیا	-4467
ەددین	-4468
▁بانگەشەی	-4469
▁خود	-4470
▁خستە	-4471
▁وێست	-4472
▁سەرۆکایەتیی	-4473
▁زێڕ	-4474
▁گەیاندنی	-4475
▁ڕاسپ	-4476
وارد	-4477
▁ڕاوێژکاری	-4478
دانە	-4479
▁عەش	-4480
▁مەیدانی	-4481
▁سر	-4482
▁کۆنس	-4483
▁سەرمایەداری	-4484
ەکانت	-4485
▁بەرێز	-4486
▁ئاماده	-4487
ییەکاندا	-4488
▁دواتریش	-4489
▁فراکسیۆنی	-4490
توور	-4491
▁مەش	-4492
بونەوەی	-4493
▁چوارەم	-4494
▁قەڵەم	-4495
▁لەمەڕ	-4496
▁هەڵگری	-4497
▁کردوون	-4498
▁نابین	-4499
▁دەستوری	-4500
▁ڕیال	-4501
▁بەکاری	-4502
▁ئیخ	-4503
▁چارەنووسی	-4504
رۆس	-4505
▁خالید	-4506
▁مەسیح	-4507
▁وێران	-4508
▁لاوانی	-4509
▁میدیای	-4510
//	-4511
▁500	-4512
▁ڕابردو	-4513
▁ڕۆژهەڵات	-4514
▁ئێس	-4515
▁چەش	-4516
▁بەخۆ	-4517
▁://	-4518
▁مردنی	-4519
▁a	-4520
شێو	-4521
▁باکوری	-4522
▁دروستبوونی	-4523
ووانی	-4524
▁پەیامی	-4525
▁دەبنە	-4526
▁کەمێک	-4527
▁وەرزشی	-4528
▁هەڵسوک	-4529
▁دێموکرات	-4530
▁واژ	-4531
▁ئێرە	-4532
▁کاوە	-4533
▁بەسەری	-4534
▁ڕوانگەی	-4535
▁پارێزگاکانی	-4536
ەڵبژارد	-4537
▁دێن	-4538
حاڵی	-4539
▁دەور	-4540
▁فێری	-4541
انیە	-4542
▁وەبەرهێنان	-4543
رابوو	-4544
▁زمانێکی	-4545
oo	-4546
هەم	-4547
▁چڕ	-4548
▁قورئان	-4549
ێکم	-4550
▁سلێمان	-4551
▁بێن	-4552
▁بمان	-4553
▁ژینگەی	-4554
▁کارگێڕی	-4555
ەدەچێت	-4556
▁ئەکتەری	-4557
▁هەوڵەکانی	-4558
▁تیرۆریستان	-4559
ەستەی	-4560
▁کوژراون	-4561
▁بەرزن	-4562
▁هاتی	-4563
رایەوە	-4564
▁بەرژەوەندیی	-4565
▁خاتوو	-4566
▁دەسەڵاتە	-4567
▁مزگەوت	-4568
▁هاتنە	-4569
▁ناڕەزایەتی	-4570
میل	-4571
▁37	-4572
▁ناوبژی	-4573
▁نەتەوه	-4574
▁پتر	-4575
ەدایە	-4576
▁نەوە	-4577
▁وڵاتێکی	-4578
▁ڕک	-4579
▁2004	-4580
وین	-4581
▁پلان	-4582
▁لەدەرەوەی	-4583
▁کەسانێک	-4584
▁شاه	-4585
▁لین	-4586
▁توشی	-4587
▁قووڵ	-4588
▁زنجیر	-4589
▁ڕیک	-4590
▁براد	-4591
ئاژانسی	-4592
▁کوردان	-4593
کەین	-4594
وزی	-4595
▁سەدر	-4596
▁کێشەو	-4597
▁فێستیڤ	-4598
پر	-4599
▁دەچێتە	-4600
▁سویس	-4601
کاو	-4602
▁حەر	-4603
ەکیان	-4604
▁جەژنی	-4605
▁ڕەنگی	-4606
▁توانا	-4607
ire	-4608
▁کۆڕ	-4609
▁گور	-4610
▁بەندی	-4611
▁سامانی	-4612
▁ئەند	-4613
▁مەگەر	-4614
▁سیاسیەکان	-4615
▁جگەر	-4616
▁مەری	-4617
▁چارەنووس	-4618
▁بەتەواوی	-4619
▁بارەگای	-4620
▁ڕاز	-4621
▁پەیڕەو	-4622
▁دۆسیەی	-4623
▁لایەنێکی	-4624
ەتەوەو	-4625
▁کۆبوونەوە	-4626
▁لەوانەی	-4627
▁کچان	-4628
▁دەشێت	-4629
▁غەری	-4630
▁دەل	-4631
▁چاوەڕوان	-4632
▁خۆیشی	-4633
▁ماندوو	-4634
▁دیوانی	-4635
▁دەزانم	-4636
▁پرسە	-4637
▁کاف	-4638
▁خولەک	-4639
▁لێکرد	-4640
hare	-4641
▁کوژران	-4642
ەرو	-4643
▁ئابووریی	-4644
یشە	-4645
▁مرد	-4646
▁موع	-4647
▁مامەڵە	-4648
▁کۆنگرە	-4649
▁تورکمان	-4650
جێ	-4651
▁کرایەوە	-4652
دام	-4653
▁حاڵەتی	-4654
▁خواستی	-4655
ەرکوک	-4656
▁پەرەپێدانی	-4657
رخ	-4658
▁بارەیەوه	-4659
▁نێر	-4660
▁لەمبارەیەوه	-4661
▁شوێنە	-4662
ووان	-4663
▁دەخواز	-4664
▁چالاکوانی	-4665
▁سیاسییە	-4666
▁زاخۆ	-4667
▁ڕەشید	-4668
ێرت	-4669
ەزی	-4670
▁یەکێکیان	-4671
بکەین	-4672
▁بەبۆنەی	-4673
▁فای	-4674
▁خانەن	-4675
▁بزانین	-4676
ێکانی	-4677
▁عێراقەوە	-4678
▁کۆر	-4679
ەخشێت	-4680
▁بەرچاوی	-4681
▁حوکمڕانی	-4682
▁گروپە	-4683
▁میدیا	-4684
▁هێڵ	-4685
▁درێژە	-4686
بدات	-4687
▁بەرف	-4688
▁ئاواز	-4689
▁دوایین	-4690
دال	-4691
اییەوە	-4692
اوەتەوە	-4693
ەخشی	-4694
▁شیعر	-4695
سکی	-4696
▁کۆمیتەی	-4697
ناوی	-4698
▁مەم	-4699
▁دێرین	-4700
امەت	-4701
▁عاش	-4702
▁بیروڕ	-4703
▁١	-4704
▁داوایان	-4705
▁کرێکارانی	-4706
▁ئاشکرایە	-4707
▁واشن	-4708
▁دانا	-4709
▁ڕێوش	-4710
▁یۆر	-4711
▁پلە	-4712
▁ڕووبەڕوو	-4713
▁ڕێبەر	-4714
▁خوازی	-4715
▁نمایشی	-4716
▁of	-4717
▁بەهاری	-4718
it	-4719
▁ئەنفالکراو	-4720
▁کاس	-4721
▁دۆلاری	-4722
▁فاشی	-4723
▁+	-4724
▁چوارچ	-4725
▁بنچ	-4726
▁نادات	-4727
امبەری	-4728
▁دەکوژ	-4729
▁کەسانە	-4730
▁فیکری	-4731
▁لێهات	-4732
گەین	-4733
اکاری	-4734
▁سەروەر	-4735
▁کارەبای	-4736
ۆلۆ	-4737
▁کانونی	-4738
ژاد	-4739
▁بیرکردنەوەی	-4740
▁وشک	-4741
▁ناسیۆن	-4742
▁هەرکەس	-4743
کدا	-4744
▁ئەفسەر	-4745
ve	-4746
▁دەگرێتەوە	-4747
▁بۆمب	-4748
وەی	-4749
▁گە	-4750
lick	-4751
تور	-4752
▁fb	-4753
▁جەب	-4754
▁زەب	-4755
▁ئینسانی	-4756
▁پتەو	-4757
▁باکوور	-4758
▁سەرباری	-4759
▁بێتە	-4760
▁ئاڕاستەی	-4761
▁دەکرا	-4762
▁ناڤ	-4763
▁بەرێوە	-4764
یەکاندا	-4765
▁دژە	-4766
▁میللی	-4767
▁یوسف	-4768
▁لەبەغدا	-4769
▁کێب	-4770
▁دەبەن	-4771
click	-4772
خەڵ	-4773
ەماڵ	-4774
گیرد	-4775
▁سوپا	-4776
▁ئاماژه	-4777
▁بازاڕی	-4778
▁بڵاوکردنەوەی	-4779
گەن	-4780
▁نیه	-4781
کوو	-4782
▁دەفەرم	-4783
▁سێبەری	-4784
▁ڕاستەقینە	-4785
بەش	-4786
▁ئیل	-4787
▁پیس	-4788
رایە	-4789
▁خوشک	-4790
▁بریتین	-4791
▁ڕۆڵێکی	-4792
▁تایبەتمەند	-4793
▁فیلمەکانی	-4794
▁ئیتالیا	-4795
▁بور	-4796
▁بەرب	-4797
▁نەکرێت	-4798
ne	-4799
▁گوزار	-4800
▁چەمکی	-4801
▁ڕاستیدا	-4802
▁چۆ	-4803
▁ئەفری	-4804
▁مرۆڤەکان	-4805
▁ترسی	-4806
▁ڕوب	-4807
ییەکە	-4808
▁دانوستان	-4809
▁بەدڵ	-4810
▁مەدەن	-4811
▁پەیوەندییە	-4812
▁38	-4813
ووسیت	-4814
▁ئازاری	-4815
▁شۆف	-4816
▁دەستەو	-4817
ابەر	-4818
▁دامودەز	-4819
▁2005	-4820
ەکانیاندا	-4821
▁تاکی	-4822
▁ئەشک	-4823
دەری	-4824
▁کاد	-4825
▁ڕووسیا	-4826
▁فەو	-4827
▁بنیاتن	-4828
▁ناوچەیەکی	-4829
ێدوان	-4830
▁شوان	-4831
▁نوێژ	-4832
تل	-4833
▁بزانێت	-4834
▁دەبەست	-4835
الان	-4836
اکاندا	-4837
ah	-4838
▁تێگەیشتن	-4839
▁لەسلێمانی	-4840
▁ڕق	-4841
▁ویلای	-4842
▁نموونەی	-4843
▁پێشکەوتنی	-4844
اسیۆن	-4845
ەزانی	-4846
وردن	-4847
▁ئاکام	-4848
▁وەربگرێت	-4849
ورتی	-4850
▁حوزەیران	-4851
▁سینەما	-4852
لایەن	-4853
▁بکەینەوە	-4854
امن	-4855
▁پسپۆڕ	-4856
▁گەنجان	-4857
▁نیشتەجێب	-4858
▁بەشە	-4859
▁سزا	-4860
ڵێت	-4861
▁تەواف	-4862
اسای	-4863
ژیانی	-4864
▁وایه	-4865
▁شۆڕشگێڕ	-4866
▁نەخێر	-4867
▁ڕف	-4868
▁دەزانی	-4869
▁پێشوازیی	-4870
▁سەرچاوەکه	-4871
ادان	-4872
امۆش	-4873
تیلافی	-4874
▁دەبیت	-4875
▁بنەماڵەی	-4876
سو	-4877
▁فەیل	-4878
ەکانتان	-4879
▁حاڵەت	-4880
▁شانازی	-4881
▁هۆز	-4882
▁دادەنرێت	-4883
▁I	-4884
▁سروشت	-4885
▁جەعفەر	-4886
▁دەسەڵاتدارانی	-4887
ol	-4888
▁هەژار	-4889
▁کەشتی	-4890
▁بڵاودەک	-4891
کرن	-4892
دەت	-4893
▁بۆنەی	-4894
▁شکستی	-4895
▁فەرەنسی	-4896
▁پیاوە	-4897
▁نییه	-4898
غی	-4899
▁توندی	-4900
▁ئینتەرن	-4901
▁سەرکردە	-4902
▁95	-4903
▁ئەندازی	-4904
▁سەرکردەی	-4905
▁سەنتەر	-4906
▁لاوی	-4907
▁گاز	-4908
▁داخواز	-4909
▁توندوتیژیی	-4910
انن	-4911
▁یەکسان	-4912
▁ئیسلامیی	-4913
▁دەهێنن	-4914
▁لەبەش	-4915
▁ئاوات	-4916
▁ڕامی	-4917
▁دیاریکردنی	-4918
▁میوان	-4919
▁هێل	-4920
هەڵاتی	-4921
قامی	-4922
▁پێشکەشی	-4923
▁هەمیشەیی	-4924
گەیەنن	-4925
▁گرووپی	-4926
▁گاڵ	-4927
یشیان	-4928
▁هەڵە	-4929
▁حەقیق	-4930
▁گەورەو	-4931
ation	-4932
▁شارەکە	-4933
▁شەی	-4934
ڵانی	-4935
▁لەشک	-4936
▁پێویستیان	-4937
▁مەح	-4938
▁مەڵبەندی	-4939
▁بڵاوکراو	-4940
▁پێکدا	-4941
▁گرد	-4942
▁ئۆپۆزسیۆنی	-4943
▁کورته	-4944
▁ئەگ	-4945
▁بودجە	-4946
▁پەیوەندییەکی	-4947
▁ئێمەدا	-4948
▁نیاز	-4949
▁لوبنان	-4950
▁ناپ	-4951
استیدا	-4952
▁شیر	-4953
▁کورس	-4954
▁منداڵانی	-4955
ێرێت	-4956
▁تەب	-4957
▁ئیداری	-4958
▁دیمەن	-4959
▁کۆمیسیۆنی	-4960
▁پڕۆ	-4961
▁ئەکادیمی	-4962
▁بەهێزی	-4963
os	-4964
▁لەکۆن	-4965
▁گوناه	-4966
▁بۆخۆی	-4967
▁ئاغ	-4968
▁واته	-4969
ەنها	-4970
▁ئامادەکردنی	-4971
▁توانیان	-4972
▁شەرع	-4973
▁پێشت	-4974
▁ڕێبازی	-4975
▁فەلسەفە	-4976
▁ئاخۆ	-4977
▁ئاکامی	-4978
▁ئەیلول	-4979
ئەوە	-4980
▁پیت	-4981
▁کوردایەتی	-4982
ژەن	-4983
▁ڕوونکردنەوەی	-4984
▁لەف	-4985
▁ڕۆمانی	-4986
▁مەبەستە	-4987
▁خێڵ	-4988
▁ئەق	-4989
کرێت	-4990
▁ئیرادەی	-4991
پە	-4992
▁بەخێر	-4993
▁دووەمین	-4994
▁کێشەیەکی	-4995
▁کۆتای	-4996
▁مامەڵەی	-4997
اکردنەوەی	-4998
ساز	-4999
▁ور	-5000
▁39	-5001
▁مانگە	-5002
▁یەکلایی	-5003
▁خەڵکە	-5004
▁دەژی	-5005
▁ئۆتۆمبیل	-5006
لانی	-5007
▁بۆمان	-5008
▁بەهر	-5009
▁زوڵ	-5010
▁دیکتاتۆر	-5011
▁شوێنێک	-5012
یەدا	-5013
دانەوە	-5014
▁مەکەن	-5015
نەکان	-5016
▁هەنارد	-5017
ینین	-5018
▁ئەحمەدی	-5019
▁قەد	-5020
▁دەبنەوە	-5021
بەت	-5022
▁سەروەری	-5023
ستەکان	-5024
▁هەربۆیە	-5025
▁بەراز	-5026
▁فیدراڵی	-5027
▁لەپێناوی	-5028
نووس	-5029
ۆڕی	-5030
اوەری	-5031
▁نێ	-5032
▁لەسەردەمی	-5033
▁برایەتی	-5034
گیراوە	-5035
ەپەڕ	-5036
▁چەسپ	-5037
▁یاخی	-5038
ستەی	-5039
▁مارک	-5040
ired	-5041
▁لەبری	-5042
▁وز	-5043
▁requ	-5044
▁بەکوردستانی	-5045
▁لەرێگەی	-5046
▁بێج	-5047
▁فەرمانڕەو	-5048
ییانە	-5049
ۆکر	-5050
▁حیزبەکان	-5051
▁پارچە	-5052
▁required	-5053
▁پارێزگاکان	-5054
چست	-5055
هاتە	-5056
▁واقیعی	-5057
▁ڕام	-5058
حمد	-5059
▁ویژ	-5060
▁نیشاند	-5061
ێوەر	-5062
▁قەبارەی	-5063
▁پزیشک	-5064
ەسەل	-5065
▁هزری	-5066
▁دۆزی	-5067
▁ڕەگەزی	-5068
▁تیادا	-5069
▁زانای	-5070
▁ڕاهێنەری	-5071
▁وشە	-5072
▁پێکهاتەکانی	-5073
▁ڕابردووی	-5074
▁ئاماژەیه	-5075
▁گەیشتە	-5076
▁ئیج	-5077
▁خانەو	-5078
▁کۆریای	-5079
▁فەیس	-5080
▁دەرباز	-5081
▁زانک	-5082
▁پەخش	-5083
▁زەحمەت	-5084
گەو	-5085
▁ئاراوە	-5086
▁تەمموز	-5087
▁لەلێدوان	-5088
▁ژنە	-5089
▁وێنەیەکی	-5090
نانی	-5091
اکتی	-5092
▁توانیویەتی	-5093
▁ببن	-5094
▁هاوکێش	-5095
هی	-5096
سال	-5097
▁دۆڕ	-5098
▁هاشمی	-5099
▁ناسراو	-5100
ڵق	-5101
▁سەڵ	-5102
▁H	-5103
▁فۆر	-5104
▁بەرزی	-5105
▁ڕووداوی	-5106
▁یانەکانی	-5107
▁مای	-5108
▁وری	-5109
وێت	-5110
▁تەڵ	-5111
▁ململانێ	-5112
▁کارکردنی	-5113
▁کۆبونەوەی	-5114
▁نەناس	-5115
▁ڕەمزی	-5116
▁شایانی	-5117
وشی	-5118
▁داوه	-5119
ەجێ	-5120
ەڕۆی	-5121
▁بەشێوەی	-5122
▁بەئاماد	-5123
▁تەقینەو	-5124
▁پرسیارە	-5125
▁خۆپیشاندەران	-5126
▁تان	-5127
▁گەڕان	-5128
▁ئەوەتا	-5129
▁گۆڕی	-5130
▁بڕوان	-5131
▁مۆڵەتی	-5132
▁گەڕانەوە	-5133
▁لەسێ	-5134
▁هاتوچۆ	-5135
▁باوەڕیان	-5136
▁تەکنەل	-5137
▁پەراوێز	-5138
شاد	-5139
▁نال	-5140
▁دەگرن	-5141
▁شم	-5142
▁سوودی	-5143
▁سێکس	-5144
▁هاری	-5145
▁کاتەدا	-5146
▁جەوه	-5147
▁کەسەی	-5148
▁ڕایانگەیاند	-5149
▁هاوپەیمانیی	-5150
▁42	-5151
▁لەحکوم	-5152
________________	-5153
ut	-5154
▁دەرئەنجام	-5155
▁جوڵ	-5156
▁دنیادا	-5157
▁نەبن	-5158
ەیانی	-5159
▁بەبڕی	-5160
▁وک	-5161
▁جەو	-5162
▁بووەتە	-5163
▁گۆڕانی	-5164
▁داگیرکەر	-5165
دەدەن	-5166
▁مەخ	-5167
▁کەوتە	-5168
▁سەقامگیری	-5169
▁سیاسیەکانی	-5170
ic	-5171
ۆتەوه	-5172
▁یەکگرتووی	-5173
▁بەوەدا	-5174
▁کۆس	-5175
▁هۆن	-5176
تنی	-5177
▁حکووم	-5178
▁دەگوترێت	-5179
▁48	-5180
پەنج	-5181
الیزمی	-5182
▁وەرگرتن	-5183
خستن	-5184
▁یاساو	-5185
یرانی	-5186
▁ژینگە	-5187
▁خزمەتگوزاریی	-5188
▁پێیوایە	-5189
▁دەگەیەنێت	-5190
▁عار	-5191
▁تەع	-5192
▁جۆن	-5193
▁بەڵگەن	-5194
▁دەرهێنەری	-5195
▁ژاپ	-5196
▁43	-5197
▁خراپتر	-5198
▁نەگ	-5199
▁وێ	-5200
▁بەڕێوەبەر	-5201
پێکرد	-5202
▁کاراک	-5203
▁گەشەی	-5204
یلی	-5205
▁لەمبارەیەوە	-5206
▁70	-5207
▁وتووێژ	-5208
▁کۆنفرانسی	-5209
▁دەڕوات	-5210
▁هاوشێوەی	-5211
▁اڵ	-5212
▁دەکرێتەوە	-5213
▁کەڕ	-5214
▁ڕوویان	-5215
▁هەماهەنگی	-5216
▁مامۆستایانی	-5217
▁هۆڵەندا	-5218
▁تاهیر	-5219
▁بژ	-5220
بڕیت	-5221
▁موح	-5222
▁گەشەپێدانی	-5223
▁سان	-5224
▁بەمان	-5225
▁کاردانەوەی	-5226
▁کاو	-5227
▁مۆدێرن	-5228
▁نەهێشتنی	-5229
▁تکایە	-5230
▁پێدەچێت	-5231
▁سەربازیی	-5232
ێویست	-5233
▁وەرگرتووە	-5234
▁متمانەی	-5235
▁تیۆری	-5236
ماڵ	-5237
▁لەهەڵبژارد	-5238
▁مانچست	-5239
▁ڕۆژنامەنووسان	-5240
▁لانی	-5241
▁مەعری	-5242
▁بەرەنگار	-5243
▁دەرببڕیت	-5244
▁لەبەرچاو	-5245
▁ژیانێکی	-5246
لێن	-5247
ڕای	-5248
▁دیپلۆم	-5249
▁سەعد	-5250
▁ڕەحم	-5251
▁ئاسۆ	-5252
ۆیان	-5253
▁کاندیدی	-5254
▁بەشێوەیەک	-5255
▁گرێبەست	-5256
▁مووچەی	-5257
▁پێشکەوتوو	-5258
▁ناگ	-5259
وەتەوە	-5260
▁ئامادەن	-5261
▁195	-5262
▁پێناوی	-5263
▁متمان	-5264
▁شارەزای	-5265
اندی	-5266
▁خواز	-5267
▁55	-5268
▁ناوەکی	-5269
▁هۆشیار	-5270
▁ئێن	-5271
▁دامەزراوە	-5272
کەوتی	-5273
▁لەهەولێر	-5274
▁دەستەبەر	-5275
▁فراکسیۆن	-5276
▁کۆنگرەیەکی	-5277
▁لایەنه	-5278
اخی	-5279
پێچ	-5280
▁حەو	-5281
▁بەڵکوو	-5282
▁هەندێکیان	-5283
بووی	-5284
▁بنووس	-5285
▁مەزهەب	-5286
▁مون	-5287
یانەوە	-5288
گان	-5289
▁ود	-5290
▁نێرد	-5291
▁بەڕێوەبردنی	-5292
▁1991	-5293
▁41	-5294
▁دیالۆگ	-5295
▁بیروبۆچوونی	-5296
▁لێدوانێکدا	-5297
▁لەچاو	-5298
ەڵاتی	-5299
▁ناوچه	-5300
▁بینینی	-5301
ەشە	-5302
▁توانیو	-5303
▁فرۆشتنی	-5304
▁وزەی	-5305
▁کەسیش	-5306
▁داناوە	-5307
انین	-5308
▁کۆش	-5309
▁یون	-5310
▁هەڵدە	-5311
پۆش	-5312
▁هۆشیاری	-5313
گاو	-5314
ارەکەی	-5315
▁ئامۆژ	-5316
▁هونەرمەندان	-5317
ترس	-5318
▁قاسم	-5319
▁کرن	-5320
▁ساڵانە	-5321
ەلم	-5322
▁عەس	-5323
▁ئۆج	-5324
اداشتی	-5325
هاتنی	-5326
▁فەرمانگەی	-5327
▁ئاسانی	-5328
▁تەئکیدی	-5329
▁یێ	-5330
رەس	-5331
▁بەدرێژ	-5332
▁حکومی	-5333
▁نەتەوەیەکگرت	-5334
▁ناشی	-5335
▁پەنابەران	-5336
▁ڕێبین	-5337
▁نەس	-5338
▁گران	-5339
▁کەند	-5340
سیق	-5341
ەونە	-5342
▁پرۆژەی	-5343
ڤین	-5344
▁٢	-5345
ێکمان	-5346
▁ئوست	-5347
▁ڕاگەیەن	-5348
پێشخ	-5349
▁سعود	-5350
▁زۆرتر	-5351
▁لەڕۆژ	-5352
قەی	-5353
لات	-5354
▁جێن	-5355
▁44	-5356
▁دەبینن	-5357
خوارد	-5358
▁ئارەزووی	-5359
▁کوردیدا	-5360
▁ترسناک	-5361
▁سالار	-5362
ولی	-5363
▁هیند	-5364
▁ماست	-5365
▁سێیەمی	-5366
▁هەواڵگری	-5367
▁حاکم	-5368
▁خێرا	-5369
▁دەستدر	-5370
▁بەسەرۆک	-5371
▁فریشت	-5372
▁ڕادیۆی	-5373
▁کارت	-5374
ستانەی	-5375
▁میسری	-5376
▁لەوبارەیەوە	-5377
ژمێری	-5378
▁بابەتانەی	-5379
▁مەشق	-5380
ew	-5381
ێدا	-5382
▁عێراقیش	-5383
▁بیرکردنەوە	-5384
▁وەفدی	-5385
▁عەشق	-5386
فیق	-5387
▁نەروی	-5388
▁ئەشکەنج	-5389
▁نەخشەی	-5390
▁ڕایگەیاندووە	-5391
نک	-5392
▁عوسمانی	-5393
کوژ	-5394
▁80	-5395
▁کۆنتڕۆ	-5396
▁بەرێوەبەری	-5397
▁ما	-5398
▁کشانەوەی	-5399
▁ئیماندار	-5400
▁سەند	-5401
گێر	-5402
▁بەرەوپێش	-5403
▁ڕۆژنامەنووسی	-5404
▁سل	-5405
▁لەهەو	-5406
▁دێموکراس	-5407
▁چووە	-5408
▁ئەوەبوو	-5409
▁دەگۆڕ	-5410
▁پێغەمبەری	-5411
ەویت	-5412
▁ناخ	-5413
▁کوردیی	-5414
ڕەحمان	-5415
▁لەدوو	-5416
▁جوگرافی	-5417
▁کوردانی	-5418
▁گومانی	-5419
نین	-5420
▁سب	-5421
▁چینایەتی	-5422
▁بتوانین	-5423
▁یەکەی	-5424
▁بۆنی	-5425
▁هاوار	-5426
ەڕۆ	-5427
▁ئاستێکی	-5428
▁خاڵە	-5429
▁ڕێزی	-5430
▁عێراقییەکان	-5431
تەرخ	-5432
▁لیبیا	-5433
▁کورتی	-5434
▁ڕۆژانەی	-5435
▁هونەرمەندانی	-5436
▁بڕیاره	-5437
کن	-5438
▁کوردستانێ	-5439
▁لەعێراق	-5440
▁بخاتە	-5441
▁کارەساتی	-5442
▁مامۆستایان	-5443
▁نەیانتوانی	-5444
▁بناس	-5445
ەرز	-5446
▁باپ	-5447
▁ساب	-5448
▁ئایار	-5449
ەرەکانی	-5450
▁یاسایە	-5451
▁{	-5452
▁ناشرین	-5453
ۆد	-5454
▁لەسی	-5455
▁مرۆڤە	-5456
▁خەریکە	-5457
▁نووسینگەی	-5458
▁ئاسیا	-5459
▁بەیەکەوە	-5460
▁خۆب	-5461
▁هاته	-5462
▁پیرۆزی	-5463
▁پەیکەر	-5464
▁هەنگاوێکی	-5465
▁ناویان	-5466
▁گۆڵی	-5467
▁شەنگ	-5468
▁نیوەی	-5469
▁تیشکی	-5470
ەنیا	-5471
▁باڵاد	-5472
▁ڕاسپارد	-5473
▁پاکستان	-5474
▁لێکدانەوەی	-5475
▁گەڕەکی	-5476
▁سووک	-5477
▁ئەلعێراق	-5478
▁هەندێ	-5479
ەکەیەوە	-5480
▁کولتووری	-5481
▁تێد	-5482
بوونە	-5483
▁چاوەڕێی	-5484
▁سەندیکای	-5485
▁کیمیاب	-5486
▁جول	-5487
▁نییەب	-5488
▁چوونە	-5489
▁ڕۆژنامەوانیدا	-5490
▁فرە	-5491
▁ئەبێ	-5492
▁ڕوسی	-5493
▁بەرنامە	-5494
▁بوارەکانی	-5495
▁لەدید	-5496
شم	-5497
▁ستی	-5498
یداوە	-5499
▁عەد	-5500
▁نەرم	-5501
▁خەونی	-5502
▁باشترە	-5503
▁کوردستانیان	-5504
▁بۆشایی	-5505
چونی	-5506
▁ئەبو	-5507
▁}	-5508
▁کەد	-5509
▁قوب	-5510
کاتی	-5511
▁بەهەشت	-5512
▁زیاترە	-5513
▁بەدوور	-5514
▁هەری	-5515
▁ترا	-5516
▁ئەهلی	-5517
▁هەبوونی	-5518
وانینی	-5519
▁لەکەرکوک	-5520
▁وابوو	-5521
▁دەرفەت	-5522
ێڵێت	-5523
▁هێزو	-5524
▁شیعری	-5525
▁ولاتانی	-5526
▁موق	-5527
▁بەشەکانی	-5528
▁دەناس	-5529
▁کوردس	-5530
▁سعودی	-5531
داد	-5532
▁مەبەستەش	-5533
ەپێدان	-5534
ەکرێت	-5535
عە	-5536
▁سەرچاوەکانی	-5537
▁مات	-5538
▁فیر	-5539
▁سروو	-5540
▁ئاگری	-5541
سە	-5542
▁کراوه	-5543
▁ئەنق	-5544
ەینە	-5545
▁قسەکردن	-5546
▁دەرکردنی	-5547
▁غەز	-5548
▁داهێنان	-5549
ەترین	-5550
▁ئەوانەش	-5551
▁جێگر	-5552
▁ناوچەکەدا	-5553
▁مارکس	-5554
▁موراد	-5555
▁بەئاو	-5556
الا	-5557
▁نزیکی	-5558
▁دەربڕی	-5559
▁پێنجەم	-5560
▁دابوو	-5561
▁هەڵمەتی	-5562
▁پیاوانی	-5563
▁یاریدەد	-5564
▁باراک	-5565
▁ڕێککەوت	-5566
لۆن	-5567
est	-5568
دن	-5569
▁u	-5570
▁300	-5571
▁چۆڵ	-5572
▁فەز	-5573
▁لەمیانەی	-5574
کۆل	-5575
▁دەستبەر	-5576
▁سەرهەڵدانی	-5577
ber	-5578
▁سندو	-5579
▁مەلی	-5580
▁دەستە	-5581
▁لەح	-5582
▁واتای	-5583
▁46	-5584
▁الع	-5585
▁ناخۆش	-5586
▁ئیخوان	-5587
▁هەرێمە	-5588
▁پەروەردگاری	-5589
▁شاندێکی	-5590
▁کەلوپ	-5591
▁خواردنی	-5592
راوێکی	-5593
▁لەبن	-5594
▁ناتوانێ	-5595
▁بانگەواز	-5596
وەز	-5597
ێکرد	-5598
فەی	-5599
▁نەدا	-5600
▁بچێتە	-5601
▁وردە	-5602
▁وتاری	-5603
▁مێر	-5604
▁سەرتاسەری	-5605
▁لایەنگرانی	-5606
▁فل	-5607
▁دوچاری	-5608
▁سود	-5609
▁ڕێکخستن	-5610
ey	-5611
▁جیهاد	-5612
and	-5613
▁بژی	-5614
گوزاری	-5615
ەنجوم	-5616
تاری	-5617
ڕۆژی	-5618
▁بەهای	-5619
▁قەرەبوو	-5620
▁گۆرانیبێژ	-5621
▁باڵیۆز	-5622
▁شانۆیی	-5623
▁جل	-5624
▁شێرکۆ	-5625
▁پەرلەمانتار	-5626
▁حزبی	-5627
▁ئاڵای	-5628
▁ئیتالی	-5629
▁شون	-5630
▁فەلسەفەی	-5631
▁یەکجار	-5632
▁کیش	-5633
▁ببنە	-5634
▁شەممه	-5635
▁زیرەک	-5636
▁پێدەکات	-5637
▁تەماشای	-5638
▁مەسیحی	-5639
▁ئێراندا	-5640
▁حکومەتەکەی	-5641
▁R	-5642
ەخس	-5643
گەیەند	-5644
▁بەرهەمەکانی	-5645
انم	-5646
وندی	-5647
▁هەواڵێکی	-5648
کاتدا	-5649
▁ئایەت	-5650
ایەو	-5651
▁هاوەڵ	-5652
▁مەراسی	-5653
▁نەژاد	-5654
▁بووبێت	-5655
▁ئیع	-5656
ەشیان	-5657
▁ملکە	-5658
ex	-5659
▁دراوس	-5660
ریت	-5661
▁بەرپرسێکی	-5662
▁کەمتەرخ	-5663
ێتەوه	-5664
▁تۆڕی	-5665
em	-5666
▁سەرەکیی	-5667
رۆژ	-5668
اتان	-5669
▁قەن	-5670
▁47	-5671
▁شاد	-5672
▁یەکەمیان	-5673
▁بڵێت	-5674
▁دەرکرد	-5675
▁پاڵێو	-5676
▁داخوازی	-5677
tm	-5678
وورد	-5679
▁دڕند	-5680
▁ڕێککەوتنی	-5681
▁ئەوەیه	-5682
▁هیوادارم	-5683
▁چەق	-5684
▁سەرئ	-5685
▁ئامادەیە	-5686
▁ha	-5687
▁هاتوو	-5688
▁هاوچەر	-5689
▁بەف	-5690
▁ئاشکرایکرد	-5691
▁قاچ	-5692
▁لەکۆمەڵ	-5693
▁قۆناغێکی	-5694
▁ڕەوت	-5695
یاری	-5696
▁ئەلب	-5697
▁کڵ	-5698
▁بانکی	-5699
▁بۆسەر	-5700
▁جەز	-5701
▁عبدال	-5702
▁حکوومەتە	-5703
چەماڵ	-5704
پا	-5705
▁بۆتەوە	-5706
▁چوارچێو	-5707
گواز	-5708
▁هاتووچ	-5709
▁زر	-5710
▁پە	-5711
▁تەح	-5712
▁دواب	-5713
▁شەف	-5714
▁عادل	-5715
▁لەڕێی	-5716
▁هەڵبژاردە	-5717
▁خواو	-5718
▁قوربانیانی	-5719
▁کێشەیە	-5720
▁خۆشحاڵ	-5721
▁موحەمەد	-5722
▁جیاتی	-5723
▁کاتێکی	-5724
▁هەوڵدان	-5725
ئەس	-5726
پەری	-5727
ەمەوە	-5728
▁htm	-5729
▁سەفەر	-5730
▁ناوچانە	-5731
▁پەنابەر	-5732
مێس	-5733
▁کاکە	-5734
ەولا	-5735
▁شێرپەنج	-5736
اکه	-5737
گرم	-5738
▁دوکان	-5739
▁لق	-5740
ورکی	-5741
▁نایات	-5742
▁جینۆساید	-5743
ستن	-5744
▁ئیئتیلافی	-5745
▁سەرکردەکانی	-5746
▁کلاسی	-5747
▁کەوتووە	-5748
▁یەکگرتو	-5749
▁دەوڵەتە	-5750
▁خۆڕا	-5751
▁ڕۆشنبیریی	-5752
▁قوتابیان	-5753
▁مۆب	-5754
▁متمانە	-5755
▁ڕیف	-5756
▁زله	-5757
▁گوێی	-5758
▁ذ	-5759
▁دەڤەر	-5760
الیستی	-5761
▁دەستیپێکرد	-5762
▁پیاوی	-5763
کارانی	-5764
▁ئیسلامییەکان	-5765
▁خۆکو	-5766
▁خەمی	-5767
▁سوکایەتی	-5768
ch	-5769
▁بگێڕ	-5770
▁بەختەو	-5771
▁ئێوارە	-5772
▁یەکێکی	-5773
▁چاکی	-5774
▁لەشکری	-5775
▁49	-5776
▁ڕەسوڵ	-5777
▁دەستگیرکردنی	-5778
▁ڕایدەگەیەنێت	-5779
▁ئەوت	-5780
▁تەلەفزیۆنی	-5781
▁چەواش	-5782
ــ	-5783
اوانی	-5784
ەرەوە	-5785
▁وەربگرن	-5786
▁دەرفەتی	-5787
▁شۆڤ	-5788
▁زۆربەیان	-5789
▁مشت	-5790
▁پێشبڕ	-5791
بێتەوە	-5792
▁قسەکانی	-5793
لەت	-5794
▁ناوچەیە	-5795
▁ڕوی	-5796
▁ڤێ	-5797
▁گوێب	-5798
سۆن	-5799
▁فەرماند	-5800
هاو	-5801
▁گەمار	-5802
▁میهرەب	-5803
گراف	-5804
▁ئەمان	-5805
▁خانەی	-5806
کرایەوە	-5807
▁بەوه	-5808
▁ئالان	-5809
▁لەنزیک	-5810
▁سوڵ	-5811
▁نەمان	-5812
▁52	-5813
lo	-5814
▁وەردەگرێت	-5815
▁ئەمەی	-5816
▁خۆشب	-5817
▁قوتابخانە	-5818
▁کرێکاری	-5819
▁بەتوان	-5820
▁شەقامی	-5821
▁مژ	-5822
▁وەری	-5823
▁بەنزین	-5824
▁بەرپرسە	-5825
▁عەباس	-5826
ونە	-5827
▁ڕاش	-5828
▁دەهات	-5829
▁دەشڵێت	-5830
▁بوونەتە	-5831
کم	-5832
▁دەمێنێتەوە	-5833
▁لەپاش	-5834
▁موبار	-5835
▁تیم	-5836
▁ببەست	-5837
▁51	-5838
▁دیو	-5839
▁ناڵ	-5840
▁شیوعی	-5841
▁گرینگ	-5842
▁پۆڵ	-5843
▁شانۆگەری	-5844
▁سەرژمێری	-5845
▁کەمئەندا	-5846
قر	-5847
▁ڕووخ	-5848
▁سەلماند	-5849
▁فەرامۆش	-5850
▁لەپەی	-5851
▁لەتی	-5852
▁دەبێته	-5853
▁ناوەڕاستی	-5854
کردنەوەو	-5855
▁پراکتی	-5856
▁قوڕ	-5857
▁لەوڵات	-5858
▁جیابوون	-5859
▁جد	-5860
▁بکرد	-5861
▁دێر	-5862
▁لەڕێگای	-5863
▁هان	-5864
▁شەپۆل	-5865
▁ڕادیۆ	-5866
▁L	-5867
▁نازانێت	-5868
▁تەکنەلۆژی	-5869
مای	-5870
▁دروشمی	-5871
▁خوێندکاران	-5872
▁ڕونی	-5873
▁پێموایە	-5874
ani	-5875
ینەوەو	-5876
ەدار	-5877
▁ئاشت	-5878
اکانیان	-5879
▁دەتوانرێت	-5880
▁گۆڕەپانی	-5881
▁خولەکی	-5882
▁مەڕ	-5883
▁پڕۆژەکە	-5884
▁حساب	-5885
▁جیاوازە	-5886
▁سەرەنجام	-5887
▁بنەما	-5888
▁ڕەحمان	-5889
▁مەترسیدار	-5890
▁سەلاحەددین	-5891
یار	-5892
▁پان	-5893
▁یاداشت	-5894
▁بۆرژو	-5895
▁ڕووداوە	-5896
یدان	-5897
▁تاد	-5898
▁تازەی	-5899
▁سەختی	-5900
▁ناتوانین	-5901
▁گرێ	-5902
▁زەمین	-5903
▁بڕوا	-5904
▁دامەزراو	-5905
▁عەلمانی	-5906
زانە	-5907
▁فارسی	-5908
▁194	-5909
▁سیاسەتمەد	-5910
▁ئامادەکاری	-5911
من	-5912
▁کەریمی	-5913
▁بەشداریکردن	-5914
▁لەزۆر	-5915
▁کارمەندانی	-5916
وودا	-5917
▁زێب	-5918
▁هەڵەی	-5919
▁هەژاری	-5920
▁پەلاماری	-5921
ەنجومەنی	-5922
▁تریان	-5923
▁مۆسیق	-5924
ایەدا	-5925
▁بەهەڵ	-5926
▁هەڵک	-5927
▁کاربەدەست	-5928
اهیر	-5929
▁بەرگریی	-5930
▁ڕەتی	-5931
▁سەردانەکەی	-5932
▁بگاتە	-5933
▁هەردو	-5934
▁بڵاودەکرێنەوە	-5935
▁53	-5936
▁یانی	-5937
▁ئەج	-5938
▁فەت	-5939
ۆیەکی	-5940
▁موچەی	-5941
▁ببینێت	-5942
ەنین	-5943
▁کۆیە	-5944
ەوانە	-5945
ارەیان	-5946
▁بەئامادەبوونی	-5947
▁فەیلەس	-5948
▁ڕووداوەکان	-5949
▁بوش	-5950
▁ئەستۆی	-5951
▁هەمیشه	-5952
کێکی	-5953
▁بنک	-5954
▁مەرگی	-5955
▁الن	-5956
▁موش	-5957
▁سوننە	-5958
▁ژیانیان	-5959
دەدات	-5960
▁دەستپێشخ	-5961
▁گەنجانی	-5962
▁ناسنامەی	-5963
▁لەکوردستاندا	-5964
▁هەڵبەت	-5965
▁پەت	-5966
▁تووش	-5967
▁بیرو	-5968
▁عەبدولڕەحمان	-5969
▁ان	-5970
▁یه	-5971
▁جاڕ	-5972
نشین	-5973
▁شەهیدانی	-5974
▁هەف	-5975
▁جووڵ	-5976
▁دڵشاد	-5977
▁بێتەوە	-5978
ارا	-5979
رێس	-5980
▁درەنگ	-5981
▁تیرۆریست	-5982
▁زیادکردنی	-5983
ێنیت	-5984
▁لەوانەش	-5985
▁جدی	-5986
▁بەها	-5987
ەکانیانە	-5988
▁کێبڕ	-5989
▁ڕوویدا	-5990
▁توندوتیژ	-5991
▁گرنگترین	-5992
▁خولەکە	-5993
▁سەرپێ	-5994
▁گەورەتر	-5995
yah	-5996
ێنەی	-5997
▁فرمێس	-5998
▁پیاوێکی	-5999
▁54	-6000
▁بایەخی	-6001
▁ئەوەمان	-6002
ەسەڵات	-6003
▁in	-6004
▁دەوڵەتێکی	-6005
▁بەکر	-6006
▁پانت	-6007
ەکەتان	-6008
▁یەکە	-6009
▁ئۆرگ	-6010
▁بپرس	-6011
▁کێڵ	-6012
▁هێو	-6013
▁تیشک	-6014
▁باڵەک	-6015
▁بەدرێژایی	-6016
▁سڕ	-6017
▁جەه	-6018
yahoo	-6019
▁ڕەزا	-6020
▁نەجمەد	-6021
▁ستراتیژ	-6022
▁ڕاستەقین	-6023
▁ئەمن	-6024
ییانەی	-6025
▁ناکەین	-6026
▁توندڕەو	-6027
▁چاوەر	-6028
▁یەوە	-6029
▁سەریان	-6030
▁بێبەش	-6031
▁قارەمان	-6032
▁لەئاستی	-6033
شمان	-6034
ەتاح	-6035
▁هاوسەرگیری	-6036
ەداو	-6037
اسیۆنی	-6038
▁پاریس	-6039
▁کارێک	-6040
▁دەڤ	-6041
▁پەشی	-6042
▁بێجگە	-6043
▁هەڕەشە	-6044
▁نازناوی	-6045
▁شیرین	-6046
▁ئەمریکاو	-6047
ەلان	-6048
ارت	-6049
dd	-6050
▁ئۆکتۆ	-6051
▁تەئکید	-6052
▁گلەیی	-6053
▁شارو	-6054
▁لەبەرژەو	-6055
▁ماوەتەوە	-6056
▁بەشداریکردنی	-6057
▁تونس	-6058
▁ژیر	-6059
▁گەیشته	-6060
▁خۆشحاڵی	-6061
▁دڵخۆش	-6062
▁کەسیان	-6063
▁سیاسەتە	-6064
▁ناکەم	-6065
▁زێباری	-6066
▁خوێندنەوە	-6067
▁بەکۆمەڵ	-6068
راب	-6069
▁56	-6070
ێتیی	-6071
▁ناسراوە	-6072
ەهێن	-6073
▁چەمچەماڵ	-6074
ەیل	-6075
ێشتی	-6076
▁تورکیاو	-6077
▁بەتایبەتیش	-6078
▁ناردنی	-6079
▁یانە	-6080
▁تەرم	-6081
▁نەشتەر	-6082
▁خاڵێکی	-6083
▁بڕیارێکی	-6084
▁نیسان	-6085
▁دەنگیان	-6086
▁هاووڵاتیانی	-6087
▁G	-6088
▁جگەل	-6089
▁بیروباوەڕ	-6090
▁قبوو	-6091
ەرێک	-6092
▁بەرزنجی	-6093
▁تاریک	-6094
▁me	-6095
▁ڕاگەه	-6096
ایەوه	-6097
▁بنەماکانی	-6098
▁O	-6099
ەوەن	-6100
▁سەرپەرشتیاری	-6101
▁57	-6102
ەبەیانی	-6103
▁تەرمی	-6104
▁ماس	-6105
▁پێر	-6106
▁ئامێری	-6107
▁بەرشەل	-6108
▁تۆمەتی	-6109
نسی	-6110
▁تایبەتدا	-6111
اسان	-6112
اندایە	-6113
am	-6114
▁چل	-6115
▁کوم	-6116
▁یی	-6117
▁نێوانی	-6118
▁ڕێکخراوێکی	-6119
ێمە	-6120
▁تاوانەکانی	-6121
▁لەوت	-6122
▁هاورد	-6123
▁مووچ	-6124
▁کیلۆم	-6125
▁لۆژی	-6126
ەفور	-6127
▁دۆر	-6128
▁یەکیەتی	-6129
▁وێنەگری	-6130
▁دەچن	-6131
▁ئەلی	-6132
▁پۆستە	-6133
ڤە	-6134
▁گرتنی	-6135
▁بەدیهێنانی	-6136
ەکردەوە	-6137
▁کۆشکی	-6138
بهێنێت	-6139
فیس	-6140
▁ئەستێر	-6141
▁خەلکی	-6142
▁لەپەرلەمانی	-6143
▁نەین	-6144
▁جۆ	-6145
▁کوردەکانی	-6146
▁سویسرا	-6147
▁بۆت	-6148
▁شەڕە	-6149
▁ڕەخنەگر	-6150
▁دانیشتوان	-6151
stan	-6152
▁لەپارێز	-6153
▁فشار	-6154
▁کامیل	-6155
▁بەرازیل	-6156
000	-6157
▁بێه	-6158
▁هەلی	-6159
بوونەو	-6160
ناڵ	-6161
ەندێک	-6162
▁لەپاڵ	-6163
▁ئاڵوگۆڕ	-6164
▁مەرجی	-6165
▁ئادەم	-6166
▁پاداشتی	-6167
▁پارێزگا	-6168
▁هەولێرو	-6169
پۆشی	-6170
▁گەڕەک	-6171
▁لێدانی	-6172
ۆنت	-6173
▁زێڕین	-6174
▁دیکەدا	-6175
پرسی	-6176
▁زاری	-6177
▁پەیڕەوی	-6178
▁وێر	-6179
▁لەدو	-6180
▁90	-6181
▁ماددە	-6182
▁ئەح	-6183
▁192	-6184
▁پەنابەرانی	-6185
بووم	-6186
پەروەر	-6187
▁ئۆسکاری	-6188
▁هید	-6189
▁ڕێکەوتی	-6190
شتووە	-6191
▁بەجی	-6192
▁کۆمەک	-6193
▁قازانج	-6194
▁سایەی	-6195
▁حەش	-6196
▁میلیشی	-6197
urdi	-6198
▁هانی	-6199
▁بینیوە	-6200
▁پێشتریش	-6201
▁ڕاگەیاندووە	-6202
▁چا	-6203
ەنه	-6204
▁پرەنسی	-6205
▁بیەوێت	-6206
گاکان	-6207
ڵە	-6208
▁بناغەی	-6209
سەری	-6210
▁بەرن	-6211
▁ێ	-6212
▁بەزۆر	-6213
▁قازانجی	-6214
▁دەکەینەوە	-6215
ایدی	-6216
▁بێژ	-6217
▁تاڵی	-6218
▁ڕەمەزان	-6219
▁نەتەوایەتی	-6220
▁بیرۆکەی	-6221
▁هەردەم	-6222
▁نابن	-6223
رۆنی	-6224
▁بەهرۆز	-6225
▁لەهەڵ	-6226
اییە	-6227
ێنت	-6228
▁خشت	-6229
▁موسا	-6230
▁دادپەروەری	-6231
▁ببێتەوە	-6232
▁لەقۆناغ	-6233
▁سەرانی	-6234
▁دەره	-6235
▁مادد	-6236
▁بهێنە	-6237
▁مانەوە	-6238
▁حاڵی	-6239
▁بکاتە	-6240
▁ولاتە	-6241
▁خیان	-6242
▁یەکڕی	-6243
▁مناڵ	-6244
▁کەمە	-6245
▁نادیار	-6246
▁توور	-6247
▁هەژاند	-6248
▁هێناو	-6249
▁کاتێکیش	-6250
اتۆری	-6251
▁لەدی	-6252
▁مۆڵەت	-6253
▁مانا	-6254
▁کەوتنە	-6255
▁ساو	-6256
▁دەستەواژ	-6257
ەکراو	-6258
▁بەپێچەوانەوە	-6259
▁بوونەوەی	-6260
▁بێدەنگی	-6261
▁دەرئەنجامی	-6262
ازم	-6263
▁لیبر	-6264
▁کرابوو	-6265
▁بمانەوێت	-6266
▁بەدەم	-6267
▁خەلیل	-6268
اندەوە	-6269
▁کۆبوونەوەیەکی	-6270
▁پرد	-6271
▁واشنتن	-6272
▁کەئەم	-6273
▁قۆناغە	-6274
ادایە	-6275
ۆمێنتی	-6276
ئیس	-6277
انەکەی	-6278
▁باج	-6279
line	-6280
▁بێگ	-6281
▁مەنس	-6282
▁st	-6283
▁بێو	-6284
▁نووسراوە	-6285
▁شۆرش	-6286
▁شانۆک	-6287
اییەکان	-6288
▁بەرمیل	-6289
▁هەڵسوڕ	-6290
▁دەمهەوێت	-6291
ێوه	-6292
▁زیادی	-6293
▁جەلەولا	-6294
▁ڕووخانی	-6295
▁لەجیاتی	-6296
▁لەناوبردنی	-6297
▁بەتەنیا	-6298
▁مەتر	-6299
لوبەر	-6300
▁کامێر	-6301
▁We	-6302
▁کەک	-6303
▁لەرۆژ	-6304
▁کچی	-6305
ردومان	-6306
▁دانراوە	-6307
▁خەیاڵی	-6308
▁وەردەگرن	-6309
▁خزم	-6310
▁پله	-6311
▁ڕوداو	-6312
▁قایمقامی	-6313
▁ڕووسی	-6314
▁لیژنەیەکی	-6315
▁دڵنیا	-6316
▁تاوانە	-6317
▁نەگەیشت	-6318
▁بەفر	-6319
رەتی	-6320
50	-6321
▁غەریب	-6322
▁ڕاستەوخۆی	-6323
▁چەندەها	-6324
▁تۆر	-6325
ادین	-6326
هەلاتی	-6327
▁وەرنە	-6328
▁ئامراز	-6329
og	-6330
زێ	-6331
▁حکومەتێکی	-6332
▁دەوروبەر	-6333
▁بەهێزکردنی	-6334
▁بەشێکە	-6335
▁سەربەر	-6336
▁توڕ	-6337
▁ڕەوان	-6338
▁نەداوە	-6339
▁لەلایەک	-6340
ێنینەوە	-6341
▁دەستپێ	-6342
ەنتی	-6343
▁بریاری	-6344
▁ترە	-6345
▁باسیان	-6346
▁خزمەتکردنی	-6347
ing	-6348
▁بووەوە	-6349
▁پێشمەرگەو	-6350
▁وج	-6351
▁حسابی	-6352
70	-6353
▁لاوازی	-6354
▁نازانن	-6355
▁زوڵم	-6356
▁پاسەوان	-6357
▁یەکەمجار	-6358
▁تام	-6359
▁حەفت	-6360
▁کادر	-6361
▁بەرگی	-6362
▁کراوەتەوە	-6363
▁چیە	-6364
▁ئەوروو	-6365
گەیاندنی	-6366
▁ڕوونیشیکردەوە	-6367
دایه	-6368
▁تاوتوێ	-6369
▁خۆپیشاندانی	-6370
ودا	-6371
▁لەڕاستیدا	-6372
تیان	-6373
▁gu	-6374
▁بوارەدا	-6375
▁بابەتێکی	-6376
پۆ	-6377
▁شتە	-6378
▁خەڵکانی	-6379
▁پێکهاتووە	-6380
▁لام	-6381
▁دەنووسن	-6382
▁بێش	-6383
▁بێئ	-6384
▁ڕێوڕ	-6385
▁لەبەشێکی	-6386
▁ئیمز	-6387
▁هەورامی	-6388
▁پاشم	-6389
▁چالاکوان	-6390
▁یاریزانان	-6391
▁ڕەج	-6392
▁شارەد	-6393
▁قەس	-6394
▁زەویدا	-6395
▁فەڕەن	-6396
▁تەقەمەنی	-6397
▁بەرنامەیەکی	-6398
▁پیشەیی	-6399
شەممەی	-6400
▁موخت	-6401
بانگ	-6402
▁دەبینرێت	-6403
▁پەرەسەند	-6404
▁لێوە	-6405
▁سیستم	-6406
ێکان	-6407
▁تێکست	-6408
▁بەڕێوەدەچێت	-6409
▁یاساکانی	-6410
بەندی	-6411
▁ڕێزلێن	-6412
کوژی	-6413
▁دەروون	-6414
▁ئیماراتی	-6415
▁لەسێدار	-6416
▁گێڕانەوەی	-6417
▁ڕەسەن	-6418
▁هەردووکیان	-6419
ەرەی	-6420
▁دامەزراندن	-6421
▁ڕادەستی	-6422
▁خۆپێش	-6423
▁خانمە	-6424
▁تەکنیکی	-6425
▁سەڵاح	-6426
▁مۆز	-6427
ەوەکانی	-6428
▁باژ	-6429
▁ستاند	-6430
▁پەرست	-6431
ییەکانیان	-6432
▁عیس	-6433
▁ماچ	-6434
▁دەروازەی	-6435
▁ئامۆژگاری	-6436
▁بەفەر	-6437
▁لێدان	-6438
▁مەیدان	-6439
ەید	-6440
ومی	-6441
▁هاوسەری	-6442
▁کچه	-6443
▁have	-6444
داوه	-6445
▁هاوکارمان	-6446
دەخات	-6447
▁چۆمان	-6448
خستنەوەی	-6449
کۆم	-6450
▁نایابی	-6451
▁عارف	-6452
ادەیەک	-6453
▁ئەتۆمی	-6454
urdistan	-6455
ەدەن	-6456
لەو	-6457
▁فکری	-6458
▁مەریوان	-6459
▁ترسن	-6460
▁قوتابیانی	-6461
▁ئازادکردنی	-6462
▁بەرزکردنەوەی	-6463
ۆکه	-6464
▁نوێت	-6465
▁کێشەکە	-6466
▁کورددا	-6467
▁ڕۆژەی	-6468
▁بەکوردی	-6469
▁نامێنێت	-6470
▁نێوانیان	-6471
▁فیلمە	-6472
▁سیناریۆی	-6473
▁ماون	-6474
▁گەردوونی	-6475
ەزم	-6476
▁تۆی	-6477
ێنراو	-6478
▁دەمی	-6479
فراند	-6480
▁شێوەکاری	-6481
▁ڕەئ	-6482
مانەوە	-6483
▁بێکاری	-6484
▁دراوسێ	-6485
▁مارکسی	-6486
▁خۆڵەم	-6487
▁هاتۆتە	-6488
▁موز	-6489
▁سیر	-6490
▁ئەرشی	-6491
▁وڵاتەدا	-6492
▁ڕۆژنامەوان	-6493
if	-6494
▁دیالە	-6495
▁مەسەلەیە	-6496
▁هاوولاتیان	-6497
کەت	-6498
اتا	-6499
ۆلۆجی	-6500
▁خۆشیان	-6501
▁دەرکەوتنی	-6502
لیۆن	-6503
▁خێرایی	-6504
▁یێن	-6505
▁هۆکارێکی	-6506
▁دەربڕین	-6507
▁هەندێکی	-6508
▁پەسند	-6509
▁نایاب	-6510
▁ڕەفتار	-6511
کورد	-6512
ەڵەم	-6513
مارک	-6514
▁دید	-6515
▁ماڵێکی	-6516
ard	-6517
▁دەرد	-6518
▁جەر	-6519
▁نەوەک	-6520
خانەکانی	-6521
▁ئەمنییەکان	-6522
▁نەهێن	-6523
▁فاکتەر	-6524
▁فەتاح	-6525
▁پڕۆژەیە	-6526
▁بەتاڵ	-6527
id	-6528
ڤیل	-6529
▁پوور	-6530
▁online	-6531
▁شاعیری	-6532
▁ماڵەوە	-6533
دەکەوێت	-6534
▁ناتۆ	-6535
▁ئۆجالان	-6536
ەکەیەتی	-6537
کل	-6538
▁شور	-6539
بکاتەوە	-6540
▁کڕینی	-6541
▁سزاد	-6542
▁زلهێز	-6543
▁عێراقە	-6544
▁هۆکارەکانی	-6545
▁بەوەشدا	-6546
▁تف	-6547
▁m	-6548
▁گوزارشت	-6549
▁لەپشت	-6550
انەوه	-6551
▁بۆردومان	-6552
کەش	-6553
▁الل	-6554
▁سڵ	-6555
ەختە	-6556
▁شارد	-6557
▁بەرهەڵ	-6558
ra	-6559
▁ئەستۆ	-6560
▁پسپۆر	-6561
▁سەرز	-6562
▁دەستبەرداری	-6563
گات	-6564
ests	-6565
▁سیاسیدا	-6566
▁جودا	-6567
▁خۆرهەڵاتی	-6568
▁پەسەندکردنی	-6569
رک	-6570
▁موج	-6571
▁ماسی	-6572
اندنەوە	-6573
▁خاوەنەکانیانە	-6574
▁وردی	-6575
▁پەرە	-6576
▁دروشم	-6577
▁دەگەر	-6578
▁ڕاپۆرتێکی	-6579
بری	-6580
▁تەها	-6581
▁کەئەو	-6582
▁پشکنینی	-6583
▁لێکۆڵینەوه	-6584
▁ئوس	-6585
▁فرۆش	-6586
▁ئوت	-6587
▁بانگهێشت	-6588
▁کرم	-6589
▁ئەگینا	-6590
▁لەمانگی	-6591
▁بمێنێتەوە	-6592
▁guests	-6593
▁تێبینییەک	-6594
زۆ	-6595
▁بوارە	-6596
▁نزیکدا	-6597
▁892	-6598
▁هەردی	-6599
▁شارەزایی	-6600
ژە	-6601
▁چێژ	-6602
تەمبەر	-6603
▁پیشان	-6604
▁تۆش	-6605
▁ژووری	-6606
ەکراوە	-6607
▁کوشن	-6608
▁بەشدارییان	-6609
▁150	-6610
▁هەرس	-6611
▁الح	-6612
▁زەنگ	-6613
▁کەیسی	-6614
▁>	-6615
lan	-6616
▁حەمید	-6617
▁شیعەکان	-6618
▁پو	-6619
▁ڕێگه	-6620
▁گوتیان	-6621
ارییەکان	-6622
▁دەربەندی	-6623
▁پەیوەندییەکان	-6624
▁لەزان	-6625
▁ڕیس	-6626
ینەکانی	-6627
▁کردۆتە	-6628
▁هونەریی	-6629
▁سیف	-6630
▁ڕێباز	-6631
▁ئاماژەشی	-6632
▁هێرشەکانی	-6633
▁مسۆ	-6634
▁لێدوانی	-6635
▁لەسەرجەم	-6636
▁کامەران	-6637
▁هەڵوەشاندنەوەی	-6638
▁ڕاستییە	-6639
▁59	-6640
ینگ	-6641
الە	-6642
▁ژەه	-6643
▁بانگه	-6644
▁بەدڵنی	-6645
اکار	-6646
▁شێوازێکی	-6647
▁کۆمۆنیستی	-6648
▁لەئەنجامی	-6649
▁درێژایی	-6650
حیم	-6651
▁پەرلەمانتاران	-6652
▁نەجمەددین	-6653
▁جاد	-6654
▁بوونەوە	-6655
▁بەرجەستە	-6656
▁دەستپێکی	-6657
▁لەوەدایە	-6658
▁دەوڵەتانی	-6659
▁تاڕ	-6660
▁دەخات	-6661
▁کارتی	-6662
▁شکاو	-6663
▁ئەوروپی	-6664
▁ناودار	-6665
▁کڕی	-6666
▁شەرەف	-6667
▁ناساندنی	-6668
▁ڕەنج	-6669
▁سەرمایە	-6670
▁شوێنەو	-6671
▁لەداهات	-6672
▁پێداچوون	-6673
▁ناسیون	-6674
▁دەستپێکردنی	-6675
▁کوێر	-6676
▁عەدنان	-6677
▁ڕاپرسی	-6678
ریب	-6679
▁ڤیت	-6680
▁گەورەکان	-6681
▁کردنەوە	-6682
▁نەهامەتی	-6683
▁ڕاپەڕینی	-6684
▁تۆک	-6685
▁دەبوایە	-6686
ەخۆش	-6687
▁خەلی	-6688
▁یەمەن	-6689
▁فەرهاد	-6690
▁ڕانیە	-6691
▁لەئاست	-6692
▁یەکسەر	-6693
▁پاڵەوانیەتی	-6694
▁دانیشتووی	-6695
ext	-6696
▁لێکۆڵینەو	-6697
▁هەلو	-6698
کاتەوە	-6699
▁لەبەرئەوە	-6700
▁ئەوکاتە	-6701
بل	-6702
▁لەشی	-6703
▁قسەکانیدا	-6704
اشان	-6705
▁بینای	-6706
▁پێشکەشکردنی	-6707
▁چاودێر	-6708
▁هۆل	-6709
▁قەومی	-6710
▁بەتەنها	-6711
▁دەرچوون	-6712
ێته	-6713
ئێستاش	-6714
▁تاریق	-6715
▁سەرۆکوەز	-6716
ەمەز	-6717
▁ئوستر	-6718
▁ئەنوەر	-6719
▁شەیتان	-6720
▁تورکیادا	-6721
یدە	-6722
ەخۆ	-6723
گرێ	-6724
▁وانەی	-6725
ۆرتی	-6726
▁دەدەم	-6727
▁آ	-6728
▁مۆندی	-6729
▁پێشنیار	-6730
▁تەز	-6731
▁پرۆگرام	-6732
▁نایاسایی	-6733
▁میللەتی	-6734
▁ڕێبوار	-6735
شەو	-6736
▁ببات	-6737
▁پشکی	-6738
▁غاز	-6739
▁دۆخە	-6740
▁پاکی	-6741
▁ناچێت	-6742
▁لەدەستدا	-6743
▁چاکسازیی	-6744
بڕین	-6745
▁برۆ	-6746
▁بەچەند	-6747
▁جلوبەر	-6748
▁ڕووداوێکی	-6749
▁ئەخلاقی	-6750
چووە	-6751
▁سەلی	-6752
▁ڕیاڵ	-6753
▁نەتەوەکانی	-6754
انەکان	-6755
▁تاقیکردنەوەی	-6756
ەلای	-6757
▁شتەکان	-6758
▁گەشتو	-6759
▁بگەیەن	-6760
▁عەبدولم	-6761
▁وەڵامێک	-6762
▁ئەکرد	-6763
▁پەرلەمانتاری	-6764
▁دەنگدانی	-6765
▁دووری	-6766
▁نامەی	-6767
▁بریتیە	-6768
▁بەوەشکرد	-6769
▁هەژمار	-6770
▁ڕاهێنەر	-6771
▁زمانە	-6772
▁ڕیزەکانی	-6773
▁یاریگەی	-6774
▁تۆمارکرد	-6775
▁دەنگد	-6776
▁بۆند	-6777
وپاگ	-6778
▁نامۆ	-6779
پیوت	-6780
▁193	-6781
▁نزم	-6782
▁مەرک	-6783
ەکانیانەوە	-6784
▁بەدواداچوون	-6785
ill	-6786
▁جارە	-6787
▁درێژخ	-6788
▁وەلام	-6789
دەکەم	-6790
دەدرێت	-6791
▁ئەبوب	-6792
▁ئان	-6793
ناسی	-6794
ێکخ	-6795
▁بریار	-6796
▁ویلایەتی	-6797
▁یاسین	-6798
ەڵکی	-6799
▁دەتوانم	-6800
▁دەربڕینی	-6801
▁ئۆکرانی	-6802
▁هەوڵێکی	-6803
▁کوردییەکان	-6804
ەناو	-6805
▁ئاگای	-6806
▁باوکم	-6807
▁سۆم	-6808
زیی	-6809
لیمی	-6810
ەکردنەوەی	-6811
▁ناوچەیی	-6812
▁پێکهاتە	-6813
نیا	-6814
▁کوژراو	-6815
▁هەڵسوکەوت	-6816
وڵمان	-6817
▁بریتانی	-6818
▁جیاجیاکانی	-6819
وڵێت	-6820
▁دڵت	-6821
▁جیاب	-6822
▁دوورە	-6823
▁سێکسی	-6824
▁لەوەدا	-6825
▁کۆتاییدا	-6826
▁شوو	-6827
▁لەکۆنگر	-6828
▁گەشە	-6829
▁کتێبە	-6830
▁نیشتەجێبوون	-6831
▁ئاری	-6832
▁لەشار	-6833
▁دەنگەکانی	-6834
▁کەسەر	-6835
▁ستراتیژیی	-6836
▁نوێدا	-6837
▁چەندان	-6838
بەه	-6839
▁کۆنترۆڵی	-6840
ەتیڤ	-6841
▁سەق	-6842
▁جوتی	-6843
بدەن	-6844
پێو	-6845
▁خەسڵ	-6846
▁تێکشک	-6847
▁خوێندکاری	-6848
▁لەعیراقدا	-6849
▁ئاماری	-6850
یتە	-6851
▁بەنیاز	-6852
▁جاش	-6853
▁ئاوار	-6854
▁دهۆکێ	-6855
▁یەکان	-6856
▁تراژ	-6857
▁وادەی	-6858
▁سەردەمە	-6859
▁ناوچەکه	-6860
▁ئازی	-6861
بێژی	-6862
▁قبووڵ	-6863
شێوەیە	-6864
زو	-6865
▁سایک	-6866
▁خۆیانەوە	-6867
▁هەڵدەب	-6868
▁گەیشتووەتە	-6869
ro	-6870
▁نائوم	-6871
▁فەرەنس	-6872
▁کەوتوون	-6873
▁ڕاستگ	-6874
▁ڕۆژنامەنووسانی	-6875
گرنگ	-6876
▁بەندە	-6877
▁دیر	-6878
▁ئۆر	-6879
▁کەلە	-6880
▁ببینن	-6881
▁ئەسڵانی	-6882
▁بڕوات	-6883
▁نوێیە	-6884
▁خستن	-6885
▁تەف	-6886
ۆتەوەو	-6887
▁خوڵق	-6888
▁نیوز	-6889
▁کوردستانییەکان	-6890
لاوی	-6891
▁ڕەخس	-6892
▁بالای	-6893
▁نوسینی	-6894
▁بەئاش	-6895
▁دووشەممە	-6896
الێ	-6897
▁یەکێ	-6898
▁جەبار	-6899
▁پێویستمان	-6900
▁نیشانی	-6901
▁ڕوودەدات	-6902
▁بەئاسانی	-6903
روژ	-6904
ەبن	-6905
▁key	-6906
▁مری	-6907
▁براوەی	-6908
ۆدی	-6909
▁دایکم	-6910
▁94	-6911
▁پاڵاو	-6912
ێژەی	-6913
▁خەلک	-6914
▁دابمەز	-6915
یران	-6916
کارە	-6917
▁دەنێت	-6918
▁بەدواداچوونی	-6919
ۆب	-6920
دایەو	-6921
▁سەرخستنی	-6922
▁کۆمیسیۆن	-6923
▁بگەڕێتەوە	-6924
جاری	-6925
وڕی	-6926
▁خەرجی	-6927
▁هەبوون	-6928
▁ڕێکخراوەکان	-6929
▁هۆکارێک	-6930
▁ئیح	-6931
▁ڕوخس	-6932
▁دروستکرد	-6933
▁دادپەروەر	-6934
▁بەلا	-6935
ەکانیشی	-6936
▁بڵێی	-6937
▁پرۆسەیەکی	-6938
▁بڕە	-6939
▁موت	-6940
▁ئەیاد	-6941
▁ث	-6942
▁دەستپێکرد	-6943
▁کارەکانیان	-6944
▁نەمانی	-6945
▁ئەرکێکی	-6946
وودی	-6947
▁کفری	-6948
▁نیشتیمان	-6949
کرنا	-6950
▁ناشیرین	-6951
▁نەیتوانیوە	-6952
end	-6953
عەلی	-6954
▁باشور	-6955
ەکردووە	-6956
▁جیاوازەکانی	-6957
گیردرێت	-6958
▁بەرواری	-6959
▁ئەمڕۆش	-6960
▁سەرلەن	-6961
▁فشاری	-6962
▁چاویان	-6963
▁سەرەکییەکانی	-6964
لاو	-6965
▁نز	-6966
▁یاسایەک	-6967
▁وەب	-6968
▁نێودەوڵەتیی	-6969
▁زۆریش	-6970
▁فلم	-6971
▁مردوو	-6972
گوێ	-6973
گەکان	-6974
▁لەوەز	-6975
▁ڕێبەری	-6976
دیق	-6977
▁حەزی	-6978
ەکیم	-6979
un	-6980
استەو	-6981
▁جڤ	-6982
ەدەس	-6983
▁موچ	-6984
▁تەیب	-6985
▁دەوە	-6986
▁سەپاندنی	-6987
▁هەڵبژاردنە	-6988
▁عێراقییە	-6989
گەیی	-6990
▁بهێن	-6991
▁ستایشی	-6992
▁بانگهێشتی	-6993
▁قسەو	-6994
▁کوتلەی	-6995
▁موبارەک	-6996
▁ئو	-6997
▁کەمترین	-6998
ابوونی	-6999
▁ئایدۆلۆژی	-7000
!!	-7001
▁ناوەڕۆکی	-7002
▁بۆرژوازی	-7003
سوڵ	-7004
▁گێر	-7005
▁نەناسراو	-7006
▁دەفەرموێت	-7007
▁یانه	-7008
▁مانچستەر	-7009
▁کۆیل	-7010
ارەیەکی	-7011
▁شین	-7012
ass	-7013
▁ئێوەش	-7014
▁دەرچوونی	-7015
▁سەردار	-7016
▁هەریەکە	-7017
ۆلیۆ	-7018
ێکدایە	-7019
▁قەناع	-7020
▁لەئار	-7021
▁نووسەرانی	-7022
▁ئەرکە	-7023
▁لایەنگری	-7024
▁تاکەک	-7025
▁le	-7026
▁مەزهەبی	-7027
▁ئەمانەش	-7028
رۆی	-7029
▁شەڕو	-7030
▁کردنە	-7031
▁پشکنین	-7032
▁ڕێن	-7033
▁نووری	-7034
ەمینی	-7035
▁گەشەکردنی	-7036
▁نەمر	-7037
▁ڕێژەیەکی	-7038
▁mail	-7039
▁هێناوه	-7040
رام	-7041
ەلایەن	-7042
▁لەرووی	-7043
▁ڕەنگدانەوەی	-7044
فان	-7045
▁شەرمەز	-7046
هم	-7047
▁تێدە	-7048
▁قەرەدا	-7049
پڕ	-7050
ازدە	-7051
▁لێم	-7052
گۆڕی	-7053
▁درێژی	-7054
▁دەگات	-7055
▁بەستنی	-7056
دێت	-7057
▁زام	-7058
▁سەرکردایەتیی	-7059
ame	-7060
بول	-7061
▁ئەخلاق	-7062
▁فراوانی	-7063
▁هاوچەرخ	-7064
▁بەرامبەری	-7065
▁چالاکییەکانی	-7066
ەدوای	-7067
▁دەرناک	-7068
▁ڕێزگرتن	-7069
عەب	-7070
▁بشک	-7071
▁دەدو	-7072
▁چوونی	-7073
بلۆم	-7074
▁دیوار	-7075
ارێکدا	-7076
▁دەپرس	-7077
▁ڕووبەرووی	-7078
ۆلۆژ	-7079
▁جێهێشت	-7080
▁حەڤ	-7081
▁بنکە	-7082
▁بەرگ	-7083
▁لەمی	-7084
▁کلیپ	-7085
▁ئاڕاست	-7086
▁خۆڵەمێش	-7087
▁ناخی	-7088
▁موختار	-7089
▁ڕاپەر	-7090
▁ئاوڕ	-7091
▁بەخوا	-7092
▁مانگێک	-7093
▁ساغ	-7094
دەبێتەوە	-7095
▁بەزمانی	-7096
اسە	-7097
ەکرا	-7098
▁خۆشگوز	-7099
▁کەنەدا	-7100
ێکت	-7101
▁هین	-7102
▁هەژم	-7103
کەریم	-7104
بڵ	-7105
▁گۆلی	-7106
▁موڵکی	-7107
ەخسی	-7108
▁کردم	-7109
▁ڕۆشنبیران	-7110
▁حەرام	-7111
▁گڵ	-7112
▁الس	-7113
▁لەتورکی	-7114
▁خۆشە	-7115
▁لەهاو	-7116
▁بڕۆ	-7117
▁ڕادەیەک	-7118
کردو	-7119
▁مسۆگەر	-7120
▁وچ	-7121
▁کۆمپانیاکانی	-7122
یشەوە	-7123
▁ئینتەرنێت	-7124
▁درک	-7125
▁دەستدا	-7126
▁ڕووەوە	-7127
کراوەکان	-7128
▁پێچەوانەوە	-7129
باز	-7130
▁باکور	-7131
▁لەماڵ	-7132
▁بوونیان	-7133
▁لەسەرە	-7134
▁لەبەرامبەردا	-7135
▁ترو	-7136
▁ئەلق	-7137
▁عەشیر	-7138
▁پانتایی	-7139
▁ڕۆژێکی	-7140
▁دووباره	-7141
▁تیرۆرکردنی	-7142
▁کاربەدەستانی	-7143
بکەنەوە	-7144
▁ماوەکەی	-7145
▁پت	-7146
ەح	-7147
▁یوت	-7148
▁پاڵت	-7149
▁کیمیایی	-7150
▁دەیەوێ	-7151
▁زێ	-7152
▁دەبێ	-7153
▁اب	-7154
لامی	-7155
▁دۆن	-7156
موج	-7157
▁وخ	-7158
▁بەرجەست	-7159
▁دیج	-7160
▁هاور	-7161
▁تەنیایی	-7162
فا	-7163
▁بەسی	-7164
▁کوێت	-7165
▁ڕاهێنان	-7166
شترین	-7167
▁مێشک	-7168
انسەری	-7169
▁ئەمجارە	-7170
▁چەسپاندنی	-7171
▁سیاسیە	-7172
▁پێشهات	-7173
▁تۆق	-7174
▁دیناری	-7175
▁لەلێدوانێکی	-7176
▁مەغ	-7177
▁..	-7178
ەریان	-7179
▁بەڕی	-7180
▁کەناڵەکانی	-7181
ڤا	-7182
▁تەڕ	-7183
▁لەتەک	-7184
▁ئاسیایی	-7185
anc	-7186
▁مح	-7187
▁پۆز	-7188
▁نەبین	-7189
▁دڵنیام	-7190
▁هەرێمدا	-7191
▁قەوم	-7192
▁بنیات	-7193
▁ئاسایییە	-7194
▁قەند	-7195
▁پەیمانی	-7196
▁بکرێتە	-7197
▁ئامانجە	-7198
▁بەرێوەچوو	-7199
▁جارێ	-7200
▁سەگ	-7201
▁دیاله	-7202
▁چوارد	-7203
▁ئاشنا	-7204
▁قەیرانە	-7205
▁نەزان	-7206
▁پڕوپاگ	-7207
▁ساڵان	-7208
▁دەستخۆشی	-7209
▁غەم	-7210
▁خۆراکی	-7211
▁ئەوێ	-7212
▁حەیدەر	-7213
▁سۆڤی	-7214
▁ڕەچاو	-7215
▁بەکاردەه	-7216
▁وایان	-7217
▁کارەی	-7218
ایا	-7219
▁ئەمینداری	-7220
ەکانى	-7221
▁بردنی	-7222
▁ئارەزوو	-7223
▁ئێواره	-7224
▁سەرپێچی	-7225
▁پێکدادان	-7226
▁شایەنی	-7227
ڕو	-7228
▁تیژی	-7229
▁هاوپەیمانێتی	-7230
▁شیری	-7231
ەیەکیان	-7232
ووکی	-7233
تیک	-7234
▁پاراستن	-7235
▁ڕووناکی	-7236
اە	-7237
▁ڕوبەڕ	-7238
▁بەرپرسیاری	-7239
خۆف	-7240
▁حیک	-7241
▁تایبەتمەندی	-7242
▁لەوه	-7243
▁بگرین	-7244
▁فەری	-7245
▁پێست	-7246
▁بنیاتنانی	-7247
ێژن	-7248
بکر	-7249
▁زات	-7250
▁شەفاف	-7251
▁ڕست	-7252
▁دەرچووە	-7253
▁400	-7254
▁گوش	-7255
▁شتانەی	-7256
▁مەهدی	-7257
▁ئۆتۆمبێلەکانی	-7258
▁ئاشن	-7259
▁کانوونی	-7260
▁دێنە	-7261
▁پێشواز	-7262
urn	-7263
▁زەمەن	-7264
▁زاگ	-7265
▁بخەنە	-7266
▁لۆک	-7267
▁ساخت	-7268
▁کۆمەڵگادا	-7269
ڕێ	-7270
ڕوو	-7271
ۆنیۆ	-7272
▁فیش	-7273
▁ڕۆیشت	-7274
▁ئیمتی	-7275
▁جەستە	-7276
▁یانەکەی	-7277
▁دەیانەوێ	-7278
▁پاسەوانی	-7279
▁کۆپ	-7280
▁دەمانەوێت	-7281
▁گوندەکانی	-7282
one	-7283
▁هیچیان	-7284
▁کۆمپیوت	-7285
▁خەز	-7286
▁نۆڤ	-7287
▁بینەر	-7288
▁بەرهەمە	-7289
▁ئاوارەکان	-7290
▁not	-7291
▁لەئەنجومەنی	-7292
یلە	-7293
▁مەسەلە	-7294
▁کۆبونەو	-7295
سازی	-7296
▁بگات	-7297
ەجی	-7298
▁ڕێس	-7299
▁پێیانوایە	-7300
▁بەناوبانگ	-7301
▁مۆس	-7302
▁جەژن	-7303
▁محەممەد	-7304
ارێ	-7305
▁کیلۆمەتر	-7306
▁v	-7307
▁خراو	-7308
▁وەرگیراوە	-7309
ایتد	-7310
▁باسه	-7311
▁ئەبوبەکر	-7312
▁ڤیدی	-7313
▁درەخت	-7314
▁شەنگال	-7315
زۆر	-7316
▁زۆرن	-7317
▁ئەدات	-7318
▁ڕابەر	-7319
▁عاشق	-7320
▁فەراه	-7321
▁لابردنی	-7322
▁دەستکاری	-7323
▁کەنداو	-7324
▁مەف	-7325
▁بدەم	-7326
تەرز	-7327
ەکاو	-7328
▁ببنەوە	-7329
▁تەشهیر	-7330
ct	-7331
▁ئەمەیش	-7332
چێ	-7333
الەت	-7334
▁پاساو	-7335
▁وڵاتێک	-7336
▁لەناوچەی	-7337
▁نوێترین	-7338
ێشی	-7339
▁دانیشتووانی	-7340
▁بخرێتە	-7341
یەوه	-7342
▁ئەفریق	-7343
▁سبەین	-7344
موکر	-7345
▁دۆستی	-7346
▁کوژرانی	-7347
▁پێشی	-7348
▁بازنەی	-7349
ێڵی	-7350
▁لەوێش	-7351
▁زانایانی	-7352
arg	-7353
▁لو	-7354
▁نەق	-7355
▁نوسینگەی	-7356
▁پشتیوان	-7357
▁بەهاوکاری	-7358
▁دەنگەکان	-7359
▁ڕزگارکردنی	-7360
▁تایبەتە	-7361
▁مەحموود	-7362
▁هزر	-7363
▁بەرێوەبەرایەتی	-7364
▁پەنجا	-7365
▁ژەن	-7366
گرانی	-7367
▁داوەو	-7368
ندی	-7369
▁نادەن	-7370
▁شارۆچک	-7371
▁هاتوچۆی	-7372
ۆخ	-7373
▁پاشا	-7374
▁خراپە	-7375
▁بش	-7376
▁گەو	-7377
▁گوتاری	-7378
▁یاسایەکی	-7379
▁بەرفراوان	-7380
▁بەرو	-7381
▁پەروەردەو	-7382
▁دڵم	-7383
ۆنیا	-7384
▁نیع	-7385
▁ناوبژیوانی	-7386
ۆسایدی	-7387
▁خۆیی	-7388
▁جیاکردنەوەی	-7389
▁فۆڕ	-7390
▁ئەوق	-7391
▁ئاڵۆزی	-7392
▁ژاپۆن	-7393
▁ئیمەیل	-7394
▁ئۆپەر	-7395
▁ڕێکخەری	-7396
▁دەردەب	-7397
▁لینکەی	-7398
▁تەندروست	-7399
bu	-7400
▁شاک	-7401
وانە	-7402
▁ئەلف	-7403
▁سامانە	-7404
▁فۆرم	-7405
ەوم	-7406
▁منداڵە	-7407
▁جاف	-7408
▁will	-7409
▁پێکهێن	-7410
▁بداتەوە	-7411
▁نەدەکرد	-7412
گەرایی	-7413
▁comments	-7414
▁هێرشیان	-7415
▁75	-7416
omments	-7417
▁دیموکراس	-7418
▁دوژمنی	-7419
▁شارەزا	-7420
hot	-7421
▁ڕووت	-7422
▁پێشبڕکێی	-7423
▁قائ	-7424
▁چیخۆف	-7425
▁سەرلەنوێ	-7426
▁لەپەرلەمان	-7427
▁ولا	-7428
▁هەڵۆ	-7429
▁بوونه	-7430
▁کەلتووری	-7431
▁شەشەم	-7432
▁تۆڕ	-7433
▁بەڕای	-7434
▁کەلتوری	-7435
▁ناوچەکەو	-7436
▁هەفتە	-7437
▁نەریت	-7438
▁وزە	-7439
▁ڕیفراند	-7440
pl	-7441
▁یەکێتیدا	-7442
▁جەوهەر	-7443
▁عوم	-7444
▁دەستەڵات	-7445
▁لێبوو	-7446
▁دەرونی	-7447
▁شێوەیه	-7448
▁خوێندکارانی	-7449
اردی	-7450
▁فایله	-7451
رەز	-7452
▁جۆراوج	-7453
▁بەدەستەوە	-7454
هێنن	-7455
▁ئەرس	-7456
▁وڵاتان	-7457
▁ژیاندا	-7458
ێتم	-7459
▁لەقەڵەم	-7460
▁بڕوایان	-7461
بکرێتەوە	-7462
▁چاودێریی	-7463
▁لەژ	-7464
▁ناوەڕاستە	-7465
▁سالا	-7466
▁ئەوەند	-7467
▁یەکەمدا	-7468
▁خۆیەوه	-7469
▁ئاوەدانی	-7470
اردا	-7471
▁ئیسلامیەکان	-7472
ییەو	-7473
▁هاتوە	-7474
▁کۆسرەت	-7475
▁مایەوە	-7476
▁ئافرەتانی	-7477
▁191	-7478
اهەنگ	-7479
▁العر	-7480
▁دابێت	-7481
▁فڕۆکە	-7482
▁دەستدرێژی	-7483
ساڵی	-7484
▁برایم	-7485
▁ڕێگر	-7486
▁توورەج	-7487
▁خستۆتە	-7488
▁دیداری	-7489
▁شنگ	-7490
▁فەلەستینی	-7491
▁ڕوونکردەوە	-7492
▁بەڕێوەبەرایەتیی	-7493
مال	-7494
نەب	-7495
ەوای	-7496
▁سار	-7497
▁هیل	-7498
▁بەمەر	-7499
▁خر	-7500
▁پیاد	-7501
▁دڵسۆزی	-7502
▁وێستگەی	-7503
▁پلاندان	-7504
▁کۆنسێرت	-7505
ێڕاق	-7506
▁دات	-7507
▁سێدار	-7508
▁بەدەستهێنا	-7509
▁قەتەر	-7510
▁بگیرێت	-7511
▁عیش	-7512
▁بژین	-7513
▁تێدەپەڕ	-7514
▁گەشتیاری	-7515
عەت	-7516
▁تۆمارکرا	-7517
bo	-7518
▁تاس	-7519
▁بکردایە	-7520
اڵح	-7521
▁یاساکە	-7522
▁باه	-7523
▁ڤان	-7524
▁Share	-7525
▁کۆمەڵایەتیی	-7526
ەچ	-7527
▁Add	-7528
▁هەرکات	-7529
▁مایک	-7530
▁دەرکەوتووە	-7531
▁ڕۆژنامەگەری	-7532
سەد	-7533
اراست	-7534
▁دەج	-7535
ەوتنی	-7536
کترۆنی	-7537
▁ئیمزا	-7538
▁یوتوب	-7539
▁نەینەوا	-7540
یا	-7541
▁ماڵئاو	-7542
▁ئینس	-7543
▁ماوەیەدا	-7544
▁ئەنجامداوە	-7545
اباد	-7546
ویی	-7547
▁بۆتان	-7548
▁بلی	-7549
▁بکەی	-7550
▁تەلەفزیۆن	-7551
▁پرێس	-7552
▁چەکدارەکانی	-7553
▁سەرسوڕ	-7554
▁بەغدای	-7555
▁مێز	-7556
▁سڵاو	-7557
▁میز	-7558
▁عەقڵی	-7559
▁سەنگەر	-7560
▁گەیشتنی	-7561
▁نەرویج	-7562
▁بەرهەمه	-7563
▁دامەزرێن	-7564
▁جاریش	-7565
▁وەفدێکی	-7566
▁هەرچەنده	-7567
▁کەسەو	-7568
▁خانەنشین	-7569
▁ط	-7570
▁مش	-7571
▁پێیە	-7572
▁دەکێش	-7573
▁وتیان	-7574
▁شارەدێی	-7575
رێنە	-7576
▁لاتی	-7577
▁وایکردووە	-7578
▁پال	-7579
▁ئەرم	-7580
وند	-7581
▁پەیوەندیدار	-7582
▁ئامانجەکانی	-7583
▁کۆسپ	-7584
▁هەڵپ	-7585
▁بیانووی	-7586
▁پەروەردەیی	-7587
▁ڕێککەوتننامەی	-7588
▁Name	-7589
▁ڕۆژەدا	-7590
بات	-7591
▁بەتەواو	-7592
▁لەهەرێم	-7593
▁پەیوەندیدارەکان	-7594
▁عەدا	-7595
▁بەردی	-7596
▁مەڵبەند	-7597
▁ڕێوشوێنی	-7598
گم	-7599
▁عیر	-7600
▁and	-7601
بهێنن	-7602
▁تاریکی	-7603
▁ناخۆشی	-7604
▁جیاوازیی	-7605
▁فرۆک	-7606
▁چارەی	-7607
▁بچنە	-7608
هاتووە	-7609
▁شا	-7610
▁ئەوەیش	-7611
▁ساڵانەی	-7612
▁پێشخستنی	-7613
▁یونس	-7614
▁هەڵسەنگاندنی	-7615
▁وەی	-7616
▁سەرگەر	-7617
▁چوارشەممە	-7618
ومار	-7619
▁میلان	-7620
ag	-7621
▁دەنا	-7622
▁تێگەیشتنی	-7623
yle	-7624
ەکەیت	-7625
▁ئاماژەیدا	-7626
▁شانی	-7627
▁یۆرۆ	-7628
▁لەسەرت	-7629
▁سیستەمە	-7630
ارییەکانی	-7631
▁ئۆکتۆبەر	-7632
▁مه	-7633
▁دەشنی	-7634
▁مۆبایل	-7635
▁نائاسایی	-7636
hotmail	-7637
▁لەباز	-7638
▁دەسەڵاتێکی	-7639
▁cl	-7640
خۆشبوو	-7641
▁عیم	-7642
▁مارس	-7643
▁ڕەجەب	-7644
▁هاتووه	-7645
▁هادی	-7646
▁پێشنیاری	-7647
▁جوم	-7648
▁باژێڕ	-7649
جاریش	-7650
▁جۆرج	-7651
▁خەند	-7652
▁کاره	-7653
▁پێشەنگی	-7654
▁دەبەخشێت	-7655
▁گەشەسەند	-7656
▁#	-7657
ورم	-7658
▁سودان	-7659
▁کوردیان	-7660
پێی	-7661
ینه	-7662
▁زانیارییەکانی	-7663
▁قێز	-7664
▁ئەمەریکای	-7665
▁هەڵبژێردراوانی	-7666
▁گەری	-7667
▁شەخسی	-7668
▁حەقیقەت	-7669
ومانی	-7670
▁گازی	-7671
▁بوەست	-7672
▁ڕژێمە	-7673
▁تاکەکانی	-7674
▁the	-7675
▁گاڵت	-7676
▁ئایندە	-7677
▁پێناسەی	-7678
▁سعودیە	-7679
▁بردنەوەی	-7680
▁ژمارەیان	-7681
▁دیاردەیەکی	-7682
▁ناوز	-7683
▁پیاوێک	-7684
▁فەلەستین	-7685
لێکراو	-7686
▁شەرعی	-7687
اوەیەکی	-7688
▁دەربەندیخان	-7689
▁تەماوی	-7690
ەبێژ	-7691
▁لاف	-7692
▁لێکرا	-7693
ووش	-7694
▁بەڕێک	-7695
▁ڕادەی	-7696
▁بوایە	-7697
▁هەڵگیر	-7698
اییدا	-7699
▁کوژرا	-7700
▁لەوێدا	-7701
▁تەلەفۆنی	-7702
▁تۆز	-7703
▁زیانێکی	-7704
▁جوول	-7705
▁مادی	-7706
▁هەڵمەتێکی	-7707
▁شۆڤێنی	-7708
▁ڕەهەند	-7709
بای	-7710
▁ماک	-7711
▁فیستیڤاڵه	-7712
گەیشتن	-7713
▁ولاتی	-7714
▁دەگۆڕێت	-7715
ێنراوە	-7716
▁وەزار	-7717
▁dec	-7718
▁بڕیاریدا	-7719
▁نەچێت	-7720
نداڵ	-7721
▁عەبادی	-7722
▁نیشاندا	-7723
▁ڕەئوف	-7724
▁دیسانەوە	-7725
بد	-7726
▁پێناسە	-7727
▁بوم	-7728
▁ڕەوا	-7729
▁نەکردنی	-7730
▁مووچە	-7731
▁یاریزانە	-7732
▁دۆس	-7733
▁خسته	-7734
▁لاش	-7735
نامەیەکی	-7736
▁نووسەران	-7737
لەم	-7738
▁style	-7739
▁هۆشداری	-7740
نووسی	-7741
ونجێت	-7742
▁جموج	-7743
▁سابیر	-7744
▁وڵاتدا	-7745
▁کۆلێژی	-7746
▁بەربەست	-7747
ارێتی	-7748
الیست	-7749
▁class	-7750
▁بەخۆیەوە	-7751
ورە	-7752
▁خەریک	-7753
▁زەمان	-7754
▁ئافرەتی	-7755
▁تێگەیشت	-7756
▁ئەمساڵدا	-7757
▁شەست	-7758
▁داخستنی	-7759
▁یاریدەدەری	-7760
یزی	-7761
بەخش	-7762
▁text	-7763
▁شیاو	-7764
▁وریا	-7765
▁ڕووبار	-7766
دارانی	-7767
▁دەبینێتەوە	-7768
▁ئەمنییەکانی	-7769
▁الج	-7770
▁نۆر	-7771
▁تۆفیق	-7772
▁ret	-7773
▁قەندیل	-7774
▁دابنرێت	-7775
▁بەیاننامەی	-7776
oration	-7777
▁هاتووچۆ	-7778
▁هەروەکو	-7779
▁پێشنیازی	-7780
▁کیبۆ	-7781
▁تێکۆشانی	-7782
▁کراوەو	-7783
دەگرێت	-7784
▁ئێزدی	-7785
▁گۆڤار	-7786
▁نمایشەکەی	-7787
arget	-7788
▁ژێرد	-7789
▁چواری	-7790
ht	-7791
▁سادە	-7792
▁لەنی	-7793
▁بەهێزتر	-7794
▁وق	-7795
▁زیند	-7796
گن	-7797
▁لەسنووری	-7798
کێشی	-7799
▁داڕێژ	-7800
▁فەراهەم	-7801
▁تیمی	-7802
▁return	-7803
lank	-7804
tton	-7805
▁مۆدێر	-7806
▁وڵاتەکەیان	-7807
▁کۆنی	-7808
▁کۆنترۆڵکردن	-7809
▁target	-7810
▁گەنجێکی	-7811
▁پاڵتۆکەی	-7812
▁ئیسرائیلی	-7813
▁comment	-7814
▁پابەندی	-7815
▁زەحمەتکێش	-7816
▁گەورەکانی	-7817
ابەری	-7818
ەکانن	-7819
▁بەجێهێشت	-7820
▁لەوان	-7821
کردەوەو	-7822
▁ئەنبار	-7823
ایەق	-7824
▁none	-7825
▁دەبینم	-7826
play	-7827
▁سدیق	-7828
▁توێژینەو	-7829
▁پەیمانگای	-7830
احی	-7831
ەڵە	-7832
share	-7833
▁دادەنێت	-7834
▁دوێن	-7835
▁سەرقاڵ	-7836
▁fbs	-7837
▁شێم	-7838
blank	-7839
button	-7840
▁onclick	-7841
▁decoration	-7842
▁ئاستەنگ	-7843
ایەر	-7844
▁گوتن	-7845
▁دهوک	-7846
▁ژنێک	-7847
▁یارییەکی	-7848
▁شێت	-7849
▁قوو	-7850
ەکەیاندا	-7851
▁مەبەستم	-7852
▁بچن	-7853
▁برزۆ	-7854
▁لێت	-7855
رۆسەی	-7856
▁لەهەمانکاتدا	-7857
▁پارێزەر	-7858
▁دەنگە	-7859
▁فەرەج	-7860
گریت	-7861
▁ڕەفتاری	-7862
▁بتوانێ	-7863
اوا	-7864
▁تێپەڕی	-7865
▁لوتکەی	-7866
▁خور	-7867
▁ئێستە	-7868
▁دەنگدەر	-7869
isplay	-7870
▁تێڕوانین	-7871
▁ئایدیۆلۆژی	-7872
▁ة	-7873
▁عەی	-7874
▁دیاردەیە	-7875
▁دەنووسێت	-7876
▁بڵاوبوونەوەی	-7877
▁لێکەوتەوە	-7878
"ـ	-7879
▁دواکەوتنی	-7880
▁ڕۆشنایی	-7881
▁ئۆپۆزیسیۆنەی	-7882
ریک	-7883
▁موڵک	-7884
▁پرۆژه	-7885
▁سکاڵای	-7886
▁سەرج	-7887
▁ڕابو	-7888
▁لەوانه	-7889
▁کردوەو	-7890
▁بەیاننامەیەکدا	-7891
عا	-7892
ێڤ	-7893
کراوەتەوە	-7894
▁کەڵک	-7895
ادەیەکی	-7896
▁بنووسیت	-7897
ەسم	-7898
▁پووچ	-7899
انگیری	-7900
▁سفر	-7901
▁جاڕنامە	-7902
ِّ	-7903
▁گفت	-7904
▁تێکڕای	-7905
▁پەرلەماندا	-7906
ستیان	-7907
▁دڵنیایی	-7908
اڤی	-7909
▁تائێستاش	-7910
▁67	-7911
▁بورهان	-7912
▁فۆنت	-7913
▁هەزارو	-7914
low	-7915
▁مەسع	-7916
▁پێشانگ	-7917
▁ناکوڵێت	-7918
ڕاک	-7919
▁شایستەی	-7920
▁ئاوارەی	-7921
▁ڕەق	-7922
▁ڕەوای	-7923
▁نەکەوت	-7924
▁هەیەتی	-7925
▁بارودۆخە	-7926
▁باژێڕوانی	-7927
▁عەر	-7928
دەستی	-7929
▁پەیوەندیەکانی	-7930
▁گۆی	-7931
▁ئەدرەس	-7932
▁فەرمانبەرانی	-7933
▁ئینتی	-7934
▁دەستبەسەر	-7935
▁پەیوەندییان	-7936
▁جێبەجێکرد	-7937
▁بیل	-7938
▁ئێوەی	-7939
ئام	-7940
▁لیوا	-7941
▁هەلومەرجی	-7942
دێری	-7943
هام	-7944
ۆفێست	-7945
▁هوشی	-7946
▁هۆرگ	-7947
▁کاراکتەر	-7948
▁دەچنە	-7949
▁نمونەی	-7950
▁بڵاویکردەوە	-7951
▁ئۆگ	-7952
▁وەستان	-7953
▁فەلسەفی	-7954
▁فیلۆفێست	-7955
▁سەروەت	-7956
▁شێمحەمەد	-7957
▁نەما	-7958
▁تێکدانی	-7959
▁دروستکردووە	-7960
▁قەل	-7961
ێڵنەر	-7962
▁بڵند	-7963
▁ئومێدی	-7964
ۆمپی	-7965
▁دانوم	-7966
▁وتەبێژی	-7967
▁کوتل	-7968
▁سەباح	-7969
▁پەیوەستە	-7970
گێڕی	-7971
▁نائار	-7972
▁چوارەمی	-7973
▁حەمەی	-7974
▁ڕوک	-7975
ێردرێت	-7976
▁حەمەغ	-7977
▁دەسته	-7978
▁ویلایەته	-7979
▁سیستەمێکی	-7980
▁هەرەس	-7981
وۆری	-7982
▁دوێتم	-7983
▁مافەکاو	-7984
▁بەڕێوەچوونی	-7985
▁کردەی	-7986
▁شارێکی	-7987
▁دەولەتی	-7988
ۆرد	-7989
▁ڕاهێنانی	-7990
اردنی	-7991
▁بەڕێ	-7992
▁ماستەر	-7993
▁یارییەکه	-7994
▁هۆرگێڵنەر	-7995
ەستین	-7996
▁کۆنتڕۆڵ	-7997
▁ئەرسەلان	-7998
▁یوتوبوۆری	-7999
▁ئیماراتیەکانی	-8000
وخ	-8001
▁کرده	-8002
▁بۆچون	-8003
▁لەقۆناغی	-8004
ڤیس	-8005
وریا	-8006
▁دانە	-8007
▁ئەفغ	-8008
ێنمەوە	-8009
▁دەشک	-8010
▁تەوافوق	-8011
▁گووتیشی	-8012
▁تۆن	-8013
▁سویدی	-8014
▁پەرلەمانتارانی	-8015
▁دەکردەوە	-8016
▁هاوسەنگی	-8017
ێمەوە	-8018
12	-8019
ەبات	-8020
▁الق	-8021
▁فەرماندەیی	-8022
ائی	-8023
کراوەو	-8024
ەکیش	-8025
▁گەنجی	-8026
▁کیمیاباران	-8027
▁فیلمێکی	-8028
▁هاوسەنگ	-8029
▁sor	-8030
▁ژماره	-8031
▁بێزار	-8032
▁تراژیدی	-8033
▁قورسایی	-8034
▁کوردیت	-8035
▁لەسایەی	-8036
▁ئاماژەیان	-8037
▁حەماس	-8038
▁هاریکاری	-8039
▁تورکیای	-8040
▁ئێش	-8041
ستر	-8042
▁تەلەفۆن	-8043
▁ئەدی	-8044
ێویستی	-8045
▁میوانی	-8046
▁دیمەشق	-8047
▁ڕاگەیەند	-8048
▁بەرلین	-8049
▁بازرگان	-8050
▁شاڵ	-8051
▁عیماد	-8052
▁دەڵێین	-8053
▁گەورەیان	-8054
▁قا	-8055
▁هاواری	-8056
گۆر	-8057
یەو	-8058
▁ئەوپەڕی	-8059
▁بڕگەی	-8060
▁دەڤەری	-8061
▁ساڵدا	-8062
▁بردن	-8063
سیم	-8064
وەند	-8065
▁ئیتاڵی	-8066
▁لەمێژووی	-8067
▁میدیاکانی	-8068
▁سلی	-8069
▁حەمەغەفور	-8070
▁توانیویانە	-8071
تیکی	-8072
ارەوە	-8073
▁فیدڕ	-8074
▁up	-8075
▁غازی	-8076
▁داواکراو	-8077
▁داگیرکردنی	-8078
▁میسی	-8079
▁بەرگریکردن	-8080
▁زاگرۆس	-8081
▁توون	-8082
شان	-8083
لایەک	-8084
▁دەسەڵاتداران	-8085
▁دابنێت	-8086
▁جێبەجێکردن	-8087
ەڕی	-8088
▁لەجیه	-8089
▁تۆت	-8090
▁ئەنقەرە	-8091
▁بیرم	-8092
▁عەمید	-8093
▁دەپارێز	-8094
مانیا	-8095
▁بپارێزن	-8096
▁دوێنی	-8097
▁بج	-8098
▁وو	-8099
▁دەستم	-8100
▁ڕاگەهاند	-8101
▁مع	-8102
▁شەریف	-8103
▁پەشیمان	-8104
▁دەستبەجێ	-8105
تس	-8106
کەوێت	-8107
خانەکان	-8108
▁باپیر	-8109
هێنانەوەی	-8110
دول	-8111
▁پارێزراو	-8112
▁داوی	-8113
▁پشتگیریی	-8114
ووین	-8115
▁بەبڕ	-8116
▁دەیکەن	-8117
ەڵک	-8118
▁ناوەوەی	-8119
▁کوڕە	-8120
▁فێستیڤاڵ	-8121
▁لەتیف	-8122
▁فەرموو	-8123
▁لەشکر	-8124
▁کوردەواری	-8125
▁بکەنە	-8126
▁خوێنەری	-8127
▁but	-8128
▁نۆی	-8129
▁بەرە	-8130
▁تەندروستیی	-8131
▁داود	-8132
ێوەبەری	-8133
▁بەرهەمهێنان	-8134
بینین	-8135
▁1988	-8136
▁دووشەممه	-8137
▁شام	-8138
اشدا	-8139
▁مووس	-8140
▁ّ	-8141
▁بەڵگەنام	-8142
ەتەی	-8143
ەڵێن	-8144
▁لەوەو	-8145
▁شێوازە	-8146
▁ئامادەکاریی	-8147
ەمدا	-8148
▁Not	-8149
▁سالی	-8150
▁بردەوە	-8151
▁ڕابردودا	-8152
▁دەشتی	-8153
▁کیبۆردی	-8154
▁زاته	-8155
ەنبیری	-8156
▁دیدی	-8157
▁فەوجی	-8158
▁مۆدێل	-8159
▁یۆنان	-8160
▁کارگەی	-8161
▁کارەکان	-8162
▁لێدەکات	-8163
▁زیادبوونی	-8164
▁گواستنەوە	-8165
▁وشی	-8166
▁دوژمنانی	-8167
▁fol	-8168
▁درامای	-8169
▁زراندن	-8170
▁U	-8171
ۆوە	-8172
▁ئەوتۆ	-8173
▁پێکەنین	-8174
تم	-8175
▁هەنگاوە	-8176
▁کوردەوە	-8177
▁فێستیڤاڵی	-8178
▁میکانیزم	-8179
▁ناوەرۆکی	-8180
▁بەردەوامن	-8181
ووکە	-8182
▁بەدر	-8183
▁ڕۆژدا	-8184
اکردن	-8185
▁ماڵە	-8186
▁وەفد	-8187
اتۆر	-8188
▁یاوەری	-8189
▁چەشنە	-8190
▁sorani	-8191
▁لەکۆبوونەوەی	-8192
▁باڵادەست	-8193
▁کۆبوونەوەکە	-8194
ir	-8195
اندوە	-8196
▁ڕاوەست	-8197
▁بەرزبوونەوەی	-8198
▁برسی	-8199
▁فۆرمی	-8200
▁کولتوور	-8201
▁ئیشی	-8202
▁کچێکی	-8203
▁سەرسام	-8204
بێر	-8205
▁قۆر	-8206
▁display	-8207
▁ئەنجامەکانی	-8208
▁جوو	-8209
▁کرێ	-8210
شتان	-8211
▁نیوی	-8212
▁کێبڕکێی	-8213
▁Send	-8214
ریس	-8215
ەتێک	-8216
▁وەرگێڕانی	-8217
▁سامی	-8218
▁دەریای	-8219
▁ستەمکار	-8220
▁لەپارێزگای	-8221
▁چیای	-8222
▁پێیەی	-8223
▁بەوەکرد	-8224
ify	-8225
▁...	-8226
▁بروسک	-8227
▁ئیق	-8228
▁بەئار	-8229
▁دانان	-8230
▁گەشەپێدان	-8231
▁JC	-8232
▁Canc	-8233
▁ماری	-8234
▁follow	-8235
▁بینووسیت	-8236
▁شە	-8237
board	-8238
▁لەهیچ	-8239
▁هەڵکەوت	-8240
▁کاروانی	-8241
▁لەناوچەکەدا	-8242
تینی	-8243
▁کچانی	-8244
▁ویلایەتە	-8245
▁تێڕوانینی	-8246
xil	-8247
▁دەردەچێت	-8248
گوێز	-8249
▁سەیرە	-8250
▁بڕیارەکانی	-8251
ەکتەر	-8252
ۆسی	-8253
▁ڕەسم	-8254
▁Cancel	-8255
▁داین	-8256
▁شرۆڤ	-8257
▁خۆکوژ	-8258
▁پێشەوەی	-8259
▁فەیلەسوف	-8260
▁ڕەتکردنەوەی	-8261
دەنگ	-8262
▁بهێنین	-8263
▁تێبینییەکت	-8264
ogos	-8265
▁ڕۆژگار	-8266
▁ئەدرەسەکەت	-8267
▁تێبینیەکەت	-8268
▁بەوات	-8269
▁keyboard	-8270
▁دەرناکەویت	-8271
▁دواخ	-8272
▁lexil	-8273
▁lexilogos	-8274
▁Notify	-8275
▁سیاسەتەکانی	-8276
▁دوورو	-8277
▁JComments	-8278
▁ڕۆژنامەنوسان	-8279
ەڕاو	-8280
▁الش	-8281
▁برس	-8282
ژەی	-8283
ەوڵ	-8284
نەوه	-8285
▁هەلومەرج	-8286
ترسن	-8287
▁نەخۆشخانە	-8288
▁بێگەر	-8289
▁پرۆسەکە	-8290
47	-8291
▁بگرێتەوە	-8292
ترن	-8293
شتە	-8294
اکەیان	-8295
▁ڕوناک	-8296
▁گەورەیی	-8297
▁شەوە	-8298
▁فیکر	-8299
▁وەرچەر	-8300
▁شەڕێکی	-8301
▁نامەیەکی	-8302
گرفت	-8303
▁ڕەشی	-8304
▁جێبەجێب	-8305
▁گرتووەتەوە	-8306
ad	-8307
▁تووڕ	-8308
▁ئاوارە	-8309
▁جۆرەکانی	-8310
▁بڕوانامەی	-8311
▁موسڵمانان	-8312
هێنێت	-8313
▁دەستپێدەکات	-8314
▁کەوتۆتە	-8315
ئێم	-8316
▁بیرد	-8317
▁بسەپ	-8318
▁تۆمارکردنی	-8319
▁تاوتوێکردنی	-8320
گرێتەوە	-8321
گوزەر	-8322
▁ئەلقاعید	-8323
▁65	-8324
▁ڕێور	-8325
▁چەمک	-8326
▁فایەق	-8327
▁پارێزەری	-8328
ماس	-8329
▁هێزێک	-8330
▁لەوێوە	-8331
▁دەیەوێت	-8332
▁لەدانی	-8333
▁فەرمووی	-8334
▁قۆن	-8335
داران	-8336
▁بەدوو	-8337
▁ئۆکرانیا	-8338
▁کلتوری	-8339
▁تال	-8340
▁قاعیدە	-8341
بردن	-8342
ەبردنی	-8343
▁بیرۆک	-8344
▁ڕادەر	-8345
▁جەستەیی	-8346
▁بیخ	-8347
▁پتەوکردنی	-8348
▁لاسایی	-8349
▁ئەرکەکانی	-8350
کام	-8351
▁لەگۆڕ	-8352
▁پێشێلکاری	-8353
ابردوو	-8354
▁سەرەر	-8355
بۆتەوە	-8356
▁هەڵم	-8357
▁نەخۆشیی	-8358
▁هەلبژارد	-8359
▁نیەو	-8360
کردبوو	-8361
▁گروپێکی	-8362
ەرەکان	-8363
▁حیزبێک	-8364
▁بەشداریان	-8365
ڕێژ	-8366
وەگەر	-8367
گوزار	-8368
▁دەرو	-8369
▁تابلۆ	-8370
▁مشتوم	-8371
▁دەکەونە	-8372
▁هەڵبەتە	-8373
▁جۆراوجۆری	-8374
▁لەدەستداوە	-8375
ومە	-8376
▁گرنگیی	-8377
▁جیاوازەکان	-8378
▁فڕۆکەخانەی	-8379
▁خۆن	-8380
▁کەژ	-8381
▁دیاردە	-8382
قەر	-8383
لەندا	-8384
▁کێشی	-8385
▁پێشەنگ	-8386
▁تین	-8387
▁وسەر	-8388
▁مەرجەع	-8389
▁دەکەمەوە	-8390
▁ڕوخانی	-8391
▁کردنیان	-8392
▁نەبووایە	-8393
▁گرێد	-8394
▁فەڕەنسا	-8395
▁فاز	-8396
▁بکێش	-8397
بوونیان	-8398
▁دەستپێشخەر	-8399
▁کەلوپەل	-8400
▁گرێبەستی	-8401
▁لەگەڵیدا	-8402
▁کرۆ	-8403
▁ئوردن	-8404
▁عێڕاق	-8405
ێوەردانی	-8406
ئەن	-8407
هەڵو	-8408
▁بەباشی	-8409
▁ئاهەنگی	-8410
▁پەیەدە	-8411
▁هەڵبژێر	-8412
▁بەرنامەو	-8413
▁خۆشگوزەرانی	-8414
▁مێشکی	-8415
ێنیتەوە	-8416
▁دەمەوێ	-8417
▁بڵاوکردەوە	-8418
▁ئینگلیز	-8419
▁ناوبژیوان	-8420
مۆ	-8421
▁هەس	-8422
▁وەح	-8423
▁خۆز	-8424
ەتیان	-8425
▁تەج	-8426
▁قام	-8427
خۆر	-8428
▁ئۆڵ	-8429
▁زانایان	-8430
▁لەبەیان	-8431
ەقیب	-8432
▁میان	-8433
بدرێت	-8434
▁سڤیل	-8435
▁هەڵی	-8436
وەتە	-8437
▁ڕوبەر	-8438
▁لەسەرەتاوە	-8439
▁داهێن	-8440
▁زۆرینە	-8441
▁هەنگاوەکانی	-8442
▁2000	-8443
▁ڕانە	-8444
▁بکەمەوە	-8445
▁وڵاتانە	-8446
ڕان	-8447
▁بیاب	-8448
▁بگەر	-8449
▁بکەوێتە	-8450
▁مێژوی	-8451
▁دەزگایەکی	-8452
▁بەردەست	-8453
▁خوایە	-8454
▁هیوادارین	-8455
ab	-8456
▁داواشی	-8457
▁کۆمەڵگایەکی	-8458
▁ڕاشکاو	-8459
▁هاولاتی	-8460
ێکردن	-8461
▁عەللاوی	-8462
▁وادەکات	-8463
▁خوان	-8464
▁بەڵگە	-8465
▁مسوەگەر	-8466
▁بوخ	-8467
▁لەبەرژەوەندی	-8468
تاو	-8469
▁کای	-8470
▁بەرل	-8471
▁ببێته	-8472
▁لەیاری	-8473
▁لەئەنجام	-8474
▁ئاراس	-8475
▁خوازیاری	-8476
انییە	-8477
اکەوتنی	-8478
▁تەسلیم	-8479
ابە	-8480
▁ڕادیک	-8481
یەکانەوە	-8482
▁سێشەممە	-8483
ێوەبەرایەتی	-8484
▁هەرز	-8485
▁ڕاستیی	-8486
▁یاریزانانی	-8487
اتیک	-8488
▁مانگه	-8489
▁یارییەکە	-8490
▁سیاسەتێکی	-8491
▁بهێنرێت	-8492
گەلێکی	-8493
▁کەسانێکی	-8494
▁ئەزمون	-8495
▁تورکمانی	-8496
▁ڕیفراندۆم	-8497
▁هاشم	-8498
▁پشتگوێ	-8499
▁بێلایەن	-8500
▁یەکشەممە	-8501
▁V	-8502
▁دەرەوه	-8503
▁گوزەرانی	-8504
▁سەرانسەری	-8505
▁فێڵ	-8506
ەکانیشیان	-8507
▁قۆناغەکانی	-8508
▁وەبەرهێنانی	-8509
▁دەیکات	-8510
▁پرسیارێکی	-8511
▁هەڵگرت	-8512
▁لەحکومەتی	-8513
▁تاکەکان	-8514
▁سینەماکاری	-8515
▁بەوردی	-8516
▁بۆنم	-8517
▁مرۆڤێکی	-8518
▁بوژ	-8519
▁کەچ	-8520
کردی	-8521
▁لەگەڕ	-8522
▁نایان	-8523
رەی	-8524
ەتری	-8525
پێکردنی	-8526
اوەن	-8527
▁یەز	-8528
▁ناتوانم	-8529
▁بردووە	-8530
▁هیدایەت	-8531
▁z	-8532
▁دوک	-8533
▁نیز	-8534
▁پرۆژەیەکی	-8535
ڤید	-8536
▁شاناز	-8537
▁شنگال	-8538
▁نارەزایەتی	-8539
▁قەی	-8540
▁هەواد	-8541
▁پێدان	-8542
▁سەرئەنجام	-8543
▁بینین	-8544
▁خوێناوی	-8545
▁فەرەید	-8546
کەرەوەی	-8547
▁خانووی	-8548
▁بخات	-8549
▁پێکردووە	-8550
▁ئەرێنی	-8551
▁گڕ	-8552
▁نەزانی	-8553
▁داڕشتنی	-8554
▁لێبوردن	-8555
▁گەیشتنە	-8556
▁پاداشت	-8557
▁خۆرئاوا	-8558
▁واڵ	-8559
▁لێدەکرێت	-8560
▁لێدەک	-8561
▁کاپ	-8562
▁لەساڵ	-8563
▁ڕۆش	-8564
▁بزانی	-8565
▁شەقامەکان	-8566
▁خدر	-8567
گل	-8568
▁ئەمیر	-8569
▁هەموان	-8570
▁دەکاتەوه	-8571
▁محمد	-8572
▁هاتنه	-8573
▁عەبدولکەریم	-8574
▁بنچینەی	-8575
▁ڕەف	-8576
▁بڵاوکراوەتەوە	-8577
پشت	-8578
▁دیاریکراوی	-8579
ێشە	-8580
▁نالەب	-8581
▁لەکۆبوونەو	-8582
▁أن	-8583
▁نەدەن	-8584
▁کرمان	-8585
▁حەمەد	-8586
▁لایان	-8587
▁سەقامگیر	-8588
کەو	-8589
خانه	-8590
▁پوچ	-8591
▁ئەمەیە	-8592
▁نەپ	-8593
اکەر	-8594
▁نیازی	-8595
▁نەریتی	-8596
▁ڕەهەندی	-8597
اشە	-8598
کۆڵی	-8599
▁خانم	-8600
▁نیشتەجێ	-8601
▁تریشەوە	-8602
▁مەسەلەکە	-8603
▁نمای	-8604
▁وەخت	-8605
▁دواوە	-8606
▁تاوانباران	-8607
▁ڤای	-8608
▁باخچ	-8609
▁چن	-8610
▁قیامەت	-8611
اترین	-8612
▁مەخم	-8613
▁ژنێکی	-8614
▁دۆخێکی	-8615
▁بەتوندی	-8616
▁نەوەکانی	-8617
ul	-8618
▁بەسە	-8619
ەرمەند	-8620
▁خەڵکدا	-8621
ترو	-8622
▁ئاسمانەکان	-8623
وەکان	-8624
▁باهۆز	-8625
▁ڕاپرس	-8626
▁مانایەکی	-8627
▁دیکۆمێنتی	-8628
▁دەستکەوتی	-8629
لس	-8630
ارکی	-8631
نیای	-8632
▁دێڕ	-8633
▁ئیمپر	-8634
▁ئەتۆم	-8635
▁ئاراستە	-8636
▁ڕوودانی	-8637
▁سەرۆکوەزیرانی	-8638
ێکه	-8639
▁گەیشتووە	-8640
ub	-8641
▁شەهیدی	-8642
کۆڵ	-8643
▁ساڵیادی	-8644
▁فەرمانبەران	-8645
▁سەربازییەکانی	-8646
▁@	-8647
▁کارەساتە	-8648
▁بژێوی	-8649
▁ماددی	-8650
▁کرداری	-8651
اردن	-8652
▁سوودمەند	-8653
▁نییەکە	-8654
▁هن	-8655
▁سیتی	-8656
پری	-8657
▁پێکدەه	-8658
▁تەواوبوونی	-8659
▁بەکورتی	-8660
▁ئینگل	-8661
▁بەدەنگ	-8662
▁ئیدانەی	-8663
▁چینە	-8664
▁ڕۆژان	-8665
▁گرتەوە	-8666
دەخەن	-8667
▁ئیمتیاز	-8668
▁هەستیار	-8669
▁ئامادەبوون	-8670
دید	-8671
▁شمش	-8672
▁قاد	-8673
us	-8674
▁کایەوە	-8675
▁پرنسی	-8676
▁خاڵەکانی	-8677
دەدا	-8678
▁دۆستان	-8679
▁لەدەستی	-8680
▁ویژدانی	-8681
▁زێر	-8682
ارکردنی	-8683
▁بنێت	-8684
▁ستران	-8685
▁سەرکۆم	-8686
▁ناچاری	-8687
▁ئەمریکای	-8688
زیاد	-8689
▁نەکەین	-8690
▁باجی	-8691
▁مەول	-8692
▁زنجیرە	-8693
▁قەدەغەکردنی	-8694
▁چوارچێوەیەدا	-8695
امین	-8696
ونەتە	-8697
▁بەبەش	-8698
ێلا	-8699
▁کۆلی	-8700
▁کاتیشدا	-8701
▁ژان	-8702
▁هەرکەسێک	-8703
▁کەیس	-8704
▁بنەمایەکی	-8705
▁بژارد	-8706
▁لەئای	-8707
▁پاد	-8708
▁چوونکە	-8709
▁هەڵسوکەوتی	-8710
▁کەمتەرخەمی	-8711
▁بەپێچەوانەی	-8712
▁گووت	-8713
▁فراوانتر	-8714
▁دایەوە	-8715
▁گرنگەکانی	-8716
▁بۆرد	-8717
▁تەماشا	-8718
▁هۆیەوە	-8719
هەرو	-8720
▁کوری	-8721
▁سوورە	-8722
▁لێکۆل	-8723
▁کافر	-8724
ێینەوە	-8725
▁مانگرتن	-8726
▁تێکۆشان	-8727
ووڕ	-8728
▁دەبەخش	-8729
▁هاندانی	-8730
▁خۆڕ	-8731
گایەکی	-8732
▁ماڵپەر	-8733
▁برینداری	-8734
مین	-8735
▁پلەو	-8736
▁لەوکات	-8737
▁لەژیانی	-8738
▁نووسیویەتی	-8739
خوا	-8740
▁ناع	-8741
▁سیمای	-8742
راونەتەوە	-8743
▁هەڵەبجەی	-8744
▁چاڵ	-8745
▁سوڵتان	-8746
▁پێگەیشت	-8747
▁ئەندامان	-8748
▁ڕووداوەکه	-8749
▁250	-8750
▁خۆیانی	-8751
▁تەپ	-8752
▁ڕوخ	-8753
ژمارەی	-8754
▁مافێکی	-8755
▁لەمەودوا	-8756
لیا	-8757
▁کا	-8758
▁بەخێو	-8759
▁نزیکە	-8760
▁سەعدی	-8761
▁وەبیر	-8762
▁ڕیفۆرم	-8763
▁ڕێگەچ	-8764
▁دروستکراوە	-8765
▁ئیف	-8766
▁لێوەر	-8767
▁دیکەوه	-8768
▁وایکرد	-8769
▁پڕۆژەیەکی	-8770
▁نۆژ	-8771
▁دوان	-8772
▁دەین	-8773
▁جوانە	-8774
▁دەرمانی	-8775
▁ئەنجامدرا	-8776
▁دووپاتکردەوە	-8777
ێرین	-8778
انداو	-8779
▁باوە	-8780
▁سەرف	-8781
▁ڕکابەر	-8782
▁ئۆغ	-8783
▁وەدەست	-8784
▁سەلامەتی	-8785
15	-8786
▁Y	-8787
▁شەون	-8788
▁مەزنی	-8789
▁گفتوگۆکردن	-8790
▁پەڕی	-8791
▁تایبەتیش	-8792
▁نەوزاد	-8793
اکەوتن	-8794
▁ژیانە	-8795
▁ئەمشەو	-8796
▁لەخز	-8797
▁جوانترین	-8798
▁بدە	-8799
▁دوابەدوای	-8800
▁وێت	-8801
▁بەرین	-8802
▁ئەمریکادا	-8803
اکەدا	-8804
▁کرانەوەی	-8805
▁کاروب	-8806
▁بێم	-8807
▁مەنسوور	-8808
▁بارودۆخەکە	-8809
▁لەئەست	-8810
▁نەبینی	-8811
▁ویژدان	-8812
▁گوێبیس	-8813
بەتی	-8814
▁ئەوەدا	-8815
▁چوارشەممه	-8816
▁بدو	-8817
▁هەڵپەس	-8818
▁ناوەراست	-8819
▁نەتوانێت	-8820
سول	-8821
▁ئەوکاتەی	-8822
برد	-8823
▁منداڵێکی	-8824
▁بانگەوازی	-8825
▁خستنە	-8826
▁هیندستان	-8827
سوڵی	-8828
▁جان	-8829
▁ئەکەم	-8830
▁ڕێکبخ	-8831
▁دەستمان	-8832
▁کۆمەڵانی	-8833
▁بایز	-8834
▁بێکەس	-8835
زه	-8836
▁ئیمارات	-8837
▁مەسعوود	-8838
▁نەتەوەو	-8839
▁پڕە	-8840
▁ناکەوێت	-8841
ەمەر	-8842
ونەوەی	-8843
▁بڕیارەی	-8844
▁بەسەرۆکایەتی	-8845
▁بنبڕ	-8846
▁پارچه	-8847
▁ئۆتۆمبێلی	-8848
وێژ	-8849
▁وام	-8850
▁کۆشک	-8851
▁دزەیی	-8852
▁کەسێتی	-8853
کین	-8854
▁ڕێچ	-8855
▁بەرشلۆن	-8856
▁لەبەردەست	-8857
▁یەخ	-8858
▁مرۆڤێک	-8859
▁لیژنەیەک	-8860
▁گۆرانیبێژی	-8861
▁کۆمەڵه	-8862
▁چەکدارەکان	-8863
تەس	-8864
فتە	-8865
▁چاکە	-8866
▁بونیاد	-8867
▁دەوڵەم	-8868
▁سوریادا	-8869
▁سۆشی	-8870
▁دەناڵ	-8871
ازادی	-8872
▁دێری	-8873
▁ساڵه	-8874
▁هاوین	-8875
▁کەرەستەی	-8876
▁تەواوەتی	-8877
▁دەع	-8878
گەیاندن	-8879
▁بەغداو	-8880
▁پرۆفیس	-8881
▁داوامان	-8882
▁دواخستنی	-8883
▁مەسەلەیەکی	-8884
ڕاست	-8885
ووردا	-8886
یدایە	-8887
▁ئاغا	-8888
▁ئاژاوە	-8889
▁دەکەنە	-8890
▁جەمیل	-8891
▁داهێنانی	-8892
ەهات	-8893
▁سیخو	-8894
▁دەخوازێت	-8895
ێوەچوو	-8896
استەوخۆ	-8897
▁پەلە	-8898
▁پرۆسەیە	-8899
▁بەهار	-8900
ازاد	-8901
▁ووت	-8902
▁ئەرێ	-8903
▁بەڵکە	-8904
▁کوردن	-8905
▁وتارێکی	-8906
کەوە	-8907
▁داخەوە	-8908
▁بگر	-8909
▁هێور	-8910
▁ڕەحیم	-8911
▁گەرچی	-8912
▁خۆماڵی	-8913
هێنەرانی	-8914
▁سروود	-8915
▁بەزەیی	-8916
▁دارستان	-8917
▁دەچوو	-8918
▁کاردەکات	-8919
▁الر	-8920
▁بنەماڵە	-8921
فەری	-8922
▁تاکێکی	-8923
▁زەمینەی	-8924
▁دۆستایەتی	-8925
▁مر	-8926
▁کەوتن	-8927
▁پلانێکی	-8928
▁بێنێت	-8929
▁سۆسیالیست	-8930
▁زۆرد	-8931
▁دەرەوەو	-8932
▁ئەژمار	-8933
▁سنوورد	-8934
ەکەینەوە	-8935
نیشت	-8936
▁پۆش	-8937
داوەو	-8938
▁چێشت	-8939
▁ڕوویداوە	-8940
▁لەکاتێکدایە	-8941
▁بەرهەڵست	-8942
▁نەچ	-8943
▁کێشه	-8944
▁لەسیاس	-8945
▁سینەماک	-8946
▁کردار	-8947
ەخشن	-8948
▁لەدرێژ	-8949
▁گوڵی	-8950
تەرناتی	-8951
▁خای	-8952
▁بەهۆیەوە	-8953
13	-8954
▁ڕز	-8955
▁لیوای	-8956
▁کەموکوڕ	-8957
▁دەستبەکار	-8958
▁لووت	-8959
▁قال	-8960
▁تاڵان	-8961
▁زیندو	-8962
بهێنرێت	-8963
▁لەهەوڵی	-8964
▁بەمشێوەیە	-8965
ێرا	-8966
ەڤانی	-8967
▁میکانیزمی	-8968
راوو	-8969
ۆرکش	-8970
▁دۆکی	-8971
▁ددان	-8972
یەکانیان	-8973
ریکا	-8974
▁زەوت	-8975
▁لێبو	-8976
▁گەلە	-8977
▁ئەوقاف	-8978
▁پەنابەری	-8979
▁ڕەوانه	-8980
دەنگی	-8981
ارەسەر	-8982
▁دیکەیان	-8983
ەڵەی	-8984
▁ئاق	-8985
▁قود	-8986
▁بەمانای	-8987
ەختانە	-8988
▁الت	-8989
▁کۆمپانیایەکی	-8990
بیلی	-8991
▁ناوکی	-8992
▁سەح	-8993
▁ولە	-8994
▁ووڵات	-8995
▁کۆبوونەوەکانی	-8996
▁ئاکامدا	-8997
▁سەردەمەدا	-8998
▁ڕێککەوتننام	-8999
▁بەدەستهێناوە	-9000
▁پرۆگرامی	-9001
▁لەکۆی	-9002
▁دابەزی	-9003
▁مزگەوتی	-9004
فانی	-9005
▁زەق	-9006
▁نوێژی	-9007
▁ناسک	-9008
▁بگۆڕێت	-9009
▁1999	-9010
▁ڕۆیتەرز	-9011
▁پیلان	-9012
▁ند	-9013
▁تێپەر	-9014
▁لەناوچە	-9015
▁ماڵپەری	-9016
▁شیکردنەوەی	-9017
▁باڵیۆزخانەی	-9018
▁نوی	-9019
ادام	-9020
بانێ	-9021
ێندراو	-9022
▁عەلاوی	-9023
▁هاتبوو	-9024
ۆنا	-9025
▁سونن	-9026
▁دەنگۆی	-9027
▁لەولات	-9028
▁دووەمیش	-9029
▁ڕوونیشی	-9030
▁بەرەنگاری	-9031
▁خانەنشینی	-9032
▁ئۆتۆمبێلێکی	-9033
گەز	-9034
▁لەدیدارێکدا	-9035
▁ماه	-9036
▁ڕادەربڕین	-9037
▁بەئاشکرا	-9038
ەسەڵاتی	-9039
▁نف	-9040
کەران	-9041
▁هێرشێکی	-9042
▁خانووبەر	-9043
▁بوونەتەوە	-9044
جێک	-9045
روز	-9046
▁ئاڵا	-9047
▁سەلیم	-9048
▁دەدرێن	-9049
ییەوه	-9050
ێنەنی	-9051
▁براو	-9052
▁دەردە	-9053
کراوەکانی	-9054
▁عام	-9055
▁ئەوەن	-9056
▁کۆمکاری	-9057
▁بەلکو	-9058
ییەکانیش	-9059
▁خاوەند	-9060
▁شارەکان	-9061
▁نووسراو	-9062
▁نەمێنێت	-9063
ەشەی	-9064
▁هەرێمەوە	-9065
ونەری	-9066
▁شانۆن	-9067
▁فرانس	-9068
▁بەرشەلۆنە	-9069
▁فیدراسیۆنی	-9070
▁گوتەی	-9071
▁گەلان	-9072
▁نەبونی	-9073
▁زانکۆکانی	-9074
اکو	-9075
▁فیرع	-9076
▁هەڵبژاردندا	-9077
ێکى	-9078
▁مانگەدا	-9079
▁نوق	-9080
▁دەستت	-9081
▁سەرفر	-9082
pt	-9083
دەوری	-9084
▁داری	-9085
▁بەکەس	-9086
▁دەترس	-9087
▁نووسیوە	-9088
▁یۆ	-9089
▁بەرکەوت	-9090
▁دیواری	-9091
▁سبەینێ	-9092
▁مانگانە	-9093
▁بەناوبان	-9094
▁هەڵوێستێکی	-9095
ایانە	-9096
رابێت	-9097
▁کۆنف	-9098
▁وڵاتانەی	-9099
▁کێشەیەک	-9100
▁بگەڕێنەوە	-9101
ێسی	-9102
▁دەوەست	-9103
▁پیاوسال	-9104
▁ئاوەدانکردنەوەی	-9105
▁شەب	-9106
▁ڕێڤ	-9107
▁شوێنەکانی	-9108
گیرا	-9109
▁بید	-9110
▁فڕێ	-9111
▁نانی	-9112
▁گیرو	-9113
▁بگەیەنێت	-9114
▁هام	-9115
▁تۆماری	-9116
ڕاو	-9117
ەواو	-9118
▁وەزی	-9119
▁شوانی	-9120
▁نەگرت	-9121
▁لەسەرتاسەری	-9122
▁وبەر	-9123
لاند	-9124
▁فراو	-9125
▁پیشەی	-9126
اییەکانی	-9127
▁دژوار	-9128
▁حکومەتدا	-9129
▁سەرنجڕاک	-9130
▁فەخ	-9131
▁کوتلە	-9132
▁یۆلیۆ	-9133
▁کتێبخانەی	-9134
▁وع	-9135
▁نەخواز	-9136
نەوی	-9137
▁پیشاند	-9138
سوم	-9139
وقی	-9140
انەیی	-9141
▁بەپێ	-9142
▁دڵەڕاو	-9143
▁چاودێرانی	-9144
▁دەردەخات	-9145
▁ئەڕ	-9146
▁باوەشی	-9147
▁ئەدەبیاتی	-9148
▁٣	-9149
▁1992	-9150
▁حزبێکی	-9151
▁گرنگتر	-9152
▁ناتوانرێت	-9153
اپای	-9154
▁کەناڵە	-9155
هاتن	-9156
▁بنێن	-9157
▁داخراو	-9158
ght	-9159
esday	-9160
گەیەنین	-9161
▁ئەورووپا	-9162
▁ڕێکەوتنی	-9163
اسا	-9164
یاره	-9165
▁ئەدا	-9166
▁ڕۆژه	-9167
▁وتویەتی	-9168
بیت	-9169
▁دیمەنی	-9170
▁هەڵن	-9171
تای	-9172
▁بەشەی	-9173
▁لیستە	-9174
گەیشتنی	-9175
▁ئەڵێت	-9176
▁سیستمە	-9177
▁سازدانی	-9178
تێ	-9179
ێنرا	-9180
▁جۆرێکی	-9181
▁بریکاری	-9182
▁پەرتووک	-9183
خۆری	-9184
▁چەپی	-9185
▁یەکشەممه	-9186
▁کەهەر	-9187
اغی	-9188
▁دەبم	-9189
▁ڕەنگه	-9190
▁درێژخایەن	-9191
▁قۆناغەدا	-9192
▁ماڵئاوایی	-9193
▁پەخشی	-9194
▁ژێرخانی	-9195
▁ناوچانەی	-9196
▁to	-9197
قادر	-9198
▁گەلێ	-9199
▁دەکەون	-9200
▁لەبەرامبەری	-9201
▁لێدوانەکەیدا	-9202
گەلی	-9203
ەخۆشی	-9204
▁سایت	-9205
▁بەڕووی	-9206
▁62	-9207
ۆرین	-9208
▁پور	-9209
▁میهرەبان	-9210
▁ئوسترالیا	-9211
▁چاپی	-9212
▁بنچین	-9213
بۆوە	-9214
▁ئاگا	-9215
▁زریان	-9216
▁نەدات	-9217
▁چوارەمین	-9218
▁خوایه	-9219
▁لەدوا	-9220
▁ئۆسکار	-9221
▁گرینگی	-9222
▁دانمارک	-9223
▁یەکەکانی	-9224
ئەی	-9225
▁خە	-9226
▁تاڵیبان	-9227
▁ڕامیاری	-9228
▁جام	-9229
▁نەکردوە	-9230
▁بەئاوێنەنی	-9231
تەدا	-9232
▁زای	-9233
اردانی	-9234
▁لەکەس	-9235
▁ئەزمونی	-9236
▁خوێندەو	-9237
▁ئەلم	-9238
▁بەلجی	-9239
▁ئەتلەتی	-9240
▁ڕووداوەکە	-9241
ەکیی	-9242
▁قووڵی	-9243
▁پێچەوان	-9244
▁وانە	-9245
ary	-9246
▁شل	-9247
▁کاغ	-9248
ره	-9249
▁ڕۆژانه	-9250
▁لەتورکیا	-9251
▁کاندیدەکانی	-9252
ێنەوه	-9253
▁هەڵەیە	-9254
▁ئیمام	-9255
▁کارگێری	-9256
▁لەوەزارەتی	-9257
▁شەماڵ	-9258
ئەل	-9259
▁عی	-9260
▁بوێر	-9261
اکانەوە	-9262
▁مەفرەز	-9263
▁بەدڵنیاییەوە	-9264
▁بخەن	-9265
▁ئەمەریکایی	-9266
▁چۆنە	-9267
▁وڕ	-9268
▁سوریاو	-9269
▁هەرسێک	-9270
org	-9271
▁جیهانە	-9272
▁سندوقی	-9273
▁گرتبوو	-9274
▁کارەکەی	-9275
بز	-9276
ێزە	-9277
▁دواییدا	-9278
▁هەڵوێستە	-9279
▁سنوورەکانی	-9280
▁بەرپا	-9281
▁پێداگری	-9282
▁داڕشت	-9283
19	-9284
▁مەکتەب	-9285
ییەکانەوە	-9286
▁دەداتەوە	-9287
▁کەموکورتی	-9288
▁ڕەوشت	-9289
▁پێدراوە	-9290
▁الص	-9291
▁کیمیاوی	-9292
▁بەرژەوەندییە	-9293
▁حەج	-9294
▁لێدو	-9295
▁دەسەلم	-9296
▁یارمەتیدانی	-9297
ژەنی	-9298
▁گۆشت	-9299
▁تواناکانی	-9300
▁یەکانی	-9301
امەوە	-9302
▁فرۆشی	-9303
▁چارەنووسساز	-9304
▁ئیران	-9305
▁ئاشکراکرد	-9306
▁ئۆم	-9307
▁هۆت	-9308
▁هەستم	-9309
▁لەدەستدانی	-9310
▁ئەسپ	-9311
▁تفەنگ	-9312
eb	-9313
ەخان	-9314
ەمانە	-9315
▁هەربۆی	-9316
▁ماڵەکەی	-9317
▁باوەر	-9318
ێکیشیان	-9319
▁هۆشبەر	-9320
▁یارییەکان	-9321
▁سۆن	-9322
▁لەڕۆژی	-9323
▁ڕەوشەنبیری	-9324
▁برەو	-9325
▁بووەتەوە	-9326
▁ئەودا	-9327
دەکەین	-9328
▁دەخۆن	-9329
▁جددی	-9330
▁بخرێت	-9331
▁ملکەچ	-9332
▁قەرزی	-9333
▁خیانەت	-9334
▁سیستمێکی	-9335
▁حەڵ	-9336
حکومەتی	-9337
▁فریاکەوتنی	-9338
زب	-9339
▁کوا	-9340
▁بەڕۆژ	-9341
▁هاولا	-9342
▁هاوسەرەکەی	-9343
▁ئاڤ	-9344
▁چای	-9345
▁گوتوویەتی	-9346
▁لەسەد	-9347
▁دیمۆکر	-9348
▁گەیشتوون	-9349
▁هونەرمەندە	-9350
▁کۆبوونەوەکەدا	-9351
▁عن	-9352
▁منە	-9353
▁ئاکۆ	-9354
▁پەنای	-9355
▁ئەوتۆی	-9356
▁نەخوێن	-9357
وەش	-9358
داین	-9359
▁لەهەم	-9360
▁چە	-9361
ستەم	-9362
▁کۆپی	-9363
▁نکۆڵی	-9364
▁زانیارییەکان	-9365
تانه	-9366
▁دامەزراوەی	-9367
شا	-9368
دنی	-9369
ێشەی	-9370
▁بەبڕوای	-9371
▁سزادانی	-9372
▁لاوە	-9373
▁دەسەڵاتدا	-9374
سم	-9375
ێخ	-9376
▁کۆمەڵایەتییەکان	-9377
▁ئەکرێت	-9378
▁تاکەکەس	-9379
▁شکاندنی	-9380
▁ئاسۆی	-9381
▁سیاسییەوە	-9382
▁سەرکردەیەکی	-9383
▁پەند	-9384
▁کارا	-9385
▁تورکیاوە	-9386
▁نێودەوڵەتییەکان	-9387
▁پێداویستییەکانی	-9388
ۆرە	-9389
▁نەبو	-9390
▁دیمان	-9391
▁حاڵەتە	-9392
دەکەنەوە	-9393
▁هۆکارە	-9394
▁کاریگەرییەکی	-9395
▁چارەنوسی	-9396
▁کابین	-9397
▁خەڵکێکی	-9398
▁Kurdistan	-9399
▁پێشوازییکرد	-9400
▁نمایشک	-9401
بوە	-9402
اوێکی	-9403
▁هۆلی	-9404
▁کەلەپ	-9405
▁نادرێت	-9406
▁هەڵدەست	-9407
op	-9408
▁غەر	-9409
▁ئەنگ	-9410
▁تەقی	-9411
▁گەنم	-9412
▁بەهەشتی	-9413
▁ڕووناکبیری	-9414
ەزیز	-9415
▁دیل	-9416
sh	-9417
▁نەشتەرگەری	-9418
▁ئۆردو	-9419
▁ئەستێرەی	-9420
▁عەسکەری	-9421
▁نیوەڕۆی	-9422
▁سەربەستی	-9423
▁زووتر	-9424
▁لێبوردنی	-9425
▁ڕاکێشانی	-9426
▁نەگەڕ	-9427
▁لەخوێند	-9428
▁نیگەران	-9429
▁هەڵبەست	-9430
▁هێرۆ	-9431
▁زۆرمان	-9432
▁لەکاری	-9433
▁پوخت	-9434
▁دەنوس	-9435
بیل	-9436
▁تارق	-9437
▁دەقە	-9438
ەوش	-9439
▁سۆزی	-9440
▁وەرە	-9441
▁ئەدەن	-9442
▁بڕینی	-9443
▁پارلەمانی	-9444
▁ڕووناکبیر	-9445
▁ڕاڤ	-9446
▁بالا	-9447
▁مول	-9448
▁کرابێت	-9449
▁گرفتەکانی	-9450
▁سێبەر	-9451
▁سەرشانی	-9452
▁هەڵەیەکی	-9453
▁تەواوکردنی	-9454
▁فەن	-9455
چەک	-9456
▁ئێزد	-9457
▁بانگی	-9458
ەوەرێکی	-9459
▁بەخشینی	-9460
▁فەزای	-9461
▁پارچەی	-9462
▁بپارێزێت	-9463
ئەسوات	-9464
▁لەئەم	-9465
▁شێوەیەی	-9466
▁لەوەتەی	-9467
▁خانەوادەی	-9468
▁سەلەف	-9469
▁کونسوڵ	-9470
▁کارمەندی	-9471
▁گشتییەکان	-9472
▁ئومێ	-9473
▁بسەلم	-9474
هەروەها	-9475
▁تێو	-9476
▁کەرەست	-9477
▁نووسیندا	-9478
نێ	-9479
جەل	-9480
بازی	-9481
▁ڕان	-9482
▁کۆشش	-9483
▁ماوەیەکە	-9484
ێکن	-9485
ەشم	-9486
جگار	-9487
▁ئیجابی	-9488
▁نێگ	-9489
تاندا	-9490
▁حەکیم	-9491
▁دەستنیشانکردنی	-9492
▁وگ	-9493
▁جێب	-9494
ەینی	-9495
▁The	-9496
▁سۆفی	-9497
▁نەرێنی	-9498
▁ئیسلامدا	-9499
▁l	-9500
تۆنی	-9501
▁ئیئتل	-9502
▁هێمای	-9503
▁سیناریۆ	-9504
▁سەرلەبەیانی	-9505
ڤەرپ	-9506
▁پێشینەی	-9507
▁بەرهەمێکی	-9508
▁ها	-9509
▁لیژنە	-9510
▁ئەڵماس	-9511
▁لایە	-9512
▁کۆمەڵکوژی	-9513
▁72	-9514
▁حەبی	-9515
تیڤ	-9516
▁نەکرا	-9517
▁سێشەممه	-9518
▁ئێمەیە	-9519
▁موسلیم	-9520
اسازی	-9521
خستووە	-9522
▁پارچەکانی	-9523
▁بەرقەر	-9524
▁دادەنێن	-9525
▁دیموکرات	-9526
▁بانک	-9527
▁دارا	-9528
▁تەبایی	-9529
▁سازکرد	-9530
▁پەردەی	-9531
ێنرێتەوە	-9532
▁دوورکەوت	-9533
▁دووی	-9534
▁پێدەکرێت	-9535
بێل	-9536
ییدا	-9537
▁بێر	-9538
ۆمێنت	-9539
▁باسکردنی	-9540
انگی	-9541
کردە	-9542
▁سەرە	-9543
▁چەقی	-9544
ەکەشدا	-9545
وج	-9546
ەرێ	-9547
یەکانیش	-9548
▁هار	-9549
▁دەکردو	-9550
▁بوت	-9551
▁وتوێژ	-9552
▁ئەرشیف	-9553
▁باسمان	-9554
▁کۆمەکی	-9555
▁ڕۆژێ	-9556
فتوگ	-9557
خوێند	-9558
▁گریان	-9559
▁پاشەکش	-9560
▁پارەیە	-9561
▁لەکو	-9562
▁ڕیکخ	-9563
▁پسپۆڕی	-9564
▁ناوەڕاستدا	-9565
▁Th	-9566
▁شادی	-9567
▁دیالۆ	-9568
▁نۆژەن	-9569
▁کەمپین	-9570
▁ڕووبەری	-9571
▁ماش	-9572
ەخانە	-9573
▁ئۆگۆست	-9574
▁سوودێکی	-9575
▁کولتوری	-9576
▁تیرۆریستانی	-9577
عەد	-9578
▁یادەوەری	-9579
▁مامە	-9580
▁یەکێکه	-9581
قەکانی	-9582
ترینیان	-9583
پێن	-9584
وەندی	-9585
▁کەرت	-9586
▁ئێمەو	-9587
شید	-9588
▁دڕن	-9589
ئەگەر	-9590
▁ڕێگاو	-9591
▁کلتووری	-9592
▁خوێندەوە	-9593
▁نابێتەوە	-9594
اندزی	-9595
▁ڕاستیە	-9596
▁لەوەشکرد	-9597
▁وردەکاری	-9598
روستکردنی	-9599
wn	-9600
اهید	-9601
▁مادام	-9602
▁ناوێت	-9603
ئار	-9604
▁حەل	-9605
ەوایی	-9606
▁ئیراد	-9607
▁حزبەکانی	-9608
▁بەشداربوون	-9609
▁سێو	-9610
وویەکی	-9611
▁کەنیس	-9612
▁ناڕازی	-9613
▁پێشێلکردنی	-9614
ئاماد	-9615
▁شاره	-9616
پت	-9617
▁ئاسن	-9618
▁ستافی	-9619
▁یارییە	-9620
▁تەقینەوە	-9621
▁خواردنەوەی	-9622
اوێژ	-9623
▁تایم	-9624
▁تاکوو	-9625
▁لەمیانی	-9626
▁ئایندەدا	-9627
تەرا	-9628
▁بەنرخ	-9629
▁شوباتی	-9630
▁فێم	-9631
▁نیمچە	-9632
▁سەرچاوەکەی	-9633
▁چارە	-9634
▁شەپۆلی	-9635
▁خانەواد	-9636
▁یەکڕیزی	-9637
▁بەختەوەر	-9638
▁هەڵسەنگاندن	-9639
▁گرتوو	-9640
▁نەتەوەکەمان	-9641
▁پژ	-9642
▁پاڕ	-9643
▁قەدەغە	-9644
▁پارلەمان	-9645
لیس	-9646
▁کاول	-9647
▁ئەوەم	-9648
▁جووتی	-9649
▁لوبنانی	-9650
▁ئێرانەوە	-9651
▁بێسەر	-9652
▁قوبادی	-9653
▁نەهاتووە	-9654
قوب	-9655
▁مق	-9656
▁دیز	-9657
▁ڕێوشوێن	-9658
▁بریتانیا	-9659
▁مێژوویەکی	-9660
▁دیبلۆم	-9661
▁جیهانیدا	-9662
▁بەهەم	-9663
▁ماڵپەڕ	-9664
▁پاشکۆی	-9665
▁فەرەیدون	-9666
▁ئیدار	-9667
ینار	-9668
▁گیراوە	-9669
▁بەفەرمی	-9670
▁دەنگێکی	-9671
▁بگەی	-9672
ادزێ	-9673
جێفی	-9674
▁ساڵیدا	-9675
▁بۆمبێکی	-9676
ali	-9677
▁ئەواندا	-9678
▁ئاڵوگۆڕی	-9679
▁زێد	-9680
▁پەرو	-9681
▁چیدی	-9682
▁ئیز	-9683
پەروەری	-9684
ورئ	-9685
کاوی	-9686
▁تاکه	-9687
▁ڕەحمەتی	-9688
▁جیهانیی	-9689
▁وەسفکرد	-9690
▁پاو	-9691
▁دیدارەدا	-9692
▁هەفتەیەک	-9693
▁عیشق	-9694
▁کرێی	-9695
▁e	-9696
وتن	-9697
ازێکی	-9698
▁لێپێچ	-9699
▁دەرهەق	-9700
▁پارتیی	-9701
▁دراوسێی	-9702
▁بکرێنەوە	-9703
▁خێزانەکەی	-9704
ەهدی	-9705
▁بگەنە	-9706
▁ئاوارەکانی	-9707
▁بەکرێ	-9708
▁زور	-9709
▁ئەرسن	-9710
▁لەشوێنی	-9711
ەکت	-9712
▁دەگرت	-9713
▁کۆنسێر	-9714
▁بینیمان	-9715
▁هێدی	-9716
▁ئادەمیز	-9717
▁پشتیوانیی	-9718
▁63	-9719
▁وازی	-9720
▁ئامار	-9721
▁بەستن	-9722
▁هەندی	-9723
▁مرۆڤدا	-9724
▁بەتەواوەتی	-9725
▁هاوکاریکردنی	-9726
▁دەخەنە	-9727
▁بزووتنەوە	-9728
▁160	-9729
▁ملکەچی	-9730
▁هەوا	-9731
▁چاوەڕێ	-9732
▁دادەمەز	-9733
▁دەستەڵاتی	-9734
▁هێزانە	-9735
▁600	-9736
▁وەن	-9737
▁پشوو	-9738
▁دەستگیرکران	-9739
نامەن	-9740
لاوە	-9741
▁بڕێکی	-9742
▁هەرێمیش	-9743
▁لەدرێژەی	-9744
شیدا	-9745
▁کال	-9746
کراوه	-9747
▁دادەب	-9748
تیه	-9749
▁دیت	-9750
ەباتی	-9751
▁بووی	-9752
▁ئافرەتێک	-9753
حید	-9754
تریش	-9755
▁لەبەڕ	-9756
▁ڕەتکردەوە	-9757
▁بڵاویان	-9758
▁کرماشان	-9759
▁ئایە	-9760
▁85	-9761
اتیکی	-9762
▁قازی	-9763
ەکاتەوە	-9764
▁تەوەری	-9765
▁لەیەکتر	-9766
▁پەیامێکی	-9767
ینن	-9768
▁68	-9769
▁سووکایەتی	-9770
ابێ	-9771
ۆخی	-9772
▁گوتو	-9773
▁هەڤال	-9774
▁سێیەمین	-9775
▁ناتوانیت	-9776
▁شێرزاد	-9777
▁پچ	-9778
▁ڕانی	-9779
▁ئایندەیەکی	-9780
فیسی	-9781
▁پەپ	-9782
▁شایەتی	-9783
▁بەراستی	-9784
▁سەرجەمی	-9785
▁پێشکەشکرد	-9786
انک	-9787
▁بڕێک	-9788
▁دوبارە	-9789
▁واق	-9790
▁دەشت	-9791
الیت	-9792
▁هانا	-9793
▁دەوام	-9794
ایتی	-9795
ویان	-9796
ەدەب	-9797
▁دەبا	-9798
▁چاکتر	-9799
▁ناوەندە	-9800
▁دەرگ	-9801
▁پێوەر	-9802
▁گرووپە	-9803
▁کوو	-9804
▁ئەلح	-9805
▁ئەمجار	-9806
خات	-9807
▁هەڕ	-9808
ەشێو	-9809
▁چیت	-9810
▁هەموارکردنی	-9811
عەی	-9812
▁هێمنی	-9813
▁موحسین	-9814
▁نێوەند	-9815
پیشاند	-9816
▁پێشڕەو	-9817
▁بەوپەڕی	-9818
▁عەرەبەکان	-9819
بەڵ	-9820
▁دەفرۆش	-9821
▁ئەندامەکانی	-9822
دێر	-9823
▁بۆئ	-9824
ێندرێت	-9825
▁عەقید	-9826
اگا	-9827
▁بیس	-9828
اونەتەوە	-9829
ارتی	-9830
▁نەڕ	-9831
▁نەجەف	-9832
ەگەڵ	-9833
▁دەدۆز	-9834
▁پرسێکی	-9835
▁ڕیت	-9836
▁درۆز	-9837
▁بۆمبی	-9838
▁لەمەر	-9839
▁لەهەردوو	-9840
▁عەو	-9841
اردان	-9842
▁ئەجێند	-9843
▁داهێنەر	-9844
▁موک	-9845
▁خۆزگە	-9846
▁عەرەبە	-9847
▁زانینی	-9848
▁تۆپباران	-9849
▁سێم	-9850
▁ڕووخس	-9851
▁فرمێسک	-9852
▁کۆمپانیاکان	-9853
چو	-9854
ەکەوت	-9855
▁خۆکوژی	-9856
▁مێژووە	-9857
▁یەکدی	-9858
▁عێراقیان	-9859
▁دەنگدەران	-9860
ێف	-9861
ساد	-9862
▁شوێنەواری	-9863
▁دامودەزگاکانی	-9864
درا	-9865
ەنا	-9866
▁گوێم	-9867
▁بەلاڤ	-9868
ss	-9869
▁کاکەیی	-9870
▁بەرشلۆنه	-9871
▁پەروەردگارت	-9872
▁موفتی	-9873
▁نەبوە	-9874
▁ئاژانسا	-9875
▁2001	-9876
ارییەوە	-9877
▁لەیەکەم	-9878
▁ڕاستییەکان	-9879
▁داواکارییەکانی	-9880
▁داواکارین	-9881
▁یۆتۆ	-9882
▁ئاخاو	-9883
▁لاپەڕە	-9884
▁ڕۆژنامەو	-9885
▁داڵ	-9886
▁دەپ	-9887
▁زستان	-9888
▁لەبەیاننام	-9889
▁داواش	-9890
▁وێرای	-9891
▁لێپرسراو	-9892
▁ناوەوە	-9893
▁بەشدارن	-9894
خال	-9895
▁بایک	-9896
▁بێشک	-9897
ایەنێت	-9898
▁خودای	-9899
▁برایانی	-9900
▁شوف	-9901
روستی	-9902
▁هەڵەبجه	-9903
▁چارەنوس	-9904
▁هەڵەبجەو	-9905
▁خۆس	-9906
▁ڕۆم	-9907
▁بەرپرسان	-9908
ەماندا	-9909
▁شایەت	-9910
جانی	-9911
▁کارل	-9912
▁کاسب	-9913
▁لێدەکەن	-9914
▁سوننەکان	-9915
▁پێشوی	-9916
▁ئەنتەر	-9917
▁باشیان	-9918
▁خوازراو	-9919
▁کەلتوور	-9920
▁بەدید	-9921
▁پێوەند	-9922
▁چالاکیی	-9923
نەکردنی	-9924
کردووەو	-9925
▁خنک	-9926
▁هێرشە	-9927
▁بارەوە	-9928
▁نەدەبوو	-9929
▁هاتیه	-9930
▁سەرووی	-9931
سۆ	-9932
ادات	-9933
▁بەگەر	-9934
▁هەڵواس	-9935
▁ئۆل	-9936
▁الب	-9937
ایانی	-9938
شێوەی	-9939
▁قسەیان	-9940
▁پڕۆژەکان	-9941
▁لەهەڵبژاردنی	-9942
▁ڕەگ	-9943
▁ڕەچاوی	-9944
▁جێبەجێکردنەوە	-9945
هەموو	-9946
▁بەکەم	-9947
▁کەسانه	-9948
▁گەلێکی	-9949
▁گرژی	-9950
▁وردەکاریی	-9951
مۆن	-9952
گۆش	-9953
▁پێشوەخت	-9954
▁کۆمپیوتەر	-9955
▁بەسەرپەرشتی	-9956
▁پەنجەی	-9957
▁پاشماوەی	-9958
سیتی	-9959
▁لەهۆڵی	-9960
ug	-9961
ەزار	-9962
▁نەبەز	-9963
▁نەگۆڕ	-9964
▁قەرەباڵ	-9965
ارات	-9966
▁بادین	-9967
▁دراون	-9968
▁ئەوکەس	-9969
▁منداڵەکانیان	-9970
▁قو	-9971
▁فڕۆکەی	-9972
▁کردوه	-9973
▁نیعمەت	-9974
▁کارئ	-9975
▁ڕێکخراوەیی	-9976
ەروو	-9977
▁دوپ	-9978
▁تۆڵەی	-9979
▁بەرنامه	-9980
▁نایابەکانی	-9981
▁بازن	-9982
شێوە	-9983
▁حام	-9984
▁بزانم	-9985
▁پەروەردگ	-9986
▁کارەکتەر	-9987
ێژکراو	-9988
▁مانایە	-9989
▁بەئەندا	-9990
▁لەرێگای	-9991
▁be	-9992
▁خوانەن	-9993
▁هەوڵێک	-9994
یداو	-9995
▁عیز	-9996
▁زانین	-9997
▁مۆسکۆ	-9998
▁پێوەری	-9999
▁کونسوڵی	-10000
ۆڵە	-10001
▁تەخت	-10002
▁جەناب	-10003
▁لەیاد	-10004
▁لەشوێن	-10005
▁زەردەشت	-10006
▁کەخ	-10007
ایەوەو	-10008
▁سرووشتی	-10009
▁خەڵکەکەی	-10010
▁لەهەندێک	-10011
اتێکی	-10012
فرانس	-10013
▁لەباش	-10014
راف	-10015
▁هند	-10016
▁لەلا	-10017
▁وەلامی	-10018
▁پاشگەز	-10019
▁نایەوێت	-10020
▁تاقیکردنەو	-10021
▁قاعیده	-10022
▁لەبەری	-10023
▁هەریەکەیان	-10024
حیا	-10025
▁سەفەری	-10026
▁ستراتیجی	-10027
▁زمانەوانی	-10028
ارییەکی	-10029
▁حزبەکەی	-10030
▁بەژ	-10031
نییە	-10032
▁شەک	-10033
▁غەد	-10034
▁دەبوون	-10035
▁لەگەلا	-10036
72	-10037
چێتی	-10038
بێتە	-10039
▁کەسه	-10040
▁ئێرانیش	-10041
▁ئەمەیان	-10042
96	-10043
az	-10044
▁پیادە	-10045
▁گرفتە	-10046
▁هەڵیان	-10047
گیرکردنی	-10048
▁پەیکەری	-10049
▁وێنەگرتنی	-10050
▁دلێر	-10051
▁کۆلێژ	-10052
▁ئامادەبووان	-10053
▁دانوست	-10054
سەنگ	-10055
▁دێته	-10056
▁نیوە	-10057
▁شێعرەکانی	-10058
▁حەد	-10059
▁تائی	-10060
▁کایەی	-10061
▁کاربەدەس	-10062
▁مانی	-10063
▁ڕوکن	-10064
▁جەولەی	-10065
▁نەتوان	-10066
ەنەکردنی	-10067
▁دواییەی	-10068
▁دروستکردن	-10069
ەلەی	-10070
▁باند	-10071
▁سواری	-10072
▁بەپەلە	-10073
حە	-10074
▁باسم	-10075
▁خۆڕاگر	-10076
▁زاراوەی	-10077
▁هاوپەیمانان	-10078
▁بۆیەش	-10079
▁لەئەندا	-10080
▁کم	-10081
▁بخۆن	-10082
▁کەرب	-10083
▁هەوڵدەد	-10084
▁پارێزگار	-10085
▁مێژوودا	-10086
▁پەروەردگارا	-10087
76	-10088
▁هەبوە	-10089
ووەکانی	-10090
▁خواردنەوە	-10091
▁سەپتەمبەر	-10092
▁گۆشتی	-10093
▁دەمێکە	-10094
▁فاکتەری	-10095
ڕووی	-10096
▁000	-10097
▁دەرگا	-10098
▁ژنانە	-10099
وورو	-10100
▁فەیسبوو	-10101
▁بڕیاردان	-10102
▁ئەستەم	-10103
▁کتێبێکی	-10104
▁ئیمانداران	-10105
▁بووک	-10106
▁بۆری	-10107
▁پێشین	-10108
▁بەردەر	-10109
▁مەترسیی	-10110
جارە	-10111
▁دەوت	-10112
زەکانی	-10113
تەق	-10114
▁لەخولی	-10115
جیز	-10116
▁بەرچ	-10117
رەم	-10118
▁فەق	-10119
▁ئالی	-10120
▁کاتەوە	-10121
▁بەمجۆرە	-10122
▁لەوڵاتانی	-10123
وڵا	-10124
▁بیروڕا	-10125
▁واژۆ	-10126
▁کچێک	-10127
▁هاوولاتیانی	-10128
▁کۆک	-10129
▁لەوەڵ	-10130
▁پشی	-10131
ۆکاری	-10132
▁بنوس	-10133
▁گەیاندن	-10134
▁کت	-10135
بووەوە	-10136
▁ئەفریقی	-10137
▁ناسراوی	-10138
▁قژ	-10139
▁لەفەر	-10140
▁گەنجە	-10141
▁ناسینی	-10142
ڤن	-10143
▁حاڵەتێکی	-10144
▁لێژن	-10145
▁خەف	-10146
▁دەڵی	-10147
▁خەڵکەوە	-10148
▁سۆل	-10149
▁مەند	-10150
▁یەکدا	-10151
▁داوەتە	-10152
▁دەیانەوێت	-10153
▁ئەنجامدراوە	-10154
▁بوارەکاندا	-10155
▁هەتاو	-10156
▁نیویۆرک	-10157
جان	-10158
▁قەزاو	-10159
▁وەرنا	-10160
▁لەوەکرد	-10161
▁بڕیارێک	-10162
کتۆر	-10163
▁2002	-10164
▁شەممەی	-10165
▁یانەکە	-10166
الاک	-10167
▁دگەل	-10168
▁شۆفێر	-10169
▁نازناو	-10170
▁نەخۆشخان	-10171
▁کەیەک	-10172
▁فۆل	-10173
▁بدەیت	-10174
▁بەرشل	-10175
▁دەتان	-10176
▁کێشانە	-10177
▁منداڵەکانی	-10178
ews	-10179
▁نەزاه	-10180
▁هەواڵە	-10181
▁خات	-10182
▁شەراک	-10183
▁گەیاندە	-10184
▁هەنگاوێک	-10185
▁تێپەڕبوونی	-10186
ter	-10187
▁مەین	-10188
وانینە	-10189
▁پێتان	-10190
▁توێژینەوە	-10191
▁ڕونکردنەوەی	-10192
16	-10193
▁کێیە	-10194
▁ئەڵێن	-10195
▁نەیویست	-10196
مەس	-10197
ێردا	-10198
▁کێو	-10199
▁پێهات	-10200
انەیەکی	-10201
▁شانۆگەر	-10202
▁ئاسانکاری	-10203
اوم	-10204
ێتەوەو	-10205
▁لاپەڕەی	-10206
▁پارەیەکی	-10207
▁پەیوەندیان	-10208
▁شاش	-10209
▁ببەن	-10210
▁یاساکان	-10211
▁پارەو	-10212
▁بڕوانە	-10213
▁هەندرێن	-10214
▁پڕۆژەکانی	-10215
اکەم	-10216
▁خوادا	-10217
▁ڕێگرتن	-10218
▁قەرەداغی	-10219
▁گرانی	-10220
▁گەشەکردن	-10221
امه	-10222
نەم	-10223
واند	-10224
▁بڕین	-10225
▁لەکوێ	-10226
▁پڕۆژه	-10227
▁خۆشبەختانە	-10228
▁نەیانتوانیوە	-10229
▁قۆڵ	-10230
▁ئێستایش	-10231
▁سەک	-10232
ەنینی	-10233
▁ڕەسەنی	-10234
▁ناوبانگی	-10235
▁بڕیارەکەی	-10236
▁دەکەوێتەوە	-10237
کوت	-10238
▁کیلۆ	-10239
48	-10240
ەکرن	-10241
▁مەراسیم	-10242
▁بەسەریاندا	-10243
▁سەه	-10244
▁نائومێد	-10245
▁جلی	-10246
▁فکر	-10247
▁ڤال	-10248
کرابوو	-10249
▁بەگرنگ	-10250
▁ناودەب	-10251
▁هێنایە	-10252
▁قورئانی	-10253
▁هەنووکە	-10254
▁سەروەریی	-10255
▁کۆمسیۆنی	-10256
▁دەرنە	-10257
▁کەشوه	-10258
▁کوڕەکەی	-10259
▁دابەزینی	-10260
▁بگواز	-10261
▁هەنوک	-10262
▁دەگاته	-10263
ەینەوە	-10264
▁ئاسوود	-10265
▁لەتوان	-10266
▁ڕابەری	-10267
▁بەئامان	-10268
▁120	-10269
▁کردی	-10270
▁ئاستە	-10271
کردنێکی	-10272
▁لۆژیکی	-10273
▁لەکۆبوونەوەکەدا	-10274
کەرک	-10275
▁سەربە	-10276
▁خۆپیشاندانەکانی	-10277
▁فین	-10278
▁یەکگرتنەوەی	-10279
▁سەت	-10280
▁دوەم	-10281
▁حەوتەم	-10282
▁زۆرەوە	-10283
▁وروژ	-10284
▁چاوم	-10285
▁خشتەی	-10286
▁ئەندازیاری	-10287
قام	-10288
▁فیلمەکە	-10289
▁ڕووباری	-10290
اییان	-10291
ووسین	-10292
▁دەیخ	-10293
▁پێکەوه	-10294
ia	-10295
نس	-10296
▁ئەوین	-10297
▁محەمەدی	-10298
▁ئاوەدانکردنەوە	-10299
نوری	-10300
▁شارەزایانی	-10301
ەیەکیش	-10302
▁خاوەنەکەی	-10303
▁قوربانیان	-10304
▁مافەکانیان	-10305
▁66	-10306
ەکانیشدا	-10307
▁نەخوێندەو	-10308
رۆش	-10309
▁ئەقڵ	-10310
▁بەچاوی	-10311
▁تەلاری	-10312
▁جوانتر	-10313
▁بڕۆن	-10314
▁باڵند	-10315
▁ڕاپەرین	-10316
تاش	-10317
گیراو	-10318
▁ڕکابەری	-10319
▁کوردییە	-10320
▁پێچەوانە	-10321
▁ماونەتەوە	-10322
▁ڕائ	-10323
▁بەرتەس	-10324
ەکانیەوە	-10325
▁قاو	-10326
▁یەن	-10327
ەکمان	-10328
▁دەڵێیت	-10329
▁بۆچوونە	-10330
▁نازانین	-10331
▁بڕیاردرا	-10332
▁لەحکومەت	-10333
▁ناوخۆو	-10334
▁لەسوریا	-10335
نێکی	-10336
▁دەبرد	-10337
▁بباتەوە	-10338
▁کوردوستان	-10339
▁خولەکەکانی	-10340
▁ڕۆب	-10341
▁ئەلبوو	-10342
ەگەڕ	-10343
32	-10344
▁بەڕێزان	-10345
▁حسێن	-10346
▁مۆری	-10347
▁سلیمانی	-10348
▁فیرعەون	-10349
▁لێدوانێکیدا	-10350
یدیای	-10351
▁سەندیکا	-10352
▁سودی	-10353
▁جەزائ	-10354
▁کودەت	-10355
▁هونەرە	-10356
ێبەجێکردنی	-10357
▁ئازادیخوازی	-10358
ەڵێت	-10359
▁دادو	-10360
▁موسل	-10361
هەولێر	-10362
▁کەناری	-10363
▁ئامەد	-10364
▁دێنێت	-10365
▁کامیر	-10366
▁ئێمەیان	-10367
ەراڵ	-10368
▁شەهر	-10369
▁دەربچێت	-10370
▁بنکەکانی	-10371
دەکرد	-10372
نەوەو	-10373
▁قادری	-10374
▁خۆیانە	-10375
▁قەوارەی	-10376
باس	-10377
▁عاشقی	-10378
▁نیگار	-10379
▁کۆدەب	-10380
▁کۆیلە	-10381
▁ئێستاکە	-10382
سیر	-10383
▁پێوەندیی	-10384
ێزان	-10385
▁پرۆژەکانی	-10386
▁سادق	-10387
▁نشین	-10388
▁ڕۆڵە	-10389
▁ئەنداز	-10390
▁مۆندیال	-10391
▁ئۆز	-10392
▁پەرد	-10393
▁پرەنسیپ	-10394
ەهۆی	-10395
ویانە	-10396
▁خۆشم	-10397
▁نیسانی	-10398
▁شەرعییەتی	-10399
▁کەمپینی	-10400
▁پێشانگایەکی	-10401
▁)،	-10402
▁ئاوازی	-10403
▁نیوەڕۆ	-10404
▁پێنجشەممە	-10405
▁نوخ	-10406
▁بەچاو	-10407
▁هەبووەو	-10408
▁دەبەستێت	-10409
کێک	-10410
▁لەماف	-10411
▁لەناک	-10412
▁بەڵگەو	-10413
▁سۆرانی	-10414
▁مەهاباد	-10415
▁ڕێبەرانی	-10416
▁ساڵەدا	-10417
▁2015	-10418
▁ئەوس	-10419
▁بەهی	-10420
▁ڕەها	-10421
▁تواناو	-10422
▁ئاشکراشی	-10423
▁میدیاکان	-10424
▁ڕەواکانی	-10425
▁تەمەنیان	-10426
▁گوندنشین	-10427
▁بەندەکانی	-10428
▁دامەزراند	-10429
▁ئەڵێ	-10430
▁نەوەد	-10431
▁کوردا	-10432
ندە	-10433
کیش	-10434
▁نۆز	-10435
تدا	-10436
▁بەفی	-10437
▁گوفت	-10438
▁بەتۆم	-10439
▁خۆڕاگری	-10440
▁بەکارهێن	-10441
▁پاشەکشەی	-10442
▁بپرسین	-10443
▁قەزافی	-10444
بەند	-10445
▁توش	-10446
▁کارێ	-10447
▁خۆپیشاندانەکان	-10448
▁ڕوژ	-10449
▁پیرە	-10450
▁ئەرمەن	-10451
▁ئەستەمە	-10452
▁مامەڵەکردن	-10453
کردووه	-10454
▁دەیگوت	-10455
▁شوناسی	-10456
▁بەئەنجام	-10457
▁ئیسلامییە	-10458
▁دابنێن	-10459
▁پێکردنی	-10460
▁پەری	-10461
▁نابێتە	-10462
▁ڕاوێژکار	-10463
▁غەی	-10464
▁مەکە	-10465
▁هەرزان	-10466
▁بەئاوێنەنیوزی	-10467
▁وبە	-10468
▁یاوەر	-10469
▁سۆڤیەت	-10470
▁ستایش	-10471
▁بەرزنج	-10472
مس	-10473
تراز	-10474
▁نالی	-10475
ەرد	-10476
▁دایه	-10477
▁لەوەر	-10478
▁منەوە	-10479
▁نوجێفی	-10480
▁یەکیتی	-10481
▁کۆمەڵگەدا	-10482
امدا	-10483
▁فەڵ	-10484
▁مرو	-10485
وێنەر	-10486
▁سەرمای	-10487
▁فیدرال	-10488
▁لەئایند	-10489
▁کەموکوڕی	-10490
ستمی	-10491
ەخۆر	-10492
▁لەمە	-10493
▁ئەمیش	-10494
▁دوژمنان	-10495
▁نەتەوەیەکی	-10496
▁وەڵامدانەوەی	-10497
بارانی	-10498
▁ئەدیب	-10499
▁سڕینەوەی	-10500
▁دەسەڵاتداری	-10501
▁ڕۆناڵ	-10502
▁لانیکەم	-10503
▁ڕۆژهەلاتی	-10504
▁گۆت	-10505
▁بگەن	-10506
▁هاوخ	-10507
▁مەرکەزی	-10508
▁کۆبوونەوەیەدا	-10509
ەبێ	-10510
▁میری	-10511
▁ئەنجامە	-10512
▁ئەندازەی	-10513
▁هۆکارەکەی	-10514
ابو	-10515
وارە	-10516
▁ئەوجا	-10517
▁ساتەوە	-10518
▁بنکەیەکی	-10519
▁پرۆفیسۆر	-10520
▁جینۆسایدی	-10521
▁بەیاننامەیەکی	-10522
▁مەحکوم	-10523
▁زۆرو	-10524
▁کڕین	-10525
دانێکی	-10526
▁بۆمبڕ	-10527
▁ئۆفیسی	-10528
▁یەکیان	-10529
▁ئیمپراتۆری	-10530
▁فەرمانڕەوایی	-10531
ەکەشیان	-10532
▁دەدوێت	-10533
ویر	-10534
ێلسی	-10535
الەتی	-10536
▁دیوی	-10537
▁بۆندی	-10538
▁مەعنەوی	-10539
▁سەرچاوه	-10540
▁ئەیان	-10541
▁دەرچووی	-10542
▁سەرەوەی	-10543
رۆپ	-10544
▁دواین	-10545
▁لەبارە	-10546
▁کارگێڕ	-10547
▁هەفتەیەدا	-10548
▁کۆمەڵگایە	-10549
▁فڵ	-10550
▁شۆرشی	-10551
▁یاسادان	-10552
▁خۆپێشاندان	-10553
اکت	-10554
ماڵی	-10555
میلان	-10556
▁یۆنیۆ	-10557
▁قەرەبووی	-10558
▁قاڵ	-10559
▁جەنگە	-10560
▁گوشار	-10561
▁پێویستیی	-10562
▁نەشی	-10563
▁هەوڵەکان	-10564
....	-10565
▁ئەندازیار	-10566
▁ئاشکراکردنی	-10567
ak	-10568
▁کارنامەی	-10569
رابوون	-10570
گەیە	-10571
ووداو	-10572
▁خوالێ	-10573
▁پێشەکی	-10574
نت	-10575
▁لک	-10576
▁توخ	-10577
▁قون	-10578
▁ئوسامە	-10579
▁جوانەکانی	-10580
▁لەکۆتاییدا	-10581
▁کۆمەڵگەیەکی	-10582
پۆرت	-10583
▁دیاریکراوە	-10584
▁مووش	-10585
▁کارم	-10586
▁میانی	-10587
▁پێدەکەن	-10588
▁تەقل	-10589
▁نامە	-10590
▁فیدرالی	-10591
▁سێر	-10592
وابوو	-10593
ەقامی	-10594
▁دوود	-10595
▁هاوڕێک	-10596
▁جب	-10597
ەکەکانی	-10598
▁سلێمانیدا	-10599
ورک	-10600
▁ڕەوشتی	-10601
▁کێن	-10602
▁کرانەوە	-10603
▁بەرامبەردا	-10604
se	-10605
▁زۆرم	-10606
▁شوێنەی	-10607
▁هەشتەم	-10608
▁دەباغ	-10609
▁ئەفسەری	-10610
▁سەردانەی	-10611
ذا	-10612
کەند	-10613
▁جەمسەر	-10614
▁77	-10615
▁قر	-10616
▁بەپەر	-10617
کردنەوه	-10618
▁مەرجەکانی	-10619
▁هەموولایەک	-10620
▁76	-10621
▁خاوێن	-10622
▁جەوهەری	-10623
ورا	-10624
▁بەختی	-10625
▁گشتگیر	-10626
▁لەسنوری	-10627
▁لیبی	-10628
▁باخچەی	-10629
▁بەهێزە	-10630
▁میح	-10631
▁کردین	-10632
▁گوزەر	-10633
▁دێتەوە	-10634
▁بەناوبانگی	-10635
▁چارەسەرێکی	-10636
right	-10637
دراوە	-10638
▁هەوڵە	-10639
▁ڕێوڕەسمی	-10640
▁ئەول	-10641
▁دونی	-10642
▁تیرۆرستی	-10643
▁وەربگرین	-10644
▁دابمەزرێن	-10645
ەوس	-10646
ەتیی	-10647
▁مێژو	-10648
▁پێکدێت	-10649
▁شتانە	-10650
▁بدەنەوە	-10651
ێیدا	-10652
▁مورسی	-10653
▁گۆڵچی	-10654
▁ناگرێت	-10655
▁گوێڕای	-10656
بوک	-10657
▁برادەر	-10658
اتێ	-10659
▁دووک	-10660
▁ئۆبام	-10661
▁خوداو	-10662
▁لەکوردستانی	-10663
دوتی	-10664
امنێر	-10665
▁کوبانێ	-10666
▁دیالۆگی	-10667
▁دووەمیان	-10668
▁یارییەکەی	-10669
▁بابان	-10670
▁لەدایکبوونی	-10671
▁کڕ	-10672
▁مۆل	-10673
▁ئەلبوم	-10674
▁ڕێکخراوه	-10675
▁ئادەمیزاد	-10676
▁جە	-10677
▁تاچەند	-10678
▁فیدراسیۆن	-10679
▁بپ	-10680
▁شاج	-10681
▁قەدەر	-10682
▁بەبیان	-10683
▁بەخۆوە	-10684
▁بیرەوەر	-10685
▁داعشەوە	-10686
▁ئەلیکترۆنی	-10687
خورم	-10688
ەسازی	-10689
▁ئەوەوە	-10690
▁جیاوازن	-10691
دەکرێتەوە	-10692
▁بەلێ	-10693
▁کەسان	-10694
▁سەرمایەی	-10695
▁یو	-10696
ارانە	-10697
وێنێت	-10698
▁سازی	-10699
مانیان	-10700
▁نەخشە	-10701
▁تیژ	-10702
▁جنێو	-10703
▁ڕۆڵەکانی	-10704
▁کۆنترۆڵکردنی	-10705
▁پردی	-10706
▁بیروڕای	-10707
▁کەئێستا	-10708
▁بابەتەکە	-10709
▁ئەوروپادا	-10710
▁لێپرسراوانی	-10711
wnj	-10712
نەڤ	-10713
▁نووسەرە	-10714
▁لێدوانەکەی	-10715
نیە	-10716
ێیەکی	-10717
▁دووەمدا	-10718
▁بەسەرهات	-10719
▁لەکۆنگرەیەکی	-10720
ڵێن	-10721
یشن	-10722
▁بەگژ	-10723
▁بایدن	-10724
▁کەمین	-10725
▁ئەمریکاوە	-10726
ایلی	-10727
▁zwnj	-10728
ەکردنە	-10729
▁بیرمەند	-10730
▁سیروانی	-10731
▁حزبایەتی	-10732
▁نێوانیاندا	-10733
هێنی	-10734
زیاتر	-10735
▁ئەنجامێکی	-10736
▁بەپێویستی	-10737
سەند	-10738
ڕم	-10739
▁زیادەڕ	-10740
▁تازه	-10741
▁کاغەز	-10742
▁خۆپێشاند	-10743
▁شیاوی	-10744
▁نەکراو	-10745
▁بزوتنەو	-10746
▁دەستدرێژ	-10747
▁کەسایەتییەکی	-10748
▁زەرەر	-10749
▁ئەزموونە	-10750
▁نەیارانی	-10751
▁هەناردەکردنی	-10752
بم	-10753
▁لەپێک	-10754
▁بەرپەر	-10755
اویی	-10756
▁org	-10757
▁ساتی	-10758
▁کۆمەڵەکانیش	-10759
▁پایی	-10760
▁باژێر	-10761
▁گەمەی	-10762
▁دیمانە	-10763
▁جید	-10764
▁بکەو	-10765
▁نوێب	-10766
▁کەبۆ	-10767
رانەوە	-10768
▁موعجیز	-10769
▁گەڕاندنەوەی	-10770
ووز	-10771
گواست	-10772
▁دهوکێ	-10773
▁باوەڕتان	-10774
▁ڕێنموویی	-10775
▁پەرەسەندنی	-10776
دەکرێن	-10777
▁کۆچبەر	-10778
▁بەپارێز	-10779
▁لەنزیکەوە	-10780
▁گۆرانکاری	-10781
▁لێپرسینەوە	-10782
دەوام	-10783
▁بازار	-10784
▁پەرەی	-10785
▁یۆنانی	-10786
بژ	-10787
▁وح	-10788
▁کۆتا	-10789
▁بەرێت	-10790
▁شوناس	-10791
▁ئەندامەی	-10792
▁مۆزەخانەی	-10793
▁ئابی	-10794
▁مسوڵمان	-10795
▁لەدەرەوە	-10796
ەدەم	-10797
هەڵات	-10798
▁تەور	-10799
ووترین	-10800
▁توێژە	-10801
▁خرایە	-10802
▁بێگانە	-10803
▁خەڵکیش	-10804
کردۆتەوه	-10805
▁ئەنارکی	-10806
▁لەزۆربەی	-10807
▁بۆچونی	-10808
▁زانستە	-10809
▁زەمەنی	-10810
▁فرۆشتن	-10811
ەکەماندا	-10812
▁بەختەوەری	-10813
▁عێراقیەکان	-10814
بولی	-10815
▁خانی	-10816
▁دەگەی	-10817
▁خۆرئاوای	-10818
زافی	-10819
فرۆشی	-10820
▁کەتی	-10821
یرەی	-10822
▁شکۆ	-10823
▁ناون	-10824
▁کاتژمێری	-10825
ەڕووی	-10826
▁تێرۆری	-10827
▁مەحاڵە	-10828
▁توانایی	-10829
▁تاقە	-10830
▁هەوڵیان	-10831
▁ڕێگایەکی	-10832
▁ئاپۆ	-10833
▁تۆیە	-10834
▁ئەیوب	-10835
▁شێعردا	-10836
▁پێبدرێت	-10837
▁کەمتەرخەم	-10838
▁ئەمجارەیان	-10839
▁لەکۆم	-10840
▁ئەوانەوە	-10841
▁بزوتنەوە	-10842
▁جیاجیا	-10843
▁خێزانە	-10844
▁کارانە	-10845
بووین	-10846
▁پاشەکشە	-10847
▁فراوانکردنی	-10848
▁ڕامان	-10849
▁فاتی	-10850
▁قانون	-10851
▁موقتەدا	-10852
▁هەورامان	-10853
▁نمایشکردنی	-10854
▁بەرنامەکانی	-10855
▁شارۆچکەکانی	-10856
▁ئەنفالکراوەکان	-10857
▁دیف	-10858
▁جارێکیتر	-10859
▁جوتیاران	-10860
▁لەداهاتوودا	-10861
▁پیری	-10862
▁ئەمڕۆدا	-10863
▁ساتێک	-10864
▁هاوڕێکانی	-10865
▁بڵاوکرایەوە	-10866
ُّ	-10867
▁زل	-10868
▁کەج	-10869
▁جلوبەرگ	-10870
▁گوندەکان	-10871
ect	-10872
خەی	-10873
پارتی	-10874
▁دەگمەن	-10875
▁ئەزموونێکی	-10876
▁مەراسیمی	-10877
▁جووت	-10878
ڤێ	-10879
▁بکه	-10880
▁بزاڤی	-10881
▁بکەون	-10882
▁پیرۆزە	-10883
▁ئازادییە	-10884
▁بەرزترین	-10885
▁بەرزنجەیی	-10886
ەفەر	-10887
▁شەشەمی	-10888
▁گەورەش	-10889
قول	-10890
▁سنورد	-10891
▁کردۆتەوە	-10892
▁تاڕادەیەک	-10893
ستۆ	-10894
▁عیل	-10895
▁بەرگەی	-10896
▁کامیان	-10897
▁ابن	-10898
▁ماڵو	-10899
▁فەلاح	-10900
▁دیپلۆماسی	-10901
▁حەقی	-10902
▁هەڵخەڵ	-10903
▁ئەفریقا	-10904
▁کوژراوە	-10905
▁دامەزراوەکانی	-10906
▁چەمکە	-10907
▁بەربەر	-10908
▁لەلێدوانێکدا	-10909
▁پاڵەوانەکانی	-10910
▁چەر	-10911
وڵاتی	-10912
کردوو	-10913
ەپانی	-10914
▁درۆی	-10915
▁لەنەخۆش	-10916
ئێمه	-10917
▁بول	-10918
بکرێن	-10919
▁لەکەن	-10920
▁پشووی	-10921
▁ببینین	-10922
▁دەسەڵاتەکانی	-10923
▁قەوارە	-10924
▁لەبوار	-10925
▁دەرئەنجامەکانی	-10926
▁ات	-10927
ەواوی	-10928
▁یەحیا	-10929
▁قەززافی	-10930
▁کوردستانن	-10931
▁لێبووردن	-10932
▁لەبەرامبەریشدا	-10933
▁گەنجێک	-10934
▁نمایشکرا	-10935
▁سەرکەوتنێکی	-10936
یانەدا	-10937
ەکەکان	-10938
▁لاتینی	-10939
▁سۆسیالیستی	-10940
دیو	-10941
▁دەرهێنان	-10942
▁نیشاندانی	-10943
▁ئامرازی	-10944
لق	-10945
urd	-10946
نەد	-10947
▁هو	-10948
▁کیس	-10949
ەوەکان	-10950
▁خایاند	-10951
▁سەربازانی	-10952
▁چێلسی	-10953
▁دەرهێن	-10954
▁بەرژەوەندیەکانی	-10955
فۆر	-10956
▁نالین	-10957
▁کۆنتڕۆڵی	-10958
▁داعشی	-10959
▁داکۆکیکردن	-10960
▁جوام	-10961
▁دەرەک	-10962
▁دیدارەکەدا	-10963
▁بەپلەی	-10964
▁دەگوزەر	-10965
▁ئافرەتێکی	-10966
▁ض	-10967
ەوێڵ	-10968
پەرستن	-10969
▁هەڵگرتنی	-10970
▁جەهانگیری	-10971
▁دەگێڕێتەوە	-10972
▁سری	-10973
▁بیرەوەری	-10974
▁نموونەیەکی	-10975
اشا	-10976
▁ڕاگرت	-10977
▁ئێمەوە	-10978
▁ئەوانەن	-10979
aw	-10980
▁هێرشبەر	-10981
ەکم	-10982
وودە	-10983
بنەوە	-10984
▁پشدەر	-10985
▁بەڕێوەبچێت	-10986
رنا	-10987
▁هەڵات	-10988
زەت	-10989
▁نیوەر	-10990
▁کەهەموو	-10991
▁نەخۆشییە	-10992
▁لەڕی	-10993
▁لەناوەڕ	-10994
▁بەرهەمهێن	-10995
▁پلاندانان	-10996
زیا	-10997
ەجۆر	-10998
▁موچە	-10999
▁ناوبانگ	-11000
18	-11001
حان	-11002
▁ئازیز	-11003
▁تەلەڤ	-11004
▁سەفین	-11005
▁کوتله	-11006
▁خواستەکانی	-11007
▁تارم	-11008
▁بۆردومانی	-11009
▁شەع	-11010
▁لەلی	-11011
▁پژاک	-11012
▁هەقیق	-11013
▁ڕابکێش	-11014
▁پیشەسازیی	-11015
بەکر	-11016
▁ڕاهێن	-11017
▁تەکنیک	-11018
▁حیکمەت	-11019
▁ڕێگەیان	-11020
ەپەگە	-11021
▁بۆته	-11022
▁بەحر	-11023
▁بەرزو	-11024
▁ئەمنیی	-11025
▁بارانی	-11026
▁کاریکات	-11027
▁پرسیارێک	-11028
▁102	-11029
▁جاک	-11030
▁بەپێش	-11031
▁لەخۆر	-11032
▁چالاکییە	-11033
▁قڕ	-11034
عەزیز	-11035
▁نازو	-11036
▁پرۆسە	-11037
▁نەدرێت	-11038
▁کێشانەی	-11039
▁ڕزگاریخوازی	-11040
▁چەن	-11041
▁ڕوم	-11042
کراوەی	-11043
▁شێرپەنجەی	-11044
ۆشن	-11045
سادق	-11046
▁ئیمە	-11047
▁بەشیر	-11048
▁ڕۆڵەی	-11049
▁بەخۆیان	-11050
▁138	-11051
▁زۆرەی	-11052
▁گەلەکەی	-11053
▁فۆتۆگراف	-11054
▁دەستەواژەی	-11055
بایە	-11056
▁دووچاری	-11057
تار	-11058
▁لێمان	-11059
▁ئاگایی	-11060
▁ساڵێکە	-11061
▁منداڵێک	-11062
▁بەردەوامەو	-11063
اوەیە	-11064
▁فریاد	-11065
▁ئیئتلافی	-11066
).	-11067
تردا	-11068
ۆلیس	-11069
▁وەش	-11070
▁میرات	-11071
▁مەکسی	-11072
کەرکوکی	-11073
▁بایی	-11074
▁لەری	-11075
▁دەگواز	-11076
▁لەپرۆسەی	-11077
▁قوتابخانەکان	-11078
اریا	-11079
▁بزاڤ	-11080
▁خوایش	-11081
▁هەرێما	-11082
▁لەوڵاتی	-11083
▁میژ	-11084
▁شۆ	-11085
▁گوێیان	-11086
▁سەرچاوەکان	-11087
روف	-11088
وایه	-11089
▁نها	-11090
ۆچوون	-11091
▁دارو	-11092
▁لەسەریان	-11093
▁دروستدەکات	-11094
هیچ	-11095
▁ام	-11096
یستە	-11097
▁گیرۆ	-11098
▁هەتاوی	-11099
▁خانو	-11100
میر	-11101
▁جۆرەی	-11102
▁پوچەڵ	-11103
▁دەگیرێت	-11104
▁73	-11105
▁دادی	-11106
▁سەنگی	-11107
▁دینارە	-11108
▁ئەوروپای	-11109
▁جیابوونەوەی	-11110
▁بڵاویکردۆتەوە	-11111
▁پۆزەتیڤ	-11112
▁تەلەفیزی	-11113
▁چارەسەرکردن	-11114
باب	-11115
▁لەبەشی	-11116
▁هەستکردن	-11117
اشەوە	-11118
ەسەرک	-11119
▁پێدە	-11120
▁ئۆڵۆمپی	-11121
▁ئەوەکرد	-11122
▁بەخێرایی	-11123
کة	-11124
▁جڵ	-11125
ۆرکشۆپ	-11126
▁دیجلە	-11127
▁نوسراو	-11128
art	-11129
▁ڕەوتە	-11130
▁شاعیرە	-11131
▁پێگەیەکی	-11132
▁پڕکردنەوەی	-11133
▁وڵاتەی	-11134
▁ڕۆشنبیرانی	-11135
▁خێرو	-11136
▁کیمیابارانی	-11137
▁دەکرێ	-11138
▁بەدواوە	-11139
▁چاوپۆشی	-11140
▁زەردەشتی	-11141
▁حکومەتەوە	-11142
▁باشترکردنی	-11143
▁خۆپیشاندەر	-11144
▁هۆر	-11145
▁وەکی	-11146
ڤیچ	-11147
وێنن	-11148
▁بەناچ	-11149
▁عەتا	-11150
▁ڕێزو	-11151
▁نییەل	-11152
وسڵ	-11153
▁جۆش	-11154
▁گفتوگۆکان	-11155
لەک	-11156
▁لەگەڵی	-11157
▁هوشیار	-11158
کوردستان	-11159
▁گەردوون	-11160
▁حیزبەکانی	-11161
یشم	-11162
▁پیلانی	-11163
گیان	-11164
▁ئایاری	-11165
▁بەکاتی	-11166
▁یارمەتیدەر	-11167
▁سالارکەرکوکی	-11168
▁کێشم	-11169
▁گەڕایەوە	-11170
▁جیاوازییەکی	-11171
▁بۆچ	-11172
▁ژور	-11173
▁وەبەرهێن	-11174
▁دژایەتیکردنی	-11175
▁64	-11176
درێژ	-11177
▁پرۆت	-11178
▁دڵیان	-11179
▁زاهیر	-11180
▁پێناد	-11181
▁پارتێکی	-11182
▁ڕزگاریان	-11183
▁تاوانەکان	-11184
محەمەد	-11185
▁گوتار	-11186
▁لەنێوانی	-11187
ژمێر	-11188
▁جێگ	-11189
▁پێگە	-11190
▁ساڵێکی	-11191
▁پەرلەمانتارێکی	-11192
▁لەمەش	-11193
اتەکانی	-11194
▁بارهەڵ	-11195
▁سوریای	-11196
▁پێشکێش	-11197
▁لێدوانەکانی	-11198
▁پایە	-11199
▁کەلوپەلی	-11200
▁دەسەڵاتیان	-11201
10	-11202
رور	-11203
▁لاس	-11204
ونەوە	-11205
▁قۆڵی	-11206
▁کاته	-11207
▁ئەیلوول	-11208
▁گفتوگۆیەکی	-11209
▁قۆرخ	-11210
▁وەستاوە	-11211
ort	-11212
▁1990	-11213
▁لێکردن	-11214
▁ناعەدا	-11215
ەگەر	-11216
▁ڕیکلام	-11217
عای	-11218
▁عیراقی	-11219
▁موزایەد	-11220
▁کێشەکەی	-11221
▁بەرەکانی	-11222
▁هەماهەنگ	-11223
ەپەر	-11224
▁بۆس	-11225
▁دانوو	-11226
▁دەکرێنەوە	-11227
▁ناوەڕۆک	-11228
کێشانەوەی	-11229
▁داوایکرد	-11230
▁داوەتەوە	-11231
oc	-11232
▁کود	-11233
▁بەنم	-11234
▁دەمار	-11235
▁بخەینە	-11236
▁ڕۆیشتن	-11237
▁ترین	-11238
▁لایەنانە	-11239
▁700	-11240
▁قوم	-11241
دەوامی	-11242
▁شیعەو	-11243
▁کەمپی	-11244
▁کەرکوکدا	-11245
▁پێکهاتبوو	-11246
▁لم	-11247
▁ئاوێت	-11248
▁پێشمەرگه	-11249
▁لەجیهاندا	-11250
▁کەژاڵ	-11251
▁دەرماڵ	-11252
▁فلی	-11253
▁زەری	-11254
▁بەدرۆ	-11255
▁دەیەی	-11256
▁درێژکردنەوەی	-11257
▁نوک	-11258
▁عیسا	-11259
▁لەداد	-11260
▁هەنووک	-11261
▁ڕابوردوو	-11262
▁الث	-11263
▁حەزم	-11264
▁دەریان	-11265
▁فۆتۆگرافی	-11266
وع	-11267
▁بەهەند	-11268
▁شارەزوور	-11269
اکرێت	-11270
▁وڵام	-11271
▁کەوتنی	-11272
▁کاراکتەری	-11273
▁ئەوروپاو	-11274
▁وێنەگرتن	-11275
انیا	-11276
▁تکری	-11277
▁چەور	-11278
▁پاوان	-11279
▁جیهانیش	-11280
▁کلاسیکی	-11281
▁گەمارۆی	-11282
▁پێغەمبەران	-11283
گران	-11284
ئاوای	-11285
▁قسانەی	-11286
▁ڕۆژنامەکە	-11287
ەبە	-11288
وترێت	-11289
▁نایەک	-11290
▁مەعریف	-11291
▁شەهرستانی	-11292
▁هاتوونەتە	-11293
▁ئاوە	-11294
ووسەری	-11295
▁ئایەتی	-11296
▁جوتیار	-11297
▁شارەدا	-11298
▁ڕوانین	-11299
▁کارزان	-11300
▁تەلەڤزی	-11301
▁دەمێنێت	-11302
▁بەرلەوەی	-11303
گرنەوە	-11304
▁خەلاف	-11305
▁دەگرین	-11306
▁لێبورد	-11307
▁لەمەوپێش	-11308
▁حوزەیرانی	-11309
▁نور	-11310
▁بتوانرێت	-11311
▁پەرلەمانەوە	-11312
▁سازش	-11313
ەکەری	-11314
▁شێخان	-11315
▁کوردێک	-11316
▁مانایەی	-11317
▁بابەتەکان	-11318
▁لان	-11319
▁بەخت	-11320
▁جیاوازدا	-11321
▁سەردانێکی	-11322
▁ڕۆژنامەگەریی	-11323
▁پەژ	-11324
▁فیشەک	-11325
▁وەستا	-11326
جەر	-11327
ەسەن	-11328
▁تێز	-11329
▁تێنسی	-11330
▁ئازادە	-11331
▁هەیانە	-11332
▁بزووتنەو	-11333
▁وەزارەتەکان	-11334
▁یەکگرتوەکان	-11335
arch	-11336
ێشتر	-11337
▁بام	-11338
▁دانەن	-11339
▁لەحاڵ	-11340
▁سووتەمەنی	-11341
خوازیی	-11342
▁بەساڵ	-11343
▁ئاماژەم	-11344
▁شوێنانەی	-11345
اکەش	-11346
اوەنی	-11347
▁خولێکی	-11348
شەمم	-11349
▁کلین	-11350
▁ڕزق	-11351
یشمان	-11352
▁سەندیک	-11353
▁لەباری	-11354
▁بەرایی	-11355
▁ڕاشکاوانە	-11356
▁کۆرپ	-11357
▁تورکیاش	-11358
▁کۆمۆنیست	-11359
▁بەبەراورد	-11360
▁مانچستەری	-11361
هاتوون	-11362
▁ڕابگرێت	-11363
▁توانیمان	-11364
▁یەکخستنی	-11365
▁ئاشتەوایی	-11366
▁پسپۆری	-11367
▁ئازایەتی	-11368
باڵ	-11369
انیت	-11370
▁ئیمزای	-11371
▁دێرسیم	-11372
▁ڕاپۆرتە	-11373
▁هەرکاتێک	-11374
▁ڕۆزی	-11375
▁بابەتێک	-11376
▁سەلماندنی	-11377
▁y	-11378
▁لل	-11379
▁لەرۆژی	-11380
▁کەسایەتیی	-11381
▁بیروباوەڕی	-11382
▁لەگەڵیاندا	-11383
▁ئەرج	-11384
▁بەگەڕ	-11385
▁دیزای	-11386
▁پێنەد	-11387
▁سەربەست	-11388
بینن	-11389
▁لەرێی	-11390
▁پاشای	-11391
▁کەرنەڤ	-11392
▁خوێنەران	-11393
▁گەیاندووە	-11394
▁گەشتوگوزار	-11395
لەند	-11396
▁ئەهل	-11397
▁کۆنەپەر	-11398
▁دەمێننەوە	-11399
ەرتی	-11400
▁لێبێت	-11401
▁لەناوچەکانی	-11402
زن	-11403
▁حەشار	-11404
▁خۆبەخش	-11405
▁ناوچەکەی	-11406
▁دوژمنایەتی	-11407
▁پەیوەندیەکی	-11408
لوو	-11409
▁In	-11410
▁بەکۆم	-11411
▁دەستپێب	-11412
▁بازرگانیی	-11413
▁ئەنجامبدرێت	-11414
▁سید	-11415
▁سزاو	-11416
▁دراما	-11417
▁عەمەلی	-11418
بەرایەتی	-11419
uary	-11420
▁کەسەکان	-11421
ine	-11422
▁ڕیشەیی	-11423
▁تەقەیان	-11424
▁بەمەرجێک	-11425
▁خەڵکەکە	-11426
▁ئەنجامیان	-11427
▁یاریزانێکی	-11428
▁خوە	-11429
پەیامنێر	-11430
ورو	-11431
▁بزر	-11432
▁سنە	-11433
ئەحمەد	-11434
▁پڕۆژەیەک	-11435
اندنە	-11436
▁لادن	-11437
▁مەست	-11438
▁خۆشناو	-11439
▁نواندن	-11440
پڵ	-11441
▁هیج	-11442
▁هاوشێو	-11443
▁بەردەوامبوونی	-11444
▁ڕێگەو	-11445
▁دابڕێن	-11446
▁ڕۆڵیان	-11447
14	-11448
▁ڤه	-11449
پێدان	-11450
▁تەقەی	-11451
▁برسێتی	-11452
▁کەسایەتییە	-11453
▁عەبدولمەهدی	-11454
▁وأ	-11455
▁پێوەی	-11456
▁بادینان	-11457
▁هۆڵەندی	-11458
▁بەسەریدا	-11459
▁ڕاگەیاندنەکان	-11460
▁دڵڕ	-11461
▁کەمن	-11462
▁ئاستێک	-11463
▁زەمینە	-11464
▁ئەمنیەکانی	-11465
▁داخوازییەکانی	-11466
▁بێزاری	-11467
▁پەرستی	-11468
▁1975	-11469
▁بووبوو	-11470
▁هێزەکان	-11471
▁ڕادەکێش	-11472
20	-11473
ۆکۆ	-11474
▁ئیبن	-11475
▁ۆ	-11476
وڵی	-11477
ەوەز	-11478
امۆست	-11479
▁دراوی	-11480
▁لەبارەوە	-11481
▁پێکدادانی	-11482
▁الإ	-11483
اهیرە	-11484
▁قسەیەکی	-11485
▁لیژنەکە	-11486
▁ڕەخنەگرتن	-11487
▁پێکەوەژیان	-11488
▁ناوەندەکانی	-11489
ارس	-11490
▁پاپ	-11491
▁شەکر	-11492
▁گرتە	-11493
▁قائیم	-11494
انەوەیە	-11495
▁ین	-11496
▁فاشیزم	-11497
▁چڵ	-11498
▁بەرزنرخ	-11499
▁ڕووبدات	-11500
▁گفتوگۆیان	-11501
▁دیاریکراودا	-11502
▁گۆری	-11503
▁سەرکۆماری	-11504
▁74	-11505
یلان	-11506
▁یەپەگە	-11507
▁شێوەکار	-11508
▁بەردەستی	-11509
▁بەرپرسیاریەتی	-11510
ەلەر	-11511
▁ڕوح	-11512
بەستن	-11513
▁توێژەر	-11514
▁بڵاوکردۆتەوە	-11515
گرنگی	-11516
▁خراوەتە	-11517
▁قەناعەت	-11518
ریا	-11519
▁باق	-11520
▁ڕاچ	-11521
▁لەخۆیدا	-11522
▁هەژاران	-11523
▁بکاتەوەو	-11524
▁بەرەبەیانی	-11525
▁لەهەوڵ	-11526
▁هەڵوێستەی	-11527
▁میدیایی	-11528
▁چو	-11529
▁ڕوونە	-11530
▁داستان	-11531
▁خۆماندا	-11532
▁لەیەکێک	-11533
▁هەوڵدەدات	-11534
▁فرس	-11535
▁دەرک	-11536
▁دەمو	-11537
▁تایفی	-11538
▁مەعسوم	-11539
▁ڕێگەیەکی	-11540
▁تەرخانکراوە	-11541
pr	-11542
▁یەع	-11543
▁تاقمە	-11544
▁نەفرەت	-11545
▁پاساوی	-11546
▁نەبووەو	-11547
▁دەستگیرکراون	-11548
▁پەروەردگاریان	-11549
شه	-11550
▁نادر	-11551
▁وەرن	-11552
▁ئەجێندای	-11553
هانی	-11554
▁کریم	-11555
▁گەمژ	-11556
▁دەڕۆن	-11557
▁دەروێش	-11558
▁بەخوێند	-11559
▁جێبەجێن	-11560
ۆلیسی	-11561
یتەوە	-11562
▁لاری	-11563
▁خوی	-11564
▁مەتری	-11565
▁دەبرێت	-11566
▁دەستکرد	-11567
▁عەرەبیدا	-11568
▁دامودەزگا	-11569
▁لوق	-11570
▁وێڵ	-11571
▁مووسڵ	-11572
▁حیزبەکەی	-11573
▁داگیرکەران	-11574
▁ئەنفالکراوان	-11575
حەی	-11576
رایەر	-11577
▁زیات	-11578
▁گورگ	-11579
▁ناکاتەوە	-11580
▁جۆراوجۆرەکانی	-11581
شتێک	-11582
ازدەی	-11583
▁خستەسەر	-11584
▁میهرەبانی	-11585
▁بەدیار	-11586
▁دەسەڵاتدارێتی	-11587
▁ڤین	-11588
کردندا	-11589
▁بەهمەن	-11590
▁ڕەنگاو	-11591
▁ناونیشان	-11592
▁هەڵبژاردنێکی	-11593
کۆن	-11594
▁پاڵن	-11595
▁ڕواڵ	-11596
▁بیکات	-11597
▁ڕۆمانە	-11598
▁گریمان	-11599
▁حەیدەری	-11600
▁78	-11601
▁حوسنی	-11602
▁لەکەم	-11603
▁ڕووداوه	-11604
▁دڵنیاییەوە	-11605
▁وەزارەتەکانی	-11606
▁شۆڕشە	-11607
▁گرتوە	-11608
▁ئەلفوب	-11609
▁فەرمانەکانی	-11610
▁69	-11611
▁لێخۆش	-11612
▁سێدارە	-11613
▁شەمەند	-11614
▁بەسەرچوو	-11615
▁ناوێکی	-11616
▁بێئەوەی	-11617
▁دووپاتیکردەوە	-11618
ایەخ	-11619
▁سیح	-11620
▁کەبەر	-11621
وڵاتە	-11622
کردنه	-11623
▁قەزا	-11624
▁تێوەگ	-11625
▁پێبەخش	-11626
▁هەمەلایەن	-11627
▁190	-11628
ەلەرز	-11629
▁کەسێ	-11630
▁تێیاندا	-11631
▁بەقەد	-11632
▁جەعفەری	-11633
▁ئاواتی	-11634
▁دەداتە	-11635
▁شۆفێری	-11636
▁زەحمەتە	-11637
▁ئامادەیه	-11638
▁کۆبونەوە	-11639
لاد	-11640
▁اس	-11641
ازیلی	-11642
▁کەمان	-11643
▁چیرۆکە	-11644
▁بدۆزێتەوە	-11645
ou	-11646
ئیل	-11647
mber	-11648
وتاب	-11649
▁ژاپۆنی	-11650
▁ڕەزامەندیی	-11651
▁خوالێخۆشبوو	-11652
▁r	-11653
زخورم	-11654
▁سیڤی	-11655
▁دەخرێتە	-11656
▁کاز	-11657
▁دۆخەکە	-11658
▁دەگەڕێت	-11659
▁جیابوونەوە	-11660
رەف	-11661
اندو	-11662
▁لەڕا	-11663
ئەنجام	-11664
اڵەکانی	-11665
▁بەڵگەیەکی	-11666
▁بەڕێوەبردن	-11667
▁گەمارۆ	-11668
▁شاجوانی	-11669
▁کەف	-11670
▁ئەگەرنا	-11671
▁خوارەوەی	-11672
▁ناوەندیی	-11673
▁لەدەسەڵات	-11674
▁چاودێریکردنی	-11675
▁1979	-11676
▁ئۆتۆن	-11677
▁هەوای	-11678
▁کەزۆر	-11679
▁ڕەخنەو	-11680
▁ڕەوەندی	-11681
▁سکۆت	-11682
▁دەنێن	-11683
▁پاڵپشت	-11684
نۆ	-11685
▁دابونەری	-11686
▁چەکدارێکی	-11687
▁ڕووداوانە	-11688
▁هه	-11689
▁گیرا	-11690
▁دەکەوێته	-11691
▁ڕێنماییەکانی	-11692
▁زەل	-11693
▁لەچەندین	-11694
ووشی	-11695
▁شایست	-11696
▁فریای	-11697
▁هەمبەر	-11698
▁ئارارات	-11699
▁دابڕاوەکان	-11700
ستا	-11701
▁ئامێز	-11702
▁خۆمانی	-11703
▁بمێننەوە	-11704
▁بەردەوامیش	-11705
▁ڕادەگەیەنێت	-11706
▁کۆبوونەوەکەی	-11707
ێژێت	-11708
▁لێش	-11709
گرتنە	-11710
▁مۆدێلی	-11711
▁نامرۆڤ	-11712
ەیدا	-11713
▁نەقش	-11714
▁تەنیشت	-11715
▁شانبەش	-11716
ەنجی	-11717
▁دەهێنرێت	-11718
▁شێواندنی	-11719
مەزر	-11720
▁مەدا	-11721
▁ئێستاو	-11722
▁ملیارو	-11723
زانم	-11724
▁نیشتەجێی	-11725
ێهر	-11726
▁یۆڤان	-11727
▁هەشتەمی	-11728
▁بەرفراوانی	-11729
▁تێپەڕاندنی	-11730
اعی	-11731
ائیل	-11732
رۆژی	-11733
زێکی	-11734
▁پین	-11735
▁دەستەوە	-11736
▁86	-11737
کوتی	-11738
▁بمێنێت	-11739
▁ڕژێمەکەی	-11740
▁ڕاستیەکان	-11741
▁گفتوگۆکانی	-11742
▁ڤاڵ	-11743
▁61	-11744
▁گێژ	-11745
▁کەمەوە	-11746
▁زیاتریش	-11747
▁پیک	-11748
▁گرژ	-11749
▁بەرێ	-11750
وانگەی	-11751
▁بەرزە	-11752
▁حیکای	-11753
▁پێشەوا	-11754
▁جەختیان	-11755
بوی	-11756
▁کامل	-11757
▁هەستە	-11758
▁هەستان	-11759
▁دەستکەوتەکانی	-11760
▁باد	-11761
▁لەئاک	-11762
▁بەڕەسمی	-11763
▁جێبەجێی	-11764
▁عەقڵانی	-11765
▁ڕێکخراوەکە	-11766
میان	-11767
ڵاوە	-11768
▁لێق	-11769
▁شۆک	-11770
▁وەزارەتە	-11771
ینیت	-11772
▁یەو	-11773
لەبەر	-11774
▁دیوە	-11775
▁ڕاپۆڕ	-11776
▁لێپرسینەوەی	-11777
واد	-11778
ەزا	-11779
▁بەتۆمەتی	-11780
▁لیستەکەی	-11781
▁لێدەکەوێتەوە	-11782
اسەی	-11783
▁بۆوە	-11784
▁نیوان	-11785
▁دواخرا	-11786
▁کۆمەڵگاو	-11787
گرد	-11788
▁چەوری	-11789
▁کردەو	-11790
▁دەکوژرێن	-11791
کەرە	-11792
گیریی	-11793
▁کایە	-11794
▁دەسکەوت	-11795
▁زووترین	-11796
▁وەربگیردرێت	-11797
لک	-11798
▁نییەلە	-11799
▁دەبینیت	-11800
▁سزایەکی	-11801
▁کۆڵان	-11802
▁نەکەیت	-11803
▁عەبدولقادر	-11804
▁بەشێکن	-11805
▁گاڵتەج	-11806
▁سەرنووسەری	-11807
▁کپ	-11808
▁دەیب	-11809
▁نەچوو	-11810
▁خۆشمان	-11811
▁بەکۆی	-11812
▁کراوەتە	-11813
ەستن	-11814
▁هاید	-11815
▁بەخشین	-11816
▁83	-11817
▁ئێجگار	-11818
▁عبداللە	-11819
▁دانیشتووان	-11820
تون	-11821
▁88	-11822
ڕەوە	-11823
▁بەردەمی	-11824
▁ڕێگەیەوە	-11825
▁دانیشتنەکانی	-11826
▁پێشمەرگایەتی	-11827
▁تارمایی	-11828
▁دەکرێتە	-11829
▁گفتوگۆک	-11830
ەتێ	-11831
▁دۆڵ	-11832
ەخواز	-11833
▁ئەرد	-11834
▁قایل	-11835
بونەوە	-11836
▁وابێت	-11837
▁ڕایگەیاندبوو	-11838
▁وەسفی	-11839
▁جۆرەها	-11840
▁نووسەرو	-11841
▁دەستەیەک	-11842
▁خەتی	-11843
▁ئەبین	-11844
▁ڕەحمەت	-11845
▁ئەنفالی	-11846
▁نائارامی	-11847
▁جەماوەریی	-11848
▁پابەندبوون	-11849
ەبا	-11850
ەدەکات	-11851
ەژنی	-11852
▁حمە	-11853
▁نەبی	-11854
▁شاراوە	-11855
▁دەرفەتێکی	-11856
▁ژیری	-11857
▁گروپه	-11858
▁هەناسە	-11859
▁مێژووییە	-11860
▁پەیوەندیە	-11861
ودە	-11862
لینی	-11863
▁گۆڕانە	-11864
▁نەتوانن	-11865
اول	-11866
▁کلاسیک	-11867
▁ئەمساڵی	-11868
▁زەبەلاح	-11869
▁ڕوخساری	-11870
▁ڕۆژنامەنوسی	-11871
▁چیا	-11872
▁کرو	-11873
ەکەوه	-11874
▁ڕۆژێکدا	-11875
▁کەوابوو	-11876
▁بەشێکیان	-11877
▁حکومەتیش	-11878
▁ئەمنیەکان	-11879
▁شانبەشانی	-11880
▁ڕاگەیەنراو	-11881
▁نوح	-11882
▁باخی	-11883
▁وامان	-11884
▁ئەکرەم	-11885
▁تاوانبارانی	-11886
▁نەتەوەییەکان	-11887
▁زاو	-11888
ێندەر	-11889
رەحمان	-11890
لایەنی	-11891
▁ستۆکه	-11892
▁تێکچوونی	-11893
▁سازکردنی	-11894
▁ڕاپۆرتەکە	-11895
▁ڕاگەیاندنەکانی	-11896
گەش	-11897
▁گۆن	-11898
▁پێید	-11899
▁ئوتوم	-11900
▁هەناسەی	-11901
▁بدۆزنەوە	-11902
▁بەهرەمەند	-11903
▁توێژەکانی	-11904
▁800	-11905
▁گێل	-11906
▁خۆکوشتن	-11907
▁سەنگاوی	-11908
▁هێنانەدی	-11909
▁کەمئەندامان	-11910
گۆن	-11911
▁هەق	-11912
▁بتوانم	-11913
▁لەماوەیەکی	-11914
▁قیر	-11915
▁دەکردن	-11916
عد	-11917
▁عەممار	-11918
▁کوشتار	-11919
▁بڕیارەکە	-11920
▁لەوەودوا	-11921
▁لەگەڵیان	-11922
▁کارئاسانی	-11923
▁لەبەرانبەر	-11924
▁ناگەڕ	-11925
▁گفتوگۆو	-11926
▁جگەلەوەی	-11927
▁تق	-11928
▁گوێز	-11929
▁لەباک	-11930
▁دەرببڕ	-11931
▁کەمبوونەوەی	-11932
گادا	-11933
▁سەدی	-11934
▁چەکدارە	-11935
▁لەیەکێتی	-11936
▁باڵەخانەی	-11937
▁دەگەڕێنەوە	-11938
17	-11939
بۆری	-11940
ەرکی	-11941
بووەو	-11942
ودجەی	-11943
▁باسێکی	-11944
▁قەرەبووکردنەوەی	-11945
چین	-11946
▁شێوه	-11947
▁خەڵاته	-11948
▁تەکنەلۆژیای	-11949
▁دەستەبەرکردنی	-11950
ئەب	-11951
هین	-11952
▁قەش	-11953
▁هیر	-11954
▁دەمەی	-11955
▁ستەمی	-11956
▁چیمەن	-11957
▁باڵاکانی	-11958
ەسەی	-11959
▁شێعرە	-11960
▁توانرا	-11961
▁دیزاین	-11962
▁سەرەتاوە	-11963
▁لەهەمبەر	-11964
▁ئایەتەکانی	-11965
▁بەعسییەکان	-11966
▁ناسیۆنالیزمی	-11967
ڕایی	-11968
▁دەگەن	-11969
▁لەزانکۆی	-11970
▁شەرمەزاری	-11971
▁فەه	-11972
وەکانی	-11973
▁دووبەر	-11974
▁کەربەلا	-11975
▁بەشێوازی	-11976
▁سەرچاوەکە	-11977
▁لایەنانەی	-11978
▁دەستێوەردانی	-11979
ەنگە	-11980
▁ئاسا	-11981
▁دۆنم	-11982
▁ڕۆژگ	-11983
▁ساڵەکانی	-11984
▁بەکارهێناوە	-11985
▁ئازادانە	-11986
▁زەرەرمەند	-11987
▁بابەتەکانی	-11988
▁گرتو	-11989
▁زنجیره	-11990
net	-11991
ێتر	-11992
عەتی	-11993
مانه	-11994
▁بۆلای	-11995
▁هێنانە	-11996
▁لەتەمەنی	-11997
▁هەڵدەبژێر	-11998
▁عەن	-11999
ۆرینەی	-12000
▁ئەنیم	-12001
▁تێکستی	-12002
▁لەوانەیه	-12003
وێنە	-12004
▁موتڵ	-12005
▁لەمیس	-12006
▁بچووکی	-12007
▁فەیسبووک	-12008
▁مسۆگەرکردنی	-12009
تۆس	-12010
دیس	-12011
▁هاوئ	-12012
خوازان	-12013
▁یۆرانی	-12014
بکەینەوە	-12015
▁چاودێران	-12016
▁دیموکراسیەت	-12017
باو	-12018
جیم	-12019
▁یەد	-12020
▁زەین	-12021
▁سەرکەوتنیان	-12022
گیانی	-12023
▁فۆلکل	-12024
▁وکاری	-12025
ۆپی	-12026
▁هەڵدەس	-12027
▁کەمترە	-12028
▁یەکپار	-12029
▁کوردیەکان	-12030
▁بارودۆخێکی	-12031
▁دەستپێشخەری	-12032
گۆی	-12033
▁as	-12034
▁سوار	-12035
▁پادش	-12036
▁ئەکادیمیای	-12037
ەقە	-12038
▁دێو	-12039
▁شیرینی	-12040
▁بانگەشە	-12041
▁بەئاژانسی	-12042
▁تەکنەلۆژیا	-12043
گین	-12044
▁شڵ	-12045
▁یاخ	-12046
▁هالی	-12047
▁پشتیان	-12048
ۆلا	-12049
ember	-12050
▁زاتی	-12051
▁کردۆتەوه	-12052
گەدا	-12053
ستەفا	-12054
▁باوەش	-12055
▁هۆتێل	-12056
▁پەرۆشی	-12057
▁لێکراوە	-12058
▁1980	-12059
▁تەوەر	-12060
▁لەسەرەوە	-12061
▁عەبد	-12062
▁ئەکەین	-12063
▁گرفتەکان	-12064
▁یارمەتیی	-12065
گوڕ	-12066
گرام	-12067
▁مەرکەز	-12068
▁ئینگلتەرا	-12069
▁سەرنجڕاکێش	-12070
▁ناعەدالەتی	-12071
ترسی	-12072
▁سوێن	-12073
▁سەرا	-12074
▁نەمسا	-12075
▁بەلجیکا	-12076
ریدی	-12077
▁دادەخ	-12078
ەییەکان	-12079
▁ئەرسناڵ	-12080
ۆچکەی	-12081
▁بیریان	-12082
▁نامەیەک	-12083
▁واتایەکی	-12084
▁سەرکوتکردنی	-12085
▁سکاڵا	-12086
▁دیاریی	-12087
▁ئیسلامیدا	-12088
ترێ	-12089
▁99	-12090
ادار	-12091
▁خەونە	-12092
▁ئۆتۆمبیلی	-12093
جه	-12094
▁de	-12095
ress	-12096
وازی	-12097
▁خۆمم	-12098
یەکەوە	-12099
ەبرایەر	-12100
▁پێشوودا	-12101
▁زیاتریان	-12102
▁ئامادەکرد	-12103
▁بیب	-12104
ێگەیشت	-12105
ابردوودا	-12106
▁بارەگاکانی	-12107
ەکەى	-12108
▁سانس	-12109
▁بەڕێزیان	-12110
موکراسی	-12111
▁ئەفغانی	-12112
▁گوتویەتی	-12113
▁عم	-12114
▁بەبیر	-12115
نتن	-12116
▁79	-12117
▁دەربر	-12118
▁دەسەپ	-12119
▁قورسە	-12120
▁کوڕان	-12121
وەت	-12122
▁سەرەرای	-12123
▁ئاوازدان	-12124
▁سەربەرزی	-12125
ژێت	-12126
▁لەیلا	-12127
▁سروشتییەکان	-12128
خا	-12129
▁سه	-12130
▁باقی	-12131
▁تایمز	-12132
▁کەڵکی	-12133
▁ناساندن	-12134
▁پارێزگەها	-12135
ەما	-12136
▁لەبڕی	-12137
▁مەقام	-12138
▁بەشێوازێکی	-12139
av	-12140
ەترسی	-12141
▁بهێڵ	-12142
▁بەپەی	-12143
▁ئەستێرە	-12144
▁ئۆتۆمبێلێک	-12145
▁ساتە	-12146
▁مێردەکەی	-12147
▁گۆڕانکارییە	-12148
ەبڕ	-12149
ابینی	-12150
اڵێکی	-12151
▁ستال	-12152
لایەنە	-12153
ەسەلەی	-12154
▁شەوێک	-12155
▁ڕاستگۆ	-12156
▁گوشاری	-12157
▁قەڵادزێ	-12158
▁هەردوول	-12159
▁دەڕوانێت	-12160
▁هەژموونی	-12161
▁ڕووخاندنی	-12162
روپا	-12163
▁تەری	-12164
▁دایان	-12165
▁هەرێمێکی	-12166
لۆپ	-12167
▁مێزی	-12168
▁شارێک	-12169
▁یانەکان	-12170
خە	-12171
بەد	-12172
▁وەرگ	-12173
چەندین	-12174
▁مێژوون	-12175
▁نوێکرد	-12176
▁دوورخستنەوەی	-12177
ubli	-12178
▁حاز	-12179
چوونە	-12180
▁فارو	-12181
▁سەروو	-12182
▁لێوەرب	-12183
لەسەر	-12184
▁بزانە	-12185
▁سەرەکیەکانی	-12186
▁قورسی	-12187
▁پێیدا	-12188
▁ئیداریی	-12189
شانی	-12190
▁لەوی	-12191
وربانی	-12192
▁ئیستی	-12193
▁شانازیی	-12194
▁شێرپەنجە	-12195
▁خۆشەویستیی	-12196
▁مەلای	-12197
▁پێنوس	-12198
▁نارەزایی	-12199
لولی	-12200
▁یانیش	-12201
▁ئێراقی	-12202
▁چاکساز	-12203
ودۆخی	-12204
▁یەکەوە	-12205
▁ئەمجۆرە	-12206
▁گیرفانی	-12207
دەزانی	-12208
▁ڕۆن	-12209
گەیەنرێت	-12210
▁وەرگرتنەوەی	-12211
▁پاککردنەوەی	-12212
▁ئەلج	-12213
▁نەجیب	-12214
▁قەیرانێکی	-12215
▁لەسێدارەدانی	-12216
▁موخ	-12217
▁دەڵێ	-12218
▁مەشقی	-12219
▁پارەیەی	-12220
▁هەندێکجار	-12221
▁بۆکان	-12222
▁گۆشەی	-12223
▁هەرچۆن	-12224
▁ئامانجێکی	-12225
▁تایبەتیان	-12226
▁گرنگییەکی	-12227
▁دەستکەوتێکی	-12228
بێتی	-12229
وکاری	-12230
▁بوێت	-12231
▁فیلمەکەی	-12232
▁جگەرە	-12233
▁کەخۆی	-12234
▁دنیایە	-12235
▁پێشمەرگەدا	-12236
▁بریندارەکان	-12237
▁سکی	-12238
▁سەلم	-12239
ێویستە	-12240
▁لەمبار	-12241
▁لەلیستی	-12242
▁کوشتووە	-12243
▁بۆمبڕێژکراو	-12244
▁بۆخ	-12245
▁گوێبیستی	-12246
چک	-12247
▁بەزۆری	-12248
▁پێنجەمی	-12249
▁هەناردەی	-12250
▁فریاکەوتن	-12251
ڵاوی	-12252
▁گوو	-12253
▁بنەر	-12254
▁هەفته	-12255
▁پڕۆسەی	-12256
▁دەربڕیوە	-12257
▁دێموکراسیی	-12258
▁پەرچ	-12259
▁بەڕاست	-12260
▁خۆشیەوە	-12261
▁ڕێژی	-12262
▁بچوکی	-12263
ێوەردان	-12264
▁دیکەشەوە	-12265
▁بەرەوڕووی	-12266
▁هەلوێست	-12267
٠٠	-12268
اوازی	-12269
گەیەک	-12270
▁بدرێن	-12271
▁ڕادەیەکی	-12272
اسیی	-12273
▁سەرۆککۆم	-12274
▁ناڕاستەوخۆ	-12275
اپۆرت	-12276
▁بەراو	-12277
▁کەلتور	-12278
▁گەندەڵیی	-12279
▁ئامادەکردن	-12280
بووه	-12281
▁لیۆن	-12282
▁چۆتە	-12283
▁ترمان	-12284
▁ڕادەست	-12285
▁شەقامەکانی	-12286
▁حم	-12287
▁1000	-12288
▁سەما	-12289
▁لێیە	-12290
▁کالی	-12291
▁بەسرە	-12292
▁دەخرێت	-12293
▁کریستیان	-12294
▁هەڵدەگرێت	-12295
وڵڵا	-12296
▁کۆمونی	-12297
▁هەنگاوەی	-12298
سل	-12299
ەریی	-12300
▁1970	-12301
▁لەساڵانی	-12302
▁خێرای	-12303
▁گیراو	-12304
▁سەریهەڵ	-12305
رێکی	-12306
کردووەتەوە	-12307
▁بوک	-12308
▁ئاوێنەی	-12309
▁زنجیرەیەک	-12310
▁غەیر	-12311
▁قەتی	-12312
▁کراوی	-12313
▁ئیتاڵیا	-12314
▁تاوانێکی	-12315
▁کۆنەپەرستی	-12316
▁بەخشن	-12317
▁نەورۆ	-12318
▁کارانەی	-12319
▁سایکۆلۆژی	-12320
▁Al	-12321
▁الف	-12322
▁بۆنە	-12323
▁تۆدا	-12324
▁شکاند	-12325
▁بەئەزم	-12326
▁لەسەرەتادا	-12327
بەز	-12328
▁بادی	-12329
▁لاوازە	-12330
▁هۆیەوه	-12331
▁سەنگەری	-12332
▁تۆماربکات	-12333
ستین	-12334
ەندێ	-12335
▁شیعه	-12336
▁ناسر	-12337
▁بیمەی	-12338
بوڵی	-12339
▁إلی	-12340
▁داون	-12341
▁سەدە	-12342
▁نییەبۆ	-12343
▁کەواته	-12344
▁ئێواران	-12345
▁مەینەتی	-12346
▁ڕێگەگرتن	-12347
▁ناشار	-12348
▁کچەکەی	-12349
▁حەت	-12350
▁گوتمان	-12351
▁شاردنەوەی	-12352
▁ئەقڵی	-12353
▁ببەخش	-12354
▁بفرۆش	-12355
▁گۆڕاوە	-12356
▁ببەخشێت	-12357
▁بەنداوی	-12358
▁ئەنجوومەن	-12359
▁پڕوپاگەندەی	-12360
وشت	-12361
▁ئەکا	-12362
▁لەژیان	-12363
▁خەڵکیان	-12364
▁هێشتنەوەی	-12365
گڵ	-12366
▁هەبن	-12367
▁لەئەنجامدا	-12368
▁گشتییەکانی	-12369
▁الی	-12370
▁پری	-12371
▁تێنە	-12372
▁دۆلارە	-12373
▁لێکدان	-12374
▁مەرجێک	-12375
▁لێکۆڵەر	-12376
▁عێراقێکی	-12377
▁بازاڕەکانی	-12378
▁ئیمر	-12379
▁بەرخو	-12380
▁سەپاند	-12381
▁چالاکوانانی	-12382
ەخۆی	-12383
▁ئەسڵ	-12384
▁بگەین	-12385
▁بێگەرد	-12386
▁ڕوبەڕوی	-12387
▁84	-12388
بکەم	-12389
▁قیام	-12390
▁لەئەو	-12391
▁نیزامی	-12392
▁سەددام	-12393
▁خزمەتێکی	-12394
مەسعود	-12395
پرسانی	-12396
▁بنیاد	-12397
▁کاربکەن	-12398
▁گەشتیار	-12399
▁کۆبوونەوه	-12400
▁داگیرکەرانی	-12401
▁داخست	-12402
▁بەکاریان	-12403
▁پارتەکەی	-12404
نای	-12405
▁لەشێو	-12406
▁ئازارو	-12407
▁چاوەکانی	-12408
▁نەمری	-12409
▁پەیمانگا	-12410
▁قوباد	-12411
▁چەندی	-12412
▁تۆقاندن	-12413
▁دیزاینی	-12414
▁وتەکانی	-12415
iz	-12416
دز	-12417
▁ڕەچ	-12418
▁لەمافی	-12419
زمە	-12420
▁دەستەب	-12421
▁بیرە	-12422
▁بهێته	-12423
▁بەرۆژ	-12424
▁پارکی	-12425
▁ئاستەی	-12426
▁دێرینی	-12427
▁ڕێزلێنان	-12428
▁تاوتوێکرد	-12429
▁هاوکێشە	-12430
رۆسی	-12431
▁تەسک	-12432
▁ژەنی	-12433
▁پێدەب	-12434
▁ئەوەشکرد	-12435
▁کتێبەکانی	-12436
خەری	-12437
ەمەی	-12438
▁جون	-12439
▁کەع	-12440
عەبدول	-12441
ڕێتەوە	-12442
▁بداتە	-12443
▁ئازادو	-12444
▁بەرازیلی	-12445
▁زانیاریانەی	-12446
کۆتی	-12447
▁لەڕۆ	-12448
لیتاری	-12449
▁نەدراوە	-12450
وویان	-12451
ەشمان	-12452
▁ڕەمەز	-12453
▁دەستکەوتە	-12454
ەوری	-12455
ژەنتین	-12456
▁مۆسیقا	-12457
▁ڕەوانە	-12458
▁تۆتالیت	-12459
▁هەڵگیرس	-12460
▁ستاندارد	-12461
▁هێنایەوە	-12462
▁پاشایەتی	-12463
ers	-12464
کێت	-12465
▁مەشه	-12466
▁دەوامی	-12467
▁سەعدییە	-12468
▁بەزووترین	-12469
▁ئاماژەشیدا	-12470
▁پاڵەوانیتیه	-12471
خەڵکی	-12472
▁باڵاو	-12473
کاتیشدا	-12474
▁فیدڕاڵ	-12475
▁پەنجەر	-12476
▁خەڵکانێک	-12477
▁دەخایەنێت	-12478
زانن	-12479
ووسەر	-12480
گەلێک	-12481
▁بارو	-12482
▁بەتی	-12483
▁پەرۆش	-12484
▁مشتومڕ	-12485
▁بەهەمانشێوە	-12486
▁مەسیحییەکان	-12487
▁عە	-12488
وولی	-12489
▁بەخەڵکی	-12490
▁هێناوەو	-12491
▁دیسەمبەر	-12492
▁قسه	-12493
▁کادیر	-12494
36	-12495
iew	-12496
▁بەغداد	-12497
▁هەڤپەی	-12498
اداری	-12499
▁فازڵ	-12500
کردایەتی	-12501
▁نەکراون	-12502
▁82	-12503
▁دەیبینین	-12504
▁باڵادەستی	-12505
▁دادگایەکی	-12506
▁مانچستەریۆن	-12507
ەیران	-12508
▁نێوخۆ	-12509
▁کەنار	-12510
▁پیادەی	-12511
▁مامەڵەیان	-12512
وویت	-12513
▁چۆل	-12514
▁تاراو	-12515
▁دەمام	-12516
▁شوێنه	-12517
▁قەڵای	-12518
▁پورتوگ	-12519
▁گوێگرتن	-12520
▁سوتەمەنی	-12521
▁بەهێزترین	-12522
▁کاتێکدایە	-12523
▁پا	-12524
▁0770	-12525
▁دەڕۆ	-12526
▁دەخەن	-12527
▁بارزان	-12528
وڵاتانی	-12529
ێزەکانی	-12530
▁یادەوەر	-12531
▁ئەگەڕ	-12532
▁ڕاپۆڕتی	-12533
▁بنچینەیی	-12534
▁گۆڕانکارییەکانی	-12535
▁ژنەکەی	-12536
ۆو	-12537
حمود	-12538
نەهێن	-12539
▁داگیرکاری	-12540
▁نەتەوەکان	-12541
▁جه	-12542
▁فیت	-12543
▁باشه	-12544
▁خەلیفە	-12545
▁ئەوەیشی	-12546
▁جلوبەرگی	-12547
▁پیادەکردنی	-12548
▁1998	-12549
▁ئەبوو	-12550
▁پایەی	-12551
▁دانوستاندن	-12552
▁بەسەرۆکایەتیی	-12553
▁بەشه	-12554
▁هەبو	-12555
▁هەبووه	-12556
▁دیدارێکی	-12557
▁کەمایەتی	-12558
▁ناگەیەنێت	-12559
▁ئۆپەراسیۆن	-12560
▁سینەماکانی	-12561
▁ڕوونکردنەوەیەک	-12562
ۆکەکان	-12563
▁سەختە	-12564
▁مامەند	-12565
▁یارییەدا	-12566
▁kurdistan	-12567
▁ئەری	-12568
▁جیاد	-12569
▁جێگە	-12570
▁لەپشتی	-12571
▁ئەفسانە	-12572
▁دەرخستنی	-12573
▁یەکێتییە	-12574
عم	-12575
پۆر	-12576
▁هەقی	-12577
اشترین	-12578
▁ناساند	-12579
▁خراپترین	-12580
▁پراکتیکی	-12581
▁بارودۆخەی	-12582
تیلاف	-12583
▁جۆرێکە	-12584
▁دوێنێی	-12585
گەوە	-12586
▁ودا	-12587
▁ئاسەو	-12588
▁خاتری	-12589
▁قسانە	-12590
▁هەوادارانی	-12591
▁موم	-12592
ەدەری	-12593
▁پەیمانگەی	-12594
ابیلی	-12595
▁بردوو	-12596
▁میترۆ	-12597
▁دیکتاتۆرییەت	-12598
رەوی	-12599
▁زەی	-12600
▁دۆڵی	-12601
▁پاڵی	-12602
▁تەراز	-12603
▁دووان	-12604
زەکردنی	-12605
▁بەواتای	-12606
▁دڵنیابن	-12607
▁لەسەرۆک	-12608
▁ئەمساڵیش	-12609
زەر	-12610
▁بیانوی	-12611
▁بەوپێی	-12612
▁ڕاستگۆیی	-12613
▁دەستگیرکرد	-12614
▁چرک	-12615
ەتەکان	-12616
▁یەنایەر	-12617
▁ڕۆمانەکە	-12618
▁هەڵبژاردنەکاندا	-12619
▁چاوە	-12620
▁لاپەر	-12621
▁دەقێکی	-12622
▁دەیویست	-12623
▁تێدەپەڕێت	-12624
im	-12625
عل	-12626
ەربای	-12627
▁نوسراوە	-12628
▁ڕەواندزی	-12629
▁نج	-12630
▁کز	-12631
▁گوڕ	-12632
ارەکە	-12633
▁لەئاس	-12634
▁هەشتی	-12635
▁هاوشانی	-12636
▁دەسەڵاتەوە	-12637
▁درێ	-12638
▁پڕۆژەیاسای	-12639
▁لەئەندامانی	-12640
▁هەڵگەڕ	-12641
▁لێدوانەی	-12642
▁گیروگرفت	-12643
پێد	-12644
▁St	-12645
▁تۆکمە	-12646
ەیەکەوە	-12647
▁خوێنەرانی	-12648
▁پەتی	-12649
▁نزیکەوە	-12650
▁پێداچوونەوە	-12651
▁ئەسڵی	-12652
▁تەگەر	-12653
▁مەرامی	-12654
▁چێنراو	-12655
▁لەناوچەکە	-12656
▁ئەنجامدەدرێت	-12657
ەورە	-12658
▁سوون	-12659
▁پاکس	-12660
▁ئیحسان	-12661
▁ئەنجامه	-12662
▁هاونیشت	-12663
▁سەیدسادق	-12664
▁سینەماکارانی	-12665
منداڵ	-12666
▁ناجێ	-12667
▁چەکە	-12668
▁مەزنە	-12669
▁مەودای	-12670
یندا	-12671
▁کۆمە	-12672
▁کەڵەک	-12673
▁ئیمامی	-12674
▁لەزیاد	-12675
▁دروستبووە	-12676
انداوە	-12677
▁زادەی	-12678
▁قسەیە	-12679
▁فێرکردن	-12680
▁بۆنموونە	-12681
▁لة	-12682
گەکەی	-12683
▁بۆخۆیان	-12684
▁ڕۆژانەدا	-12685
▁عەبدولعەزیز	-12686
ەمای	-12687
▁بکش	-12688
▁ئاوو	-12689
▁پیتی	-12690
▁ساکار	-12691
▁کیشوەر	-12692
▁پەروەردگارتان	-12693
▁خی	-12694
▁بروس	-12695
▁شمشێر	-12696
▁هاوتا	-12697
▁ئیمپری	-12698
▁پێشووت	-12699
▁ئامارێکی	-12700
▁گەشەسەندنی	-12701
▁96	-12702
▁هاورێ	-12703
▁گشتیدا	-12704
▁دادەبەز	-12705
▁سەراسەری	-12706
▁یۆتۆبۆری	-12707
▁j	-12708
▁حەوی	-12709
▁دەمێک	-12710
▁سەرکە	-12711
▁لەکۆت	-12712
▁ناداد	-12713
▁مەترسییەکانی	-12714
▁ولی	-12715
ەنیشت	-12716
▁فیست	-12717
▁درۆزن	-12718
▁لەزین	-12719
▁تەوافوقی	-12720
▁مۆندیالی	-12721
▁پێکهێناوە	-12722
راد	-12723
نوس	-12724
کارو	-12725
▁Fri	-12726
فرۆشن	-12727
▁بگۆڕن	-12728
▁تازەپ	-12729
▁وانییە	-12730
▁کۆمۆنیزم	-12731
کردنەوەیەکی	-12732
▁پەرلەمانتارە	-12733
▁کۆمەڵایەتییە	-12734
وژی	-12735
ڕۆک	-12736
▁نەبێتە	-12737
▁ئاخاوتن	-12738
▁نووسینە	-12739
▁توانایەکی	-12740
▁ڕێکخستنەکانی	-12741
▁ملیارد	-12742
▁گەرەکی	-12743
▁ئەولەوی	-12744
▁کرابوون	-12745
▁87	-12746
▁1987	-12747
▁ئیفلی	-12748
▁هەڵاو	-12749
▁لیژنەکانی	-12750
مینی	-12751
▁ڕۆلی	-12752
حکومەت	-12753
▁ئیدریس	-12754
▁پیلانگ	-12755
▁درێژەدان	-12756
▁موسوڵمان	-12757
▁نزیکبوونەوەی	-12758
چه	-12759
یلک	-12760
لیای	-12761
▁ڕقی	-12762
▁باوی	-12763
▁جێناک	-12764
▁گاڵتە	-12765
▁هالیوود	-12766
▁پرسیارەکە	-12767
▁بۆچوونەکانی	-12768
▁میللەتەکەمان	-12769
▁بف	-12770
▁وتووە	-12771
▁فەیسبوک	-12772
▁لەراستیدا	-12773
▁وەرچەرخان	-12774
▁ڕێکخراوەی	-12775
▁ناردووە	-12776
▁نایانەوێت	-12777
ئین	-12778
اکۆ	-12779
اوەیس	-12780
▁دەمێ	-12781
▁نیین	-12782
▁ناسنامە	-12783
▁نەتەوەییە	-12784
اواز	-12785
▁بەشەر	-12786
▁دەستڕ	-12787
▁قانونی	-12788
▁هەفتەیه	-12789
▁پشتڕاست	-12790
iv	-12791
ئاس	-12792
▁ڕیسو	-12793
▁دەگری	-12794
▁پەنجە	-12795
▁وەستانی	-12796
▁سەرەخۆشی	-12797
▁ڕامیاریی	-12798
دراو	-12799
▁کردۆته	-12800
▁دەموچاو	-12801
▁تەوەرێکی	-12802
ێرم	-12803
▁بووژ	-12804
▁ئەدای	-12805
▁فاروق	-12806
▁چەشنی	-12807
▁ڕەسول	-12808
▁خانمان	-12809
▁پێشووتر	-12810
▁تەقە	-12811
▁قاهیر	-12812
▁کارەکە	-12813
▁پێرس	-12814
▁ئەبێتە	-12815
▁بایکۆت	-12816
▁سنوورە	-12817
▁تورکەکان	-12818
▁هۆشیاریی	-12819
▁سنورەکانی	-12820
▁هاوپەیمانەکانی	-12821
رینە	-12822
▁الد	-12823
▁بەدیل	-12824
هەڵوێستی	-12825
▁جەنگێکی	-12826
▁خوایەکی	-12827
▁هاوکاتی	-12828
▁زانکۆکان	-12829
▁قوربانیی	-12830
▁نۆڤەمبەر	-12831
▁هەڵپەسێرد	-12832
▁شتێکدا	-12833
▁ئەشکەوت	-12834
▁توندڕەوی	-12835
▁سەرکردەو	-12836
▁دەربکەوێت	-12837
اوەیی	-12838
▁چرکە	-12839
▁قەرەت	-12840
▁تەعریب	-12841
▁زانیوە	-12842
▁لەکتێب	-12843
▁سەرکوتی	-12844
▁کردەوەو	-12845
▁is	-12846
▁سولەی	-12847
▁بازاری	-12848
▁بزانیت	-12849
▁تێکۆشەر	-12850
▁لەخەڵکی	-12851
▁ڕایگەیاندووه	-12852
▁10000	-12853
▁شتێکە	-12854
▁فەرمانبەری	-12855
ومان	-12856
کارێکی	-12857
▁جیاوازیان	-12858
▁ڕێکخستنەوەی	-12859
شتەی	-12860
ەوەیان	-12861
▁بایەخێکی	-12862
▁دیارترین	-12863
▁دیمەنەکانی	-12864
▁ئەنتەرمیلان	-12865
▁نەخو	-12866
▁شەونم	-12867
▁لەناکاو	-12868
▁گوندێکی	-12869
▁خستنەڕووی	-12870
▁هەموومانە	-12871
چووی	-12872
اتیان	-12873
▁بایرن	-12874
▁ئاسانە	-12875
▁دیکەیە	-12876
▁پارتیدا	-12877
▁ئاژانسەکان	-12878
کۆپ	-12879
گیرێ	-12880
▁گوی	-12881
▁شاهۆ	-12882
▁بەرمی	-12883
▁کتێبه	-12884
▁میرانی	-12885
▁بەتوانا	-12886
▁جەزائیر	-12887
▁پەروەرده	-12888
▁بەبۆچوونی	-12889
▁98	-12890
▁تائ	-12891
▁هیتل	-12892
▁مێینە	-12893
▁قێزەون	-12894
▁کۆمیدی	-12895
▁بینەران	-12896
▁بەیەکێک	-12897
▁هەستێکی	-12898
▁کوردێکی	-12899
▁چالاکیەکانی	-12900
حق	-12901
▁بست	-12902
▁کیژ	-12903
▁بوین	-12904
▁پارک	-12905
▁بناری	-12906
▁بکەینە	-12907
▁کێشاوە	-12908
▁فێربوونی	-12909
▁پێویستیمان	-12910
▁بەجێب	-12911
▁دامەزرا	-12912
▁ئارادایە	-12913
▁سوم	-12914
ێوەدە	-12915
▁سوێندی	-12916
الیکی	-12917
▁ڕەبی	-12918
رایەوه	-12919
▁ناڕاز	-12920
▁هۆنراو	-12921
ریە	-12922
ەمێرد	-12923
▁بەدب	-12924
▁هێڵە	-12925
وبەندی	-12926
▁ئەمیری	-12927
▁لەئێستاشدا	-12928
▁زەیت	-12929
ێکخراوی	-12930
▁هەمویان	-12931
▁پێدەدرێت	-12932
▁نایەکسانی	-12933
▁پیاوەکانی	-12934
▁ڕفیق	-12935
▁مەحاڵ	-12936
▁شارەکه	-12937
▁دەربکات	-12938
▁چێندراو	-12939
▁عێراقەوه	-12940
▁گرنگیدان	-12941
داخ	-12942
بێرگ	-12943
▁ناوزەد	-12944
دەگرن	-12945
وەڕۆی	-12946
▁گێمی	-12947
▁تریشی	-12948
▁دیوان	-12949
▁بوونەو	-12950
▁بگەیەنن	-12951
▁نیت	-12952
▁1994	-12953
▁پێکی	-12954
▁ئیرادە	-12955
▁دەگەڕێن	-12956
▁بەناچاری	-12957
▁کۆتاییان	-12958
▁ئاماژەمان	-12959
▁بەرزتر	-12960
▁زیندەو	-12961
▁فەرموود	-12962
▁گفتوگۆیەک	-12963
▁ڕوونیکردەوه	-12964
▁هەڵوەشانەوەی	-12965
▁en	-12966
کەیت	-12967
▁خۆری	-12968
▁حوکوو	-12969
▁دهۆکی	-12970
▁پیشانی	-12971
▁کەرەستە	-12972
▁شاعیرانی	-12973
▁نێردراوە	-12974
▁گەشتیاران	-12975
▁ئەمەریکادا	-12976
▁پێگەیاندنی	-12977
▁پەیوەندییه	-12978
اکەمان	-12979
▁دنیایەکی	-12980
▁خوێندنەوەیەکی	-12981
ڤانی	-12982
▁زوم	-12983
▁گۆشە	-12984
▁بزانرێت	-12985
▁شارەکەی	-12986
ist	-12987
▁نازی	-12988
▁بەرخۆ	-12989
▁لەبنەڕ	-12990
▁دەریایی	-12991
▁قایمقام	-12992
▁نادا	-12993
▁ڕاپۆرتەکەی	-12994
زار	-12995
کەنە	-12996
▁حسن	-12997
وونەوە	-12998
▁نەهێڵ	-12999
▁توڕەیی	-13000
▁دانیان	-13001
▁زەمینی	-13002
35	-13003
▁فیزی	-13004
▁داعشدا	-13005
▁لەگەڕەکی	-13006
ووف	-13007
▁حور	-13008
▁1996	-13009
▁سەوا	-13010
▁تێکەڵاو	-13011
▁گەیشتنه	-13012
ورت	-13013
اندنێ	-13014
▁یەخەی	-13015
▁قاهیرە	-13016
▁حەمەڕەش	-13017
▁مۆدێرنی	-13018
▁گرتنەبەری	-13019
▁بوویت	-13020
▁بەفیڕۆ	-13021
▁موزایەدەی	-13022
ەڵا	-13023
جەلال	-13024
▁بارم	-13025
▁قەدری	-13026
▁بنبڕکردنی	-13027
▁سەرەتاکانی	-13028
▁مەترسیدارە	-13029
اڵەی	-13030
▁کادری	-13031
▁بەغداوە	-13032
▁قارەمانی	-13033
کارییەکانی	-13034
▁پارتەکانی	-13035
▁کێڵگەی	-13036
▁شاعیران	-13037
▁لەئارادایە	-13038
ەهای	-13039
▁براوە	-13040
▁بوختان	-13041
▁ڕێورەس	-13042
▁ئەسکەند	-13043
▁ژەهراوی	-13044
▁شارەزایان	-13045
هەمی	-13046
▁ویەک	-13047
▁بەدەنگی	-13048
▁بەدەیان	-13049
▁شوێنانە	-13050
▁ستەمکاران	-13051
▁هەڵسوڕاوی	-13052
▁ڕوداوەکانی	-13053
ۆیەک	-13054
▁ئینج	-13055
▁تۆزێک	-13056
▁شیعەی	-13057
▁وەرگر	-13058
▁فێربوون	-13059
شتاین	-13060
ۆڵم	-13061
▁نەدی	-13062
▁نابەر	-13063
▁نەقیب	-13064
▁تێبگەن	-13065
نێک	-13066
ەویست	-13067
▁1997	-13068
▁ئورد	-13069
▁ئەور	-13070
▁هێرشه	-13071
▁خۆیانن	-13072
▁قابیلی	-13073
▁شێوازێک	-13074
▁ئازەربای	-13075
▁نائومێدی	-13076
40	-13077
eed	-13078
کەل	-13079
▁فرو	-13080
▁قەف	-13081
▁هەمی	-13082
▁ناوەرۆک	-13083
لێکی	-13084
▁لەرا	-13085
▁لەپی	-13086
▁بوەتە	-13087
▁وەهای	-13088
▁حیزبانە	-13089
▁کەسێکیش	-13090
▁ئاسەواری	-13091
ۆجی	-13092
▁وف	-13093
▁مست	-13094
امانی	-13095
▁سەرپ	-13096
▁نەوتە	-13097
▁بەشوێن	-13098
هە	-13099
هەنگ	-13100
▁حیس	-13101
▁پێکد	-13102
▁میلیشیا	-13103
▁ئەندامێتی	-13104
الح	-13105
ەنەی	-13106
▁زامن	-13107
▁ڕێپێو	-13108
▁مەغریب	-13109
▁سوڕ	-13110
▁تاپۆ	-13111
▁شاکر	-13112
▁مایۆ	-13113
▁نامان	-13114
▁نەبرد	-13115
▁بارێکی	-13116
▁بڕیارو	-13117
▁ژنانەی	-13118
▁بەرتەسک	-13119
▁هەبووبێت	-13120
▁کەرامەتی	-13121
49	-13122
گیرس	-13123
ۆیشت	-13124
دواتر	-13125
ەستێت	-13126
▁تیمێکی	-13127
▁خودایە	-13128
▁نەکردن	-13129
▁شانۆکار	-13130
▁مۆسیقای	-13131
▁عەرەبستانی	-13132
▁گومانلێکراو	-13133
بینم	-13134
▁جێم	-13135
▁دەرس	-13136
▁ببینە	-13137
▁هەناوی	-13138
▁فەڕەنسی	-13139
▁مەبەسته	-13140
ەبونی	-13141
▁دەژم	-13142
▁هێلی	-13143
ۆگرافی	-13144
▁کرایەوه	-13145
▁بەکردەوە	-13146
▁دەهێنێتەوە	-13147
اوین	-13148
▁ڕۆژا	-13149
▁تێناگ	-13150
▁دوورن	-13151
▁قۆناخ	-13152
▁پێستی	-13153
▁گونجاوە	-13154
▁ڕونیکردەوە	-13155
▁مامۆستایەکی	-13156
▁پێکهاتەیەکی	-13157
ڵەی	-13158
▁بق	-13159
▁فلمێ	-13160
▁هۆزی	-13161
▁کۆڕی	-13162
▁حەڵاڵ	-13163
▁ئەسعەد	-13164
▁دەخوات	-13165
▁یەکڕیزیی	-13166
▁ئاشتیخواز	-13167
شێت	-13168
▁مج	-13169
▁چێژی	-13170
▁دووجار	-13171
▁کەوتەوە	-13172
▁سەرەکییە	-13173
▁دروستبونی	-13174
▁داستانی	-13175
▁تاوانباری	-13176
رة	-13177
▁هەوە	-13178
▁ناڕاست	-13179
▁پێبکات	-13180
▁ژمارەیە	-13181
▁لایەکەوە	-13182
▁گفتوگۆکه	-13183
▁دەگەرێتەوە	-13184
▁لەخۆدەگرێت	-13185
ولا	-13186
ووق	-13187
▁شع	-13188
▁1993	-13189
▁نازم	-13190
▁هێما	-13191
▁ئەیلولی	-13192
▁لەخۆیان	-13193
▁خۆیانیان	-13194
▁بەدەستهێن	-13195
ودەی	-13196
▁کتو	-13197
تانیا	-13198
لەکار	-13199
▁حاشا	-13200
▁ئێوار	-13201
▁هەندەران	-13202
ترینی	-13203
▁ناگۆڕ	-13204
▁پۆسته	-13205
▁خۆپاراست	-13206
▁بەزۆرینەی	-13207
اتێک	-13208
الیتی	-13209
▁فریا	-13210
▁بنێین	-13211
▁ئێرانە	-13212
▁سەرای	-13213
▁لەکێش	-13214
▁مارسی	-13215
▁دەولەت	-13216
▁بەستووە	-13217
▁ڕێککەوتنە	-13218
بەو	-13219
اندز	-13220
اکانە	-13221
خانەو	-13222
▁بۆئەو	-13223
▁هیندی	-13224
▁ڕیفۆر	-13225
▁پەیامە	-13226
▁بەلایەنی	-13227
▁ڕەخساندنی	-13228
▁ئۆپۆزیسیۆنی	-13229
▁مانچستەرسیتی	-13230
▁ئێسک	-13231
▁ئەچێت	-13232
▁کەلێن	-13233
▁پەرلەمانە	-13234
▁تەقینەوەکانی	-13235
▁مریشک	-13236
▁نەیار	-13237
▁گروپێک	-13238
▁لەدڵ	-13239
▁Friday	-13240
▁سەرنجە	-13241
▁گێڕانەوە	-13242
قل	-13243
ایێ	-13244
ندەی	-13245
ێستا	-13246
▁دەکەوت	-13247
▁کەناڵێکی	-13248
▁ناوەراستی	-13249
▁کارەساتێکی	-13250
ەبەست	-13251
▁بێدار	-13252
▁پڕۆژەکەی	-13253
▁Mon	-13254
▁fal	-13255
▁سالم	-13256
چوونەوەی	-13257
دەین	-13258
▁وەرگێڕان	-13259
▁ڕۆژنامەیەکی	-13260
▁هونەرمەندێکی	-13261
▁لات	-13262
▁تەنگژ	-13263
▁خستۆت	-13264
▁خوشکی	-13265
اکانمان	-13266
▁دەگێڕێت	-13267
▁لەیاریی	-13268
▁ئەفسانەی	-13269
▁جوانکاری	-13270
جین	-13271
▁تیڤی	-13272
▁خەوی	-13273
▁لەرز	-13274
▁ناسنام	-13275
▁لایەنگر	-13276
▁هێرشبەری	-13277
▁کێشەکانیان	-13278
▁براکەی	-13279
▁پیشەساز	-13280
▁بەهۆیەوه	-13281
▁نس	-13282
▁عین	-13283
▁هۆم	-13284
بەهۆی	-13285
▁بێته	-13286
▁کەمیی	-13287
▁چاندنی	-13288
▁مەعریفە	-13289
ایبەت	-13290
▁جاسم	-13291
▁زاخو	-13292
▁لێسەند	-13293
▁فرۆکەخانەی	-13294
▁تانک	-13295
▁نڤیس	-13296
▁پێڵاو	-13297
▁نەقشبەندی	-13298
▁بیروبۆچوون	-13299
▁پەیمانگاکان	-13300
▁ئێکێ	-13301
▁قەبوڵ	-13302
▁پشێوی	-13303
▁جولەکە	-13304
▁پێکراوە	-13305
اتیا	-13306
▁داس	-13307
▁ناڤێ	-13308
ەره	-13309
▁قاچاخ	-13310
▁دواڕۆژ	-13311
▁بەیاننامەکەدا	-13312
ublish	-13313
▁پشکداری	-13314
رب	-13315
▁نیگ	-13316
▁ڤایرۆس	-13317
▁پاکستانی	-13318
▁تیرۆرستان	-13319
▁پەرلەمانیش	-13320
▁لەسێدارەدان	-13321
99	-13322
یدانی	-13323
▁زادە	-13324
▁هەتی	-13325
وندوتی	-13326
▁دوبەی	-13327
▁مومار	-13328
▁تەقاند	-13329
▁وتارەکەی	-13330
▁لەوکاتەدا	-13331
▁ڕێگەچارەی	-13332
▁٤	-13333
▁ڕم	-13334
▁کۆیی	-13335
▁چەتری	-13336
▁بهێنێتە	-13337
▁تۆمارکردووە	-13338
30	-13339
▁فەس	-13340
▁مەق	-13341
ییەدا	-13342
▁چونە	-13343
▁خاڵێک	-13344
▁خولەکه	-13345
▁لێقەوم	-13346
▁حیزبێکی	-13347
▁ئاسوودەیی	-13348
▁مەبەستمان	-13349
▁کاریگەرییان	-13350
زینی	-13351
چوار	-13352
▁دوم	-13353
▁ژەنەڕ	-13354
▁احمد	-13355
▁بترسن	-13356
▁بەکرد	-13357
▁گەیشتی	-13358
▁ئۆمەران	-13359
▁جوگرافیای	-13360
▁بابە	-13361
دەوڵەت	-13362
▁حەڤدەی	-13363
▁دیاربەکر	-13364
▁هێناوەتە	-13365
▁ئامادەبوو	-13366
▁دەسەلمێنێت	-13367
▁کۆتاییهێنان	-13368
▁ڕەوشە	-13369
▁پرنسیپی	-13370
▁یەکێتیش	-13371
▁خزمەتکردن	-13372
▁ناوچەیەدا	-13373
وەوە	-13374
▁دری	-13375
▁هاوت	-13376
▁false	-13377
▁لێدێت	-13378
▁ئامادەین	-13379
▁بڕیاریان	-13380
▁دڵەڕاوکێ	-13381
لەر	-13382
ەوین	-13383
▁جورئ	-13384
▁ڕۆما	-13385
▁گوتە	-13386
▁هاوبیر	-13387
▁وەهم	-13388
▁کامە	-13389
▁لۆژیک	-13390
▁ناهێڵێت	-13391
▁ژوورەوە	-13392
port	-13393
ازانجی	-13394
ێویسته	-13395
▁مەیلی	-13396
▁ڕۆژوو	-13397
▁بەلاوە	-13398
▁بنەڕەتدا	-13399
▁دەردەکەوێ	-13400
▁خەست	-13401
▁ساڵانێکی	-13402
▁ئەچ	-13403
▁دائ	-13404
▁دکەت	-13405
▁لەمانە	-13406
▁کەشێکی	-13407
▁تەواویان	-13408
▁هاوڕێیەتی	-13409
▁پاڵێوراوی	-13410
▁نەخۆشییەکانی	-13411
اتدا	-13412
▁وەت	-13413
▁شەریک	-13414
▁ئۆرگانی	-13415
▁هەڕەشەکانی	-13416
▁هونەرییەکانی	-13417
خەن	-13418
▁وار	-13419
▁جەواد	-13420
▁فەیلی	-13421
▁لەیەکتری	-13422
▁ئەفسەرێکی	-13423
▁تاقیکردنەوە	-13424
راپ	-13425
قان	-13426
لەب	-13427
▁بنە	-13428
▁بەنێو	-13429
▁خویند	-13430
▁فرانک	-13431
▁دانیشتوانەکەی	-13432
▁کێشا	-13433
▁بەڵگه	-13434
▁دەپارێزێت	-13435
▁ئێزدییەکان	-13436
▁توێژینەوەیەکی	-13437
KK	-13438
رافی	-13439
▁بێشکچی	-13440
▁لەناوی	-13441
▁واشنتۆن	-13442
▁وەڵامێکی	-13443
▁ئەلعێراقیه	-13444
▁ئەمریکییەکان	-13445
ساڵدا	-13446
لملان	-13447
▁خستنی	-13448
▁شاردا	-13449
▁یاسایه	-13450
▁حکومڕانی	-13451
▁گەورەکەی	-13452
▁پەرەپێدان	-13453
▁ڕاگەیەنرا	-13454
▁کاتێکدایه	-13455
▁ناسیۆنالیزم	-13456
▁موکری	-13457
▁هەڵەو	-13458
▁دیکەیش	-13459
▁ناحکوم	-13460
▁ئەمانەی	-13461
ust	-13462
ختی	-13463
▁تاقم	-13464
▁گەمە	-13465
▁بەپشت	-13466
▁کەسوکار	-13467
▁پێداچوونەوەی	-13468
▁سیل	-13469
ارەکەدا	-13470
ەکانەوه	-13471
▁دەکوژێت	-13472
▁دەیانوت	-13473
▁ئەشکەنجە	-13474
▁بەرشەلۆن	-13475
▁خانووبەرە	-13476
▁فتو	-13477
▁حەقە	-13478
▁سونە	-13479
▁بەحرەین	-13480
▁مرۆڤەوە	-13481
▁خەتەنەکردنی	-13482
▁زانیارییانەی	-13483
ac	-13484
▁لەپڕ	-13485
▁مانگدا	-13486
▁کردوویەتی	-13487
▁کن	-13488
▁110	-13489
ستەکانی	-13490
▁سیاسیش	-13491
▁گەورەدا	-13492
▁چەوساندنەوەی	-13493
ییش	-13494
▁تیۆر	-13495
▁موجاهید	-13496
▁گرفتێکی	-13497
▁هەولی	-13498
▁ڕیشەی	-13499
▁دەترسن	-13500
▁کامکار	-13501
▁نامەوێت	-13502
▁ناوەکەی	-13503
▁گرنگیان	-13504
▁گوتەیەکی	-13505
▁بەبەشداری	-13506
▁پێشکەوتووی	-13507
▁وسی	-13508
▁ئەنت	-13509
▁بگاته	-13510
▁خومەی	-13511
▁زانستیی	-13512
▁کۆنگرەکە	-13513
▁دەرکردووە	-13514
▁News	-13515
انەمان	-13516
▁ئەڤین	-13517
▁دراوه	-13518
▁ئیسلامە	-13519
▁سیستانی	-13520
▁ڕاستگۆی	-13521
▁ئەمریکاش	-13522
▁خاوەندارێتی	-13523
▁چاڤ	-13524
▁چاککردنی	-13525
▁سەربازێکی	-13526
ێکەی	-13527
ستەمی	-13528
▁هەوێنی	-13529
▁کەمینە	-13530
▁هەستیان	-13531
▁حەقیقەتی	-13532
▁pr	-13533
خرێت	-13534
شاری	-13535
▁جود	-13536
▁عومەری	-13537
▁نادروست	-13538
▁ئاشکرایان	-13539
▁پرسیارانە	-13540
42	-13541
▁71	-13542
▁لەفر	-13543
▁بچکۆل	-13544
▁بینەری	-13545
▁مامناو	-13546
▁نەگونج	-13547
▁ئەنجومەنە	-13548
▁داگیرکەری	-13549
▁خیت	-13550
▁هێڕ	-13551
▁جیاک	-13552
▁تێبپەڕ	-13553
▁ئاڕاستە	-13554
▁ئیقلیمی	-13555
▁قۆناغەی	-13556
▁ئاشتیانە	-13557
▁عبد	-13558
▁تایف	-13559
▁شۆڕشگێڕی	-13560
▁دۆستەکانی	-13561
▁پەیامەکەی	-13562
ردە	-13563
ڤیا	-13564
▁ڕەب	-13565
▁بەنگ	-13566
پارێزی	-13567
ەتەوەی	-13568
▁پێیەتی	-13569
▁بەڕێژەی	-13570
▁ئاماژەیەکی	-13571
ەڕو	-13572
ەنتین	-13573
▁تکریت	-13574
▁جیان	-13575
▁ماندو	-13576
▁هاتەوە	-13577
▁بونیادی	-13578
▁هاتووچۆی	-13579
▁کۆنەپەرست	-13580
گەیان	-13581
▁بچینە	-13582
▁لەگەرم	-13583
▁نەبووه	-13584
ابان	-13585
گوای	-13586
▁زەه	-13587
▁ڕسول	-13588
▁یادە	-13589
▁یەکلا	-13590
دارەکان	-13591
▁ئامێدی	-13592
▁ملیۆنی	-13593
▁کێشەیان	-13594
▁توێژەران	-13595
▁یەکسانیی	-13596
▁هاندەرانی	-13597
ئەمەش	-13598
▁ڕایی	-13599
▁خەلات	-13600
▁بێتاوان	-13601
▁مانگرتنی	-13602
کراونەتەوە	-13603
▁شانۆگەریی	-13604
▁مەخمور	-13605
هاتەکانی	-13606
▁پرۆگرامێکی	-13607
زمەت	-13608
گەران	-13609
ەگرێت	-13610
اوەکەی	-13611
ووچێهر	-13612
▁العرب	-13613
▁دیمانەی	-13614
▁دامەزرێنەری	-13615
▁وەلا	-13616
▁کڵێس	-13617
▁دۆخەی	-13618
▁پێکان	-13619
▁سالانی	-13620
▁لاوەکی	-13621
▁ئێستاوە	-13622
▁میللەتە	-13623
▁ڕەخنەیی	-13624
▁پیرەمێرد	-13625
▁بەرچاویان	-13626
چار	-13627
ازەی	-13628
▁1989	-13629
▁بانی	-13630
▁دەیس	-13631
▁وتارە	-13632
▁هاتینه	-13633
▁تەقینەوەکەی	-13634
شنگ	-13635
▁بۆل	-13636
▁ماج	-13637
▁مۆم	-13638
▁نادەین	-13639
▁لەبازاڕ	-13640
▁هێنابوو	-13641
▁هەڵگرتووە	-13642
▁دەوڵەمەندی	-13643
ێنج	-13644
ەرن	-13645
▁بینا	-13646
ێوەبەر	-13647
▁سۆنگەی	-13648
▁بەڕوونی	-13649
▁کۆنەکان	-13650
▁شوێنەوار	-13651
▁دەنگدەرانی	-13652
▁پێکەوەژیانی	-13653
37	-13654
ڕۆسەی	-13655
▁داخە	-13656
▁فەتح	-13657
▁چووم	-13658
▁بەرۆکی	-13659
▁خێڵەکی	-13660
▁پیشانگ	-13661
▁ڕادیکاڵ	-13662
▁شەراکەتی	-13663
▁زیندانیانی	-13664
▁ڕۆژنامەکان	-13665
فاتی	-13666
▁بەڵی	-13667
▁بەدەس	-13668
▁گەیەن	-13669
لیسی	-13670
▁ڕەح	-13671
▁خەمخۆری	-13672
▁بەهۆکاری	-13673
▁سەرەتادا	-13674
▁حەمەڕەشید	-13675
▁دروستبکات	-13676
▁بەبەردەوامی	-13677
▁هەموارکردنەوەی	-13678
um	-13679
▁ئۆد	-13680
ەبووە	-13681
▁نزار	-13682
▁ڕواە	-13683
▁داواد	-13684
▁بیانوو	-13685
▁بەهێزو	-13686
▁بکەنەوه	-13687
▁بەڕێزتان	-13688
▁حکومەتێک	-13689
▁بەئامانجی	-13690
▁لەنێوانیاندا	-13691
خوێن	-13692
▁بشار	-13693
▁وادی	-13694
▁ئەمەو	-13695
▁دزینی	-13696
▁ناهێنن	-13697
▁بەردەوامه	-13698
▁دانووستان	-13699
▁کۆمەڵایەتیەکان	-13700
▁فە	-13701
گراد	-13702
▁گال	-13703
▁تشرین	-13704
▁جەلاد	-13705
▁دڵتەز	-13706
▁کودەتا	-13707
▁گرینگە	-13708
ەوتر	-13709
▁خراون	-13710
▁بونەتە	-13711
▁بگوترێت	-13712
▁خوارەوه	-13713
▁تووشبوون	-13714
▁ساختەکاری	-13715
▁نق	-13716
اشین	-13717
دابوو	-13718
اینەوە	-13719
▁بیکەن	-13720
▁بەرێک	-13721
▁دەیتوانی	-13722
▁داهاتوویەکی	-13723
▁فات	-13724
▁چێڵ	-13725
▁کلتور	-13726
▁سووتان	-13727
▁مەعریفی	-13728
▁شوێنکەوت	-13729
▁هەڤپەیڤین	-13730
▁بة	-13731
▁مود	-13732
▁دەرێ	-13733
اییەکی	-13734
▁ڕێژەیە	-13735
▁دەستوەر	-13736
▁قبوڵی	-13737
▁هەڵنە	-13738
ublished	-13739
▁نووسینەوەی	-13740
ترد	-13741
▁خۆمدا	-13742
▁سالانە	-13743
▁هەڵبوەش	-13744
▁پێنجشەممه	-13745
▁بەناونیشانی	-13746
▁ناوەک	-13747
▁ئەوانەشی	-13748
▁دەوڵەتێک	-13749
وورە	-13750
وپێک	-13751
ەنگن	-13752
▁ڕوس	-13753
▁ڕایس	-13754
ەکەوێت	-13755
اکسیۆنی	-13756
▁هاتبێت	-13757
▁کوبانی	-13758
▁ڕێوڕەسم	-13759
▁لەخزمەتی	-13760
"(	-13761
باش	-13762
▁91	-13763
چەیی	-13764
▁بکەت	-13765
▁فریو	-13766
▁لەجێی	-13767
▁کلیلی	-13768
▁لەسەدا	-13769
▁ببەستێت	-13770
▁کورستان	-13771
▁بیناسازی	-13772
▁عەقڵییەتی	-13773
▁لێکدانەوە	-13774
▁کراونەتەوە	-13775
رخی	-13776
روت	-13777
▁Se	-13778
دوەر	-13779
▁الذ	-13780
▁ئەمانیش	-13781
▁منداڵەکە	-13782
▁چۆنییەتی	-13783
▁92	-13784
وردا	-13785
▁پێوو	-13786
▁دەرکەوتن	-13787
▁دەخوازن	-13788
▁هەردووک	-13789
▁ڕۆیشتنی	-13790
▁بەیانیان	-13791
▁خوش	-13792
ێدانە	-13793
▁کازم	-13794
▁لادانی	-13795
▁یەکجاری	-13796
▁یەکیەتیی	-13797
پاک	-13798
▁سێپت	-13799
▁وەرگێر	-13800
▁هاتووەو	-13801
▁گۆڕانیش	-13802
▁گەشبینی	-13803
▁داوایەکی	-13804
▁نەخوازراو	-13805
▁خەڵاتەکانی	-13806
▁تازەپێگەیشت	-13807
▁ڕێککەوتنێکی	-13808
▁وەبیرهێنانەوەی	-13809
▁جەڵ	-13810
▁دیبە	-13811
▁نەبووم	-13812
▁پێکردن	-13813
▁تۆمارکراوە	-13814
▁ڕەگەزپەرستی	-13815
بەخ	-13816
گیرێن	-13817
▁هەڵق	-13818
▁گورج	-13819
▁دادەڕ	-13820
▁باژێرێ	-13821
▁قسەیەک	-13822
▁کولتور	-13823
▁خومەینی	-13824
▁سوودیان	-13825
▁نەهێناوە	-13826
▁هەڵەکانی	-13827
▁سۆڤ	-13828
اندانی	-13829
▁سەوزی	-13830
▁لادان	-13831
▁منیان	-13832
▁قورئانه	-13833
ارێت	-13834
کەرەوە	-13835
▁دانرا	-13836
▁مەدریدی	-13837
▁وێنەکانی	-13838
ضی	-13839
ارەو	-13840
▁چەندێ	-13841
▁ئارادا	-13842
▁نابەجێ	-13843
▁ئەلبومی	-13844
▁هەرێمایەتی	-13845
جەو	-13846
دەتوانی	-13847
▁بووایە	-13848
▁هەستیاری	-13849
ویل	-13850
▁it	-13851
ڵاتیان	-13852
ەیاندا	-13853
▁لەشەڕ	-13854
▁ڕەوایە	-13855
▁بخوێنێت	-13856
▁تورکیایە	-13857
▁خوێندنگە	-13858
▁بیانییەکان	-13859
▁بەرژەوەندیە	-13860
▁جیهانییەکان	-13861
یتەر	-13862
▁180	-13863
▁PKK	-13864
▁توێژی	-13865
▁ژیانم	-13866
▁ئامێرژەنی	-13867
▁چیک	-13868
بەستی	-13869
▁ئەنس	-13870
▁پرۆف	-13871
▁پەله	-13872
▁بێژەر	-13873
▁سانتی	-13874
▁ستەمکاری	-13875
▁چاوەروانی	-13876
▁کردەوانەی	-13877
▁ڤێت	-13878
انمان	-13879
▁1968	-13880
▁سمکۆ	-13881
▁خۆشتر	-13882
▁گوایه	-13883
▁بەخاک	-13884
▁کوێتی	-13885
▁تازەیە	-13886
▁بایکۆتی	-13887
▁ڕۆژئاوایی	-13888
▁کەمئەندام	-13889
ۆیا	-13890
بەشی	-13891
▁مۆڕ	-13892
▁نەئ	-13893
▁زیاترو	-13894
▁هەریری	-13895
▁ئینسانەکان	-13896
▁ئەنجامەکان	-13897
▁کوش	-13898
احیەی	-13899
▁خێری	-13900
▁زێدی	-13901
▁بخەین	-13902
▁زیندووی	-13903
▁لەول	-13904
▁میوە	-13905
▁پەرتەو	-13906
▁بەگەرمی	-13907
▁عەدالەت	-13908
▁لەقەزای	-13909
▁پۆستەکەی	-13910
▁هێنانەوەی	-13911
▁ئەبن	-13912
▁کوێی	-13913
▁دڵخۆشی	-13914
▁قوربان	-13915
▁کارمان	-13916
▁یارییه	-13917
▁نواندنی	-13918
▁یەکگرتوی	-13919
▁دەستلەکار	-13920
▁ناحیەکانی	-13921
▁عەبدولرەحمان	-13922
▁بخش	-13923
▁تالی	-13924
ەکانییەوە	-13925
▁ئیسلامیە	-13926
▁کۆبکاتەوە	-13927
▁ڕێبەرایەتی	-13928
▁لەبوارەکانی	-13929
▁هوت	-13930
▁ئیراق	-13931
ابێتەوە	-13932
▁باوەڕم	-13933
▁ئومێدەو	-13934
▁تاوتوێک	-13935
▁کوردمان	-13936
▁دەستگیرکرا	-13937
▁قە	-13938
atur	-13939
gmail	-13940
▁تۆڕە	-13941
▁لەخول	-13942
▁هێزەی	-13943
▁چەواشەکاری	-13944
▁کورسییەکانی	-13945
▁دابڕێنراوەکان	-13946
▁:"	-13947
▁وکار	-13948
▁تاکێک	-13949
▁بابەته	-13950
▁پێزانی	-13951
▁داهاتوی	-13952
▁ئامادەکردووە	-13953
یمی	-13954
▁خون	-13955
▁سەیرو	-13956
▁هاورێی	-13957
▁ڕێڕەوی	-13958
▁دەستێکی	-13959
▁لێهاتوو	-13960
▁وشەیەکی	-13961
ەبوونەوەی	-13962
▁هاریکاریی	-13963
غدا	-13964
لیب	-13965
ابووە	-13966
داوای	-13967
▁خولە	-13968
▁بودجه	-13969
▁کۆنفڕ	-13970
اوولاتی	-13971
▁نوسەری	-13972
▁هاوینی	-13973
▁ڕوناکی	-13974
▁پەلامار	-13975
▁بارهەڵگر	-13976
▁سەرتاپای	-13977
▁مەبەستیان	-13978
وبی	-13979
▁شیوع	-13980
▁زەنگی	-13981
▁لەپڕۆژ	-13982
▁ڕۆژگاری	-13983
▁عەدالەتی	-13984
▁هاوڕێیان	-13985
▁نەکردووەتەوە	-13986
ڵو	-13987
زبی	-13988
گەکە	-13989
یلەی	-13990
ەبجە	-13991
▁بڕگە	-13992
▁مەرجە	-13993
▁دەهێنا	-13994
▁خۆئاماد	-13995
▁گۆڕەپان	-13996
ینێ	-13997
▁یوون	-13998
▁کەمدەر	-13999
▁لەڕاستی	-14000
▁وڵاتەکە	-14001
▁گەورەیەی	-14002
▁لەشارەکانی	-14003
▁ڕابەرایەتی	-14004
▁لینین	-14005
▁هەفتەیە	-14006
▁ڕۆناڵدۆ	-14007
▁کراوەیە	-14008
▁بارزانیی	-14009
▁ئازادییەکانی	-14010
▁بەبی	-14011
▁وێنا	-14012
▁بۆیەک	-14013
▁کەدەب	-14014
▁سورەتی	-14015
مة	-14016
اییەی	-14017
▁کیان	-14018
▁گوللە	-14019
▁دەخاته	-14020
▁زایینی	-14021
▁پەرتوک	-14022
▁چۆنیەتیی	-14023
▁ئازارەکانی	-14024
رادی	-14025
▁پێنچ	-14026
▁کوفر	-14027
▁ئەلقاعیدە	-14028
▁بەرێوەدەچێت	-14029
▁کوردییەکاندا	-14030
▁میراتی	-14031
▁بچێتەوە	-14032
▁لەبەرنامەی	-14033
▁یەکگرتوەکانی	-14034
▁تەنێ	-14035
▁ڕەشە	-14036
▁نێگەتیڤ	-14037
▁فەبرایەر	-14038
▁نەبێتەوە	-14039
▁پێکهاتەکان	-14040
جێی	-14041
کۆف	-14042
ۆرا	-14043
▁چەل	-14044
▁بابل	-14045
▁خواستە	-14046
▁دەردەکەون	-14047
نینی	-14048
▁تەڵاق	-14049
▁جارانی	-14050
▁مۆرکرد	-14051
▁نەکردبێت	-14052
دری	-14053
ایین	-14054
▁بات	-14055
▁بەمە	-14056
▁پەیڤ	-14057
▁بەلیستی	-14058
▁خاڵانەی	-14059
▁لەوێشەوە	-14060
▁ڕەوایەتی	-14061
▁سەقامگیریی	-14062
▁٥	-14063
▁لۆس	-14064
▁گۆم	-14065
▁نیگای	-14066
▁کلینتۆن	-14067
▁پێکهاتوون	-14068
هێڵ	-14069
ەقەی	-14070
▁ماڵێک	-14071
▁ترسناکە	-14072
▁ئەلمانیا	-14073
▁کەوتوونەتە	-14074
مام	-14075
▁لاه	-14076
▁هەمە	-14077
▁کەبە	-14078
ییەکانمان	-14079
▁قیامەتدا	-14080
لة	-14081
دوڵ	-14082
▁بێخ	-14083
▁بەچی	-14084
▁وەدی	-14085
▁ئەتات	-14086
▁بینیم	-14087
▁کرایە	-14088
▁شەرەفی	-14089
▁جیاجیاکان	-14090
▁لێکۆڵینەوەیەکی	-14091
▁ڕاوبۆ	-14092
▁شیعرێکی	-14093
▁سەرشەقام	-14094
▁نەبووبێت	-14095
▁ڕۆژنامەکانی	-14096
▁ستار	-14097
▁وتنی	-14098
▁ڕستە	-14099
ەدەستی	-14100
▁بوێری	-14101
▁فیلمەدا	-14102
▁ژێردەست	-14103
▁کۆنگرەیە	-14104
اکات	-14105
▁گوتەنی	-14106
▁لەدەوری	-14107
▁دەرچووانی	-14108
▁مەترسییەکی	-14109
▁دۆک	-14110
▁لال	-14111
▁بەهان	-14112
▁سیمین	-14113
▁لێرەو	-14114
▁ناهەم	-14115
▁گرنگن	-14116
▁تیرۆرو	-14117
▁فرەژنی	-14118
▁کوشندە	-14119
وبونەوەی	-14120
▁بەنهێنی	-14121
▁سلێمانیش	-14122
▁هاوری	-14123
▁فارسیی	-14124
▁دەنێرێت	-14125
▁پێمانوایە	-14126
ئاڤ	-14127
▁ڤە	-14128
▁پڕی	-14129
▁عەیب	-14130
▁فرۆشت	-14131
▁هەیان	-14132
▁وەزعی	-14133
▁دایکان	-14134
▁لەشەڕی	-14135
▁پووچەڵ	-14136
▁ئەمانەن	-14137
رت	-14138
اوس	-14139
▁se	-14140
اهەت	-14141
ەرینی	-14142
▁بریارە	-14143
▁لێبکات	-14144
▁لەعێراقدا	-14145
▁تەلەفیزیۆنی	-14146
▁هەندێکیشیان	-14147
▁دن	-14148
▁وەڕ	-14149
▁بونە	-14150
▁پردێ	-14151
▁کامڵ	-14152
▁گیری	-14153
▁بوترێت	-14154
▁شیکاری	-14155
▁نزیکترین	-14156
▁کەرکوکیش	-14157
بور	-14158
▁Wed	-14159
▁خاش	-14160
▁هەرسێ	-14161
▁بگرێتە	-14162
▁بەوپێیەی	-14163
▁داهاتێکی	-14164
▁دۆزرایەوە	-14165
▁ناوخۆییەکانی	-14166
نار	-14167
▁شەل	-14168
▁بێوار	-14169
▁بەئاگ	-14170
▁خانەخو	-14171
▁لیبراڵ	-14172
▁ئەکاتەوە	-14173
غانی	-14174
عێراق	-14175
▁حەمەس	-14176
▁ژیاوە	-14177
▁کارگە	-14178
▁شەوانە	-14179
ژێ	-14180
اگۆ	-14181
وتە	-14182
▁ڕاف	-14183
▁ڕەگی	-14184
▁هۆزان	-14185
▁دەستەم	-14186
▁ئێرانییەکان	-14187
▁ئەبی	-14188
▁زەبری	-14189
▁نەکەوێت	-14190
وتەی	-14191
▁بەڕێوه	-14192
▁شاڵاوی	-14193
▁شایستە	-14194
▁بیرکردنەو	-14195
▁Tu	-14196
▁هێش	-14197
▁مەرام	-14198
▁کۆیلەی	-14199
▁پاشانیش	-14200
▁دنیابینی	-14201
▁ڕێککەوتنێک	-14202
▁گفتوگۆیەکدا	-14203
▁لەدروستکردنی	-14204
▁شەخس	-14205
وویانە	-14206
▁مابوو	-14207
▁نەرمی	-14208
▁قائیمقامی	-14209
▁سندوقەکانی	-14210
▁ئەلعێراقییە	-14211
▁هەره	-14212
▁توندتر	-14213
▁ئەفغانس	-14214
▁خن	-14215
خالق	-14216
▁گەلەک	-14217
▁ئەکتیڤ	-14218
▁سەرفراز	-14219
▁تیمەکانی	-14220
▁عەبدولموت	-14221
▁گات	-14222
▁Wedn	-14223
ەکاران	-14224
▁دروستە	-14225
▁Wednesday	-14226
▁مخ	-14227
▁نگ	-14228
▁بلا	-14229
▁شێل	-14230
▁دوعا	-14231
▁موحەمەدی	-14232
▁وتوویەتی	-14233
▁پەشیمانی	-14234
دایی	-14235
▁لەوبار	-14236
▁بکاتەوه	-14237
▁هاتبوون	-14238
▁شەفافییەت	-14239
▁ناردنەوەی	-14240
▁هەوڵدەدەین	-14241
▁کوردییەکانی	-14242
▁پێداویستیەکانی	-14243
urs	-14244
تێک	-14245
کرێ	-14246
ەله	-14247
▁غەیرە	-14248
▁تائیفی	-14249
▁خێراتر	-14250
▁دوازدە	-14251
▁باسکردن	-14252
▁پڕۆژەیاس	-14253
▁دیبلۆماسی	-14254
بدەین	-14255
▁تێهەڵ	-14256
▁دیمۆکراسی	-14257
▁وڵاتەکەمان	-14258
وکمی	-14259
▁تایل	-14260
▁برینی	-14261
▁شاخەوان	-14262
▁گونجاوی	-14263
▁بەرقەرار	-14264
ەکەمدا	-14265
▁دەرون	-14266
▁قەتیس	-14267
▁ماوەیەی	-14268
▁گوتەبێژ	-14269
▁قوتابخانەو	-14270
▁کۆمپانیاکە	-14271
قین	-14272
ماو	-14273
ەڵەک	-14274
▁قسەم	-14275
▁بیرمان	-14276
دەکەینەوە	-14277
▁ئەوەشیان	-14278
▁ڕاپۆرتێک	-14279
▁مەنووچێهر	-14280
▁میش	-14281
▁ڕۆنی	-14282
▁بێکار	-14283
▁نەدەب	-14284
▁داهاتو	-14285
▁ساڵانه	-14286
▁نابینێت	-14287
▁هەڕەشەو	-14288
▁ببەسترێت	-14289
▁خەڵکانێکی	-14290
▁داواکردنی	-14291
▁فێمینی	-14292
▁کوڕێکی	-14293
▁کردەوەیەکی	-14294
دەبن	-14295
▁شەشی	-14296
▁ماوه	-14297
▁یەکس	-14298
▁ساڵەو	-14299
▁هەبیت	-14300
▁لوقمان	-14301
▁یاسادا	-14302
▁بەڵگەوە	-14303
▁بەدەستبهێنێت	-14304
▁هەڵبژاردنەوە	-14305
▁1974	-14306
▁نوێیەی	-14307
▁بۆماوەی	-14308
مەنی	-14309
▁عوب	-14310
▁خوارێ	-14311
▁وێنەو	-14312
▁شەڕڤان	-14313
▁دەستوورە	-14314
▁ئەمریکایە	-14315
▁سەڵاحەدین	-14316
ۆرن	-14317
سیری	-14318
هەلات	-14319
دانانی	-14320
▁مەکسیک	-14321
▁کۆنگرێس	-14322
▁پاڵێوراو	-14323
▁بیز	-14324
▁کاکی	-14325
▁بگونج	-14326
▁لەترسی	-14327
تەرناتیڤ	-14328
▁ئەندامە	-14329
▁تریشیان	-14330
▁پەسەندی	-14331
▁مرۆڤەکانی	-14332
هنی	-14333
ێنتی	-14334
▁وێژ	-14335
▁تۆڵە	-14336
▁شتان	-14337
▁ئاغای	-14338
▁بەجیا	-14339
▁نێوەندی	-14340
▁واقیعدا	-14341
▁فراکسیۆنە	-14342
▁دەسەڵاتەکان	-14343
▁ناسیۆنالیستی	-14344
▁دێی	-14345
▁ئینت	-14346
▁شکۆم	-14347
▁سوننی	-14348
▁سەدری	-14349
▁هەوڵدەدەن	-14350
جێکی	-14351
▁بوبێت	-14352
▁زمانێک	-14353
▁وتەبێژ	-14354
▁تێبگەین	-14355
▁شانۆنام	-14356
▁نەتەوەیە	-14357
▁پێکبهێنرێت	-14358
ەبکات	-14359
ەتیڤی	-14360
▁دووڕ	-14361
▁پلانە	-14362
▁تێکەڵی	-14363
▁لێڤەرپ	-14364
▁شەرعییەت	-14365
▁هاوکێشەی	-14366
▁هێرشکردنە	-14367
▁تیرۆریستییەکان	-14368
ۆڤا	-14369
گەشت	-14370
▁ئەلس	-14371
▁سانت	-14372
▁دیارو	-14373
▁لەئام	-14374
▁ئێرانەوه	-14375
▁چەکداریی	-14376
▁ڕەتدەکاتەوە	-14377
▁گەشتوگوزاری	-14378
گوڵ	-14379
ێکا	-14380
ەجەم	-14381
ۆیۆرک	-14382
▁کێوی	-14383
▁بڕەخس	-14384
▁نوێوە	-14385
▁وێنای	-14386
▁دەخەینە	-14387
▁بوونەوەر	-14388
▁لەبارەگای	-14389
▁پرۆلیتاری	-14390
▁ناوچەکەیان	-14391
▁کانت	-14392
خوازەکان	-14393
▁بەتوانای	-14394
▁براوەکانی	-14395
▁هەمووشیان	-14396
▁پرسیارەکانی	-14397
fo	-14398
▁چونی	-14399
▁لامان	-14400
▁باشترو	-14401
▁دەمرێت	-14402
▁موشەکی	-14403
▁نازانیت	-14404
▁باڵەکایەتی	-14405
حد	-14406
انەیەک	-14407
▁وەرگی	-14408
▁سوتاندنی	-14409
▁دەردەسەری	-14410
▁بەکارهێنان	-14411
▁ڕەچاوکردنی	-14412
کخ	-14413
بۆرگ	-14414
ودەست	-14415
▁دیاره	-14416
▁گوندە	-14417
▁وازیان	-14418
▁یانەیە	-14419
▁نەکردووه	-14420
▁بەرهەمهێنەر	-14421
▁لەبەرژەوەندیی	-14422
▁فرەیی	-14423
▁پێشبر	-14424
▁ژناندا	-14425
▁دانەوێڵ	-14426
▁خەرجکردنی	-14427
جیری	-14428
موزی	-14429
▁حاف	-14430
▁سوب	-14431
▁بەپی	-14432
▁کەپێویستە	-14433
▁81	-14434
▁إن	-14435
▁کوڵ	-14436
بینێت	-14437
▁زمانەکانی	-14438
فور	-14439
▁Com	-14440
▁ئیتی	-14441
▁جەرگ	-14442
▁چیرۆکێکی	-14443
▁ڕوانگەیەوە	-14444
▁خۆپیشاندەرانی	-14445
▁سەرەتاییەکانی	-14446
چاک	-14447
▁دڵە	-14448
▁فەریق	-14449
▁سکرتێر	-14450
▁هاندان	-14451
▁توێژەری	-14452
▁جەمسەری	-14453
▁دەرهاوی	-14454
▁پەنایان	-14455
▁بدەینەوە	-14456
▁ولاتەکەی	-14457
▁دەسەڵاتێک	-14458
▁تن	-14459
دینی	-14460
گرتوو	-14461
▁دەسپ	-14462
▁فیدا	-14463
▁بنێرێت	-14464
▁بەربڵاو	-14465
▁جێگرەکەی	-14466
▁دواکەوتوو	-14467
▁دەسەڵاتەکەی	-14468
▁بەشداربووانی	-14469
▁دادگاییکردنی	-14470
▁سەربازییەکان	-14471
▁ناسراون	-14472
▁لەسەرووی	-14473
ارەسەرکردنی	-14474
▁هاب	-14475
▁جانت	-14476
▁نەدە	-14477
▁خوارووی	-14478
ەندەکانی	-14479
▁دۆستانی	-14480
▁ولاتێکی	-14481
▁نیشانەکانی	-14482
▁پێغەمبەرەکەی	-14483
rom	-14484
▁دەول	-14485
▁فۆڕم	-14486
▁بەوەز	-14487
▁ئیئتیلاف	-14488
▁بەسەرهاتی	-14489
▁کوردییەوە	-14490
▁گۆرانییەکی	-14491
▁ڕونیشیکردەوە	-14492
▁ته	-14493
ەپەست	-14494
▁بەرەیەکی	-14495
▁ئەمەریکاو	-14496
▁نووسەرێکی	-14497
▁دەنگدانەوە	-14498
عة	-14499
▁Sun	-14500
▁چیان	-14501
▁لێکراو	-14502
▁بونەوەی	-14503
▁خەسڵەتی	-14504
▁لەیاسای	-14505
▁ناوەکانی	-14506
بەن	-14507
حمن	-14508
ۆدا	-14509
▁خا	-14510
▁فور	-14511
▁سواڵ	-14512
▁ساردی	-14513
▁سپارد	-14514
▁نەبون	-14515
▁چێڵسی	-14516
▁دەکوژن	-14517
▁ئابوریی	-14518
▁بەبڕیاری	-14519
▁سیاسیەوە	-14520
▁پەروەردگارم	-14521
▁هەڵبژاردنەکە	-14522
▁لێکۆڵینەوەکان	-14523
رێک	-14524
ئەست	-14525
▁ئامێرە	-14526
ێوەبردنی	-14527
▁بوارێکی	-14528
▁پێشڕەوی	-14529
▁کیشوەری	-14530
▁10000000	-14531
▁باوەڕمان	-14532
▁زیادبوون	-14533
▁نڤی	-14534
▁وکو	-14535
الاکی	-14536
▁تەرمەکەی	-14537
▁ناوچەیەک	-14538
▁منداڵەکان	-14539
▁وەرزشکردن	-14540
▁دێموکراسیدا	-14541
ولە	-14542
▁ەو	-14543
ینیا	-14544
ەپێی	-14545
ڕاستی	-14546
▁عەرب	-14547
▁فۆڕمی	-14548
▁کوشند	-14549
▁هەرێمەکان	-14550
▁یەکلاکردنەوەی	-14551
لۆس	-14552
ۆتی	-14553
ەلەف	-14554
اندنا	-14555
▁لەچی	-14556
▁مندال	-14557
▁ڕەزامەند	-14558
▁دەستەیەکی	-14559
▁ماندووبوون	-14560
فال	-14561
ێوەب	-14562
▁مەڵ	-14563
ەزاران	-14564
▁بنرێت	-14565
▁نزیکن	-14566
▁کاریگەریان	-14567
▁هەوڵەکانیان	-14568
▁فۆت	-14569
▁دادە	-14570
▁لەڕوی	-14571
▁ئەرکانی	-14572
▁ئۆتۆنۆمی	-14573
▁بەردەوامیی	-14574
▁لیتر	-14575
▁ووتی	-14576
▁بەخۆش	-14577
▁سەرلێش	-14578
▁وێنەیی	-14579
▁خێرخوازی	-14580
▁بگەڕێینەوە	-14581
▁مانچستەریۆنایتد	-14582
وولە	-14583
▁داق	-14584
▁لویس	-14585
▁نیچە	-14586
▁وهاو	-14587
▁تووڕە	-14588
▁سازکرا	-14589
▁جاره	-14590
▁ڕاوە	-14591
▁کامپ	-14592
▁گرنگه	-14593
▁تەزویر	-14594
▁دەوڵەتدا	-14595
▁چەوسێنەر	-14596
▁ئاکرێ	-14597
▁فەڕەنس	-14598
▁ڕەهەندە	-14599
▁گۆرانیی	-14600
▁ناوچەکان	-14601
▁پرەنسیپی	-14602
▁کەرنەڤاڵی	-14603
▁ئابڵ	-14604
▁ستۆدی	-14605
▁قامیش	-14606
▁لەمڕۆ	-14607
▁لەبیری	-14608
▁Tuesday	-14609
▁بەئارەز	-14610
▁کۆمسیۆن	-14611
▁هەڵبگرێت	-14612
▁گۆرانییەکانی	-14613
قا	-14614
ەدام	-14615
▁سیس	-14616
▁لایێ	-14617
▁دەیوت	-14618
▁سەربەرز	-14619
▁ئاشکراشیکرد	-14620
▁توڕە	-14621
مانێکی	-14622
▁بارگر	-14623
▁خرایه	-14624
▁هاندەر	-14625
▁تایبەته	-14626
▁هەڵدەستێت	-14627
▁لەهەمانکاتیشدا	-14628
ۆکس	-14629
▁شاز	-14630
▁ڕستەی	-14631
▁خەسرەو	-14632
▁کرمانج	-14633
▁گیرانی	-14634
▁سودمەند	-14635
▁هاوڕێیانی	-14636
▁پیاوسالاری	-14637
60	-14638
▁گوڵە	-14639
ەیەکمان	-14640
▁دەکران	-14641
▁سەیران	-14642
▁لەژمارەی	-14643
▁مانگانەی	-14644
▁کۆمەڵێکی	-14645
▁خۆرهەلاتی	-14646
▁نوێنەرێکی	-14647
▁ئازادیخوازان	-14648
▁پێشمەرگەکانی	-14649
▁کۆبوونەوەکان	-14650
ەکەر	-14651
▁قووت	-14652
▁بەپێک	-14653
▁موسەوی	-14654
▁لەشێوەی	-14655
▁ڕاگواست	-14656
▁دیبەگەیی	-14657
▁ئازادییەکان	-14658
▁ئاژانسەکانی	-14659
یدر	-14660
ایەتە	-14661
▁کانون	-14662
▁ڕوونتر	-14663
▁حیزبایەتی	-14664
▁غی	-14665
▁دژه	-14666
▁سۆف	-14667
ەکراوی	-14668
▁چاومان	-14669
▁دەبینەوە	-14670
▁سنووردار	-14671
▁نیشتمانە	-14672
▁فەرمانگەکانی	-14673
هۆ	-14674
مەو	-14675
ێکیدا	-14676
ۆکراتی	-14677
▁خۆبەڕ	-14678
▁ئەویتر	-14679
▁ڕێچکەی	-14680
▁کوردست	-14681
▁وەفدەکە	-14682
▁ڕاسپێرد	-14683
▁کوردۆساید	-14684
▁مۆت	-14685
روشتی	-14686
ەساڵی	-14687
▁بوود	-14688
▁پەردە	-14689
▁مۆدێرنە	-14690
▁دانیشتوی	-14691
▁ماڵوێرانی	-14692
▁بەیاننامەکەی	-14693
▁جمه	-14694
▁زانایه	-14695
▁ئاودێری	-14696
▁لەخزمەت	-14697
▁کاربکات	-14698
▁خواردووە	-14699
▁ڕێگاوبان	-14700
▁لەئاو	-14701
▁بەکارب	-14702
▁زنجیرەی	-14703
▁ژیانیدا	-14704
▁لەبەرچاوگرتنی	-14705
کەفت	-14706
▁الخ	-14707
▁لیس	-14708
▁کۆششی	-14709
▁سویسری	-14710
▁زەنگەنە	-14711
▁هەمومان	-14712
▁خۆرهەڵات	-14713
▁فیستیڤاڵە	-14714
▁لەدانیشتن	-14715
▁نەتەوەییەکانی	-14716
▁لۆم	-14717
انەشی	-14718
▁لێکت	-14719
▁هەشتا	-14720
▁Monday	-14721
▁دەبیست	-14722
▁تیاییدا	-14723
▁دوورگەی	-14724
▁پەراوێزی	-14725
▁هاوپ	-14726
▁وەیە	-14727
▁خامۆش	-14728
▁مژدەی	-14729
▁کۆنسێرتی	-14730
▁دەبێتەوەو	-14731
ێچی	-14732
▁ئاف	-14733
▁جەلیل	-14734
▁ملوان	-14735
▁هەڵنا	-14736
▁داپۆشی	-14737
▁بژاردەی	-14738
زخورماتوو	-14739
we	-14740
▁no	-14741
اسین	-14742
▁خام	-14743
ۆکردنی	-14744
▁کچەکە	-14745
پارێزێت	-14746
▁پتەوتر	-14747
▁گەورەترە	-14748
▁یۆڤانتۆس	-14749
▁دەگوزەرێت	-14750
▁یادکردنەوەی	-14751
▁cha	-14752
▁زووە	-14753
▁فایق	-14754
▁لسەر	-14755
▁بهێنم	-14756
▁کردون	-14757
▁شەوکەت	-14758
▁ژینگەو	-14759
نامەنووس	-14760
▁شتەکانی	-14761
▁تەواوکەری	-14762
▁لەولاتانی	-14763
▁گەڕاندەوە	-14764
لێت	-14765
ڵای	-14766
ەدای	-14767
▁188	-14768
▁مید	-14769
▁وانی	-14770
▁ئاسود	-14771
▁شەبەک	-14772
▁ڕەهای	-14773
▁عەسکەر	-14774
▁یاریکردن	-14775
▁دابەشکردن	-14776
حوس	-14777
▁فاش	-14778
▁کابر	-14779
▁کراس	-14780
▁کەین	-14781
▁Satur	-14782
▁نەورۆزی	-14783
▁Saturday	-14784
▁توانییان	-14785
▁خۆپیشاندانەکە	-14786
▁کۆتر	-14787
▁تەختی	-14788
▁خواوه	-14789
▁ملیون	-14790
▁ئەورووپ	-14791
▁درێژخای	-14792
▁دەستخۆش	-14793
▁عەشیرەت	-14794
▁ئارەزووم	-14795
▁ئەفریقیا	-14796
▁نەخۆشخانه	-14797
ژمارە	-14798
▁جوڵەی	-14799
▁پێنجی	-14800
▁جوامێر	-14801
▁لەئەزم	-14802
▁تەقاندنەوەی	-14803
▁پاسەوانەکانی	-14804
▁بیخو	-14805
▁دەردی	-14806
▁کارەش	-14807
▁گەرما	-14808
▁تێدایەو	-14809
▁نموونەیی	-14810
ەڵان	-14811
▁کین	-14812
▁دایکە	-14813
▁لێتان	-14814
▁دەناڵێنن	-14815
▁قەسید	-14816
▁بەروبوو	-14817
▁لەبودجەی	-14818
▁پێنوسەکان	-14819
▁ڕێژە	-14820
▁بڵێیت	-14821
▁بەسره	-14822
▁هۆشمەند	-14823
▁th	-14824
ۆران	-14825
▁لێدە	-14826
ەکەدایە	-14827
▁ئینتەر	-14828
▁ماوەیە	-14829
▁شیعەکانی	-14830
▁هاتنەوەی	-14831
▁بەدەسەڵات	-14832
ةی	-14833
▁٦	-14834
▁خەوت	-14835
▁سالح	-14836
▁ستاف	-14837
▁درکاند	-14838
▁هەفتەن	-14839
▁حەوتەمی	-14840
▁چاکترین	-14841
▁بەکاردێت	-14842
▁ڕەخنەیان	-14843
گز	-14844
▁شەیت	-14845
▁لەوەف	-14846
▁سروودی	-14847
▁ئاسانتر	-14848
▁لەهەڵبژاردن	-14849
▁فت	-14850
▁1983	-14851
▁مێدی	-14852
▁ولای	-14853
▁بەوەوە	-14854
▁دەگەنە	-14855
▁حەسرەتی	-14856
▁بەخێرهاتنی	-14857
▁نووسەرەکەی	-14858
الانی	-14859
خواست	-14860
▁الکردی	-14861
▁بەسوود	-14862
لۆپیدیای	-14863
گرتنەوەی	-14864
▁ڕێگایەک	-14865
▁بەستنەوەی	-14866
▁نەیارەکانی	-14867
ووخ	-14868
نەکەوت	-14869
▁دوکانی	-14870
▁دەڤەرە	-14871
▁دەرماڵەی	-14872
▁هۆیەشەوە	-14873
▁ڕێڤەبەری	-14874
سەم	-14875
نیکی	-14876
▁view	-14877
▁گوێمان	-14878
ڕاگەیاند	-14879
▁دەکوژرێت	-14880
▁لیستەکانی	-14881
▁ڕزگاربوون	-14882
▁ڕۆژنامەنوسانی	-14883
مون	-14884
▁ناڕەح	-14885
▁کەبڕی	-14886
▁شاهیدی	-14887
▁ناڕەزای	-14888
ik	-14889
گایە	-14890
یانەیە	-14891
▁سپێرد	-14892
▁فاتیح	-14893
▁ناهەق	-14894
▁نەجات	-14895
▁بیستەم	-14896
▁بەعسدا	-14897
▁تێبگات	-14898
▁وێنەگر	-14899
▁گرەنتی	-14900
▁یۆرانیۆم	-14901
75	-14902
تما	-14903
کیی	-14904
گێری	-14905
▁ئۆن	-14906
▁حیج	-14907
▁سنه	-14908
▁ڤیز	-14909
▁سونی	-14910
▁سەروک	-14911
▁ڕۆستەم	-14912
▁بەرپەرچ	-14913
▁کوالیتی	-14914
▁پرسەکانی	-14915
▁کۆمەڵکوژ	-14916
▁سەرکەوتنە	-14917
ەتیش	-14918
▁پرو	-14919
▁ببیت	-14920
▁خانمه	-14921
▁زەوییە	-14922
▁نەوەست	-14923
▁کێشەیه	-14924
▁باوەڕان	-14925
▁بەرەوپێشبردنی	-14926
ەپێش	-14927
ursday	-14928
ۆزسیۆن	-14929
▁ئەنتی	-14930
شتیمانی	-14931
▁هەژارو	-14932
▁لەئێستا	-14933
▁وڵاتەوە	-14934
▁ناوەندێکی	-14935
▁برینداربوو	-14936
mal	-14937
ابین	-14938
▁میون	-14939
▁چووه	-14940
وێنەری	-14941
ۆنیەتی	-14942
▁ئاراد	-14943
▁ناونیش	-14944
▁ڕاپەڕی	-14945
[...]
