<unk>	0
<s>	0
</s>	0
▁و	-2.98739
▁لە	-3.89755
▁بۆ	-4.25216
▁کە	-4.41503
▁بە	-4.52284
▁ئەو	-4.59885
▁له	-4.66779
▁(	-5.06135
▁:	-5.09406
▁)	-5.09462
▁-	-5.15125
▁/	-5.24691
▁ئەم	-5.31442
▁کوردستان	-5.40737
▁"	-5.4182
▁به	-5.55263
▁هەر	-5.7539
▁لەسەر	-5.80605
▁که	-5.81304
▁ئەوەی	-5.82282
▁لەگەڵ	-5.901
▁خۆی	-5.93101
▁وەک	-5.95532
▁لەو	-5.97358
▁بەڵام	-5.97801
▁عێراق	-6.00137
▁هەموو	-6.03972
▁زۆر	-6.13927
▁ی	-6.15964
▁سەر	-6.21134
▁دەبێت	-6.21421
▁بوو	-6.21743
▁هەیە	-6.23263
▁دەکات	-6.23681
▁کورد	-6.27117
▁یان	-6.33733
▁تا	-6.35961
▁ئەگەر	-6.37336
▁کرد	-6.37909
▁بێت	-6.41707
▁هەرێمی	-6.42903
▁هیچ	-6.47681
▁چەند	-6.49915
▁سەرۆکی	-6.50074
▁لەم	-6.50709
▁بکات	-6.51738
▁دوو	-6.51895
▁من	-6.52119
▁دا	-6.54029
▁نییە	-6.56926
▁بێ	-6.57263
▁دوای	-6.58859
▁خۆیان	-6.61559
▁ئێستا	-6.61591
▁سیاسی	-6.62522
▁ئەوە	-6.63745
▁هەروەها	-6.65349
▁چونکە	-6.70594
▁[	-6.71197
▁]	-6.71403
▁دەکەن	-6.7161
▁تەنیا	-6.72119
▁حکومەتی	-6.72769
▁ئێمە	-6.76888
▁زیاتر	-6.77821
▁,	-6.82313
▁بکەن	-6.82514
▁ساڵی	-6.85194
▁هەولێر	-6.85725
▁بەو	-6.8803
▁ناو	-6.89141
▁بوون	-6.90066
▁تر	-6.9157
▁نێوان	-6.92433
▁بۆیە	-6.93711
▁بووە	-6.94462
▁سەرۆک	-6.94921
▁یەکێتی	-6.9752
▁خەڵکی	-6.97626
▁دەست	-6.97721
▁ئێران	-6.99411
▁یەک	-6.99514
▁کردووە	-6.99532
▁سلێمانی	-7.00101
▁دەکرێت	-7.00524
▁لەلایەن	-7.01467
▁هەرێم	-7.01545
▁کوردی	-7.01683
▁شاری	-7.02584
▁کەس	-7.06138
▁ڕۆژی	-7.0702
▁ئەنجومەنی	-7.08172
▁کاری	-7.11535
▁دەڵێت	-7.13199
▁پارتی	-7.15269
▁بەسەر	-7.19004
▁وە	-7.19004
▁وەکو	-7.19876
▁پێ	-7.2141
▁یانەی	-7.21832
▁تورکیا	-7.22249
▁گوتی	-7.2258
▁بەڵکو	-7.23994
▁،	-7.24142
▁10	-7.24993
▁پێی	-7.25007
▁هەندێک	-7.26992
▁1	-7.2806
▁لێ	-7.285
▁2	-7.28889
▁;	-7.29054
▁ئەمە	-7.29716
▁بەهۆی	-7.30138
▁یەکەم	-7.308
▁3	-7.30918
▁&	-7.3216
▁ناوی	-7.32489
▁2010	-7.33553
▁گشتی	-7.33852
▁تایبەت	-7.33864
▁ئەمڕۆ	-7.34111
▁ئەوان	-7.34585
▁دروست	-7.36115
▁کوردستانی	-7.362
▁بکرێت	-7.36981
▁بەرامبەر	-7.37122
▁لای	-7.38138
▁2011	-7.39617
▁چەندین	-7.4002
▁سێ	-7.40103
▁مرۆڤ	-7.40916
▁نەک	-7.41017
▁لایەن	-7.41857
▁کردنی	-7.42306
▁ئەمەریکا	-7.42632
▁کۆتایی	-7.43271
▁وەزارەتی	-7.43406
▁ئەمەش	-7.43592
▁سەبارەت	-7.43926
▁کەرکوک	-7.44133
▁بەپێی	-7.44267
▁وەزیری	-7.44558
▁11	-7.44771
▁کاتێک	-7.44991
▁داوای	-7.45229
▁پێش	-7.45328
▁پێویستە	-7.46158
▁12	-7.46584
▁چۆن	-7.47738
▁عێراقی	-7.47901
▁\	-7.48706
▁حکومەت	-7.49447
▁بەر	-7.49573
▁دەستی	-7.49784
▁بەم	-7.50012
▁5	-7.507
▁د	-7.5077
▁*	-7.51097
▁نوێ	-7.5144
▁هەزار	-7.51708
▁کار	-7.51879
▁ئیسلامی	-7.51983
▁–	-7.52134
▁4	-7.5215
▁خوا	-7.52987
▁بن	-7.53181
▁عەلی	-7.53895
▁پەرلەمانی	-7.53933
▁مافی	-7.54354
▁بەشی	-7.54364
▁لەناو	-7.54905
▁بوونی	-7.55634
▁هۆی	-7.55668
▁تۆ	-7.56141
▁بەرەو	-7.57108
▁بکەین	-7.57461
▁ئەحمەد	-7.57893
▁هەبێت	-7.57968
▁چ	-7.5852
▁ماوەی	-7.5925
▁6	-7.59362
▁ئەوا	-7.60795
▁ل	-7.62215
▁ساڵ	-7.62813
▁ژیانی	-7.62988
▁زۆری	-7.63031
▁ئەوانەی	-7.63141
▁پەرلەمان	-7.6344
▁ئایا	-7.6349
▁2012	-7.63588
▁باسی	-7.63747
▁ئازادی	-7.64025
▁بەردەوام	-7.64031
▁ئەوەیە	-7.64807
▁یەکێک	-7.64875
▁دژی	-7.65105
▁بەغدا	-7.65209
▁نێو	-7.65828
▁محەمەد	-7.66039
▁نەبێت	-7.66084
▁خەڵک	-7.66234
▁هەمان	-7.66689
▁نە	-7.6684
▁بارزانی	-7.67196
▁دەرەوەی	-7.67198
▁هەردوو	-7.67923
▁هێزەکانی	-7.68896
▁بەلام	-7.69252
▁وا	-7.69901
▁داعش	-7.70673
▁ئەمریکا	-7.71257
▁گوتیشی	-7.71477
▁9	-7.72626
▁پاش	-7.72719
▁دیکە	-7.72729
▁2009	-7.73006
▁لەبەر	-7.7351
▁فیلمی	-7.73761
▁باس	-7.74394
▁7	-7.74415
▁'	-7.74955
▁کاتی	-7.74978
▁واتە	-7.75867
▁ڕایگەیاند	-7.76517
▁لیستی	-7.76556
▁8	-7.76689
▁خولی	-7.76736
▁ئەنجام	-7.76937
▁ئاستی	-7.77625
▁ئەندامی	-7.80094
▁دەوڵەتی	-7.80662
▁تری	-7.81005
▁20	-7.81074
▁گەورە	-7.81243
▁یا	-7.81437
▁دەکەین	-7.81912
▁کۆماری	-7.82336
▁2014	-7.82356
▁پەیوەندی	-7.82871
▁گۆڕان	-7.83213
▁گەلی	-7.83459
▁17	-7.83473
▁ئەویش	-7.83551
▁ئاماژەی	-7.83842
▁دەسەڵاتی	-7.8387
▁هێزی	-7.83988
▁15	-7.84179
▁حیزبی	-7.84679
▁2008	-7.84837
▁پارێزگای	-7.85619
▁کەم	-7.85673
▁خۆ	-7.85725
▁ئەوەش	-7.86221
▁بواری	-7.86439
▁چی	-7.86551
▁کراوە	-7.86615
▁هەمیشە	-7.8673
▁کێشەی	-7.86935
▁ژیان	-7.87011
▁بەشداری	-7.8735
▁ژنان	-7.88193
▁جۆرە	-7.88234
▁16	-7.88568
▁زمانی	-7.88751
▁وڵاتانی	-7.90151
▁تەنانەت	-7.90157
▁دواتر	-7.90519
▁جیهانی	-7.90588
▁تێدا	-7.9125
▁دەسەڵات	-7.91426
▁ئاژانسی	-7.92097
▁هەواڵی	-7.92097
▁تەواوی	-7.92158
▁تایبەتی	-7.9242
▁ئەی	-7.92552
▁لەبارەی	-7.92809
▁جگە	-7.92926
▁دیکەی	-7.93551
▁چوار	-7.93653
▁جیهان	-7.94939
▁پرۆسەی	-7.95039
▁مانگی	-7.95413
▁دەکرد	-7.95448
▁دەدات	-7.95533
▁لەنێوان	-7.95681
▁پێشمەرگە	-7.96289
▁ژێر	-7.9634
▁18	-7.96413
▁یاسای	-7.96773
▁%	-7.97404
▁دەنگی	-7.97423
▁سوریا	-7.98694
▁quot	-7.98971
▁با	-7.99737
▁ملیۆن	-7.99895
▁لەوەی	-8.0001
▁سەردانی	-8.00099
▁دووەم	-8.00552
▁ئەنجامی	-8.00805
▁کرا	-8.01014
▁سوپای	-8.01395
▁14	-8.01478
▁وڵاتی	-8.02028
▁م	-8.02035
▁کردن	-8.02075
▁30	-8.02166
▁عەرەبی	-8.03865
▁خاوەن	-8.04542
▁سەرجەم	-8.04601
▁زۆربەی	-8.04791
▁سەرۆکایەتی	-8.052
▁ڕۆژ	-8.05224
▁13	-8.0528
▁جار	-8.05398
▁کۆمەڵایەتی	-8.05886
▁ڕێکخراوی	-8.06563
▁ئێمه	-8.06771
▁ڕابردوو	-8.06909
▁بدات	-8.07128
▁هونەری	-8.07249
▁خۆمان	-8.07394
▁باش	-8.08103
▁بێگومان	-8.08687
▁19	-8.08741
▁ڕێگەی	-8.08774
▁بڕیاری	-8.09206
▁پاراستنی	-8.09725
▁نیشتمانی	-8.10165
▁تەواو	-8.1067
▁ژن	-8.11015
▁نەتەوەیی	-8.11358
▁سەرەکی	-8.11366
▁هاوکات	-8.11784
▁ڕۆڵی	-8.1207
▁ئەوه	-8.12099
▁سیاسیی	-8.12334
▁بەبێ	-8.12435
▁کەسێک	-8.12592
▁هەڵبژاردنی	-8.12734
▁تێیدا	-8.12835
▁ڕووی	-8.12858
▁بەدەست	-8.13372
▁یە	-8.13455
▁بەڕاستی	-8.13871
▁ڕاگەیاند	-8.13882
▁دوێنێ	-8.13916
▁بەڕێوەبەری	-8.14053
▁2013	-8.14723
▁وایە	-8.14826
▁کردەوە	-8.15067
▁پێویستی	-8.15201
▁کوردستاندا	-8.1569
▁جێگری	-8.15759
▁25	-8.15844
▁دەبێتە	-8.15945
▁خۆم	-8.1598
▁نەوت	-8.16305
▁هێزە	-8.17292
▁بەناوی	-8.17704
▁پڕ	-8.17814
▁ک	-8.18035
▁نوێی	-8.18248
▁جێی	-8.18268
▁هێشتا	-8.18272
▁شەڕی	-8.1845
▁ئازاد	-8.18514
▁ئیتر	-8.18748
▁یاسا	-8.19127
▁نەبوو	-8.19414
▁خۆیدا	-8.19519
▁جەلال	-8.19739
▁نا	-8.19771
▁ئابووری	-8.20061
▁جا	-8.20222
▁کەچی	-8.20283
▁بەشێکی	-8.2042
▁هەوڵی	-8.20566
▁بەتایبەتی	-8.20683
▁نابێت	-8.20708
▁شوێنی	-8.20915
▁کات	-8.21028
▁نزیک	-8.21089
▁لەوە	-8.21436
▁یاخود	-8.2178
▁خاوەنی	-8.21866
▁پێشکەش	-8.22603
▁داوە	-8.22884
▁پێویست	-8.23025
▁نوێنەرانی	-8.23225
▁پاشان	-8.2362
▁21	-8.237
▁ب	-8.23796
▁دەڵێن	-8.2403
▁ڕێگای	-8.24408
▁کۆمەڵێک	-8.24535
▁دە	-8.24737
▁دەنگ	-8.25368
▁گەورەی	-8.25381
▁دێت	-8.25445
▁لیژنەی	-8.25581
▁ژمارەی	-8.25657
▁شتێک	-8.25726
▁ن	-8.25794
▁لێی	-8.26119
▁هەتا	-8.26204
▁ئاسایشی	-8.26487
▁هەڵبژاردن	-8.27121
▁ئەندامانی	-8.27216
▁باشترین	-8.27268
▁دروستکردنی	-8.27346
▁تەندروستی	-8.2745
▁هەبوو	-8.2765
▁بدەن	-8.2778
▁گرنگی	-8.27863
▁هاوکاری	-8.27989
▁وڵات	-8.28011
▁باڵای	-8.28265
▁پێشتر	-8.28409
▁نزیکەی	-8.28435
▁»	-8.28479
▁لایەنە	-8.28945
▁قۆناغی	-8.29629
▁وەزیرانی	-8.29647
▁دێموکراسی	-8.29798
▁یاری	-8.29816
▁بەشێوەیەکی	-8.29931
▁دەکەم	-8.30355
▁حیزب	-8.30373
▁دیارە	-8.30444
▁پۆلیسی	-8.30811
▁دژ	-8.30995
▁سیاسەتی	-8.31401
▁ڕەنگە	-8.31514
▁ڕژێمی	-8.31608
▁یاریزانی	-8.31658
▁حەسەن	-8.31681
▁سەربازی	-8.31776
▁گەر	-8.31857
▁لەکاتی	-8.32335
▁ژمارەیەک	-8.32426
▁ڕاگەیاندنی	-8.32453
▁ڕۆژهەڵاتی	-8.32476
▁بەرهەم	-8.32558
▁ئاشکرا	-8.32855
▁بەرگری	-8.32988
▁یەکێتیی	-8.33066
▁hellip	-8.33383
▁بەشێک	-8.33988
▁ئە	-8.34104
▁خەڵاتی	-8.34512
▁دەتوانێت	-8.34526
▁مێژووی	-8.34578
▁24	-8.3468
▁22	-8.35077
▁فیستیڤاڵی	-8.35246
▁کەسی	-8.35448
▁دێموکراتی	-8.35815
▁هۆکاری	-8.36042
▁دکتۆر	-8.36113
▁ناوچەی	-8.36373
▁یەکەمی	-8.36439
▁23	-8.37187
▁پێنج	-8.37288
▁لایەنی	-8.37293
▁عێراقدا	-8.37796
▁ڕایگەیاند،	-8.38124
▁دەستەی	-8.38172
▁دەدەن	-8.38211
▁دوور	-8.38375
▁=	-8.38904
▁مەکتەبی	-8.39196
▁نێودەوڵەتی	-8.39367
▁گرنگ	-8.40305
▁ڕێژەی	-8.40493
▁دیاری	-8.40552
▁مەبەستی	-8.40775
▁ڕوو	-8.40889
▁لێرەدا	-8.40983
▁ئەوروپا	-8.41023
▁مەدەنی	-8.41157
▁هەست	-8.41371
▁ڕابردوودا	-8.41701
▁بو	-8.41956
▁دەبن	-8.42016
▁ناکات	-8.42222
▁خودی	-8.42843
▁نین	-8.42883
▁بیر	-8.43071
▁یاسایی	-8.4335
▁مام	-8.44085
▁بەرهەمی	-8.44336
▁بەرپرسی	-8.44506
▁هەم	-8.44624
▁کردنەوەی	-8.4465
▁دەیان	-8.44908
▁کاریگەری	-8.45571
▁گوتی:	-8.45654
▁ناوەندی	-8.45941
▁کردوە	-8.46469
▁هاتووە	-8.46527
▁گەرمیان	-8.46716
▁بەوەی	-8.46737
▁نموونە	-8.46816
▁تاکو	-8.46964
▁تۆپی	-8.47027
▁لەژێر	-8.47128
▁زەوی	-8.4754
▁ئێوە	-8.47577
▁کاروباری	-8.47742
▁کاک	-8.48008
▁مەلا	-8.48179
▁پێکهێنانی	-8.48312
▁ناوبراو	-8.4836
▁دەوڵەت	-8.48451
▁ناکرێت	-8.48456
▁شتێکی	-8.48794
▁ڕۆژنامەی	-8.48998
▁ئەرکی	-8.49203
▁چارەسەر	-8.49241
▁ئێستاش	-8.49408
▁عەرەب	-8.49814
▁داوا	-8.50342
▁ڕ	-8.50353
▁دی	-8.50642
▁ئاشتی	-8.50697
▁سنووری	-8.5079
▁چونکه	-8.50867
▁داهاتوو	-8.50944
▁تاڵەبانی	-8.51108
▁وڵاتە	-8.51775
▁28	-8.51803
▁کارێکی	-8.51825
▁بەرنامەی	-8.51836
▁بۆچی	-8.51964
▁هەروەک	-8.5198
▁کۆمەڵگای	-8.52075
▁پشتیوانی	-8.52147
▁دەربارەی	-8.52291
▁لەدوای	-8.52469
▁دەکاتەوە	-8.52586
▁بۆئەوەی	-8.52693
▁2007	-8.53432
▁26	-8.53466
▁چارەسەری	-8.53472
▁مالکی	-8.53517
▁خوای	-8.53646
▁27	-8.5368
▁توانای	-8.53821
▁بەتایبەت	-8.53866
▁ئیسلام	-8.54121
▁مامۆستا	-8.54342
▁دەتوانن	-8.54478
▁پرسی	-8.5449
▁دوا	-8.55117
▁دارایی	-8.55375
▁پڕۆژەی	-8.55564
▁جارێکی	-8.55593
▁بەمەبەستی	-8.55978
▁تووشی	-8.56563
▁گیانی	-8.56563
▁پلەی	-8.56668
▁نیە	-8.56958
▁هەڵبژاردەی	-8.56982
▁جیاوازی	-8.57338
▁لەساڵی	-8.57596
▁بەوە	-8.57695
▁.	-8.57801
▁هاوپەیمانی	-8.57954
▁جێگەی	-8.58007
▁ش	-8.58243
▁ڕۆشنبیری	-8.58272
▁بکەم	-8.5829
▁بەرژەوەندی	-8.58503
▁مالیکی	-8.58627
▁لەکاتێکدا	-8.58633
▁باری	-8.58751
▁هەرگیز	-8.58787
▁کۆبانی	-8.58799
▁سەری	-8.5884
▁هەیه	-8.58894
▁گشتیی	-8.59054
▁«	-8.59078
▁هات	-8.59358
▁سیستەمی	-8.59406
▁حکوومەتی	-8.59579
▁سەرکردایەتی	-8.59663
▁بودجەی	-8.60041
▁ە	-8.60071
▁لەبەردەم	-8.60131
▁ئەنجامدانی	-8.60396
▁کێ	-8.6045
▁بەردەم	-8.60722
▁قوربانی	-8.61232
▁com	-8.61287
▁دنیا	-8.61311
▁کۆمپانیای	-8.61408
▁زانستی	-8.61457
▁ماڵی	-8.61658
▁ژمارە	-8.61689
▁مافەکانی	-8.61713
▁بۆی	-8.6172
▁وەزیران	-8.61842
▁ئەوەشی	-8.61866
▁شێوەیەکی	-8.61897
▁بەریتانیا	-8.61964
▁بەرپرسانی	-8.62308
▁چین	-8.62412
▁سەردەمی	-8.62535
▁شێوەیەک	-8.62572
▁نوری	-8.62591
▁هەبووە	-8.62653
▁هەرچەندە	-8.62893
▁29	-8.63141
▁کەسێکی	-8.63203
▁شێوە	-8.63234
▁پۆلیس	-8.6324
▁پشت	-8.63271
▁پێیان	-8.63476
▁نوێنەری	-8.63514
▁ئەنفال	-8.63775
▁ناوچەکە	-8.6385
▁زانیاری	-8.63906
▁بەڕێز	-8.63981
▁لەماوەی	-8.64282
▁گەڵ	-8.64288
▁چارەسەرکردنی	-8.64376
▁ببێتە	-8.64659
▁ڕاستی	-8.6469
▁نێت	-8.64942
▁کۆمەڵگا	-8.65664
▁نەبووە	-8.66238
▁نەتەوە	-8.66372
▁شەهید	-8.66449
▁سەرکەوتنی	-8.665
▁میسر	-8.67066
▁توانی	-8.67118
▁بازرگانی	-8.67454
▁سەرەتای	-8.67583
▁بەختیار	-8.67622
▁ناوچە	-8.67713
▁شێخ	-8.67739
▁ئاسایش	-8.67804
▁لەنێو	-8.67823
▁ساڵح	-8.67862
▁ڕۆژانە	-8.67986
▁قادر	-8.6824
▁عوسمان	-8.68377
▁ڕای	-8.68678
▁بابەتی	-8.68796
▁حوسێن	-8.68907
▁نیشتمانیی	-8.68986
▁مەحمود	-8.69045
▁مستەفا	-8.69177
▁خاڵ	-8.69216
▁ئاماژە	-8.69223
▁هە	-8.69269
▁کۆمەڵگەی	-8.69645
▁دهۆک	-8.69811
▁مەسەلەی	-8.69857
▁هێنا	-8.69897
▁نەوتی	-8.69957
▁هەوڵ	-8.7003
▁هەن	-8.70416
▁ساڵە	-8.70502
▁عومەر	-8.70576
▁ئەمنی	-8.70716
▁کو	-8.71272
▁جێبەجێکردنی	-8.71299
▁پەیامنێری	-8.71623
▁نەبوونی	-8.71832
▁ا	-8.71947
▁دەرەوە	-8.72076
▁ڕاست	-8.72157
▁بزووتنەوەی	-8.72184
▁بەرز	-8.72239
▁قسەی	-8.72239
▁تەمەنی	-8.72259
▁چاودێری	-8.72551
▁جیاواز	-8.72804
▁زانکۆی	-8.72927
▁بەکارهێنانی	-8.73002
▁تائێستا	-8.73057
▁کارە	-8.73358
▁دامەزراندنی	-8.73386
▁بکاتەوە	-8.73468
▁کێشە	-8.73489
▁کردو	-8.73661
▁ئەوانیش	-8.73668
▁بارودۆخی	-8.7395
▁پارێزگاری	-8.74317
▁گەل	-8.74463
▁دەزگای	-8.74581
▁تاوەکو	-8.7465
▁دۆلار	-8.74755
▁قسە	-8.7488
▁کاتژمێر	-8.74901
▁گۆڕینی	-8.74908
▁کۆی	-8.7511
▁دووەمی	-8.75215
▁تەنها	-8.75509
▁ئاسایی	-8.75516
▁ئەمانە	-8.75622
▁ئا	-8.75692
▁خەباتی	-8.75861
▁ڕەوشی	-8.75917
▁شەڕ	-8.76093
▁خۆش	-8.76157
▁هەرچی	-8.76241
▁ئیسرائیل	-8.76376
▁بدرێت	-8.76468
▁مرۆڤی	-8.76581
▁لەلایەکی	-8.76595
▁کۆمەڵەی	-8.76709
▁ئەڵڵا	-8.76723
▁جێبەجێ	-8.7678
▁کەواتە	-8.76837
▁چاوی	-8.76958
▁ئەنجوومەنی	-8.7725
▁شێوەی	-8.77378
▁تۆمار	-8.77536
▁نوێنەران	-8.77564
▁بەعس	-8.78016
▁ەوە	-8.78095
▁بنەمای	-8.78211
▁پەیامنێر	-8.78535
▁سایتی	-8.78593
▁هەڵوێستی	-8.78637
▁باشتر	-8.78709
▁کردووه	-8.7876
▁منداڵ	-8.78803
▁وەڵامی	-8.79014
▁لەهەموو	-8.79021
▁خۆت	-8.79116
▁کەسانی	-8.79254
▁زمان	-8.79473
▁وەرگرتنی	-8.7956
▁ئاو	-8.79589
▁بی	-8.79589
▁کوشتنی	-8.80073
▁ئەوەندە	-8.8022
▁ئاراستەی	-8.80396
▁پێکەوە	-8.80529
▁خاڵی	-8.80743
▁وای	-8.80743
▁ئۆپۆزسیۆن	-8.80802
▁خوارەوە	-8.80891
▁09	-8.81158
▁بڕی	-8.81336
▁ئاوی	-8.81477
▁ع	-8.81515
▁دەچێت	-8.81686
▁ڕۆژێک	-8.81783
▁بزوتنەوەی	-8.81933
▁موسڵ	-8.82202
▁جۆرێک	-8.823
▁پێشمەرگەی	-8.82322
▁دادگای	-8.82585
▁ژمارەیەکی	-8.82804
▁شێوازی	-8.83508
▁دیکه	-8.83516
▁31	-8.83531
▁ڕاگەیاندن	-8.83531
▁دەرهێنانی	-8.83919
▁ئامادە	-8.83957
▁یەکێکە	-8.84187
▁کاتێکدا	-8.84332
▁گرنگە	-8.84501
▁تریش	-8.84824
▁نووسەر	-8.84908
▁سیاسەت	-8.85217
▁شەش	-8.8524
▁زیاد	-8.85434
▁وێنەی	-8.85496
▁شەهیدان	-8.85519
▁بڕیار	-8.85729
▁مانای	-8.85798
▁ڕاستەوخۆ	-8.85931
▁ڕوون	-8.86094
▁فەرمی	-8.86227
▁هەفتەی	-8.86391
▁تاران	-8.86728
▁دینار	-8.86861
▁شەو	-8.86909
▁ئێمەش	-8.86979
▁کۆبوونەوەی	-8.87074
▁منیش	-8.87097
▁08	-8.87216
▁عەبدوڵڵا	-8.87224
▁01	-8.87271
▁بڵاو	-8.87737
▁خوێن	-8.87848
▁پۆستی	-8.88111
▁دایک	-8.88127
▁شۆڕشی	-8.88222
▁کۆنگرەی	-8.88246
▁دەبێتەوە	-8.88262
▁07	-8.88286
▁لەوێ	-8.88334
▁جۆری	-8.88358
▁جوان	-8.88517
▁ئاوێنەنیوز	-8.88533
▁خاکی	-8.88693
▁ژ	-8.88885
▁گوێرەی	-8.88893
▁باشووری	-8.88949
▁مانگ	-8.89062
▁کەمال	-8.89174
▁ئەڵمانیا	-8.89182
▁50	-8.89215
▁کەریم	-8.89271
▁کەسانەی	-8.894
▁03	-8.89464
▁کارو	-8.89561
▁هونەر	-8.89634
▁02	-8.89707
▁چەکی	-8.89812
▁ئایینی	-8.8986
▁چالاکی	-8.89876
▁04	-8.89933
▁پڕۆژە	-8.9012
▁جەنگی	-8.9016
▁دووبارە	-8.90502
▁کردبوو	-8.90649
▁ماڵ	-8.90657
▁هەمو	-8.90812
▁ئیبراهیم	-8.9082
▁مێژوو	-8.91123
▁06	-8.91493
▁05	-8.91542
▁گەورەترین	-8.91724
▁مەسعود	-8.91856
▁مایەی	-8.91905
▁بەرەی	-8.92029
▁مەترسی	-8.92046
▁هەیەو	-8.92162
▁گۆرانی	-8.92253
▁ناتوانێت	-8.92336
▁تازە	-8.9246
▁چەک	-8.92477
▁گروپی	-8.9251
▁سیاسییەکان	-8.92527
▁کۆمەڵی	-8.92593
▁سکرتێری	-8.92677
▁ئامانجی	-8.92827
▁دان	-8.92852
▁یەکەمین	-8.92952
▁خەبات	-8.9306
▁جەماوەری	-8.93111
▁توندوتیژی	-8.93303
▁ناوخۆی	-8.93379
▁دەزانن	-8.93412
▁سزای	-8.93412
▁کارەکانی	-8.93463
▁ناوچەکانی	-8.93488
▁بەکار	-8.93538
▁هەستی	-8.93589
▁خوێندنی	-8.93597
▁مادەی	-8.93656
▁ئێستای	-8.93731
▁گوت	-8.93765
▁چاک	-8.93782
▁تاکە	-8.94162
▁یەکتر	-8.94238
▁لەبەرامبەر	-8.94246
▁تاک	-8.9428
▁هەڵەبجە	-8.94331
▁ئابوری	-8.94416
▁دیار	-8.94475
▁ئەوانە	-8.94526
▁سەرەتا	-8.94543
▁دەتوانین	-8.94585
▁سە	-8.94602
▁دەستیان	-8.94832
▁لەشاری	-8.94832
▁ئیدی	-8.94874
▁بۆیان	-8.9501
▁دڵی	-8.95249
▁سوید	-8.9548
▁تەمەن	-8.95618
▁نیشان	-8.95695
▁بڕیارە	-8.95763
▁پیاو	-8.95867
▁خۆشەویستی	-8.95961
▁دەدرێت	-8.96228
▁چاو	-8.96341
▁گشت	-8.96765
▁لەڕێگەی	-8.96799
▁دابین	-8.96808
▁ڕازی	-8.96834
▁ئێرانی	-8.96904
▁بۆیه	-8.96921
▁سەدان	-8.97008
▁خۆشی	-8.97043
▁شێوەیە	-8.97104
▁سەرچاوەی	-8.97191
▁هێزێکی	-8.97278
▁شێعر	-8.97584
▁بۆتە	-8.97864
▁ـ	-8.97873
▁بارەی	-8.9796
▁سیستمی	-8.97969
▁پەیوەندییەکانی	-8.97996
▁دەزانێت	-8.98022
▁لەڕووی	-8.98057
▁سی	-8.98066
▁لەپێناو	-8.98154
▁وشەی	-8.98233
▁ڕۆژئاوای	-8.98268
▁سێیەم	-8.98436
▁تێدایە	-8.98692
▁گەندەڵی	-8.9878
▁هونەرمەند	-8.99002
▁ئینجا	-8.99544
▁بهێنێت	-8.99652
▁بیری	-8.9966
▁شەممە	-8.99857
▁باشە	-8.99929
▁خوێندن	-8.99956
▁نرخی	-9
▁لا	-9.00153
▁دەکرێن	-9.00234
▁بەدوای	-9.00261
▁ئەندام	-9.00296
▁ئاینی	-9.0063
▁ئێوه	-9.00648
▁_	-9.00792
▁ملیار	-9.00928
▁سەرەڕای	-9.01118
▁ئۆباما	-9.01127
▁لەوانە	-9.01145
▁دیکەش	-9.01344
▁سەیری	-9.01499
▁شاعیر	-9.01608
▁پێشووی	-9.01763
▁ئەمساڵ	-9.01791
▁چوارچێوەی	-9.01827
▁ژنانی	-9.01909
▁نمایش	-9.0233
▁کەمتر	-9.02385
▁فیدراڵ	-9.02459
▁بەرانبەر	-9.02486
▁دوایی	-9.02505
▁کەسایەتی	-9.02578
▁بکەنەوە	-9.02689
▁ڕۆژئاوا	-9.02947
▁یادی	-9.02974
▁یەکگرتووەکان	-9.03178
▁شۆڕش	-9.03261
▁ئیدارەی	-9.03279
▁ڕەوانەی	-9.03326
▁بەداخەوە	-9.03335
▁شار	-9.03381
▁هاتنی	-9.03381
▁پێک	-9.0365
▁کتێبی	-9.03716
▁دەبینین	-9.0379
▁سوپاسی	-9.0407
▁شوێن	-9.042
▁یارمەتی	-9.04247
▁یارییەکانی	-9.04537
▁140	-9.04697
▁قەزای	-9.05026
▁سەربەخۆیی	-9.05111
▁بووم	-9.05243
▁بڵێین	-9.05413
▁سینەمایی	-9.05498
▁جێ	-9.06001
▁خزمەتی	-9.06077
▁ناوخۆ	-9.06077
▁زۆرینەی	-9.06125
▁دەگەڕێتەوە	-9.06182
▁زانکۆ	-9.06201
▁www	-9.06211
▁حاجی	-9.06211
▁بەگشتی	-9.0622
▁ت	-9.0623
▁نیشتیمانی	-9.0623
▁خۆیەوە	-9.06421
▁دادگا	-9.06488
▁ڕێگە	-9.0689
▁دەقی	-9.07034
▁پایتەختی	-9.07092
▁دەگرێت	-9.07111
▁بەهێز	-9.0713
▁40	-9.07159
▁بەردەوامی	-9.07284
▁باشی	-9.07371
▁پێم	-9.07448
▁هاوڵاتیان	-9.07458
▁ڕێکخراوە	-9.07468
▁نووسین	-9.07526
▁سەدەی	-9.07632
▁هتد	-9.07651
▁بەرچاو	-9.07903
▁ئێستادا	-9.0799
▁پشتگیری	-9.0799
▁کۆمار	-9.08
▁کورسی	-9.0801
▁بگرن	-9.08068
▁بابەتە	-9.08282
▁کراون	-9.08302
▁100	-9.08379
▁عەزیز	-9.08506
▁کەرتی	-9.08526
▁جێگای	-9.0876
▁داهاتوودا	-9.0876
▁بین	-9.08799
▁کۆبانێ	-9.08985
▁ببێت	-9.09005
▁ڕاستە	-9.09044
▁دایە	-9.09064
▁هەریەک	-9.09142
▁پێناو	-9.09241
▁چۆنیەتی	-9.09339
▁خوێندنەوەی	-9.09359
▁ڕزگار	-9.09467
▁زۆرێک	-9.09487
▁هێڵی	-9.09615
▁لێدوانێکی	-9.0999
▁دنیای	-9.1003
▁بریندار	-9.10119
▁ئەدەبی	-9.10377
▁هێرشی	-9.10556
▁لەهەرێمی	-9.10686
▁منداڵان	-9.10756
▁کرد،	-9.11156
▁هەموویان	-9.11186
▁تیرۆر	-9.11296
▁سووریا	-9.11326
▁کۆمەڵگە	-9.11437
▁سەربەخۆی	-9.11467
▁زیاتری	-9.11597
▁ئەمەریکی	-9.11648
▁ماڵپەڕی	-9.11728
▁گفتوگۆ	-9.11759
▁بیست	-9.1195
▁سروشتی	-9.1196
▁کێشەکانی	-9.11991
▁بوونە	-9.12102
▁دانانی	-9.12102
▁58	-9.12142
▁)-	-9.12162
▁هێز	-9.12173
▁دڵ	-9.12294
▁کوڕی	-9.12325
▁شێعری	-9.12416
▁جیا	-9.12456
▁هی	-9.12467
▁دەیهەوێت	-9.12578
▁هەزاران	-9.12649
▁زیندانی	-9.1266
▁ئەمرۆ	-9.12751
▁خەریکی	-9.12914
▁دەتوانیت	-9.13088
▁ڕووبەڕووی	-9.13169
▁نەخۆشی	-9.13282
▁ماوەیەکی	-9.13302
▁یەکگرتووەکانی	-9.13313
▁کوردستانە	-9.13323
▁درێژەی	-9.13446
▁هەموومان	-9.13517
▁لێپرسراوی	-9.13538
▁تاوانی	-9.13569
▁کوردە	-9.1361
▁دێ	-9.1363
▁دەستووری	-9.13671
▁ئەزموونی	-9.13908
▁لەبەرئەوەی	-9.13929
▁دەستگیر	-9.14073
▁دەستوور	-9.14114
▁باوکی	-9.14124
▁شارۆچکەی	-9.14135
▁چینی	-9.14393
▁ئارام	-9.14507
▁نەتەوەی	-9.14528
▁ڕۆژنامەنووس	-9.1458
▁لەئێستادا	-9.14642
▁هاوبەش	-9.14652
▁واتا	-9.14652
▁داهاتووی	-9.14746
▁چییە	-9.14798
▁بکە	-9.14891
▁پێویسته	-9.15047
▁شارە	-9.15402
▁کارەبا	-9.15632
▁ئەوانه	-9.15874
▁جوانی	-9.15915
▁سەد	-9.16063
▁0	-9.16157
▁شتی	-9.16263
▁کوردستان،	-9.16358
▁تشرینی	-9.16379
▁پ	-9.16484
▁وڵاتەکەی	-9.16696
▁ئێمەی	-9.16717
▁ناوەڕاست	-9.16855
▁سەنتەری	-9.16866
▁نووسینی	-9.17004
▁کردووەتەوە	-9.17142
▁هەینی	-9.17174
▁هێناوە	-9.17536
▁نێونەتەوەیی	-9.17707
▁کارکردن	-9.1775
▁بکرێن	-9.17793
▁سەعید	-9.17921
▁پەیوەندیی	-9.18211
▁هاووڵاتی	-9.18405
▁کەناڵی	-9.18491
▁کاریگەریی	-9.18502
▁بگرێت	-9.18858
▁بڵێم	-9.19086
▁دەکەوێتە	-9.19086
▁خراپ	-9.1914
▁ڕاپۆرتی	-9.19205
▁سپی	-9.19216
▁لێرە	-9.19216
▁مێژوویی	-9.19433
▁ئەگەرچی	-9.19477
▁گوتەبێژی	-9.19531
▁ئامادەیی	-9.19629
▁فەرەنسا	-9.19738
▁دەزگا	-9.1976
▁کوردستانیش	-9.19804
▁هەمووی	-9.19815
▁سەربەخۆ	-9.1988
▁لەگەل	-9.19946
▁خۆتان	-9.19968
▁کانی	-9.19968
▁ئامانج	-9.20121
▁سنوری	-9.20286
▁ناتوانن	-9.20286
▁شارەوانی	-9.20297
▁قەیرانی	-9.20341
▁خۆیەتی	-9.20363
▁دەزانین	-9.20363
▁گوندی	-9.20483
▁پرسیار	-9.20704
▁سینەمای	-9.20781
▁ئەگەری	-9.20869
▁ئاسمانی	-9.21112
▁ئەمریکی	-9.21234
▁ماددەی	-9.21278
▁ئارامی	-9.2129
▁سیاسییەکانی	-9.2129
▁ناکەن	-9.21389
▁زوو	-9.21412
▁کوردستانەوە	-9.21412
▁یش	-9.21578
▁هاوبەشی	-9.21634
▁پەکەکە	-9.21667
▁کۆمەڵ	-9.21857
▁جیهاندا	-9.21901
▁لەبواری	-9.21957
▁دۆخی	-9.22035
▁هێنانی	-9.22304
▁بوە	-9.22404
▁موحەممەد	-9.22416
▁هێندە	-9.22584
▁بەسەردا	-9.22786
▁کێشەکان	-9.22843
▁دەستنیشان	-9.22865
▁بدەین	-9.22876
▁هەڵبژاردنەکانی	-9.22876
▁ئاوێنە	-9.22888
▁پەنا	-9.22899
▁ڕەش	-9.23045
▁کوردو	-9.23057
▁کەسە	-9.23079
▁بگرە	-9.23192
▁دەبوو	-9.23237
▁بەڕێوەبەرایەتی	-9.2326
▁ماوە	-9.23419
▁کەوا	-9.23498
▁پێگەی	-9.2352
▁کاتێ	-9.23577
▁سەرچاوە	-9.23952
▁هیچی	-9.23952
▁سەدام	-9.24032
▁میانەی	-9.24043
▁بووه	-9.24089
▁لەهەر	-9.24112
▁پەروەردەی	-9.24157
▁پشتی	-9.24294
▁سەرکەوتن	-9.245
▁دابەشکردنی	-9.24546
▁شەوی	-9.24569
▁تیپی	-9.2458
▁جەنگ	-9.24833
▁مەبەست	-9.25005
▁ئینگلیزی	-9.25143
▁هەڵبژاردنەکان	-9.25155
▁پێغەمبەر	-9.25293
▁،]له	-9.25305
▁چاوەڕوانی	-9.25478
▁مرۆڤایەتی	-9.25513
▁فەرمانی	-9.25652
▁هەولێری	-9.25802
▁گرتووە	-9.25814
▁هۆڵی	-9.25942
▁لایەک	-9.26116
▁کۆ	-9.26151
▁دابەش	-9.26174
▁وڵاته	-9.26197
▁حەوت	-9.26372
▁فەرماندەی	-9.26372
▁دەدا	-9.26396
▁بینی	-9.26442
▁2003	-9.26454
▁http	-9.26547
▁بتوانێت	-9.26688
▁خواست	-9.26723
▁دەوێت	-9.26957
▁وێڕای	-9.27004
▁خورماتوو	-9.27227
▁داواکاری	-9.2731
▁یەکگرتوو	-9.27522
▁سەید	-9.27605
▁جارێک	-9.27817
▁پارەی	-9.279
▁ڕەوتی	-9.27912
▁ئاگاداری	-9.27995
▁بتوانن	-9.28019
▁ڕەخنەی	-9.28054
▁هەرە	-9.28066
▁ڕێک	-9.28375
▁کام	-9.28375
▁لەلای	-9.28423
▁ساڵانی	-9.28446
▁ف	-9.28458
▁بنکەی	-9.28542
▁حوکمی	-9.2859
▁کوشتن	-9.28685
▁وەها	-9.28769
▁ماف	-9.28876
▁باوەڕ	-9.28912
▁زۆرترین	-9.28912
▁سەرچاوەیەک	-9.28972
▁نەکردووە	-9.29008
▁نەوشیروان	-9.29152
▁تورک	-9.29248
▁گرت	-9.29416
▁هەنگاوی	-9.2944
▁نییەو	-9.29645
▁کاتدا	-9.29741
▁بەهیچ	-9.29753
▁لەگەڵدا	-9.29765
▁سەرچاوەیەکی	-9.29789
▁ڕێکخستنی	-9.29946
▁ڕێز	-9.30188
▁ساڵەی	-9.30298
▁پێشوو	-9.3031
▁علیە	-9.30492
▁گوێ	-9.30504
▁ڕزگاری	-9.30626
▁ئەدەب	-9.30711
▁پەروەردە	-9.30882
▁مانەوەی	-9.31004
▁پێچەوانەی	-9.31224
▁ئاگادار	-9.31273
▁بکرێ	-9.31285
▁گومان	-9.31285
▁لەکوردستان	-9.31359
▁دێتە	-9.31395
▁گەوره	-9.31408
▁هێرش	-9.3169
▁ژی	-9.31801
▁سبەی	-9.31813
▁جگه	-9.31875
▁فۆتۆ	-9.319
▁نابێ	-9.31961
▁لایەنەکانی	-9.32035
▁بهێنن	-9.32109
▁بەردەوامە	-9.32122
▁حەمە	-9.32183
▁ڕیزبەندی	-9.32245
▁گۆران	-9.32258
▁دەنگدان	-9.32332
▁دانیشتوانی	-9.3253
▁جەنابی	-9.32791
▁فی	-9.32828
▁سەردەشت	-9.32866
▁دابینکردنی	-9.3294
▁کەرکووک	-9.32978
▁دەهێنێت	-9.33053
▁فیلمه	-9.3314
▁چەکدارانی	-9.33302
▁أ	-9.3359
▁لەوانەیە	-9.33854
▁ئەبێت	-9.33892
▁ڕەخنە	-9.33929
▁دۆزینەوەی	-9.33992
▁خودا	-9.34118
▁ترس	-9.34244
▁ئەکات	-9.34282
▁دواجار	-9.34333
▁ئەنجامدا	-9.34358
▁شانۆی	-9.3451
▁نازانم	-9.3451
▁کابینەی	-9.347
▁داهاتی	-9.34738
▁موزیکی	-9.34738
▁کەی	-9.34877
▁بەهەمان	-9.35144
▁ئەوەیان	-9.35246
▁کردە	-9.35246
▁حیزبە	-9.35514
▁دەکەنەوە	-9.3554
▁هەردوولا	-9.35617
▁×	-9.35655
▁گەیشتن	-9.35719
▁پرسیاری	-9.35783
▁کورتە	-9.35834
▁لێکۆڵینەوە	-9.35937
▁تیرۆریستی	-9.35988
▁ڕۆژانی	-9.36014
▁نەکراوە	-9.36246
▁ڕاپەڕین	-9.36336
▁ئازادیی	-9.364
▁ئافرەت	-9.36413
▁ڕوسیا	-9.36426
▁خانەقین	-9.36607
▁دایکی	-9.36633
▁کران	-9.36646
▁بەڵێ	-9.36775
▁یاریی	-9.37112
▁ئەوانی	-9.37164
▁گۆڤاری	-9.37216
▁هەشت	-9.37281
▁حزبە	-9.37346
▁ئێوارەی	-9.37528
▁بەگوێرەی	-9.37528
▁بکەیت	-9.37541
▁بکرێتەوە	-9.37607
▁بەرهەمهێنانی	-9.37607
▁چاپکردن	-9.37646
▁پێمان	-9.37659
▁باڵا	-9.37672
▁پێدانی	-9.37724
▁فوئاد	-9.3775
▁نێچیرڤان	-9.3775
▁گوتم	-9.37776
▁شارەکانی	-9.37829
▁بەیانی	-9.3792
▁ڕێگا	-9.38091
▁چیرۆکی	-9.38235
▁کەلار	-9.38314
▁کردووەو	-9.38353
▁سەیر	-9.38406
▁خوێنی	-9.38696
▁کەمی	-9.38709
▁ئەمه	-9.38722
▁ترەوە	-9.38722
▁جامی	-9.38749
▁ئەندامێکی	-9.38775
▁بەجۆرێک	-9.38815
▁پارە	-9.38881
▁لاوان	-9.38934
▁ئیسماعیل	-9.38987
▁خزمەت	-9.38987
▁کردووە،	-9.39053
▁بەشدار	-9.39159
▁گۆڕانکاری	-9.39198
▁چیتر	-9.39305
▁ڕەسمی	-9.39305
▁پێوە	-9.39371
▁خۆیاندا	-9.39398
▁پارتە	-9.39424
▁نەکات	-9.39437
▁گەلانی	-9.3969
▁بەجێ	-9.39704
▁کۆمپانیا	-9.3973
▁کۆمەڵە	-9.39797
▁نەبوون	-9.39824
▁ساڵێک	-9.39904
▁لەوەش	-9.40131
▁گەڕانەوەی	-9.40131
▁ئاخر	-9.40319
▁لەسەرەتای	-9.40332
▁کردەوه	-9.40574
▁یەکی	-9.40587
▁بەشداریی	-9.40614
▁دەوروبەری	-9.40668
▁ئەوی	-9.40708
▁پێشوازی	-9.40749
▁لقی	-9.40843
▁خاک	-9.40937
▁س	-9.40951
▁کاتەی	-9.41045
▁چاکسازی	-9.41167
▁ڕێکخراوەکانی	-9.41167
▁باشوور	-9.41357
▁بەناو	-9.41452
▁سوود	-9.4156
▁پەسەند	-9.41587
▁تاوان	-9.41614
▁35	-9.41682
▁زۆریان	-9.41696
▁هونەرمەندی	-9.41737
▁بریتییە	-9.41764
▁پلانی	-9.41764
▁لەدژی	-9.41818
▁ئەوەندەی	-9.41886
▁ئەمرِۆ	-9.41955
▁ماوەیەک	-9.42091
▁وسلم	-9.42228
▁جۆره	-9.42241
▁ئایندەی	-9.42323
▁بزانن	-9.42351
▁خۆپیشاندان	-9.42364
▁ساز	-9.42529
▁ڕۆژە	-9.42776
▁توند	-9.4279
▁کۆچی	-9.429
▁صلی	-9.43051
▁هیوای	-9.43092
▁2006	-9.4312
▁ئەسەد	-9.43134
▁ئازار	-9.43203
▁وەرزی	-9.43341
▁دەروونی	-9.43355
▁کوردەکان	-9.43355
▁گیان	-9.43355
▁ستراتیژی	-9.43562
▁نهێنی	-9.43645
▁نەخۆشخانەی	-9.43659
▁وتیشی:	-9.43784
▁ئیسپانیا	-9.43798
▁دەیانهەوێت	-9.43854
▁پاک	-9.43854
▁شوێنێکی	-9.43979
▁هەمووان	-9.44243
▁مردن	-9.44257
▁فەرهەنگی	-9.44397
▁گوتیشی:	-9.44551
▁گوایە	-9.44621
▁شت	-9.44663
▁ڕێی	-9.44691
▁لەسەری	-9.44747
▁لەعیراق	-9.44915
▁ناوە	-9.44999
▁تردا	-9.45056
▁ناوداری	-9.4507
▁نەماوە	-9.45098
▁ناچار	-9.45224
▁نەوەی	-9.45281
▁پزیشکی	-9.45295
▁منداڵی	-9.45323
▁مەجید	-9.45436
▁جاران	-9.45521
▁وەکوو	-9.45577
▁ڕەزامەندی	-9.45747
▁بون	-9.45917
▁گفتوگۆی	-9.45945
▁کچە	-9.45988
▁ئامادەی	-9.46102
▁تی	-9.4613
▁سەرکەوتوو	-9.46315
▁ڕیزی	-9.46358
▁بونی	-9.46386
▁ناونیشانی	-9.46386
▁بەدەستهێنانی	-9.46415
▁دەگاتە	-9.46443
▁وان	-9.46557
▁هەروا	-9.46572
▁ئاوا	-9.46586
▁دەکاتە	-9.466
▁چەکداری	-9.466
▁زانا	-9.46614
▁دەزگاکانی	-9.46672
▁ئافرەتان	-9.46815
▁لایەنەکان	-9.46857
▁دانی	-9.46872
▁گەلەکەمان	-9.46929
▁مە	-9.47001
▁ململانێی	-9.47029
▁ڕاگەیاند:	-9.47072
▁بەهەموو	-9.47274
▁لێیان	-9.47274
▁نیشتمان	-9.47274
▁سەرکەوت	-9.47345
▁گەورەیە	-9.47374
▁45	-9.47417
▁دەخاتە	-9.47489
▁لایەکی	-9.47605
▁کۆکردنەوەی	-9.47691
▁زۆرە	-9.47749
▁مامۆستای	-9.47778
▁کەسوکاری	-9.47894
▁باشوری	-9.47966
▁دراوە	-9.48096
▁هاوڕێ	-9.48198
▁سیروان	-9.48212
▁گیانیان	-9.48227
▁ناحیەی	-9.48256
▁دەکەوێت	-9.4827
▁عەبدوڵا	-9.48328
▁گونجاو	-9.48416
▁ژنی	-9.48532
▁هاووڵاتیان	-9.48561
▁هێزه	-9.48576
▁میوانداری	-9.4862
▁هەڕەشەی	-9.48736
▁زۆرجار	-9.48809
▁هاوڵاتیانی	-9.48853
▁بەمەش	-9.48955
▁شیعە	-9.49131
▁جەمال	-9.49189
▁دژایەتی	-9.49189
▁تیایدا	-9.49248
▁بەڕێوەچوو	-9.49395
▁پێکهاتەی	-9.49601
▁قوتابی	-9.49851
▁هێندەی	-9.49866
▁کان	-9.4994
▁نوێنەرایەتی	-9.49954
▁لەندەن	-9.49999
▁دەبینێت	-9.50043
▁باڵیۆزی	-9.50073
▁هاتە	-9.50087
▁کردبێت	-9.50146
▁سەرنجی	-9.50191
▁باوەڕی	-9.5028
▁کاتە	-9.50458
▁باران	-9.50487
▁بەدی	-9.50532
▁گرفتی	-9.50562
▁لێژنەی	-9.50591
▁لەچوارچێوەی	-9.5071
▁مەدرید	-9.50785
▁ڕۆحی	-9.50859
▁مافە	-9.51023
▁خێزان	-9.51083
▁سۆران	-9.51098
▁دانیشتنی	-9.51128
▁نی	-9.51202
▁گەرمیانی	-9.51247
▁لەچەند	-9.51292
▁دەرکەوت	-9.51307
▁لێرەوە	-9.51427
▁دەسەلات	-9.51442
▁دەردەکەوێت	-9.51457
▁کاروان	-9.51592
▁نووسەری	-9.51667
▁بەلای	-9.51863
▁هەنگاو	-9.51893
▁درێژ	-9.51938
▁بۆچوونی	-9.51998
▁وتی:	-9.52134
▁دەسەلاتی	-9.52194
▁دەکات،	-9.52194
▁باکووری	-9.52482
▁00	-9.52557
▁شاندی	-9.52557
▁گواستنەوەی	-9.52603
▁چەندە	-9.52679
▁ڕووداوەکانی	-9.52709
▁خراپی	-9.5277
▁شانۆ	-9.528
▁ئەکەن	-9.52831
▁میراودەلی	-9.52861
▁ئەوسا	-9.52967
▁نەکەن	-9.52967
▁پیاوان	-9.53013
▁ڕاگرتنی	-9.53013
▁ئەوەشدا	-9.53043
▁پاڵپشتی	-9.53059
▁دەبات	-9.53104
▁ح	-9.53135
▁ڕاستەقینەی	-9.53135
▁بیت	-9.53181
▁لایەنێک	-9.53456
▁دەڵێم	-9.53624
▁وەلی	-9.5367
▁دیسان	-9.53869
▁باسە	-9.53931
▁ناوخۆیی	-9.53931
▁تەرخان	-9.53946
▁خستەڕوو	-9.53961
▁دواتریش	-9.53977
▁یاریگای	-9.53977
▁یاریزان	-9.54023
▁ئاماده	-9.54054
▁بانگەشەی	-9.54146
▁سەرقاڵی	-9.54146
▁فراکسیۆنی	-9.54177
▁دین	-9.54192
▁گەلێک	-9.54208
▁ئێراق	-9.54239
▁کەمکردنەوەی	-9.543
▁ئاسان	-9.54485
▁تورکی	-9.54501
▁یەکسانی	-9.54516
▁کرێکار	-9.54578
▁://	-9.54609
▁هەیە،	-9.54795
▁دەبنە	-9.5481
▁لاوانی	-9.54857
▁خستە	-9.54888
▁زانست	-9.54935
▁ئایین	-9.54981
▁ئامادەبوونی	-9.54997
▁ویستی	-9.55074
▁ئەردۆغان	-9.55168
▁سەرنج	-9.55168
▁ئێرە	-9.55354
▁سەرۆکایەتیی	-9.5537
▁چارەنووسی	-9.55432
▁کاریان	-9.55432
▁زیانی	-9.55526
▁وتەی	-9.55542
▁جەماوەر	-9.55589
▁لەمەڕ	-9.55651
▁خێزانی	-9.55682
▁کەمێک	-9.55714
▁دەژین	-9.55933
▁ڕاوێژکاری	-9.55964
▁کوردیش	-9.56011
▁زمانێکی	-9.56043
▁بیانی	-9.562
▁دەریا	-9.56215
▁دا،	-9.56294
▁گەیاندنی	-9.5631
▁پەیامی	-9.56483
▁نەتەوه	-9.56593
▁پیرۆزبایی	-9.56704
▁2004	-9.56736
▁شوبات	-9.56736
▁ئەمین	-9.5691
▁خوێنەر	-9.56925
▁لەمەوبەر	-9.56957
▁خاتوو	-9.56973
▁بوو،	-9.5702
▁دەسەڵاتە	-9.57084
▁پیشەسازی	-9.57179
▁دەچێتە	-9.57211
▁نەکرد	-9.57227
▁توشی	-9.57401
▁دەکەیت	-9.57449
▁وڵاتێکی	-9.57497
▁کاوە	-9.57545
▁باکوری	-9.57609
▁هەوڵەکانی	-9.57704
▁جەژنی	-9.578
▁بووین	-9.57832
▁کارگێڕی	-9.57864
▁هەڵگری	-9.5796
▁دەشێت	-9.58008
▁لەدەرەوەی	-9.58296
▁بڵێن	-9.58328
▁دادوەری	-9.58328
▁ڕیال	-9.58361
▁بەتەواوی	-9.58618
▁ئەکتەری	-9.58763
▁مەگەر	-9.58908
▁ڕەنگی	-9.59037
▁دەوری	-9.59086
▁وه	-9.59086
▁پرسە	-9.59134
▁مامەڵە	-9.59151
▁دۆسیەی	-9.59199
▁بارەیەوه	-9.59232
▁کرێکاران	-9.59232
▁لەمبارەیەوه	-9.59264
▁لایەنێکی	-9.59345
▁ناڕەزایی	-9.59378
▁بریتی	-9.59394
▁خالید	-9.59491
▁جەستەی	-9.59556
▁دەزانم	-9.59654
▁چالاکوانی	-9.59654
▁بەبۆنەی	-9.59752
▁منی	-9.59752
▁60	-9.598
▁شوێنە	-9.59914
▁سیاسییە	-9.59996
▁پێکرد	-9.59996
▁کۆنگرە	-9.60012
▁بزانین	-9.60159
▁کوژراون	-9.60225
▁درا	-9.60241
▁پاڵ	-9.60241
▁دەم	-9.60323
▁ڕاشیگەیاند	-9.60323
▁گروپە	-9.6034
▁بەشار	-9.60356
▁دروستبوونی	-9.60372
▁درێژە	-9.60421
▁بەس	-9.60438
▁کرێکارانی	-9.60536
▁میدیا	-9.60668
▁سوێند	-9.60766
▁کشتوکاڵ	-9.60799
▁یەکێکیان	-9.60799
▁سامانی	-9.60849
▁کۆن	-9.60882
▁پەرەپێدانی	-9.60898
▁کۆمیتەی	-9.61014
▁پارێزگاکانی	-9.61112
▁توانا	-9.61129
▁بەرچاوی	-9.61179
▁هێمن	-9.61278
▁هیوا	-9.61311
▁سیاسیەکان	-9.6136
▁کانونی	-9.61526
▁بارەیەوە	-9.61626
▁خزمەتگوزاری	-9.61626
▁پێشەوە	-9.61659
▁وەبەرهێنان	-9.61875
▁+	-9.61891
▁of	-9.61925
▁ناکۆکی	-9.61941
▁ئەمڕۆی	-9.62091
▁ئاماژه	-9.62125
▁کچان	-9.62125
▁دوایین	-9.62141
▁سەرباری	-9.62141
▁چاپ	-9.62225
▁سلێمان	-9.62292
▁کتێب	-9.62342
▁سامان	-9.62526
▁لەیەک	-9.62526
▁واز	-9.62543
▁هەواڵ	-9.62593
▁بریتین	-9.6261
▁ڕۆڵێکی	-9.6261
▁کۆمەلایەتی	-9.62811
▁دو	-9.62844
▁بەڕێوە	-9.62878
▁عێراقەوە	-9.6308
▁برا	-9.63097
▁پتر	-9.63164
▁فیلمەکانی	-9.63248
▁بکات،	-9.63265
▁بازاڕی	-9.63282
▁بێتە	-9.63282
▁بووەو	-9.6335
▁2005	-9.63367
▁ڕۆژنامەوانی	-9.63367
▁خۆیشی	-9.63383
▁خواستی	-9.634
▁دەرگای	-9.634
▁کەسانە	-9.634
▁ئابووریی	-9.63417
▁چەمکی	-9.63417
▁هاوکاریی	-9.63569
▁پەیوەندییە	-9.6362
▁کوژران	-9.63722
▁ڕاستەقینە	-9.63739
▁جەختی	-9.63756
▁پیرۆز	-9.63857
▁ئەفغانستان	-9.63891
▁ڕاستیدا	-9.63925
▁دیاردەی	-9.64027
▁دانا	-9.64146
▁میدیای	-9.64351
▁کی	-9.64351
▁کشتوکاڵی	-9.64436
▁لەهەمان	-9.64487
▁سێبەری	-9.64539
▁دژە	-9.64556
▁ئاڕاستەی	-9.64658
▁دەدەین	-9.64658
▁نمایشی	-9.64727
▁سەرچاوەکه	-9.64847
▁بزانێت	-9.64932
▁پێشبینی	-9.64984
▁فێری	-9.65018
▁حاڵەتی	-9.65138
▁دەسەڵاتدارانی	-9.65173
▁تاکی	-9.6519
▁سەعات	-9.6519
▁بەشە	-9.65207
▁بەهاری	-9.65207
▁دەکرا	-9.65242
▁ئازاری	-9.65293
▁دۆلاری	-9.65362
▁تیا	-9.655
▁ئاشکرای	-9.65552
▁هاتنە	-9.65569
▁ئیسپانی	-9.65638
▁پلە	-9.65673
▁وەزارەت	-9.65776
▁سەرکردە	-9.65845
▁بڵاوکردنەوەی	-9.65897
▁حەز	-9.65897
▁پەیوەست	-9.65932
▁پیاوە	-9.66019
▁مرۆڤەکان	-9.66088
▁کارەبای	-9.66175
▁وایه	-9.66192
▁بڕوای	-9.66227
▁ناوچەیەکی	-9.66227
▁گرووپی	-9.66227
▁جاری	-9.66244
▁دیاریکردنی	-9.66279
▁پێویستیان	-9.66331
▁مەڵبەندی	-9.66418
▁کورته	-9.66453
▁وێنە	-9.6654
▁فیلم	-9.66558
▁ترسی	-9.6661
▁34	-9.66645
▁ڕوونی	-9.66732
▁کۆبوونەوە	-9.6675
▁برینداربوون	-9.66767
▁دیکەوە	-9.66767
▁سزا	-9.66767
▁ئاشکرایە	-9.6682
▁توندی	-9.66872
▁پێشکەوتنی	-9.66977
▁ئیتالیا	-9.67012
▁منداڵانی	-9.6703
▁فراوان	-9.67117
▁وەرزشی	-9.67117
▁کرایەوە	-9.67187
▁توانیان	-9.67328
▁واته	-9.67345
▁بنەماڵەی	-9.67433
▁باوک	-9.67468
▁ڕێبازی	-9.67521
▁بەڵێنی	-9.6775
▁جەعفەر	-9.67803
▁ئاکامی	-9.68015
▁زیان	-9.68122
▁500	-9.68192
▁شارەکە	-9.68281
▁قبوڵ	-9.68317
▁نیو	-9.68334
▁ئاخۆ	-9.6837
▁یەکتری	-9.68388
▁ئێمەدا	-9.68441
▁مەیدانی	-9.68459
▁سەرەوە	-9.68476
▁بەهێزی	-9.68565
▁دووەمین	-9.68565
▁ئەوکات	-9.68583
▁هەربۆیە	-9.68636
▁بودجە	-9.6869
▁گەنجان	-9.68761
▁بەیەک	-9.68779
▁لەسەردەمی	-9.68779
▁ڕووسیا	-9.68832
▁هەڵە	-9.68868
▁چەپ	-9.68975
▁بکەینەوە	-9.69047
▁required	-9.691
▁دەگرێتەوە	-9.69118
▁دیاریکراو	-9.69136
▁هەڵوێست	-9.69208
▁سوپا	-9.69226
▁کۆمیسیۆنی	-9.69226
▁سەرکردەی	-9.69243
▁مامەڵەی	-9.69369
▁کراو	-9.69369
▁سەدر	-9.69405
▁تە	-9.69423
▁خەڵکە	-9.69584
▁فەلسەفە	-9.69674
▁نیشانەی	-9.69692
▁لێکۆڵینەوەی	-9.69746
▁بەدەستی	-9.69854
▁پەیدا	-9.69872
▁ڕێ	-9.6989
▁سینەما	-9.69908
▁ئاماژەیه	-9.70107
▁مەزن	-9.70107
▁ڕەشید	-9.70107
▁کۆریای	-9.70107
▁گەیشتە	-9.70269
▁لاوی	-9.70288
▁پارچە	-9.70306
▁ڕەگەزی	-9.70306
▁زانی	-9.70324
▁تێ	-9.7036
▁مرۆیی	-9.70451
▁دەرەکی	-9.70523
▁نییه	-9.70541
▁دادەنرێت	-9.70705
▁ئیرادەی	-9.70814
▁یوسف	-9.70832
▁ئاست	-9.70868
▁ئامادەکردنی	-9.70868
▁بەکوردستانی	-9.71051
▁حیزبەکان	-9.71087
▁کەسانێک	-9.71087
▁مەبەستە	-9.71105
▁دیوانی	-9.71196
▁ڕۆژهەڵات	-9.71196
▁ژنە	-9.71251
▁توانیویەتی	-9.71324
▁وەربگرێت	-9.71434
▁گە	-9.71471
▁ئەوەتا	-9.71544
▁مانگە	-9.71562
▁لەرێگەی	-9.71617
▁نەکرێت	-9.71654
▁یانەکانی	-9.71654
▁پەیوەندییەکی	-9.71746
▁دیموکراتی	-9.71764
▁نیگەرانی	-9.71783
▁پێشکەشی	-9.71783
▁شایانی	-9.71893
▁نموونەی	-9.71911
▁ئەحمەدی	-9.72003
▁بێت،	-9.72003
▁قەبارەی	-9.72022
▁پرسیارە	-9.72114
▁ڕاهێنەری	-9.72114
▁ڕووداوی	-9.72114
▁بارەگای	-9.72188
▁بەرژەوەندیی	-9.72372
▁بووەتە	-9.72428
▁32	-9.72483
▁جەخت	-9.72576
▁باوەڕیان	-9.72779
▁حکوومەت	-9.72984
▁عێراق،	-9.72984
▁هاوپەیمانیی	-9.7304
▁مردنی	-9.73058
▁200	-9.73095
▁کەوتە	-9.73095
▁سوودی	-9.73188
▁گەنج	-9.73244
▁کاتەدا	-9.73356
▁پێیوایە	-9.7358
▁مەرگ	-9.73655
▁ئاراوە	-9.73693
▁بچێت	-9.73711
▁یەکگرتووی	-9.7373
▁خۆپیشاندەران	-9.73824
▁دەگوترێت	-9.73824
▁سەرپەرشتی	-9.73861
▁وێنەیەکی	-9.73918
▁داوه	-9.74012
▁تێبینی	-9.74087
▁سوور	-9.74087
▁قورئان	-9.74105
▁میللی	-9.74105
▁لەسلێمانی	-9.74162
▁بۆمان	-9.74256
▁پارێزگاکان	-9.74256
▁چوارەم	-9.74294
▁سیاسیەکانی	-9.74312
▁بەرپرسیار	-9.74369
▁ڕەنگ	-9.74388
▁دەبنەوە	-9.74463
▁بێدەنگ	-9.74558
▁ڕاگەیاند،	-9.74558
▁لەبەغدا	-9.74577
▁تکایە	-9.74652
▁مامۆستایانی	-9.74709
▁لوبنان	-9.74955
▁کۆنفرانسی	-9.74993
▁پێدەچێت	-9.75012
▁نەهێشتنی	-9.75069
▁تیرۆریستان	-9.75126
▁مین	-9.75183
▁هاوشێوەی	-9.75183
▁وشە	-9.75183
▁کوردان	-9.75183
▁دەرببڕیت	-9.75202
▁کەرکوکی	-9.75202
▁کەسەی	-9.75278
▁36	-9.75354
▁سەرمایەداری	-9.75411
▁کێشەیەکی	-9.75411
▁گۆڕانی	-9.7543
▁نوسەر	-9.75449
▁ژیانێکی	-9.75468
▁لەبری	-9.75506
▁کورت	-9.75545
▁تیادا	-9.75678
▁مان	-9.75774
▁تابلۆی	-9.75869
▁کاندیدی	-9.75965
▁تێکەڵ	-9.75984
▁واقیعی	-9.75984
▁ڕە	-9.76214
▁کێشەو	-9.76214
▁لەپێناوی	-9.76272
▁لایەنه	-9.76349
▁بەش	-9.76464
▁گەورەو	-9.76541
▁گۆڵ	-9.76618
▁ناوچه	-9.76831
▁شوێنێک	-9.76908
▁1991	-9.76927
▁بەرزی	-9.76947
▁وی	-9.76947
▁کۆنگرەیەکی	-9.76985
▁یاساو	-9.77102
▁باکوور	-9.7716
▁دنیادا	-9.77334
▁بەشێوەی	-9.77354
▁بەڵکوو	-9.77354
▁کردووەو[	-9.77373
▁بەشێوەیەک	-9.77431
▁بەراورد	-9.77568
▁دروستی	-9.77645
▁گەشەپێدانی	-9.77645
▁ڕۆژنامە	-9.77821
▁ڕێبین	-9.7784
▁دەرهێنەری	-9.77899
▁لاواز	-9.78075
▁نەخێر	-9.78075
▁ئیسلامیی	-9.78114
▁لێدوانێکدا	-9.78271
▁گەشەی	-9.78271
▁خراپتر	-9.78388
▁ڕۆژنامەنووسان	-9.78388
▁بیروبۆچوونی	-9.78585
▁ئەڵمانی	-9.78605
▁حەق	-9.78683
▁هەندێکیان	-9.78703
▁ڕۆشنبیر	-9.78742
▁دەهێنن	-9.78782
▁پێکهاتەکانی	-9.78821
▁ص	-9.7886
▁مووچەی	-9.7886
▁هەمیشەیی	-9.7888
▁بابەتانەی	-9.789
▁ساڵانە	-9.789
▁کردوون	-9.7892
▁بینینی	-9.79137
▁ڕابردووی	-9.79196
▁کەسیش	-9.79236
▁دەگەیەنێت	-9.79275
▁فەرەنسی	-9.79295
▁وەفدی	-9.79355
▁هەڤاڵ	-9.79374
▁خێرا	-9.79394
▁بەری	-9.79493
▁باڵی	-9.79573
▁زاخۆ	-9.79612
▁نەبن	-9.79612
▁بەرێوەبەری	-9.79632
▁نەورۆز	-9.79672
▁کوردانی	-9.79672
▁ئاین	-9.79752
▁مەکەن	-9.79752
▁بتوانین	-9.79811
▁شوان	-9.79851
▁دەبەن	-9.79971
▁داوایان	-9.8007
▁یێ	-9.8009
▁بەڕێوەبردنی	-9.8011
▁زیندوو	-9.8013
▁ئاستێکی	-9.8017
▁هونەرمەندانی	-9.8021
▁لەوبارەیەوە	-9.8029
▁جۆر	-9.8031
▁سێیەمی	-9.8041
▁وزەی	-9.8041
▁بابەت	-9.8051
▁خەریکە	-9.80571
▁کوردیدا	-9.80571
▁هاته	-9.80591
▁خاڵە	-9.80611
▁33	-9.80651
▁بڕیاره	-9.80691
▁ناوەند	-9.80791
▁دامەزراوە	-9.80812
▁هۆڵەندا	-9.80912
▁برایەتی	-9.80932
▁پایتەخت	-9.81275
▁حکومی	-9.81295
▁توندوتیژیی	-9.81356
▁مرۆڤە	-9.81417
▁نیوەی	-9.81417
▁{	-9.81457
▁خواردن	-9.81457
▁70	-9.81477
▁هەنگاوێکی	-9.8168
▁نیه	-9.8172
▁ئەبێ	-9.81781
▁فرۆشتنی	-9.81802
▁متمانەی	-9.81802
▁لێک	-9.81923
▁هەماهەنگی	-9.82025
▁}	-9.82107
▁کوێ	-9.82208
▁شانازی	-9.82249
▁گەڕەکی	-9.8227
▁تەقینەوەی	-9.8229
▁چووە	-9.82331
▁ڕێزی	-9.82413
▁کوردستانیان	-9.82474
▁پەنابەران	-9.82556
▁ئاسمان	-9.82597
▁پێناوی	-9.82638
▁ڕێکخراو	-9.82638
▁ئەوەبوو	-9.82781
▁چاوەڕێی	-9.82904
▁کارەساتی	-9.82945
▁سەروەری	-9.82966
▁بەوەدا	-9.83027
▁بەریتانی	-9.83068
▁نادات	-9.83068
▁دەکرێتەوە	-9.8311
▁ولاتانی	-9.83336
▁شەقام	-9.83357
▁خەونی	-9.83439
▁عێراقیش	-9.83522
▁چوونە	-9.83625
▁باشترە	-9.83708
▁بۆنی	-9.83791
▁گومانی	-9.83894
▁وەرگرتووە	-9.83936
▁بەرنامە	-9.8404
▁تاوانبار	-9.84143
▁هێزو	-9.84164
▁سەرچاوەکانی	-9.84268
▁هونەرمەندان	-9.84331
▁بەرپرسیارێتی	-9.84414
▁مەبەستەش	-9.84456
▁ناتوانێ	-9.84497
▁لیبیا	-9.84518
▁بوارەکانی	-9.84539
▁داناوە	-9.8456
▁دەڕوات	-9.84623
▁پێدا	-9.84623
▁بەوەش	-9.84664
▁بچێتە	-9.84748
▁گۆل	-9.84748
▁پیاوانی	-9.84811
▁دەرکردنی	-9.84832
▁دوچاری	-9.84936
▁باراک	-9.85041
▁کەوت	-9.85104
▁لەهەولێر	-9.85125
▁هەبوونی	-9.85125
▁شاندێکی	-9.85146
▁زیاترە	-9.8523
▁گۆڵی	-9.85293
▁وەڵام	-9.85356
▁ژینگە	-9.85377
▁ئاسۆ	-9.85441
▁وردە	-9.85483
▁ناویان	-9.85567
▁ڕایگەیاند:	-9.85567
▁بخاتە	-9.85588
▁ئارەزووی	-9.8563
▁خواردنی	-9.85694
▁نەخشەی	-9.85736
▁هەرێمە	-9.85778
▁ببنە	-9.85799
▁نووسینگەی	-9.8582
▁کشانەوەی	-9.85905
▁دەستوری	-9.85968
▁مامۆستایان	-9.85968
▁80	-9.8599
▁قورس	-9.86032
▁ئاسیا	-9.86053
▁کارکردنی	-9.86053
▁هاشمی	-9.86117
▁بەڵگەی	-9.86159
▁ناوچەکەدا	-9.86265
▁بەرپرس	-9.86308
▁بەرپرسێکی	-9.86329
▁دەبینن	-9.86478
▁وەرزش	-9.86478
▁هەواڵێکی	-9.86499
▁لەمیانەی	-9.8652
▁وەرگرتن	-9.86542
▁بەعسی	-9.86691
▁بچووک	-9.86755
▁هیوادارم	-9.86776
▁تەماشای	-9.86797
▁هەڵمەتی	-9.86904
▁تۆڕی	-9.8699
▁حاکم	-9.8699
▁یەکەی	-9.87075
▁ئاڵای	-9.8714
▁دینی	-9.87161
▁39	-9.87182
▁حکوومەتە	-9.87182
▁عێراقییەکان	-9.87268
▁گرتن	-9.8729
▁بەیەکەوە	-9.87332
▁حکومەتەکەی	-9.87397
▁ململانێ	-9.87418
▁سەرهەڵدانی	-9.87461
▁ئەوەیه	-9.87504
▁سەندیکای	-9.87547
▁بەکاری	-9.8759
▁دەبیت	-9.8759
▁ئاسانی	-9.87612
▁بەشەکانی	-9.87612
▁لایەنگرانی	-9.87698
▁قوربانیانی	-9.88043
▁38	-9.88065
▁یەکەمیان	-9.88086
▁شەممه	-9.8813
▁دوژمن	-9.88173
▁دێن	-9.88216
▁فەلسەفەی	-9.88281
▁کراوه	-9.88281
▁قۆناغێکی	-9.88303
▁نایات	-9.88303
▁دەگرن	-9.88346
▁سەرتاسەری	-9.88346
▁هەڵبژاردە	-9.88368
▁ئینسان	-9.88411
▁ئیئتیلافی	-9.88455
▁دەبین	-9.88455
▁بەڵێن	-9.88498
▁دەوڵەتە	-9.88694
▁ڕۆژنامەوانیدا	-9.88715
▁کوردستانێ	-9.88911
▁ببن	-9.88999
▁وتاری	-9.89086
▁متمانە	-9.89108
▁بیرکردنەوە	-9.89151
▁کچ	-9.89217
▁درۆ	-9.89239
▁گەڕانەوە	-9.89239
▁جیاتی	-9.89305
▁لەڕێی	-9.89326
▁ناسراو	-9.89326
▁وابوو	-9.89326
▁بەرهەمەکانی	-9.89458
▁سەرکردەکانی	-9.8948
▁موراد	-9.89568
▁ئێراندا	-9.89633
▁37	-9.89655
▁شکستی	-9.89655
▁داکۆکی	-9.89699
▁ناوچانە	-9.89699
▁دەزانی	-9.89787
▁ئیداری	-9.89897
▁واتای	-9.90007
▁گەرم	-9.90029
▁دەستور	-9.90051
▁مۆڵەتی	-9.90096
▁هۆشیاری	-9.90272
▁برای	-9.90339
▁کێشەیە	-9.90383
▁فەرمانگەی	-9.90427
▁ڕادیۆی	-9.90516
▁کاکە	-9.90516
▁بوونەتە	-9.90626
▁بکەن،	-9.90626
▁زۆربەیان	-9.90671
▁سەخت	-9.90693
▁دێموکرات	-9.90715
▁ڕێککەوتنی	-9.90715
▁48	-9.90737
▁بنەڕەتی	-9.90782
▁پێدەکات	-9.90782
▁خەمی	-9.90893
▁فیدراڵی	-9.90893
▁بڵێت	-9.90937
▁بانکی	-9.90982
▁ڕۆشنبیریی	-9.90982
▁ئالان	-9.91004
▁شەقامی	-9.91026
▁زۆرتر	-9.91071
▁ئەوانەش	-9.91093
▁جۆراوجۆر	-9.91093
▁بەرپرسە	-9.91138
▁چاکی	-9.91138
▁دەبێته	-9.9116
▁یاسایە	-9.91383
▁ناوچەیە	-9.91406
▁بڵێ	-9.91495
▁ڕژێم	-9.91585
▁عادل	-9.91607
▁دەشڵێت	-9.91629
▁بڵاوی	-9.91719
▁سەرەتایی	-9.91989
▁دەتوانرێت	-9.92011
▁پێموایە	-9.92011
▁بم	-9.92033
▁سەوز	-9.92033
▁گۆڕەپانی	-9.92078
▁تیشکی	-9.92124
▁شارستانی	-9.92124
▁پیاوی	-9.92124
▁لەکەرکوک	-9.92169
▁هزری	-9.92214
▁ئێوارە	-9.92281
▁مەرج	-9.92349
▁ناتوانین	-9.92371
▁فارس	-9.92394
▁دروشمی	-9.92417
▁دەستە	-9.92439
▁خۆراک	-9.92462
▁فرە	-9.92597
▁ئۆپۆزسیۆنی	-9.92733
▁وێ	-9.92778
▁ڕۆمانی	-9.92778
▁وەرگرت	-9.92801
▁قوتابخانە	-9.92869
▁ڕۆژنامەنوس	-9.92937
▁پڕۆژەکە	-9.93074
▁هاتوون	-9.9321
▁کوردایەتی	-9.93233
▁کارمەندانی	-9.93324
▁هەمیشه	-9.93461
▁کاتێکی	-9.93506
▁بڵاودەکرێنەوە	-9.93529
▁تریان	-9.9362
▁نازانێت	-9.93712
▁بگاتە	-9.93735
▁بەئامادەبوونی	-9.93735
▁کاندید	-9.93758
▁سەلاحەددین	-9.93804
▁سەربازیی	-9.93849
▁دەستگیرکردنی	-9.94147
▁لەکوردستاندا	-9.94239
▁گەنجانی	-9.94285
▁هاتن	-9.94331
▁هەڵبەت	-9.94331
▁چاوەڕوان	-9.94331
▁ژیانیان	-9.94331
▁بۆتەوە	-9.94447
▁پەلاماری	-9.9447
▁نەیتوانی	-9.94539
▁دادگایی	-9.94677
▁هەژار	-9.94677
▁شەهیدانی	-9.94723
▁زیادکردنی	-9.94793
▁جیاوازە	-9.94839
▁دەمێنێتەوە	-9.94862
▁دەوڵەتێکی	-9.94978
▁گرنگترین	-9.95047
▁42	-9.95071
▁بایەخی	-9.95094
▁خولەکی	-9.95163
▁ڕووداوە	-9.9521
▁گوێی	-9.95256
▁قسەکانی	-9.9528
▁بێجگە	-9.95303
▁نه	-9.95396
▁قوتابیان	-9.95442
▁ڕۆژانەی	-9.95442
▁مەرگی	-9.95489
▁پێغەمبەری	-9.95582
▁گەیشته	-9.95629
▁گەڕان	-9.95652
▁پارت	-9.95675
▁بەدرێژایی	-9.95699
▁ئەستۆی	-9.95956
▁پیاوێکی	-9.95956
▁ڕەسوڵ	-9.96026
▁بەتایبەتیش	-9.96073
▁هاتوچۆ	-9.96119
▁تیرۆری	-9.96143
▁ئێران،	-9.96166
▁نازناوی	-9.96213
▁لەڕێگای	-9.96237
▁ئەوەمان	-9.96307
▁کەسیان	-9.96307
▁سیاسەتە	-9.96377
▁ببینێت	-9.96472
▁کەریمی	-9.96495
▁ناسنامەی	-9.96519
▁یانی	-9.96613
▁بڕوا	-9.96683
▁دڵشاد	-9.96683
▁ڕەحمان	-9.96683
▁شیوعی	-9.96707
▁ئاب	-9.96754
▁بەهای	-9.96778
▁گوڵ	-9.96778
▁حوکمڕانی	-9.96825
▁سوننە	-9.96848
▁موچەی	-9.96848
▁ئەمریکاو	-9.96872
▁بنەما	-9.96919
▁ناردنی	-9.96919
▁بڕیارێکی	-9.97014
▁ئەبو	-9.97037
▁خەم	-9.97108
▁پاکستان	-9.97108
▁لەئاستی	-9.97203
▁دابوو	-9.9725
▁ئەمەی	-9.97322
▁تەرمی	-9.97345
▁ڕێکخراوێکی	-9.97345
▁بەدوور	-9.97369
▁دەکەن،	-9.97369
▁بەها	-9.97393
▁وەردەگرێت	-9.9744
▁ڕووداوەکان	-9.97464
▁بنەماکانی	-9.97535
▁هاووڵاتیانی	-9.97583
▁شێرکۆ	-9.9763
▁یەوە	-9.97678
▁سەرپەرشتیاری	-9.97725
▁دەرفەتی	-9.97868
▁ڕایدەگەیەنێت	-9.97868
▁کۆشکی	-9.97868
▁پیرۆزی	-9.97916
▁43	-9.9794
▁تاوانەکانی	-9.9794
▁تورکیاو	-9.97964
▁هەڕەشە	-9.97988
▁بێتەوە	-9.98059
▁خولەکە	-9.98059
▁سەردانەکەی	-9.98203
▁هەولێرو	-9.98203
▁کوردەکانی	-9.98251
▁تورکمان	-9.98299
▁کردەوەی	-9.98299
▁یەکلایی	-9.9837
▁ڕەزا	-9.98418
▁ولات	-9.98442
▁ئاگر	-9.98514
▁لی	-9.98562
▁شارو	-9.98586
▁نەخۆش	-9.98682
▁بیرو	-9.98731
▁خاڵێکی	-9.98779
▁لەوانەی	-9.98779
▁نزیکی	-9.98899
▁کۆیە	-9.98899
▁حوزەیران	-9.98995
▁واقیع	-9.9902
▁55	-9.99044
▁قسەکردن	-9.99044
▁لەپەرلەمانی	-9.99044
▁ناوەکی	-9.99068
▁ئاگری	-9.99092
▁تێگەیشتن	-9.99116
▁بۆخۆی	-9.99164
▁ئامێری	-9.99213
▁پەنابەرانی	-9.99237
▁ئەرک	-9.99285
▁ڤێ	-9.99334
▁گرتنی	-9.99358
▁دەنگیان	-9.99479
▁ناوەڕاستی	-9.99527
▁بەدیهێنانی	-9.99576
▁مەرجی	-9.99649
▁وەزیر	-9.99649
▁ئیسلامییەکان	-9.99673
▁بەهرۆز	-9.99697
▁هاوڵاتی	-9.99746
▁خەون	-9.9977
▁برد	-9.99819
▁بەشداریکردنی	-9.99819
▁نان	-9.99843
▁هاوار	-9.99843
▁خوێندکار	-9.99867
▁بەرگریی	-9.99892
▁گرفت	-10.0004
▁ولاتە	-10.0006
▁دەق	-10.0009
▁سەرەکیی	-10.0009
▁چوو	-10.0009
▁ڕوانگەی	-10.0018
▁ئای	-10.0026
▁ماددە	-10.0031
▁ئۆسکاری	-10.0033
▁ماوەتەوە	-10.0033
▁کامیل	-10.0033
▁بکاتە	-10.004
▁خانەی	-10.0048
▁ناکەم	-10.005
▁بمانەوێت	-10.0053
▁وێنەگری	-10.0058
▁یەکە	-10.006
▁پۆستە	-10.0065
▁سەرانی	-10.0067
▁قازانجی	-10.0067
▁دەرئەنجامی	-10.007
▁تایبەتدا	-10.0075
▁تۆمەتی	-10.0075
▁یانە	-10.0082
▁،]به	-10.0085
▁دەمهەوێت	-10.0094
▁41	-10.0099
▁موسڵمان	-10.0102
▁ژینگەی	-10.0102
▁پەیڕەوی	-10.0107
▁کەوتنە	-10.0107
▁وەربگرن	-10.0116
▁قوتابخانەی	-10.0119
▁هەرچەند	-10.0126
▁کاتێکیش	-10.0134
▁بەتەنیا	-10.0136
▁پێشکەوتن	-10.0136
▁ڕووخانی	-10.0139
▁دیکەدا	-10.0141
▁سنوور	-10.0141
▁لەدایک	-10.0144
▁ڕێککەوتن	-10.0146
▁شکست	-10.0151
▁حزبی	-10.0158
▁قۆناغە	-10.0158
▁پێشتریش	-10.0168
▁ئەهلی	-10.0173
▁ئەڤ	-10.0178
▁زاری	-10.0186
▁لێدانی	-10.0186
▁هەڵەی	-10.0191
▁بڵێ:	-10.0193
▁بەرزنجی	-10.0193
▁ئاماژەیە،	-10.0198
▁پله	-10.0201
▁بەشێکە	-10.0221
▁چەندەها	-10.0238
▁حکومەتێکی	-10.024
▁بناغەی	-10.0243
▁بەهێزکردنی	-10.025
▁لەجیاتی	-10.0258
▁خوێندکاران	-10.026
▁خەلکی	-10.0263
▁کرن	-10.0275
▁سوپاس	-10.028
▁لەشکری	-10.0283
▁حسابی	-10.0285
▁300	-10.0301
▁جۆن	-10.0301
▁سەردەم	-10.0306
▁لەڕاستیدا	-10.0308
▁بەپێچەوانەوە	-10.0311
▁هەردەم	-10.0311
▁یەکێکی	-10.0318
▁تاوانە	-10.0321
▁دڵنیا	-10.0326
▁ناشرین	-10.0336
▁پارێزگا	-10.0336
▁مارکس	-10.0346
▁هەیەو[	-10.0346
▁44	-10.0351
▁مەسیحی	-10.0356
▁ڕێکەوتی	-10.0363
▁ده	-10.0366
▁بەدەر	-10.0369
▁خزمەتکردنی	-10.0379
▁بهێنە	-10.0381
▁ترە	-10.0381
▁سویسرا	-10.0381
▁بۆسەر	-10.0384
▁تێک	-10.0394
▁بووبێت	-10.0399
▁دەنووسن	-10.0399
▁چیرۆک	-10.0399
▁درووست	-10.0401
▁تازەی	-10.0404
▁عیراق	-10.0404
▁کۆبوونەوەیەکی	-10.0404
▁ئەیلول	-10.0409
▁شتە	-10.0409
▁ناسراوە	-10.0414
▁چوون	-10.0432
▁بووەوە	-10.044
▁بابەتێکی	-10.0445
▁لێوە	-10.0445
▁بینیوە	-10.0447
▁ق	-10.046
▁جەلەولا	-10.0462
▁سایەی	-10.0462
▁باسیان	-10.0465
▁ورد	-10.0465
▁نووسراوە	-10.0468
▁زیرەک	-10.0475
▁خۆپیشاندانی	-10.0483
▁نیم	-10.0483
▁have	-10.0485
▁46	-10.0488
▁کچی	-10.0488
▁دەرهێنەر	-10.0493
▁مانا	-10.0493
▁htm	-10.0496
▁هەوڵدان	-10.0496
▁بوارەدا	-10.0498
▁کچه	-10.0501
▁پەروەردگاری	-10.0503
▁گۆڕی	-10.0506
▁یی	-10.0506
▁تو	-10.0511
▁میللەت	-10.0511
▁دەبینرێت	-10.0519
▁خەڵکانی	-10.0524
▁کرێکاری	-10.0532
▁نایابی	-10.0537
▁کەمە	-10.0542
▁49	-10.0544
▁ببێتەوە	-10.0544
▁لەلایەک	-10.0544
▁ئێن	-10.055
▁We	-10.0555
▁فیکری	-10.0555
▁47	-10.0562
▁چاوپێکەوتن	-10.0568
▁بەرگی	-10.057
▁ڕادەستی	-10.0583
▁کەوتووە	-10.0599
▁هاوکارمان	-10.0601
▁پۆست	-10.0604
▁تونس	-10.0606
▁خۆر	-10.0609
▁جدی	-10.0612
▁چیە	-10.0622
▁شەڕە	-10.0627
▁پی	-10.0635
▁online	-10.0648
▁بەکوردی	-10.0648
▁یێن	-10.065
▁ئامادەیە	-10.0656
▁هەردووکیان	-10.0656
▁ئۆجالان	-10.0663
▁حاڵی	-10.0666
▁لێکدانەوەی	-10.0666
▁هەژاری	-10.0666
▁لەکۆتایی	-10.0671
▁بەشداریکردن	-10.0679
▁عەباس	-10.0679
▁ماڵێکی	-10.0679
▁مەسەلەیە	-10.0687
▁خۆشحاڵی	-10.069
▁بیەوێت	-10.0697
▁بەرزکردنەوەی	-10.07
▁کێشەکە	-10.0703
▁کارێک	-10.0705
▁بۆنەی	-10.0708
▁واشنتن	-10.071
▁هاوولاتیان	-10.0713
▁پڕۆژەیە	-10.0716
▁هەژاند	-10.0721
▁90	-10.0726
▁ڕەت	-10.0726
▁ڕۆژەی	-10.0729
▁خاوەنەکانیانە	-10.0739
▁ڕوویان	-10.0747
▁یاریزانان	-10.0747
▁خو	-10.0752
▁ئەگینا	-10.076
▁guests	-10.0763
▁نەوەک	-10.0768
▁بەرێز	-10.0771
▁لێکۆڵینەوه	-10.0773
▁کورددا	-10.0773
▁لەبەشێکی	-10.0779
▁سەلام	-10.0792
▁لەناوبردنی	-10.0792
▁ئازادکردنی	-10.0794
▁بەرنامەیەکی	-10.0805
▁لەمانگی	-10.0808
▁هێنان	-10.0808
▁>	-10.081
▁وەردەگرن	-10.0816
▁تاهیر	-10.0818
▁پاریس	-10.0818
▁بیرکردنەوەی	-10.0824
▁ڕێگه	-10.0824
▁سەریان	-10.0829
▁گەورەتر	-10.0829
▁ڕەمزی	-10.0831
▁وردی	-10.0837
▁قەڵەم	-10.0839
▁بکەوێت	-10.0842
▁کردۆتە	-10.0847
▁هاتۆتە	-10.085
▁دانراوە	-10.0858
▁کوردیی	-10.0863
▁یه	-10.0866
▁یاساکانی	-10.0869
▁سیاسیدا	-10.0871
▁وڵاتەدا	-10.0871
▁دادپەروەری	-10.0877
▁هێرشەکانی	-10.0879
▁کەیسی	-10.0879
▁51	-10.0882
▁ڕاستییە	-10.0882
▁دیالۆگ	-10.0893
▁نەجمەددین	-10.0893
▁پشکنینی	-10.0893
▁نەداوە	-10.0895
▁بایەخ	-10.0903
▁لەئەنجامی	-10.0906
▁پێداویستی	-10.0914
▁قوتابیانی	-10.0917
▁ڕێنمایی	-10.0917
▁لیژنەیەکی	-10.0922
▁لەسەرجەم	-10.0922
▁لەدوو	-10.0925
▁ڕوویدا	-10.0927
▁دەوڵەتانی	-10.093
▁مانەوە	-10.0933
▁کڕینی	-10.0933
▁تۆمەتبار	-10.0938
▁موسا	-10.0938
▁نزیکدا	-10.0938
▁پەسەندکردنی	-10.0938
▁بەرمیل	-10.0943
▁کوشت	-10.0943
▁دەروازەی	-10.0946
▁دەستپێکی	-10.0946
▁شێوازێکی	-10.0946
▁لەوەدایە	-10.0949
▁دەستبەرداری	-10.0951
▁نامێنێت	-10.0959
▁ئەزموون	-10.0965
▁سەختی	-10.097
▁بەرجەستە	-10.0973
▁هەردی	-10.0973
▁ڕادیۆ	-10.0975
▁توێژینەوەی	-10.0981
▁ڕەمەزان	-10.0983
▁دەبوایە	-10.0986
▁موزیک	-10.0992
▁زێڕین	-10.0994
▁52	-10.1002
▁گوتیان	-10.1002
▁ئەوکاتە	-10.1005
▁بوارە	-10.101
▁ڕاپۆرت	-10.1013
▁یەکسان	-10.1013
▁بەتەنها	-10.1024
▁سروشت	-10.1029
▁ژووری	-10.1032
▁خەیاڵی	-10.104
▁لەمبارەیەوە	-10.1048
▁خوێندنەوە	-10.1054
▁عەدنان	-10.1054
▁پێشکەشکردنی	-10.1054
▁سۆسیال	-10.1056
▁نێوانیان	-10.1056
▁کامەران	-10.1056
▁دەستپێکردنی	-10.1062
▁لاوازی	-10.107
▁ئومێد	-10.1075
▁بوون،	-10.1075
▁چەمچەماڵ	-10.1075
▁خۆشیان	-10.1078
▁ڕووداوێکی	-10.1083
▁ماڵەوە	-10.1089
▁150	-10.1092
▁هۆکارەکانی	-10.1092
▁ڕێکخستن	-10.11
▁نازانن	-10.1102
▁ڕاپۆرتێکی	-10.1108
▁بەشدارییان	-10.1111
▁تۆش	-10.1113
▁دۆخە	-10.1113
▁بریتیە	-10.1116
▁بوونەوەی	-10.1124
▁درێژایی	-10.1124
▁53	-10.1127
▁حوکم	-10.113
▁دەکەینەوە	-10.1135
▁ئینسانی	-10.1146
▁فارسی	-10.1146
▁بیرۆکەی	-10.1154
▁54	-10.1171
▁دەرکەوتنی	-10.1176
▁هەڵوەشاندنەوەی	-10.1184
▁56	-10.119
▁جێگیر	-10.1193
▁دەتوانم	-10.1193
▁دۆست	-10.1195
▁بەرازیل	-10.1198
▁ناساندنی	-10.1201
▁کورتی	-10.1201
▁کارتی	-10.1204
▁ناکەین	-10.1209
▁زمانە	-10.1215
▁پلان	-10.1215
▁دەچن	-10.1217
▁نۆ	-10.122
▁سەرەنجام	-10.1231
▁کراوەتەوە	-10.1231
▁پاداشتی	-10.1237
▁تاریق	-10.1239
▁ڕاگەیاندووە	-10.1239
▁یەکجار	-10.1239
▁یەکەمجار	-10.1248
▁تورکیادا	-10.125
▁بمێنێتەوە	-10.1256
▁هۆکارێکی	-10.1261
▁ر	-10.1264
▁دانیشتووی	-10.1267
▁ویلایەتی	-10.127
▁تەمموز	-10.1272
▁تەها	-10.1284
▁شتەکان	-10.1284
▁وەڵامێک	-10.1284
▁کاریگەر	-10.1284
▁جارە	-10.1286
▁لەعیراقدا	-10.1303
▁کۆنترۆڵی	-10.1309
▁مەریوان	-10.1311
▁گەیشتووەتە	-10.1317
▁قسەکانیدا	-10.1328
▁تاوتوێ	-10.1331
▁عارف	-10.1336
▁57	-10.1339
▁شیعەکان	-10.1339
▁یاریگەی	-10.1339
▁چەندان	-10.1342
▁ڕووداو	-10.1342
▁داگیر	-10.1347
▁دزی	-10.135
▁دەنگەکانی	-10.1359
▁هەوڵێکی	-10.1361
▁سەقامگیری	-10.137
▁عێراقە	-10.137
▁سەردەمە	-10.1375
▁ڕۆژنامەنووسانی	-10.1375
▁پەرلەمانتار	-10.1378
▁لەوەدا	-10.1381
▁ڕیاڵ	-10.1381
▁ناوچەکه	-10.1384
▁ڤی	-10.1384
▁گەورەکان	-10.1389
▁لەبەرئەوە	-10.1403
▁ئاماری	-10.1409
▁بەهەر	-10.1423
▁پێکهاتە	-10.1423
▁کۆتاییدا	-10.1426
▁ڕۆڵ	-10.1429
▁ئیتالی	-10.1431
▁چۆمان	-10.1434
▁فەرهاد	-10.1437
▁نەتەوەکانی	-10.1437
▁براوەی	-10.144
▁جینۆساید	-10.1443
▁هەورامی	-10.1443
▁گەشە	-10.1448
▁بالای	-10.1451
▁فەتاح	-10.1457
▁ئەمن	-10.1474
▁خۆرهەڵاتی	-10.1479
▁بەندە	-10.1482
▁دەرمان	-10.1488
▁بەڕێوەدەچێت	-10.1496
▁پرۆسەیەکی	-10.1496
▁پێویستمان	-10.1499
▁دەمی	-10.1508
▁لەوانەش	-10.1508
▁نەیتوانیوە	-10.1508
▁گەرمی	-10.1508
▁نوێدا	-10.1513
▁دەربڕینی	-10.1519
▁بێدەنگی	-10.1522
▁کتێبە	-10.1522
▁عەقڵ	-10.1525
▁تەلەفزیۆنی	-10.153
▁ڕوونیکردەوە،	-10.1536
▁بەئاسانی	-10.1539
▁ئەرکێکی	-10.1542
▁تەکنیکی	-10.1542
▁فیلمە	-10.1542
▁ڕیزەکانی	-10.155
▁نوێیە	-10.1553
▁هانی	-10.1553
▁یاسین	-10.1553
▁ز	-10.1556
▁سەرخستنی	-10.1559
▁کاردانەوەی	-10.1559
▁خەیاڵ	-10.1562
▁قایمقامی	-10.1562
▁پەرلەمانتاری	-10.1562
▁بڕە	-10.1567
▁پاڵەوانی	-10.1567
▁دوورە	-10.1581
▁جیاجیاکانی	-10.1584
▁یەکسەر	-10.1584
▁نوسینی	-10.1587
▁ڕۆژنامەنووسی	-10.1587
▁ئەیاد	-10.1593
▁بوش	-10.1596
▁بگەڕێتەوە	-10.1596
▁گلەیی	-10.1601
▁تەقەمەنی	-10.1604
▁بەدەم	-10.1607
▁خۆیانەوە	-10.161
▁یانه	-10.161
▁دەنێت	-10.1613
▁بازاڕ	-10.1616
▁هاوڕێی	-10.1616
▁ئەمڕۆش	-10.1622
▁ئەنوەر	-10.1622
▁باوکم	-10.1622
▁هەریەکە	-10.1624
▁کەمترین	-10.1627
▁زۆریش	-10.163
▁ڕێکخراوەکان	-10.163
▁شانۆگەری	-10.1633
▁دەرکرد	-10.1644
▁ستەم	-10.1653
▁گەردوونی	-10.1653
▁ئەسڵانی	-10.1662
▁ئۆپۆزیسیۆن	-10.1665
▁سەپاندنی	-10.1667
▁نووسەرانی	-10.1667
▁بڕوات	-10.1679
▁فشاری	-10.1685
▁ڕێگری	-10.1685
▁هەڵبژاردنە	-10.1693
▁چینایەتی	-10.1696
▁mail	-10.1705
▁چاویان	-10.1705
▁ڕانیە	-10.1705
▁ئەرکە	-10.1708
▁لەپاش	-10.1716
▁قاسم	-10.1728
▁ڕووبەرووی	-10.1743
▁بێکاری	-10.1748
▁بەستنی	-10.1754
▁لەرووی	-10.1754
▁گرووپ	-10.1757
▁ستایشی	-10.1766
▁سەرەکییەکانی	-10.1769
▁بڵێی	-10.1772
▁ڕێژەیەکی	-10.178
▁کارەکانیان	-10.1786
▁ڕێبەری	-10.1792
▁دام	-10.1807
▁نەمانی	-10.1812
▁دار	-10.1815
▁پاکی	-10.1815
▁پاڵەوانێتی	-10.1818
▁بەزمانی	-10.1827
▁کولتووری	-10.1827
▁پێشمەرگەو	-10.183
▁تەیب	-10.1845
▁پشکی	-10.1865
▁گێڕانەوەی	-10.1865
▁ئیش	-10.1868
▁پێکهاتووە	-10.1868
▁شانۆیی	-10.1874
▁فەرمان	-10.1877
▁کاربەدەستانی	-10.188
▁جیاوازەکانی	-10.1886
▁خانمە	-10.1886
▁ناتۆ	-10.1886
▁پێشانگای	-10.1886
▁ماوەکەی	-10.1894
▁بانگهێشتی	-10.19
▁هەندێ	-10.19
▁دەیەوێ	-10.1903
▁دەر	-10.1906
▁گۆلی	-10.1909
▁دووباره	-10.1912
▁میسری	-10.1918
▁موختار	-10.1921
▁بەوه	-10.1927
▁خەلیل	-10.1927
▁ڕووەوە	-10.1927
▁گووتی	-10.1927
▁ڕوودەدات	-10.193
▁حەزی	-10.1933
▁عێراقییە	-10.1945
▁ناوەڕۆکی	-10.1945
▁ڕادەیەک	-10.1945
▁ئیخوان	-10.1948
▁ئاسایییە	-10.1951
▁ئەمجارە	-10.1951
▁سەرکردایەتیی	-10.1951
▁لەبەرامبەردا	-10.1951
▁دڵنیام	-10.1956
▁نابن	-10.1965
▁بکرێتە	-10.1968
▁دایکم	-10.1971
▁بوونیان	-10.1974
▁پرۆژەی	-10.1977
▁زێباری	-10.1986
▁ناڕەزایەتی	-10.1989
▁جەبار	-10.1992
▁لەعێراق	-10.1995
▁بینای	-10.1998
▁سیاسیە	-10.1998
▁کەناڵەکانی	-10.1998
▁لەدەستدا	-10.2001
▁کوتلەی	-10.2001
▁ببینن	-10.2004
▁بەخوا	-10.2007
▁چەسپاندنی	-10.2007
▁ئامانجە	-10.2013
▁میللەتی	-10.2013
▁نێودەوڵەتیی	-10.2013
▁ئاشنا	-10.2019
▁کوردستانییەکان	-10.2019
▁ئێواره	-10.2025
▁حەمید	-10.2028
▁ڕایگەیاندووە	-10.2028
▁شکاو	-10.2034
▁قەیرانە	-10.2046
▁خەرج	-10.2049
▁مۆدێرن	-10.2058
▁(ئاژانسی	-10.2061
▁شایەنی	-10.2064
▁وادەی	-10.2064
▁ئایار	-10.207
▁تیرۆرکردنی	-10.207
▁داهێنان	-10.207
▁شاعیری	-10.2076
▁درێژی	-10.2085
▁هەندێکی	-10.2085
▁ڕۆژێکی	-10.2085
▁بنیاتنانی	-10.2094
▁کانوونی	-10.2097
▁مەتر	-10.2106
▁کردنە	-10.2106
▁ئۆتۆمبێلەکانی	-10.2109
▁یاسایەک	-10.2109
▁بەزۆر	-10.2112
▁هەلی	-10.2112
▁کۆبونەوەی	-10.213
▁زاڵ	-10.2136
▁ون	-10.2145
▁دیاله	-10.2154
▁ڕق	-10.2154
▁خوێندکاری	-10.2157
▁لەئەنجومەنی	-10.2157
▁موڵکی	-10.2157
▁دیکتاتۆری	-10.2163
▁یەمەن	-10.2163
▁دەیانەوێ	-10.2166
▁بەرەنگاربوونەوەی	-10.2169
▁بەندی	-10.2169
▁خۆشە	-10.2169
▁دێنە	-10.2169
▁هەولێر-	-10.2169
▁هەرێمدا	-10.2172
▁گەشەکردنی	-10.2172
▁هۆکار	-10.2175
▁ڕی	-10.2178
▁ئێوەش	-10.2181
▁فەرهەنگ	-10.219
▁بەدواداچوونی	-10.2205
▁پێیانوایە	-10.2205
▁ئاسیایی	-10.2208
▁کۆمەڵگادا	-10.2208
▁نووری	-10.2218
▁ڕێکەوت	-10.2227
▁E	-10.2233
▁دیالە	-10.2233
▁ڕۆشنبیران	-10.2233
▁دەمانەوێت	-10.2236
▁کۆمپانیاکانی	-10.2236
▁باسه	-10.2239
▁ئەمینداری	-10.2242
▁نوێترین	-10.2242
▁زەویدا	-10.2251
▁جەستە	-10.2254
▁خۆراکی	-10.2254
▁دراوسێ	-10.2257
▁هونەریی	-10.2257
▁هیچیان	-10.2257
▁گوندەکانی	-10.2257
▁ئیمان	-10.226
▁لەناوچەی	-10.2263
▁زانایانی	-10.2272
▁پێچەوانەوە	-10.2272
▁ڕاپەڕینی	-10.2275
▁بخرێتە	-10.2282
▁کوڕ	-10.2288
▁کۆنە	-10.2288
▁ئامادەکاری	-10.2291
▁عەشق	-10.2297
▁چالاک	-10.2297
▁ڕاستەوخۆی	-10.2297
▁ئەمەیش	-10.2306
▁بخەنە	-10.2306
▁پەنجا	-10.2306
▁دووشەممە	-10.2315
▁چالاکییەکانی	-10.2318
▁ئەوێ	-10.2321
▁دانیشتووانی	-10.2321
▁غەریب	-10.2321
▁شەڕو	-10.2325
▁نەتەوەیەکگرتووەکان	-10.2325
▁59	-10.2331
▁شتانەی	-10.2331
▁not	-10.2337
▁بریاری	-10.2343
▁لینکەی	-10.2343
▁کردم	-10.2343
▁مەسەلە	-10.2349
▁مەزهەبی	-10.2361
▁هێناوه	-10.2361
▁پەیڕەو	-10.2368
▁will	-10.2371
▁بوونەوە	-10.2371
▁کوژرانی	-10.2374
▁comments	-10.2377
▁بەکر	-10.238
▁نادیار	-10.2383
▁ڕزگارکردنی	-10.2386
▁بووە،	-10.2392
▁تایبەتە	-10.2392
▁لەوه	-10.2392
▁هاوسەری	-10.2392
▁پەرلەمانتاران	-10.2395
▁کۆمۆنیستی	-10.2395
▁سەرلەنوێ	-10.2405
▁کرابوو	-10.2411
▁کوردییەکان	-10.2414
▁پە	-10.242
▁سامانە	-10.2426
▁نیشتەجێبوون	-10.2436
▁شێوەکاری	-10.2439
▁مانگێک	-10.2442
▁ناخی	-10.2445
▁بەرهەمە	-10.2454
▁خۆڵەمێش	-10.2461
▁دیناری	-10.2464
▁400	-10.2467
▁فایله	-10.247
▁بەڕای	-10.2476
▁یەکێتیدا	-10.2489
▁ئەخلاقی	-10.2495
▁موبارەک	-10.2498
▁لابردنی	-10.2504
▁ناوەڕاستە	-10.2504
▁خود	-10.2514
▁پابەند	-10.2514
▁شارەزا	-10.2517
▁چیخۆف	-10.2517
▁دهۆکێ	-10.252
▁کفری	-10.252
▁توورەج	-10.2526
▁گوتاری	-10.2526
▁هاتوچۆی	-10.2529
▁ڕا	-10.2529
▁فراوانی	-10.2533
▁ئەبوبەکر	-10.2536
▁خوێندکارانی	-10.2536
▁منداڵە	-10.2536
▁ئافرەتانی	-10.2548
▁کردنەوە	-10.2555
▁حەیدەر	-10.2561
▁دەنگەکان	-10.2567
▁دەگات	-10.2567
▁یانەکەی	-10.2567
▁نامەی	-10.2573
▁بری	-10.2583
▁بووەو[	-10.2583
▁لەسەرە	-10.2583
▁خانوو	-10.2586
▁بڕوایان	-10.2599
▁قەومی	-10.2599
▁مەهدی	-10.2599
▁کارەی	-10.2599
▁هاتوو	-10.2602
▁هەواڵگری	-10.2602
▁کەنەدا	-10.2602
▁کۆسرەت	-10.2605
▁فڕۆکە	-10.2608
▁Share	-10.2611
▁خستۆتە	-10.2618
▁لێدوانی	-10.2618
▁بوونه	-10.2624
▁نەدا	-10.2624
▁گووتی:	-10.2627
▁بچوک	-10.2637
▁بەرواری	-10.264
▁ئیمزا	-10.2643
▁سێکس	-10.2643
▁تەشهیر	-10.2653
▁ڕێکخەری	-10.2653
▁ئاوارەکان	-10.2656
▁دوژمنی	-10.2656
▁سەردار	-10.2659
▁خۆیەوه	-10.2668
▁لەخۆ	-10.2668
▁یەکەمدا	-10.2668
▁هەفتە	-10.2672
▁هاتوە	-10.2675
▁چەکدارەکانی	-10.2678
▁دەستدا	-10.2691
▁دەبینی	-10.27
▁وەفدێکی	-10.27
▁پێنجەم	-10.2703
▁Name	-10.2719
▁بگات	-10.2719
▁Add	-10.2723
▁چل	-10.2723
▁ژیاندا	-10.2723
▁بەهاوکاری	-10.2726
▁مەلی	-10.2729
▁زۆرن	-10.2732
▁شاخ	-10.2732
▁ڕەگەز	-10.2742
▁لەتەک	-10.2755
▁لەپاڵ	-10.2755
▁وەرگیراوە	-10.2755
▁چاودێریی	-10.2755
▁بازنەی	-10.2758
▁شێوەیه	-10.2758
▁سالار	-10.2764
▁ببنەوە	-10.2771
▁برایم	-10.2771
▁ڕێـگەی	-10.2771
▁ئەمنییەکان	-10.2774
▁بەبڕی	-10.2774
▁جیهاد	-10.2774
▁هەرچەنده	-10.2774
▁جاریش	-10.2777
▁وایکردووە	-10.2777
▁تیژی	-10.279
▁دەڵێن:	-10.279
▁بردنی	-10.2793
▁کۆمەک	-10.2803
▁نوسینگەی	-10.2809
▁ئیسلامیەکان	-10.2813
▁دەشنی	-10.2813
▁دڵم	-10.2816
▁ئەوەیش	-10.2819
▁سێکسی	-10.2819
▁بچنە	-10.2822
▁خواو	-10.2822
▁ئامانجەکانی	-10.2826
▁ئەکتەر	-10.2838
▁چەکدار	-10.2842
▁باشور	-10.2845
▁وڵاتێک	-10.2845
▁سەرباز	-10.2851
▁#	-10.2858
▁دەسەڵاتێکی	-10.2861
▁هۆکارێک	-10.2861
▁and	-10.2864
▁ئەمان	-10.2864
▁هەڵبژێردراوانی	-10.2864
▁ئەتۆمی	-10.2868
▁پێیە	-10.2868
▁عەبدولڕەحمان	-10.2874
▁دەنا	-10.2877
▁بۆرژوازی	-10.289
▁زانیارییەکانی	-10.289
▁نەژاد	-10.289
▁ماوەیەدا	-10.2894
▁me	-10.2897
▁سیستەمە	-10.2897
▁ڕژێمە	-10.2897
▁ڕێوشوێنی	-10.2907
▁بەوەشدا	-10.291
▁پێشەنگی	-10.291
▁هەبوون	-10.2913
▁دیاردەیەکی	-10.2916
▁باڵەک	-10.2926
▁فشار	-10.2929
▁بەخۆی	-10.2933
▁فیستیڤاڵه	-10.2933
▁لایەنگری	-10.2936
▁بژین	-10.2939
▁بەنزین	-10.2939
▁ڕێزگرتن	-10.2939
▁ئینتەرنێت	-10.2943
▁موحەمەد	-10.2943
▁نیسان	-10.2943
▁خێرایی	-10.2946
▁زیانێکی	-10.2952
▁ئیمەیل	-10.2956
▁خۆیی	-10.2956
▁کوێت	-10.2959
▁یاساکە	-10.2965
▁پێشخستنی	-10.2975
▁style	-10.2979
▁خسته	-10.2982
▁تەماوی	-10.2985
▁دەبێ	-10.2988
▁هەڵۆ	-10.2988
▁جارێ	-10.2995
▁هۆشیار	-10.2995
▁مەحموود	-10.2998
▁ڕۆژەدا	-10.2998
▁کۆلێژی	-10.3008
▁تاکەکانی	-10.3011
▁،]	-10.3018
▁ڕەجەب	-10.3018
▁بکردایە	-10.3025
▁ماندوو	-10.3031
▁دەرچووە	-10.3034
▁ژمارەیان	-10.3034
▁گەیاند	-10.3034
▁لەش	-10.3041
▁یاریزانە	-10.3048
▁مووچە	-10.3051
▁class	-10.3054
▁دامەزراندن	-10.3054
▁بەدەستهێنا	-10.3058
▁نمایشەکەی	-10.3058
▁لانی	-10.3061
▁کاره	-10.3061
▁text	-10.3068
▁زیندان	-10.3068
▁چاکسازیی	-10.3071
▁return	-10.3077
▁ڕەنگدانەوەی	-10.3081
▁کوردیان	-10.3081
▁یاسایەکی	-10.3084
▁لەسنووری	-10.3094
▁گەنجێکی	-10.3094
▁ئەکرد	-10.3101
▁بژی	-10.3101
▁ئەستۆ	-10.3104
▁هەروەکو	-10.3104
▁پاراستن	-10.3104
▁comment	-10.3107
▁none	-10.3107
▁target	-10.3114
▁قەت	-10.3114
▁کەسەو	-10.3117
▁دەبێت،	-10.3121
▁_blank	-10.3124
▁decoration	-10.3124
▁fb_share_button	-10.3124
▁fbs_click	-10.3124
▁onclick	-10.3124
▁هەڵمەتێکی	-10.3124
▁ئایندە	-10.3134
▁یاریدەدەری	-10.3134
▁دیسانەوە	-10.3137
▁دەگۆڕێت	-10.3137
▁پاڵتۆکەی	-10.3137
▁برزۆ	-10.3147
▁وریا	-10.3147
▁ناوبژیوانی	-10.3161
▁بەڕێوەبەرایەتیی	-10.3164
▁مەبەستم	-10.3164
▁دەژی	-10.3171
▁بتوانێ	-10.3174
▁ڕەوا	-10.3174
▁لەهەمانکاتدا	-10.3184
▁کۆنترۆڵکردن	-10.3184
▁ئۆپۆزیسیۆنەی	-10.3194
▁ساڵانەی	-10.3197
▁پرۆژه	-10.3197
▁لەوێدا	-10.3201
▁هاوکار	-10.3201
▁بەغدای	-10.3204
▁لەوانه	-10.3211
▁بنووسیت	-10.3214
▁گەورەکانی	-10.3218
▁دەرچوو	-10.3224
▁تێکۆشانی	-10.3241
▁بەخۆیەوە	-10.3245
▁دەنگە	-10.3251
▁ئێستە	-10.3255
▁دیاردەیە	-10.3255
▁دەبینم	-10.3255
▁ناکوڵێت	-10.3255
▁پابەندی	-10.3258
▁ژنێک	-10.3258
▁تائێستاش	-10.3261
▁جاڕنامە	-10.3261
▁داهات	-10.3268
▁دەبینێتەوە	-10.3268
▁باژێڕوانی	-10.3272
▁پێشنیاری	-10.3272
▁دەرچوونی	-10.3278
▁سوکایەتی	-10.3288
▁پێناسە	-10.3288
▁بداتەوە	-10.3292
▁تێکڕای	-10.3295
▁جۆرج	-10.3295
▁دواکەوتنی	-10.3295
▁نەینەوا	-10.3299
▁دابێت	-10.3302
▁بارودۆخە	-10.3309
▁فیلۆفێست	-10.3312
▁شێمحەمەد	-10.3316
▁هەزارو	-10.3316
▁دەچنە	-10.3319
▁گازی	-10.3319
▁ئۆتۆمبێل	-10.3322
▁پیاوێک	-10.3322
▁پێناسەی	-10.3322
▁دانوم	-10.3326
▁سادە	-10.3326
▁یارییەکی	-10.3329
▁پەیمانی	-10.3333
▁جیاکردنەوەی	-10.3336
▁خراپە	-10.3336
▁داخستنی	-10.3336
▁ویلایەته	-10.3343
▁دوێتم	-10.335
▁سیستەمێکی	-10.335
▁فەرمانبەرانی	-10.335
▁مافەکاو	-10.335
▁وتەبێژی	-10.335
▁حەمەی	-10.3353
▁پەیوەندیەکانی	-10.3353
▁پەرلەماندا	-10.3356
▁هۆرگێڵنەر	-10.3363
▁ئیماراتیەکانی	-10.3367
▁یارییەکه	-10.3367
▁یوتوبوۆری	-10.3367
▁پەیوەندییەکان	-10.337
▁سعودیە	-10.3373
▁دەنووسێت	-10.3377
▁مایەوە	-10.3384
▁هەلومەرجی	-10.3384
▁داد	-10.3387
▁هەولێر،	-10.339
▁پەیوەستە	-10.339
▁لەقۆناغی	-10.3394
▁بوایە	-10.3397
▁وڵاتەکەیان	-10.3397
▁بنکە	-10.3404
▁بڕیاریدا	-10.3404
▁داخوازی	-10.3404
▁سیناریۆی	-10.3404
▁پاسەوانی	-10.3404
▁ڕەئوف	-10.3404
▁کرده	-10.3404
▁ئەمساڵدا	-10.3408
▁باکور	-10.3408
▁دابنرێت	-10.3408
▁وڵاتدا	-10.3411
▁تێکدانی	-10.3421
▁خولەک	-10.3428
▁ژماره	-10.3428
▁فۆنت	-10.3432
▁خەلک	-10.3435
▁شەنگال	-10.3435
▁عوسمانی	-10.3435
▁ئەرسەلان	-10.3438
▁ئەنجومەن	-10.3438
▁بەدواداچوون	-10.3438
▁دۆستی	-10.3438
▁پەرلەمانتارانی	-10.3438
▁دەدەم	-10.3449
▁تۆمارکرد	-10.3452
▁سودان	-10.3456
▁نادەن	-10.3456
▁چوونی	-10.3456
▁شارێکی	-10.3459
▁بەڕێوەچوونی	-10.3463
▁چوارەمی	-10.3463
▁زانیاریی	-10.3466
▁شایستەی	-10.3466
▁بەردی	-10.3469
▁لیوا	-10.3469
▁هەڵسەنگاندنی	-10.3469
▁فیلمێکی	-10.3473
▁وڵاتان	-10.3483
▁خوشک	-10.349
▁نییە،	-10.3494
▁ویست	-10.3494
▁حەمەغەفور	-10.3497
▁مەشق	-10.3497
▁ئێوەی	-10.3504
▁ئەوپەڕی	-10.3504
▁توانیویانە	-10.3514
▁لێدان	-10.3514
▁لەخۆی	-10.3521
▁تۆفیق	-10.3542
▁کوردیت	-10.3542
▁یۆرۆ	-10.3542
▁گەورەیان	-10.3545
▁بورهان	-10.3552
▁ڕەفتاری	-10.3556
▁ژاپۆن	-10.3556
▁لوتکەی	-10.3559
▁هەیەتی	-10.3559
▁دەڤەری	-10.3563
▁فەلەستین	-10.3566
▁دادەنێت	-10.3577
▁پێشوازیی	-10.358
▁دیداری	-10.3587
▁لەبیر	-10.3587
▁دەکردەوە	-10.3594
▁هێرشیان	-10.3594
▁نیشاندا	-10.3601
▁وایان	-10.3601
▁دەی	-10.3608
▁شارەدێی	-10.3608
▁بڵاوبوونەوەی	-10.3612
▁بەوەشکرد	-10.3619
▁بۆم	-10.3622
▁کیلۆمەتر	-10.3626
▁پێشکەوتوو	-10.3629
▁ئەمنییەکانی	-10.3633
▁دۆزی	-10.3633
▁دەستیپێکرد	-10.3636
▁ڕادەی	-10.3636
▁دور	-10.3643
▁وتیان:	-10.3647
▁but	-10.365
▁بەرد	-10.3654
▁عیماد	-10.3654
▁پەیوەندیدارەکان	-10.3657
▁کۆمەڵایەتیی	-10.3661
▁هاتووه	-10.3664
▁پەرە	-10.3664
▁کیبۆردی	-10.3664
▁دەستبەجێ	-10.3668
▁لەمێژووی	-10.3668
▁داگیرکردنی	-10.3671
▁دەربەندیخان	-10.3675
▁دڵسۆزی	-10.3682
▁فەوجی	-10.3682
▁لێکرا	-10.3682
▁ما	-10.3685
▁نووسەران	-10.3692
▁پاڵەوانیەتی	-10.3692
▁ئەنقەرە	-10.3696
▁بکەنە	-10.3696
▁شێوازە	-10.3699
▁کوڕە	-10.3699
▁قەتەر	-10.3703
▁نەرویج	-10.3717
▁sorani	-10.3721
▁یاخی	-10.3721
▁1988	-10.3724
▁up	-10.3724
▁هادی	-10.3728
▁بەرژەوەندییەکانی	-10.3731
▁لێکەوتەوە	-10.3731
▁دووشەممه	-10.3735
▁تەندروستیی	-10.3742
▁فێستیڤاڵی	-10.3742
▁گوند	-10.3742
▁زراندن	-10.3749
▁هەنگاوە	-10.3749
▁بدەم	-10.3756
▁چەشنە	-10.3756
▁بگرین	-10.376
▁کیمیایی	-10.3763
▁سدیق	-10.3767
▁دەرچوون	-10.377
▁زیادبوونی	-10.377
▁ڕوی	-10.377
▁فەلسەفی	-10.3777
▁ڕێبوار	-10.3777
▁Send	-10.3784
▁دەرکەوتووە	-10.3784
▁پشکنین	-10.3784
▁پێیەی	-10.3792
▁ڕابردودا	-10.3792
▁بینووسیت	-10.3795
▁پێت	-10.3795
▁)ی	-10.3802
▁فکری	-10.3802
▁کەلە	-10.3802
▁ساڵدا	-10.3806
▁کچێکی	-10.3806
▁دەسەڵاتداران	-10.3809
▁شانی	-10.3809
▁Cancel	-10.3816
▁display	-10.3816
▁ڕووناکی	-10.382
▁سکاڵای	-10.3824
▁تێبینییەکت	-10.3827
▁زاته	-10.3827
▁ئەدرەسەکەت	-10.3831
▁تێبینیەکەت	-10.3831
▁ویلایەتە	-10.3831
▁follow	-10.3834
▁keyboard	-10.3834
▁دەرناکەویت	-10.3834
▁lexilogos	-10.3838
▁دەستخۆشی	-10.3838
▁Notify	-10.3841
▁جیاوازیی	-10.3841
▁JComments	-10.3845
▁ماڵە	-10.3845
▁ئەوروپی	-10.3852
▁لەناوچەکەدا	-10.3852
▁نەکردنی	-10.3852
▁ئاماژەیان	-10.3856
▁گۆڕانکاریی	-10.3856
▁یەکێ	-10.3859
▁ئەنجامەکانی	-10.3863
▁کچانی	-10.3867
▁عەمید	-10.387
▁تێگەیشتنی	-10.3874
▁فۆرمی	-10.3874
▁پشتگیریی	-10.3877
▁غازی	-10.3881
▁وەرگێڕانی	-10.3881
▁پەیوەندییان	-10.3881
▁بکرێت،	-10.3885
▁خەرجی	-10.3885
▁دوژمنانی	-10.3888
▁ڕۆژنامەگەری	-10.3892
▁دەوڵەمەند	-10.3902
▁نیشانی	-10.3906
▁تیمی	-10.391
▁بڕیارەکانی	-10.3917
▁دروستکردووە	-10.392
▁ناوچەیی	-10.392
▁داو	-10.3924
▁دەشتی	-10.3924
▁وزە	-10.3924
▁کوردەوە	-10.3924
▁دیدی	-10.3928
▁شیرین	-10.3928
▁کەوتۆتە	-10.3931
▁لەپارێزگای	-10.3935
▁ڤان	-10.3935
▁سیاسەتەکانی	-10.3939
▁پێشنیازی	-10.3939
▁شەڕێکی	-10.3942
▁پرۆسەکە	-10.3942
▁نایاسایی	-10.3946
▁نەما	-10.3946
▁بەیاننامەیەکدا	-10.396
▁فەرماندەیی	-10.396
▁لەوێوە	-10.396
▁ڕایانگەیاند	-10.3967
▁ڕوونکردنەوەی	-10.3971
▁تۆمارکرا	-10.3978
▁ببات	-10.3982
▁نەتەوایەتی	-10.3986
▁ڕۆژنامەنوسان	-10.3993
▁دەبەخشێت	-10.3996
▁ماسی	-10.3996
▁تەنیایی	-10.4
▁ج	-10.4
▁کەلتوری	-10.4
▁ئاڵۆزی	-10.4007
▁بەرهەمه	-10.4011
▁سەروەت	-10.4011
▁ڕەوای	-10.4011
▁ئۆکتۆبەر	-10.4015
▁تێڕوانینی	-10.4015
▁دووپات	-10.4015
▁میلان	-10.4015
▁پتەوکردنی	-10.4018
▁پێشبڕکێی	-10.4018
▁تۆمارکردنی	-10.4022
▁ئەدات	-10.4029
▁دابنێت	-10.4033
▁سەرو	-10.4033
▁ناوەرۆکی	-10.4033
▁دادوەر	-10.4037
▁ئاوارە	-10.4044
▁هەڵبەتە	-10.4044
▁کاروانی	-10.4044
▁بڕوانامەی	-10.4055
▁دەکەونە	-10.4062
▁کۆنی	-10.4062
▁کەئەو	-10.4062
▁نەدەکرد	-10.4066
▁گروپێکی	-10.4066
▁دەڵێین	-10.4069
▁گرتووەتەوە	-10.4069
▁لێدەکات	-10.4073
▁لەسایەی	-10.4073
▁جیهانی/	-10.4077
▁دەفەرموێت	-10.4088
▁دەمەوێ	-10.4088
▁سەیرە	-10.4088
▁تاوتوێکردنی	-10.4091
▁دوکان	-10.4091
▁پیشەیی	-10.4091
▁پەیەدە	-10.4091
▁بەردەوامن	-10.4095
▁ڕۆمان	-10.4099
▁ئەمانەش	-10.4102
▁پەیوەندیدار	-10.4106
▁ڕۆشنایی	-10.4106
▁سویدی	-10.4117
▁ڕوخانی	-10.4117
▁ڕۆژدا	-10.4117
▁ئیشی	-10.4121
▁دەسته	-10.4121
▁کۆبوونەوەکە	-10.4121
▁نەبووایە	-10.4124
▁پوور	-10.4124
▁موسڵمانان	-10.4132
▁ئەرکەکانی	-10.415
▁دەولەتی	-10.415
▁ئاهەنگی	-10.4158
▁بەرگریکردن	-10.4158
▁حیزبێک	-10.4158
▁سابیر	-10.4158
▁عەقڵی	-10.4158
▁نمونەی	-10.4158
▁ڕێککەوتننامەی	-10.4158
▁بکەوێتە	-10.4161
▁لەهیچ	-10.4161
▁75	-10.4165
▁مادی	-10.4165
▁هیوادارین	-10.4172
▁دەزگایەکی	-10.4176
▁مسوەگەر	-10.4176
▁چوارشەممە	-10.4176
▁مێشک	-10.418
▁ببێته	-10.4183
▁ئومێدی	-10.4187
▁ئۆکرانیا	-10.4187
▁وادەکات	-10.4187
▁لەتیف	-10.4198
▁تورکیای	-10.4202
▁دوێنی	-10.4202
▁لەسەرەتاوە	-10.4202
▁کردەی	-10.4202
▁هەنگاوەکانی	-10.4206
▁کۆمەڵگایەکی	-10.4209
▁ئەنبار	-10.4217
▁تەندروست	-10.4217
▁یاریزانانی	-10.4217
▁سیاسەتێکی	-10.4221
▁پارێزەری	-10.4221
▁جۆراو	-10.4224
▁زۆرینە	-10.4228
▁پەخش	-10.4228
▁دڵسۆز	-10.4235
▁گەیشتنی	-10.4235
▁2000	-10.4258
▁نەمر	-10.4258
▁گۆرانیبێژ	-10.4258
▁سینەماکاری	-10.4262
▁سارد	-10.4265
▁شارەزایی	-10.4265
▁ناوەوەی	-10.4265
▁ئەمەریکای	-10.4273
▁تایبەتمەندی	-10.4273
▁...	-10.4276
▁بەوردی	-10.4276
▁دەستپێدەکات	-10.428
▁یەکان	-10.428
▁ناتوانم	-10.4284
▁ڕەشی	-10.4288
▁ئامۆژگاری	-10.4303
▁the	-10.4306
▁میدیاکانی	-10.4306
▁ولاتی	-10.431
▁وڵاتانە	-10.431
▁تۆی	-10.4318
▁بەباشی	-10.4321
▁قۆناغەکانی	-10.4321
▁هاواری	-10.4325
▁لەحکومەتی	-10.4329
▁گەیشتنە	-10.434
▁هاوسەنگی	-10.4344
▁مانگه	-10.4348
▁شە	-10.4355
▁کارەکان	-10.4355
▁کەسانێکی	-10.4359
▁بەرێوەچوو	-10.4363
▁مرۆڤێکی	-10.4363
▁بکەی	-10.437
▁بەرزبوونەوەی	-10.437
▁سەرانسەری	-10.437
▁فەرامۆش	-10.437
▁زیادی	-10.4374
▁پیشان	-10.4378
▁کردنیان	-10.4382
▁کوژرا	-10.4382
▁فەرەج	-10.4389
▁هەژمار	-10.4393
▁پەیمانگای	-10.4393
▁شەری	-10.4404
▁پار	-10.4404
▁ڕاهێنان	-10.4412
▁کەنداو	-10.4412
▁جیاوازەکان	-10.4416
▁دووری	-10.4416
▁بەڵگە	-10.4419
▁تاکەکان	-10.4419
▁پەروەردەو	-10.4427
▁گرنگیی	-10.4427
▁هاتنه	-10.4431
▁کۆنترۆڵ	-10.4431
▁دەڵێت:	-10.4435
▁قاعیدە	-10.4435
▁برِیاری	-10.4438
▁دەیەوێت	-10.4438
▁باو	-10.4442
▁نەخۆشخانە	-10.445
▁کۆتای	-10.445
▁یونس	-10.445
▁ئاماژەیە	-10.4457
▁شەشەم	-10.4461
▁بپارێزن	-10.4469
▁عەللاوی	-10.4473
▁مەسەلەکە	-10.4473
▁زانایان	-10.4476
▁قەیران	-10.4476
▁لەبەرچاو	-10.448
▁دەربڕین	-10.4484
▁دەرەوه	-10.4484
▁بەتوندی	-10.4488
▁پاشا	-10.4488
▁پرس	-10.4495
▁دەریای	-10.4499
▁دەکرێت،	-10.4499
▁گەنجی	-10.4499
▁ڕەتکردنەوەی	-10.4503
▁دەکەمەوە	-10.4511
▁یۆنان	-10.4511
▁لەبەرژەوەندی	-10.4515
▁داڕشتنی	-10.4518
▁پرۆژەیەکی	-10.4518
▁دۆخێکی	-10.4522
▁سەرۆکوەزیرانی	-10.4522
▁یارییەکە	-10.4526
▁دیاریکراوی	-10.4534
▁پێشەوەی	-10.4534
▁بهێنین	-10.4538
▁پۆلی	-10.4541
▁بەشداریان	-10.4545
▁خۆرئاوا	-10.4549
▁نەتەوەیەک	-10.4549
▁بگرێتەوە	-10.4557
▁بێن	-10.4557
▁بەرلین	-10.4557
▁لێم	-10.4564
▁ساڵیادی	-10.4568
▁نامەیەکی	-10.4568
▁تریشەوە	-10.4572
▁دەستدرێژی	-10.4572
▁خوازیاری	-10.4576
▁بژێوی	-10.458
▁سەباح	-10.4588
▁دیاردە	-10.4591
▁ژنێکی	-10.4591
▁خاڵەکانی	-10.4599
▁ئەمەیە	-10.4603
▁چینە	-10.4607
▁ئەکادیمی	-10.4618
▁خوێنەری	-10.4622
▁تابلۆ	-10.463
▁خەڵکدا	-10.463
▁وێستگەی	-10.463
▁کاتیشدا	-10.463
▁میوانی	-10.4634
▁چوونکە	-10.4638
▁تەئکیدی	-10.4649
▁لەگەڵیدا	-10.4649
▁دەردەچێت	-10.4653
▁شا	-10.4661
▁هێزێک	-10.4665
▁کارەساتە	-10.4665
▁کر	-10.4665
▁بەدەستەوە	-10.4669
▁نەوەکانی	-10.4669
▁کارەسات	-10.4669
▁شەهیدی	-10.4684
▁قەدەغەکردنی	-10.4684
▁کراوە،	-10.4684
▁کێشی	-10.4684
▁ئاراس	-10.4688
▁مافێکی	-10.4688
▁لەمەودوا	-10.4692
▁هەرکەسێک	-10.4692
▁گرنگەکانی	-10.4692
▁شەقامەکان	-10.4696
▁گوزارشت	-10.4696
▁گوزەرانی	-10.4696
▁لۆ	-10.4704
▁ڕەهەندی	-10.4704
▁ئیدانەی	-10.4708
▁بگیرێت	-10.4712
▁بینەر	-10.4712
▁نیازی	-10.4712
▁یاوەری	-10.4719
▁ئوردن	-10.4723
▁بەسە	-10.4727
▁کۆمیسیۆن	-10.4735
▁تایبەتیش	-10.4739
▁توندو	-10.4739
▁ڕووداوەکه	-10.4747
▁هاندانی	-10.4751
▁ئاراستە	-10.4755
▁بەلاَم	-10.4755
▁چیای	-10.4759
▁تەواوبوونی	-10.4766
▁دواوە	-10.4766
▁سوری	-10.4766
▁کلیـکـکردنی	-10.4766
▁دوابەدوای	-10.477
▁سوورە	-10.477
▁بەیاننامەی	-10.4774
▁شەرم	-10.4774
▁فەرمانبەران	-10.4774
▁باجی	-10.4782
▁بەپێچەوانەی	-10.4782
▁ڕوودانی	-10.4782
▁ئاسمانەکان	-10.479
▁نەتوانێت	-10.479
▁سامی	-10.4794
▁ڕابردو	-10.4794
▁لەدەستداوە	-10.4806
▁نییەکە	-10.4806
▁هۆیەوە	-10.4806
▁ئەوکاتەی	-10.481
▁دەستەبەر	-10.481
▁تیشک	-10.4814
▁نەناسراو	-10.4814
▁کۆمەڵانی	-10.4821
▁بچن	-10.4825
▁بەرێوەبەرایەتی	-10.4825
▁پڕە	-10.4833
▁بەرهەمهێنان	-10.4837
▁جوانترین	-10.4837
▁زوڵم	-10.4837
▁بارودۆخەکە	-10.4841
▁بکەمەوە	-10.4841
▁زنجیرە	-10.4841
▁خۆشەویست	-10.4845
▁دیکەوه	-10.4845
▁250	-10.4849
▁دەنگدانی	-10.4849
▁دەکاتەوه	-10.4849
▁لێدەکرێت	-10.4849
▁خۆیانی	-10.4857
▁گوێبیسـتی	-10.4857
▁شان	-10.4861
▁غاز	-10.4861
▁نامۆ	-10.4861
▁یەکیەتی	-10.4861
▁ئاوەدانی	-10.4865
▁دیموکراسی	-10.4865
▁بەچەند	-10.4869
▁فەڕەنسا	-10.4869
▁ژیانە	-10.4869
▁مەسعوود	-10.4881
▁منداڵێکی	-10.4885
▁وێران	-10.4885
▁فڕۆکەخانەی	-10.4893
▁کەلتووری	-10.4897
▁گۆرانیبێژی	-10.4901
▁ئەمریکادا	-10.4905
▁ئێزدی	-10.4913
▁دەکەنە	-10.4917
▁مانایەکی	-10.4917
▁بەڵکە	-10.4925
▁سالا	-10.4925
▁تێپەڕ	-10.4929
▁دەستم	-10.4929
▁لەوان	-10.4929
▁نەچێت	-10.4929
▁وانەی	-10.4929
▁وێت	-10.4929
▁چوارشەممه	-10.4929
▁گەرچی	-10.4929
▁گەورەیی	-10.4929
▁خەڵات	-10.4933
▁پڕۆژەیەکی	-10.4933
▁کۆمەڵه	-10.4933
▁بەسەرۆکایەتی	-10.4937
▁مەنسوور	-10.4937
▁بانگەواز	-10.4941
▁پرسیارێکی	-10.4952
▁پەلە	-10.4952
▁ئەوتۆ	-10.496
▁ئەکەم	-10.496
▁نەکەین	-10.496
▁بنێت	-10.4968
▁ئافرەتی	-10.4972
▁داخەوە	-10.4972
▁دەخوازێت	-10.4977
▁قەندیل	-10.4977
▁کێشه	-10.4985
▁پلانێکی	-10.4989
▁مەسەلەیەکی	-10.4993
▁پرۆسەیە	-10.4993
▁بنەمایەکی	-10.5001
▁ئاوات	-10.5005
▁جوانە	-10.5005
▁تاکێکی	-10.5009
▁دەستکەوتی	-10.5009
▁بردووە	-10.5013
▁خ	-10.5013
▁درامای	-10.5013
▁سەربازییەکانی	-10.5013
▁گەشتیاری	-10.5013
▁گەشەپێدان	-10.5013
▁دەهات	-10.5017
▁ساڵه	-10.5017
▁پارچه	-10.5021
▁ڕەوانه	-10.5025
▁لەهەوڵی	-10.5029
▁لەکاتێکدایە	-10.5033
▁شەخسی	-10.5041
▁ئۆتۆمبێلی	-10.5045
▁دواخستنی	-10.5049
▁کەرەستەی	-10.5049
▁ئەنجامداوە	-10.5053
▁ڕاهێنانی	-10.5053
▁ڕەفتار	-10.5053
▁سەرژمێری	-10.5057
▁چارەی	-10.5061
▁سوریادا	-10.5065
▁تاقی	-10.5069
▁نەوزاد	-10.5069
▁دۆزەخ	-10.5077
▁شـاری	-10.5077
▁تیۆری	-10.5085
▁لەپێش	-10.5085
▁دایەوە	-10.5089
▁لەژیانی	-10.5089
▁وەسف	-10.5089
▁بەغداو	-10.5093
▁عەبدولکەریم	-10.5097
▁ناوچەکەو	-10.5097
▁دەیکات	-10.5101
▁بەرە	-10.5106
▁مۆڵەت	-10.5106
▁سیمای	-10.511
▁کۆبوونەوەکانی	-10.511
▁ئاشکرایکرد	-10.5114
▁میکانیزمی	-10.5114
▁بنیات	-10.5118
▁قازانج	-10.5118
▁کردەوە،	-10.5126
▁بەهۆیەوە	-10.513
▁قسەو	-10.513
▁1999	-10.5138
▁مرۆڤێک	-10.5138
▁وەبەرهێنانی	-10.5138
▁بەمانای	-10.5142
▁ئۆتۆمبێلێکی	-10.5146
▁خدر	-10.5146
▁گوڵی	-10.5146
▁بەرنامەو	-10.5154
▁پرۆگرامی	-10.5154
▁تەماشا	-10.5167
▁بۆتان	-10.5175
▁ئاغا	-10.5179
▁بێبەش	-10.5179
▁میسی	-10.5179
▁دووپاتکردەوە	-10.5183
▁مارس	-10.5183
▁کۆمکاری	-10.5183
▁هێرشێکی	-10.5191
▁ماڵپەری	-10.5195
▁نوێژی	-10.5195
▁لەناوچە	-10.5203
▁بەلکو	-10.5208
▁ئەرێ	-10.5212
▁کەڵک	-10.5212
▁بانگەوازی	-10.5216
▁دیمەشق	-10.5216
▁بەهەشت	-10.5224
▁تیرۆریست	-10.5232
▁لەدیدارێکدا	-10.5232
▁کایەوە	-10.5232
▁پێکردووە	-10.5236
▁برِی	-10.5249
▁سەرمایە	-10.5249
▁ڕوونیکردەوە	-10.5249
▁بەئاشکرا	-10.5261
▁سیتی	-10.5261
▁سەردەمەدا	-10.5261
▁پزیشک	-10.5261
▁گفتوگۆکردن	-10.5261
▁بڕیارەی	-10.5269
▁ئیسرائیلی	-10.5273
▁هەڵوێستێکی	-10.5273
▁چوارچێوەیەدا	-10.5273
▁ئامادەن	-10.5277
▁دیکەیان	-10.5277
▁گوتن	-10.5277
▁کۆمپانیایەکی	-10.5282
▁مانگانە	-10.5286
▁ئاژەڵ	-10.529
▁لەسەرتاسەری	-10.529
▁شی	-10.5294
▁کێبڕکێی	-10.5294
▁هەموان	-10.5298
▁کۆچ	-10.5302
▁نزیکە	-10.5311
▁چاودێرانی	-10.5311
▁گرێبەستی	-10.5315
▁بەمشێوەیە	-10.5319
▁داود	-10.5323
▁زانکۆکانی	-10.5323
▁1992	-10.5327
▁فیدراسیۆنی	-10.5327
▁هاوسەرگیری	-10.5327
▁لەئاست	-10.5331
▁ناتوانرێت	-10.5331
▁هیدایەت	-10.5331
▁بردنەوەی	-10.5348
▁ئاکامدا	-10.5352
▁مندا	-10.5356
▁باڵیۆزخانەی	-10.536
▁نیشتەجێ	-10.536
▁ئەڵێت	-10.5365
▁کەناڵە	-10.5365
▁سیستمە	-10.5369
▁هەرێمەوە	-10.5369
▁ڕێکەوتنی	-10.5373
▁برِیار	-10.5377
▁سێشەممە	-10.5381
▁لەدەست	-10.5381
▁ڕەنگه	-10.5381
▁جودا	-10.5385
▁هەڵبژاردندا	-10.5385
▁سازدانی	-10.539
▁زەمینەی	-10.5394
▁سبەینێ	-10.5394
▁حساب	-10.5398
▁گرێ	-10.5398
▁بنەماڵە	-10.541
▁بگۆڕێت	-10.5415
▁حزبێکی	-10.5415
▁قورسایی	-10.5415
▁ڕاو	-10.5415
▁شەریف	-10.5419
▁بگەڕێنەوە	-10.5423
▁شوێنەکانی	-10.5423
▁دیمەنی	-10.5427
▁هەڵەبجەی	-10.5431
▁فەرمانبەر	-10.544
▁لیوای	-10.5444
▁مەزنی	-10.5444
▁چەکدارەکان	-10.5444
▁تێکۆشان	-10.5448
▁نرخ	-10.5452
▁گەلە	-10.5457
▁بریکاری	-10.5461
▁ڕۆژانه	-10.5461
▁یەکشەممه	-10.5461
▁چوارەمین	-10.5465
▁یەکشەممە	-10.5473
▁یەکەکانی	-10.5473
▁بەوەکرد	-10.5478
▁لەتورکیا	-10.5478
▁نائاسایی	-10.5482
▁تەواوەتی	-10.5486
▁دیواری	-10.5486
▁ڕووبەڕووبوونەوەی	-10.5486
▁کوتلە	-10.5486
▁بایز	-10.549
▁پێشێل	-10.5494
▁بنچینەی	-10.5507
▁کردوەو	-10.5507
▁بەرشەلۆنە	-10.5511
▁بەرپا	-10.5511
▁قۆناغەدا	-10.5511
▁لیستە	-10.5511
▁شەیتان	-10.5516
▁لەوەزارەتی	-10.5516
▁نەبونی	-10.5516
▁کاردەکات	-10.5516
▁قووڵی	-10.552
▁محەممەد	-10.552
▁سندوقی	-10.5524
▁سڤیل	-10.5524
▁ئەدەبیاتی	-10.5528
▁بەدڵنیاییەوە	-10.5528
▁جەمیل	-10.5528
▁لاو	-10.5528
▁پەخشی	-10.5528
▁نیشتیمان	-10.5533
▁هەڵوێستە	-10.5533
▁ژێرخانی	-10.5533
▁مێشکی	-10.5541
▁بەرژەوەندییە	-10.5545
▁کاندیدەکانی	-10.5545
▁باوەشی	-10.5558
▁بڵاوکردەوە	-10.5558
▁حکومەتدا	-10.5558
▁شارەکان	-10.5562
▁دەردەخات	-10.5566
▁هەرسێک	-10.5566
▁یۆلیۆ	-10.5566
▁بەرِێوه	-10.5575
▁گەلان	-10.5575
▁خێر	-10.5579
▁جۆرەکانی	-10.5583
▁وڵاتانەی	-10.5583
▁پیس	-10.5588
▁دروستکراوە	-10.5592
▁فێر	-10.5592
▁مەیدان	-10.5596
▁دڵنیایی	-10.5601
▁لەڕۆژی	-10.5601
▁خوایه	-10.5605
▁دانمارک	-10.5605
▁سیستمێکی	-10.5618
▁دووپاتی	-10.5622
▁دووەمیش	-10.5622
▁نیەو	-10.5622
▁گرتەوە	-10.5622
▁گوتەی	-10.5622
▁پەروەردەیی	-10.563
▁ڕووسی	-10.563
▁کرداری	-10.563
▁سەرکوت	-10.5635
▁ناوچانەی	-10.5635
▁چەپی	-10.5635
▁ڕوونکردەوە	-10.5635
▁بردەوە	-10.5639
▁شنگال	-10.5639
▁فریاکەوتنی	-10.5639
▁نوێژ	-10.5639
▁ئاوەدانکردنەوەی	-10.5643
▁چاپی	-10.5643
▁ئەمریکای	-10.5648
▁ترسناک	-10.5648
▁بنێن	-10.5652
▁قەرزی	-10.566
▁سوریاو	-10.5665
▁بەبڕوای	-10.5669
▁بەشەی	-10.5669
▁ان	-10.5673
▁بریار	-10.5682
▁بڵاوکراوەتەوە	-10.5682
▁مزگەوت	-10.5682
▁هەڵەیە	-10.5682
▁ڕاپرسی	-10.5682
▁بەکورتی	-10.5699
▁گواستنەوە	-10.5699
▁بیرم	-10.5703
▁یەکانی	-10.5703
▁دێرین	-10.5708
▁زەرد	-10.5708
▁بەخشی	-10.5712
▁دواییدا	-10.5712
▁پێشوازییکرد	-10.5712
▁خەڵکێکی	-10.5721
▁هۆکارە	-10.5738
▁ڕادەربڕین	-10.5738
▁ئەمشەو	-10.5747
▁حاڵەتە	-10.5751
▁سەرکردەیەکی	-10.5751
▁مانگەدا	-10.5751
▁نەمێنێت	-10.5751
▁جیهانە	-10.576
▁ڕاکێشانی	-10.5764
▁ئەوتۆی	-10.5768
▁بوونەتەوە	-10.5768
▁تاریکی	-10.5768
▁نووسیوە	-10.5768
▁ئوسترالیا	-10.5773
▁تارق	-10.5777
▁سالی	-10.5777
▁سنوورەکانی	-10.5777
▁گەلێ	-10.5777
▁سیاسییەوە	-10.579
▁سزادانی	-10.5794
▁دەرباز	-10.5803
▁دەقە	-10.5803
▁سەلیم	-10.5803
▁ێ	-10.5803
▁دزەیی	-10.5812
▁کوا	-10.5816
▁قۆناغ	-10.582
▁لایان	-10.582
▁مزگەوتی	-10.5825
▁لەدەستدانی	-10.5829
▁لەوەتەی	-10.5829
▁ئەنجامدرا	-10.5834
▁ئەکرێت	-10.5834
▁چارەنوسی	-10.5834
▁پەنای	-10.5838
▁ماددی	-10.5842
▁بەیان	-10.5847
▁درەنگ	-10.5847
▁هونەرمەندە	-10.5847
▁پارێزراو	-10.5847
▁هاشم	-10.5851
▁تورکیاوە	-10.5855
▁بەدەستهێناوە	-10.586
▁خوار	-10.586
▁دەسەڵاتدا	-10.586
▁چاکە	-10.586
▁کەش	-10.586
▁دەرمانی	-10.5864
▁ماوەیەکە	-10.5864
▁نەریتی	-10.5864
▁Kurdistan	-10.5868
▁ئاکۆ	-10.5873
▁نووسیندا	-10.5873
▁لەکۆی	-10.5877
▁ڕوویداوە	-10.5877
▁گران	-10.5877
▁دەسەڵاتدار	-10.5882
▁نەکردوە	-10.5882
▁وەرە	-10.5882
▁دەبم	-10.5886
▁دەستنیشانکردنی	-10.5886
▁لاوە	-10.589
▁گرفتەکانی	-10.589
▁خە	-10.5895
▁نەتەوەو	-10.5895
▁یارییەکان	-10.5895
▁بەڕووی	-10.5899
▁تەواوکردنی	-10.5904
▁ئەندامان	-10.5908
▁هاتووچۆ	-10.5917
▁کارا	-10.5917
▁بڕینی	-10.5921
▁بەخشینی	-10.5921
▁سێشەممه	-10.5921
▁لەدەستی	-10.593
▁کارمەندی	-10.593
▁بووەتەوە	-10.5934
▁جاف	-10.5934
▁میوان	-10.5934
▁کلتوری	-10.5934
▁جۆرێکی	-10.5939
▁داهێنانی	-10.5939
▁تاقیکردنەوەی	-10.5943
▁سۆزی	-10.5948
▁ئازادیخواز	-10.5952
▁خاڵ،	-10.5956
▁لەلێدوانێکی	-10.5956
▁ئیران	-10.5961
▁بەرهەمێکی	-10.5974
▁گرنگتر	-10.5979
▁ئیسلامدا	-10.5992
▁ئەزمونی	-10.5992
▁ئەورووپا	-10.5992
▁شکاندنی	-10.5996
▁وشک	-10.5996
▁کاریگەرییەکی	-10.6001
▁یەکێکه	-10.6001
▁تواناکانی	-10.601
▁هیندستان	-10.6014
▁شێوەیەی	-10.6019
▁ڕۆح	-10.6023
▁لەشی	-10.6027
▁چۆڵ	-10.6032
▁ئیمارات	-10.6036
▁خەریک	-10.6036
▁ملی	-10.6036
▁هەڵەیەکی	-10.6041
▁سوودێکی	-10.605
▁حەرام	-10.6054
▁سەلامەتی	-10.6063
▁چۆنە	-10.6072
▁دەیکەن	-10.6077
▁ئەدەن	-10.6085
▁بەفر	-10.609
▁دارا	-10.609
▁جۆراوجۆری	-10.6094
▁ڕووبەری	-10.6094
▁ئاواز	-10.6099
▁ماڵەکەی	-10.6099
▁پێشێلکردنی	-10.6099
▁to	-10.6103
▁ئەوقاف	-10.6103
▁بانگی	-10.6103
▁تاوانباران	-10.6103
▁ستافی	-10.6103
▁ڕاستیە	-10.6103
▁سوڵتان	-10.6108
▁پێداویستییەکانی	-10.6108
▁ئەوەدا	-10.6112
▁قەدەغە	-10.6112
▁کوردن	-10.6112
▁دەکردو	-10.6117
▁لیژنە	-10.6117
▁کارەکەی	-10.6117
▁تاکوو	-10.6121
▁ناوەڕاستدا	-10.6121
▁دەستمان	-10.6126
▁نیوز	-10.6126
▁ولە	-10.6126
▁پارەیە	-10.6126
▁زووتر	-10.613
▁ئاڵا	-10.6135
▁بۆمبێکی	-10.6139
▁جل	-10.6139
▁مێژوویەکی	-10.6139
▁سەرچاوەکەی	-10.6144
▁نانی	-10.6153
▁نووسیویەتی	-10.6153
▁لەپشت	-10.6157
▁شەپۆلی	-10.6162
▁چە	-10.6162
▁کوژراو	-10.6162
▁بارە	-10.6166
▁حەقیقەت	-10.6166
▁شەماڵ	-10.6166
▁گرینگی	-10.6175
▁شارەزای	-10.618
▁فەرەیدون	-10.618
▁لایە	-10.618
▁پێست	-10.6184
▁65	-10.6189
▁لیست	-10.6189
▁لەمیانی	-10.6189
▁تاکه	-10.6193
▁خان	-10.6193
▁خانەوادەی	-10.6193
▁بپارێزێت	-10.6198
▁بگەنە	-10.6198
▁پەردەی	-10.6198
▁پێدەکرێت	-10.6212
▁باسکردنی	-10.6216
▁شاره	-10.6216
▁زانیارییەکان	-10.6225
▁دەنگێکی	-10.6234
▁بۆچوون	-10.6243
▁زۆرمان	-10.6243
▁ناچێت	-10.6243
▁ڕووداوەکە	-10.6243
▁فراوانتر	-10.6248
▁بەفەرمی	-10.6257
▁دەخەنە	-10.6257
▁سەفەر	-10.6257
▁پارچەکانی	-10.6262
▁جیهانیدا	-10.6266
▁لەدرێژەی	-10.6271
▁ئەودا	-10.628
▁بەهێزتر	-10.628
▁ناچاری	-10.628
▁پێدراوە	-10.628
▁"ئاژانسی	-10.6284
▁بۆت	-10.6284
▁باهۆز	-10.6294
▁لەکار	-10.6294
▁ئاڵوگۆڕی	-10.6298
▁ئایە	-10.6298
▁نەرم	-10.6303
▁هێدی	-10.6303
▁حزبەکانی	-10.6307
▁بڕێکی	-10.6316
▁بەرەنگاری	-10.6316
▁نەیانتوانی	-10.6316
▁نیمچە	-10.6321
▁پەشیمان	-10.6321
▁دانیشتن	-10.6326
▁هاتووە،	-10.6326
▁قیامەت	-10.633
▁وانە	-10.633
▁کۆمەکی	-10.633
▁ئەڵماس	-10.6335
▁هاوچەرخ	-10.6335
▁لەبار	-10.6339
▁یارمەتیدانی	-10.6339
▁ئایندەدا	-10.6344
▁فایەق	-10.6344
▁هێزانە	-10.6344
▁دامەزراوەی	-10.6349
▁هاوکاریکردنی	-10.6349
▁گاز	-10.6349
▁ئایندەیەکی	-10.6358
▁مرۆڤدا	-10.6358
▁وتارێکی	-10.6358
▁ناتوانیت	-10.6362
▁هاوسەرەکەی	-10.6362
▁بڕێک	-10.6372
▁دوبارە	-10.6372
▁پێشینەی	-10.6372
▁دەبا	-10.6376
▁پارتیی	-10.6376
▁دروستکرد	-10.6385
▁سەرشانی	-10.6385
▁جەستەیی	-10.639
▁سێیەمین	-10.639
▁سود	-10.6404
▁ماڵئاوایی	-10.6404
▁ساڵیدا	-10.6408
▁اللّ	-10.6413
▁بەوپەڕی	-10.6413
▁ئافرەتێک	-10.6418
▁دەداتەوە	-10.6418
▁ناخۆش	-10.6418
▁تاڵیبان	-10.6427
▁سەرجەمی	-10.6432
▁پرسێکی	-10.6432
▁بەتەواوەتی	-10.6436
▁بەرشلۆنه	-10.6436
▁فەراهەم	-10.6441
▁پیر	-10.6441
▁بینیمان	-10.6445
▁هەرێمیش	-10.645
▁پەڕی	-10.645
▁ئۆگۆست	-10.6459
▁لێبوردن	-10.6464
▁جیهانیی	-10.6469
▁منە	-10.6469
▁هەموارکردنی	-10.6469
▁ئەواندا	-10.6473
▁بیانووی	-10.6473
▁زریان	-10.6473
▁ئاژانسا	-10.6478
▁تەوەری	-10.6478
▁داواکارین	-10.6478
▁سەنگەر	-10.6478
▁نابێتەوە	-10.6478
▁پشتیوانیی	-10.6483
▁خۆزگە	-10.6487
▁لیژنەیەک	-10.6487
▁بەرن	-10.6492
▁ناوەندە	-10.6492
▁کارگەی	-10.6492
▁نەکرا	-10.6501
▁سەرپێچی	-10.6506
▁نەدات	-10.6506
▁پەنابەری	-10.6506
▁بریتانیا	-10.6511
▁تۆماری	-10.6511
▁بهێنرێت	-10.6515
▁کۆبوونەوەکەدا	-10.6515
▁برایانی	-10.6529
▁هەڵسوکەوتی	-10.6529
▁هانا	-10.6534
▁600	-10.6539
▁هاتیه	-10.6539
▁کوردسـتان	-10.6539
▁لاپەڕە	-10.6543
▁خۆشگوزەرانی	-10.6557
▁زانینی	-10.6557
▁عەرەبە	-10.6557
▁یاد	-10.6557
▁ساڵان	-10.6562
▁نەبوە	-10.6562
▁تەوافوق	-10.6567
▁هەڵسوکەوت	-10.6567
▁یەکڕیزی	-10.6567
▁ئەستێرەی	-10.6572
▁بینین	-10.6572
▁هەڵەبجه	-10.6572
▁پسپۆڕی	-10.6572
▁ڕەچاوی	-10.6572
▁دەرهەق	-10.6576
▁دەستکاری	-10.6576
▁سەرووی	-10.6576
▁2001	-10.6586
▁باشیان	-10.6586
▁شوانی	-10.659
▁لەهەڵبژاردنی	-10.659
▁وێرای	-10.659
▁کراوەو[	-10.659
▁وایکرد	-10.6595
▁بێکەس	-10.66
▁عێراقیان	-10.66
▁بگەیەنێت	-10.6605
▁لەهۆڵی	-10.6605
▁ملکەچی	-10.6605
▁تەبایی	-10.6609
▁بەرنامه	-10.6614
▁نایابەکانی	-10.6614
▁هێرشە	-10.6614
▁چواری	-10.6614
▁شوباتی	-10.6619
▁نێودەوڵەتییەکان	-10.6619
▁ڕوونیشیکردەوە	-10.6619
▁"له	-10.6623
▁قووڵ	-10.6623
▁کرابێت	-10.6623
▁کیمیاوی	-10.6628
▁گشتییەکان	-10.6628
▁جددی	-10.6633
▁مادام	-10.6633
▁بۆمبی	-10.6638
▁دادەنێن	-10.6642
▁پەیامێکی	-10.6642
▁برِیاره	-10.6647
▁خزمەتگوزاریی	-10.6647
▁دووی	-10.6647
▁نیوەڕۆی	-10.6647
▁ئەوەم	-10.6652
▁عەرەبەکان	-10.6657
▁لەچاو	-10.6657
▁مانایە	-10.6657
▁پاشماوەی	-10.6657
▁هزر	-10.6661
▁پڕۆژەکان	-10.6661
▁ئاوارەکانی	-10.6666
▁نەدەن	-10.6666
▁گرینگ	-10.6666
▁لەشوێنی	-10.6671
▁ئێک	-10.6675
▁گەشت	-10.6675
▁160	-10.668
▁بارەوە	-10.668
▁ناخۆشی	-10.6685
▁بزانم	-10.669
▁شیاو	-10.669
▁لەگەلا	-10.669
▁ڕووت	-10.669
▁بانگ	-10.6699
▁داواکارییەکانی	-10.6699
▁سەرە	-10.6699
▁نەخۆشیی	-10.6699
▁پەنجەی	-10.6699
▁منداڵەکانیان	-10.6704
▁دێته	-10.6709
▁خانەنشینی	-10.6714
▁گەلێکی	-10.6714
▁ستراتیژیی	-10.6718
▁خەو	-10.6723
▁ئێرانەوە	-10.6728
▁نایەوێت	-10.6733
▁پشتیوان	-10.6733
▁کۆمەڵایەتییەکان	-10.6733
▁بەرفراوان	-10.6737
▁موحسین	-10.6737
▁برینداری	-10.6742
▁شێعرەکانی	-10.6742
▁پێشوی	-10.6747
▁کونسوڵی	-10.6747
▁هەریەکەیان	-10.6752
▁بەستن	-10.6761
▁کەسانه	-10.6761
▁گرووپە	-10.6766
▁خێزانەکەی	-10.6771
▁یارییە	-10.6771
▁ئەمەیان	-10.6776
▁جەوهەر	-10.6776
▁پیشەی	-10.6776
▁بۆشایی	-10.6781
▁دیدارەدا	-10.6785
▁شێرزاد	-10.6785
▁شەرعی	-10.6785
▁لەهەندێک	-10.6785
▁دەمێکە	-10.679
▁وازی	-10.679
▁کردوه	-10.679
▁ئەندامەکانی	-10.6795
▁سوننەکان	-10.6795
▁نیگەران	-10.6795
▁The	-10.68
▁ئەمەریکا،	-10.6805
▁تۆن	-10.6814
▁پیادە	-10.6814
▁کرا،	-10.6814
▁قاعیده	-10.6819
▁ئیمام	-10.6824
▁تۆڵەی	-10.6824
▁سۆز	-10.6824
▁تیرۆریستانی	-10.6829
▁بەرپرسان	-10.6833
▁کرانەوەی	-10.6833
▁جەژن	-10.6838
▁دەربڕی	-10.6843
▁سڵاو	-10.6843
▁بەمجۆرە	-10.6848
▁هەبوە	-10.6848
▁ژنانە	-10.6848
▁لەیەکەم	-10.6858
▁بەپەلە	-10.6862
▁شەوە	-10.6862
▁هێمای	-10.6862
▁کۆمپانیاکان	-10.6862
▁لەوڵاتانی	-10.6867
▁پێوەری	-10.6867
▁سەدا	-10.6872
▁فڕۆکەی	-10.6872
▁مێژوی	-10.6872
▁کەسه	-10.6872
▁بەراستی	-10.6877
▁بیروڕا	-10.6882
▁دەدرێن	-10.6882
▁ماچ	-10.6882
▁بکرێنەوە	-10.6887
▁ناسراوی	-10.6887
▁گرفتە	-10.6887
▁دەستگیرکران	-10.6891
▁لەرێگای	-10.6891
▁نوسین	-10.6891
▁هەستم	-10.6891
▁هەوڵێک	-10.6891
▁دیکتاتۆر	-10.6896
▁ئێمەیە	-10.6901
▁شین	-10.6901
▁داوەتە	-10.6906
▁نەهاتووە	-10.6906
▁گیراوە	-10.6906
▁کاتەوە	-10.6911
▁عەبادی	-10.6916
▁ڕۆیتەرز	-10.6921
▁دواییەی	-10.6926
▁مێژوودا	-10.6926
▁مل	-10.693
▁بزووتنەوە	-10.6935
▁داوامان	-10.6935
▁خوێندەوە	-10.694
▁دەنگدەران	-10.694
▁گەنجە	-10.694
▁2002	-10.6945
▁تەسلیم	-10.695
▁نادرێت	-10.695
▁قسەیان	-10.6955
▁پر	-10.6955
▁گەیاندە	-10.6955
▁ئیجابی	-10.696
▁بار	-10.696
▁هەفتەیەک	-10.696
▁هەوا	-10.696
▁ڕەحمەتی	-10.696
▁بەهار	-10.6965
▁لەخولی	-10.6965
▁مێژووە	-10.6965
▁دیکۆمێنتی	-10.6969
▁ناسینی	-10.6969
▁هاوولاتیانی	-10.6969
▁ئەڵێن	-10.6974
▁تورکمانی	-10.6974
▁خەڵکەوە	-10.6974
▁وەلامی	-10.6979
▁تێپەڕبوونی	-10.6984
▁کچێک	-10.6989
▁سلێمانی،	-10.6994
▁هێرۆ	-10.6994
▁تاریک	-10.6999
▁ڕوکن	-10.7004
▁خەڵکەکەی	-10.7009
▁داواشی	-10.7009
▁نەیانتوانیوە	-10.7009
▁پڕۆژه	-10.7014
▁in	-10.7028
▁دامودەزگاکانی	-10.7028
▁ڕێگر	-10.7028
▁داوەو	-10.7033
▁بڕوانە	-10.7038
▁وێنەگرتنی	-10.7038
▁لێبوردنی	-10.7043
▁وەسفکرد	-10.7043
▁تۆم	-10.7053
▁خۆشبەختانە	-10.7053
▁سووری	-10.7053
▁عێڕاق	-10.7053
▁بڕیاردان	-10.7058
▁دەگاته	-10.7058
▁شەممەی	-10.7058
▁فاکتەری	-10.7058
▁پێشنیار	-10.7058
▁هەنووکە	-10.7068
▁کایەی	-10.7073
▁کێشانە	-10.7073
▁پەیکەری	-10.7078
▁مێ	-10.7083
▁ڕەتکردەوە	-10.7083
▁خۆپیشاندانەکانی	-10.7087
▁هاوپەیمانان	-10.7087
▁یانەکە	-10.7087
▁سواری	-10.7092
▁مانچستەر	-10.7092
▁پەراوێز	-10.7092
▁سەعدی	-10.7097
▁قازی	-10.7097
▁هەنگاوێک	-10.7097
▁بەتاڵ	-10.7102
▁حاڵەتێکی	-10.7102
▁خستنە	-10.7102
▁ڕەحیم	-10.7102
▁تەئکید	-10.7107
▁گۆی	-10.7107
▁ەُ	-10.7107
▁کتێبێکی	-10.7112
▁دانوستان	-10.7117
▁دەیانەوێت	-10.7117
▁شوێنەواری	-10.7117
▁پارەیەکی	-10.7117
▁پێکەوه	-10.7117
▁ڕەسەنی	-10.7122
▁بڕیارەکەی	-10.7127
▁هاتبوو	-10.7127
▁کرێی	-10.7127
▁جەولەی	-10.7132
▁جێبەجێکردنەوە	-10.7137
▁پڕۆژەکانی	-10.7137
▁ئاستە	-10.7142
▁لەکاری	-10.7147
▁ڕۆژنامەوان	-10.7147
▁بۆیەش	-10.7152
▁خشتەی	-10.7157
▁شارەزایانی	-10.7162
▁ناوبانگی	-10.7162
▁ئاماژەشی	-10.7172
▁پارلەمانی	-10.7177
▁بوارەکاندا	-10.7182
▁بۆچوونە	-10.7182
▁حزبەکەی	-10.7187
▁بڕگەی	-10.7192
▁بڕیارێک	-10.7192
▁خولەکەکانی	-10.7197
▁ناوخۆو	-10.7197
▁ڕووباری	-10.7202
▁مەترسیدار	-10.7212
▁دگەل	-10.7217
▁بەشداربوون	-10.7222
▁سێی	-10.7227
▁بنکەکانی	-10.7232
▁ناوێت	-10.7232
▁چەقی	-10.7232
▁لێدەکەن	-10.7237
▁لەسوریا	-10.7237
▁پەیام	-10.7237
▁ویژدانی	-10.7242
▁ڕێگرتن	-10.7242
▁دەڵێیت	-10.7247
▁ڕیز	-10.7252
▁تەلاری	-10.7257
▁کۆسپ	-10.7257
▁کێیە	-10.7257
▁سەپتەمبەر	-10.7267
▁پێشانگایەکی	-10.7267
▁مامە	-10.7272
▁کۆمسیۆنی	-10.7272
▁ئێستاکە	-10.7277
▁نووسی	-10.7277
▁نازانین	-10.7287
▁ئێمەیان	-10.7292
▁شادی	-10.7292
▁لەنزیک	-10.7292
▁ئەمیر	-10.7297
▁بەچاوی	-10.7297
▁هێنایە	-10.7297
▁چارە	-10.7297
▁2015	-10.7303
▁بووی	-10.7303
▁دابەزینی	-10.7308
▁دەرگا	-10.7308
▁عاشقی	-10.7308
▁مافەکانیان	-10.7308
▁لەکۆبوونەوەکەدا	-10.7313
▁نێر	-10.7313
▁گوێم	-10.7313
▁هونەرە	-10.7318
▁ئامادەبووان	-10.7323
▁لێدوانێکیدا	-10.7323
▁دەستەڵاتی	-10.7328
▁لەزۆر	-10.7328
▁کێشەیەک	-10.7333
▁ڕێبەرانی	-10.7338
▁بان	-10.7343
▁بەئاوێنەنیوزی	-10.7343
▁خوازراو	-10.7343
▁نیسانی	-10.7343
▁بپرسین	-10.7348
▁تاد	-10.7348
▁خۆماڵی	-10.7348
▁نابێتە	-10.7348
▁هاریکاری	-10.7348
▁ئۆسکار	-10.7353
▁پرۆژەکانی	-10.7353
▁خاوەنەکەی	-10.7358
▁ڕۆڵە	-10.7358
▁سەرئەنجام	-10.7363
▁کارگێری	-10.7363
▁پێشکەشکرد	-10.7368
▁پێکەنین	-10.7374
▁تەمەنیان	-10.7379
▁دانیشتوان	-10.7379
▁هەواڵە	-10.7379
▁ڕاستییەکان	-10.7379
▁خۆیانە	-10.7384
▁گۆشتی	-10.7384
▁)،	-10.7389
▁نەتەوەکەمان	-10.7389
▁بڕیاردرا	-10.7394
▁سەروەریی	-10.7394
▁ئەحمەد/	-10.7399
▁چاوم	-10.7399
▁کا	-10.7399
▁ئەوجا	-10.7404
▁ئەڵێ	-10.7409
▁تواناو	-10.7409
▁تێر	-10.7409
▁ڕۆژه	-10.7409
▁ئیسلامییە	-10.7414
▁شوناسی	-10.742
▁منداڵەکانی	-10.742
▁ترو	-10.7425
▁فەرمووی	-10.7425
▁بنکەیەکی	-10.743
▁لاپەڕەی	-10.743
▁دەکەوێتەوە	-10.7435
▁پەروەردگار	-10.7435
▁دانە	-10.744
▁منەوە	-10.744
▁زۆرەوە	-10.7445
▁سودی	-10.7445
▁عەسکەری	-10.7445
▁حەکیم	-10.745
▁دەرونی	-10.745
▁ناشیرین	-10.745
▁ئاڵۆز	-10.7455
▁ئۆفیسی	-10.7455
▁شیکردنەوەی	-10.7455
▁خودای	-10.746
▁ساڵەدا	-10.746
▁فیستیڤاڵ	-10.746
▁فیلمەکە	-10.746
▁کۆمەڵگەدا	-10.746
▁میهرەبان	-10.7466
▁نیویۆرک	-10.7466
▁یەکدا	-10.7481
▁D	-10.7486
▁ئاسۆی	-10.7486
▁لێدوانەکەیدا	-10.7486
▁کوردا	-10.7497
▁ئەدا	-10.7502
▁باوە	-10.7502
▁بۆندی	-10.7502
▁جینۆسایدی	-10.7507
▁قوربانیان	-10.7507
▁لانیکەم	-10.7507
▁کۆیلە	-10.7507
▁بەرِێوەبەری	-10.7512
▁بەڕێزان	-10.7512
▁ئوسامە	-10.7517
▁دەرفەت	-10.7517
▁نەتەوەیەکی	-10.7522
▁کۆڕ	-10.7522
▁کۆمەڵگایە	-10.7527
▁لەوەشکرد	-10.7533
▁جەنگە	-10.7543
▁خانم	-10.7543
▁پێچەوانە	-10.7543
▁ئەمیش	-10.7553
▁عن	-10.7553
▁فەزای	-10.7553
▁کەمپینی	-10.7553
▁قەرەداغی	-10.7559
▁کوڕەکەی	-10.7559
▁کۆمەڵگەیەکی	-10.7564
▁سەفەری	-10.7569
▁نکۆڵی	-10.7569
▁هەوڵەکان	-10.7569
▁پیرە	-10.7569
▁یاساکان	-10.7569
▁جوانەکانی	-10.7574
▁لەسنوری	-10.7574
▁لەکۆتاییدا	-10.7574
▁کەشتی	-10.7574
▁کوردییە	-10.7579
▁گرتبوو	-10.7579
▁دیوی	-10.759
▁دەیگوت	-10.759
▁پێشی	-10.7595
▁زۆرو	-10.76
▁ئاشکراکردنی	-10.7605
▁ئاوازی	-10.7605
▁دۆستایەتی	-10.7605
▁چارەسەرێکی	-10.7605
▁سەرچاوه	-10.7611
▁شوێنەی	-10.7611
▁کۆمەڵکوژی	-10.7611
▁بانگهێشت	-10.7616
▁ڕابەری	-10.7616
▁ڕێوڕەسمی	-10.7616
▁خانووی	-10.7621
▁زاراوەی	-10.7621
▁هەوڵە	-10.7631
▁لەهەردوو	-10.7637
▁ئاوارەی	-10.7642
▁پارێزگار	-10.7642
▁پێویستیی	-10.7642
▁داعشەوە	-10.7647
▁پاشەکشەی	-10.7647
▁سلێمانیدا	-10.7652
▁سەندیکا	-10.7658
▁میانی	-10.7658
▁دەستکەوت	-10.7663
▁مەرجەکانی	-10.7663
▁پەیوەندیان	-10.7668
▁یەکەم/	-10.7668
▁بەناوبانگی	-10.7679
▁zwnj	-10.7689
▁ئەندازیاری	-10.7689
▁دیالۆگی	-10.7689
▁ئازادیخوازی	-10.7694
▁خوایە	-10.7694
▁لەکۆنگرەیەکی	-10.7694
▁کەئێستا	-10.7694
▁تەن	-10.77
▁بدە	-10.7705
▁ڕێکخراوه	-10.7705
▁دەبەستێت	-10.771
▁سان	-10.771
▁شۆرشی	-10.771
▁لێپرسراوانی	-10.771
▁زەردەشت	-10.7715
▁داواکاریی	-10.7721
▁پارێزەر	-10.7721
▁کوردەواری	-10.7721
▁ناوەوە	-10.7726
▁هەرەس	-10.7726
▁پتەو	-10.7731
▁ڕەوشەنبیری	-10.7731
▁ئەمریکاوە	-10.7736
▁لێدوان	-10.7736
▁گریان	-10.7736
▁خوێناوی	-10.7742
▁قورئانی	-10.7747
▁هەفتەیەدا	-10.7747
▁یەکگرتنەوەی	-10.7747
▁ئەزموونە	-10.7758
▁تەقینەوە	-10.7758
▁قەرەبووی	-10.7758
▁ئەنجامێکی	-10.7763
▁خۆپیشاندانەکان	-10.7763
▁دووەمیان	-10.7768
▁نەمان	-10.7768
▁ڕەواکانی	-10.7768
▁کۆبوونەوەیەدا	-10.7768
▁قادری	-10.7774
▁000	-10.7779
▁دواین	-10.7779
▁سەرلەبەیانی	-10.7779
▁ئەندامەی	-10.7784
▁باوەڕتان	-10.7784
▁دەوروبەر	-10.7784
▁لەهەرێم	-10.7784
▁پردی	-10.7784
▁کوبانێ	-10.7784
▁أن	-10.7789
▁بەهەشتی	-10.7789
▁سڕینەوەی	-10.7789
▁ماونەتەوە	-10.7789
▁کەسێتی	-10.7789
▁هەندرێن	-10.7795
▁کۆنترۆڵکردنی	-10.7795
▁کەسایەتییەکی	-10.7795
▁دەدوێت	-10.78
▁دەربچێت	-10.7805
▁کرماشان	-10.7805
▁کۆمەڵەکانیش	-10.7805
▁120	-10.7811
▁دیمانە	-10.7811
▁دەرچووی	-10.7811
▁سازکرد	-10.7811
▁کێش	-10.7811
▁یارییەکەی	-10.7811
▁ئەفسەری	-10.7816
▁بوار	-10.7816
▁بەخۆوە	-10.7816
▁زانستە	-10.7816
▁ئەستەمە	-10.7821
▁توێژە	-10.7821
▁دابنێن	-10.7821
▁سیروانی	-10.7821
▁تازه	-10.7827
▁کوری	-10.7832
▁شای	-10.7837
▁میدیاکان	-10.7837
▁هەمیش	-10.7837
▁پارچەی	-10.7837
▁بابەتەکە	-10.7843
▁شاد	-10.7843
▁شتانە	-10.7843
▁شێعردا	-10.7843
▁لەنزیکەوە	-10.7843
▁هەناردەکردنی	-10.7843
▁یۆنیۆ	-10.7843
▁نەجەف	-10.7853
▁پەرەسەندنی	-10.7853
▁ڕۆڵەکانی	-10.7853
▁هۆکارەکەی	-10.7864
▁ئێستایش	-10.7869
▁ئەمجارەیان	-10.7869
▁شیاوی	-10.7869
▁کردی	-10.7869
▁A	-10.7875
▁دووەمدا	-10.7875
▁دێتەوە	-10.7875
▁قەرەبوو	-10.7875
▁لێدوانەکەی	-10.7875
▁تاقە	-10.788
▁دەرەوەو	-10.788
▁نیوە	-10.7885
▁هێمنی	-10.7885
▁خرایە	-10.7891
▁مەحاڵە	-10.7891
▁کتێبخانەی	-10.7891
▁لەزۆربەی	-10.7896
▁پاشەکشە	-10.7896
▁یەکدی	-10.7902
▁بەسەریاندا	-10.7907
▁ڕێکەوتن	-10.7907
▁ئەوروپادا	-10.7912
▁بەدوو	-10.7912
▁هەڵبژارد	-10.7912
▁جارێکیتر	-10.7923
▁لەپەرلەمان	-10.7923
▁لەیەکتر	-10.7923
▁چون	-10.7923
▁بەرزنجەیی	-10.7928
▁تاچەند	-10.7928
▁زۆرم	-10.7928
▁لەداهاتوودا	-10.7928
▁دایه	-10.7934
▁سەرمایەی	-10.7934
▁شەرعییەتی	-10.7934
▁نارد	-10.7934
▁هەرکەس	-10.7934
▁خواردنەوەی	-10.7939
▁ئەزموونێکی	-10.7945
▁بەرامبەردا	-10.7945
▁هەردو	-10.7945
▁کارنامەی	-10.7945
▁خێزانە	-10.795
▁تاڕادەیەک	-10.7955
▁خواردنەوە	-10.7955
▁وتار	-10.7955
▁بزاڤی	-10.7961
▁ناوەراست	-10.7961
▁ئەنجامە	-10.7966
▁قوبادی	-10.7972
▁کارانە	-10.7977
▁بەگ	-10.7982
▁شارۆچکەکانی	-10.7982
▁مورسی	-10.7982
▁ڕاگەهاند	-10.7982
▁جیاجیا	-10.7988
▁خۆرئاوای	-10.7988
▁شەرەف	-10.7988
▁فراوانکردنی	-10.7988
▁بڕین	-10.7993
▁داواکراو	-10.7993
▁بەرزترین	-10.7999
▁جیاوازن	-10.7999
▁دیدار	-10.7999
▁نوی	-10.7999
▁ڕۆژهەلاتی	-10.7999
▁دراو	-10.8004
▁موقتەدا	-10.8004
▁مەراسیمی	-10.8004
▁پاڵەوانەکانی	-10.8004
▁سۆڤیەت	-10.8009
▁سەرکەوتنێکی	-10.8009
▁چەمکە	-10.8009
▁ئێرانیش	-10.8015
▁لەبەرامبەریشدا	-10.8015
▁بەهێزە	-10.802
▁شەست	-10.802
▁شەشەمی	-10.802
▁خەڵکیش	-10.8026
▁لەمە	-10.8026
▁نەخشە	-10.8026
▁بیروڕای	-10.8031
▁بەڵگەو	-10.8037
▁توێژینەوە	-10.8037
▁دەرئەنجامەکانی	-10.8037
▁نووسەرە	-10.8037
▁باخچەی	-10.8042
▁ڕێگایەکی	-10.8042
▁ئازادییە	-10.8048
▁بەرنامەکانی	-10.8048
▁خوا،	-10.8048
▁شۆرش	-10.8048
▁مۆر	-10.8048
▁وتویەتی	-10.8048
▁ئاشکرایکرد،	-10.8053
▁ئافرەتێکی	-10.8053
▁جلی	-10.8053
▁دیاریکراوە	-10.8053
▁عەلاوی	-10.8053
▁لەلێدوانێکدا	-10.8053
▁ڕێکخراوەیی	-10.8053
▁ئەرێنی	-10.8058
▁بەپلەی	-10.8058
▁داب	-10.8058
▁نیشاندانی	-10.8058
▁مۆسکۆ	-10.8069
▁سەرەک	-10.8086
▁شام	-10.8086
▁ڕەها	-10.8086
▁چێژ	-10.8091
▁ژیر	-10.8091
▁کۆنتڕۆڵی	-10.8091
▁نالین	-10.8097
▁پێکدێت	-10.8097
▁گرژی	-10.8097
▁ببەن	-10.8102
▁بەرژەوەندیەکانی	-10.8102
▁نەیارانی	-10.8102
▁بەندەکانی	-10.8108
▁کوتله	-10.8108
▁ساتێک	-10.8113
▁سەرەوەی	-10.8113
▁ناکەوێت	-10.8113
▁کڕین	-10.8113
▁گەنجێک	-10.8113
▁ئاگا	-10.8119
▁بۆردومانی	-10.8119
▁بێگانە	-10.8119
▁مەرکەزی	-10.8119
▁جەهانگیری	-10.8135
▁پۆل	-10.8135
▁کردین	-10.8135
▁حەماس	-10.8141
▁ئابی	-10.8146
▁بۆته	-10.8146
▁کلتووری	-10.8146
▁ئامادەبوون	-10.8152
▁موچە	-10.8152
▁85	-10.8157
▁نازو	-10.8157
▁نموونەیەکی	-10.8157
▁کێن	-10.8157
▁کرانەوە	-10.8163
▁بدەنەوە	-10.8168
▁زاگرۆس	-10.8174
▁سلیمانی	-10.8174
▁نامە	-10.8174
▁نێوانیاندا	-10.8174
▁ڕاهێنەر	-10.8174
▁بەرگەی	-10.8179
▁بەشدارن	-10.8179
▁خوارد	-10.8179
▁دەسەڵاتەکانی	-10.8179
▁ئاوەدانکردنەوە	-10.8185
▁بێنێت	-10.8196
▁دەری	-10.8196
▁ڕێگەیان	-10.8196
▁ابن	-10.8201
▁سەرم	-10.8201
▁هەرێما	-10.8201
▁ئیمە	-10.8207
▁ئەفریقا	-10.8207
▁بەرزو	-10.8207
▁بەیاننامەیەکی	-10.8207
▁ساڵێکە	-10.8207
▁سەربازانی	-10.8207
▁ئەوانەوە	-10.8212
▁لەپرۆسەی	-10.8212
▁هۆشداری	-10.8212
▁ڕۆڵەی	-10.8212
▁خواستەکانی	-10.8218
▁یەحیا	-10.8218
▁بەخۆیان	-10.8223
▁ئیئتلافی	-10.8229
▁ئەمڕۆدا	-10.8229
▁نەخۆشییە	-10.8234
▁گەیاندن	-10.824
▁ناوکی	-10.8246
▁گوندەکان	-10.8246
▁ئەنجامدراوە	-10.8251
▁سەفین	-10.8251
▁چالاکییە	-10.8257
▁گوێیان	-10.8257
▁بن،	-10.8262
▁دامەزراوەکانی	-10.8262
▁لەقەڵەم	-10.8262
▁نەشتەرگەری	-10.8268
▁گەڕ	-10.8273
▁قەوارە	-10.8279
▁مۆبایل	-10.8279
▁چێلسی	-10.8279
▁زۆرەی	-10.8284
▁لەشـکری	-10.8284
▁ئامرازی	-10.829
▁ئەنفالکراوەکان	-10.8296
▁فەلاح	-10.8296
▁پێگەیەکی	-10.8296
▁داکۆکیکردن	-10.8301
▁باشترکردنی	-10.8307
▁مەترسیی	-10.8307
▁ببینین	-10.8312
▁باسمان	-10.8318
▁دووچاری	-10.8318
▁لەوڵاتی	-10.8318
▁ڕەوتە	-10.8318
▁سالارکەرکوکی	-10.8324
▁سەربە	-10.8324
▁فیکر	-10.8324
▁لێکرد	-10.8329
▁ماون	-10.8329
▁ڕزگاریخوازی	-10.8329
▁بەزەیی	-10.834
▁کیمیابارانی	-10.834
▁سەڵاح	-10.8346
▁بەکاتی	-10.8352
▁لوبنانی	-10.8357
▁دروستدەکات	-10.8363
▁سۆرانی	-10.8363
▁سیستەم	-10.8363
▁ئێمەو	-10.8369
▁بەرێوە	-10.8369
▁سۆسیالیست	-10.8369
▁سیناریۆ	-10.8369
▁نمایشکردنی	-10.8369
▁نییەو[	-10.8369
▁پیرۆزە	-10.8369
▁نها	-10.8374
▁دەسەڵاتیان	-10.838
▁پرۆسە	-10.838
▁کوژراوە	-10.838
▁بکه	-10.8385
▁بزوتنەوە	-10.8391
▁قەززافی	-10.8391
▁هەڵگرتنی	-10.8391
▁ئەوانەن	-10.8397
▁نیە،	-10.8397
▁پارتێکی	-10.8402
▁پەیامنێر)	-10.8402
▁پێبدرێت	-10.8408
▁ڕۆشنبیرانی	-10.8408
▁بەرەکانی	-10.8419
▁بەدواوە	-10.8425
▁قەزاو	-10.8425
▁نەبو	-10.8425
▁گەمەی	-10.8425
▁1990	-10.8431
▁ئاگای	-10.8431
▁دژایەتیکردنی	-10.8431
▁دەگێڕێتەوە	-10.8431
▁سەرچاوەکان	-10.8431
▁موفتی	-10.8431
▁بارانی	-10.8436
▁لەدوا	-10.8436
▁ئەمەریکایی	-10.8442
▁ئەوەوە	-10.8442
▁حکومەتەوە	-10.8442
▁لەدایکبوونی	-10.8442
▁لەدەرەوە	-10.8442
▁پرۆفیسۆر	-10.8448
▁وەربگرین	-10.8453
▁گەڕاندنەوەی	-10.8453
▁بەرین	-10.8459
▁نەدەبوو	-10.8459
▁کێشانەی	-10.8459
▁فرمێسک	-10.8465
▁لەبەشی	-10.8465
▁خوایش	-10.847
▁شاعیرە	-10.847
▁منداڵێک	-10.847
▁پڕکردنەوەی	-10.847
▁جۆرەی	-10.8482
▁لێدوانەکانی	-10.8482
▁محەمەدی	-10.8482
▁سەنگی	-10.8487
▁پێنجشەممە	-10.8487
▁دیجلە	-10.8493
▁پرسیارێک	-10.8493
▁باڵادەست	-10.8499
▁دراون	-10.8499
▁شێرپەنجەی	-10.8499
▁ئەندازیار	-10.8504
▁بخەینە	-10.8504
▁کامیان	-10.8504
▁بگەن	-10.851
▁بەسەرپەرشتی	-10.851
▁سادق	-10.851
▁لەجیهاندا	-10.851
▁بەرلەوەی	-10.8516
▁مه	-10.8516
▁جوانتر	-10.8522
▁لایەنانە	-10.8522
▁بتوانرێت	-10.8527
▁ڕێزو	-10.8527
▁حوزەیرانی	-10.8533
▁یەکیان	-10.8533
▁پلاندانان	-10.8539
▁مامەڵەکردن	-10.8544
▁کاراکتەری	-10.8544
▁گفتوگۆیەکی	-10.8544
▁حیزبەکانی	-10.855
▁هاتوونەتە	-10.8556
▁ساڵێکی	-10.8562
▁عێراقیەکان	-10.8562
▁مەزهەب	-10.8562
▁نوجێفی	-10.8562
▁لێمان	-10.8567
▁ڵ	-10.8567
▁72	-10.8573
▁بێلایەن	-10.8573
▁تێنسی	-10.8573
▁جێبەجێکردن	-10.8573
▁پیلانی	-10.8573
▁پێگە	-10.8573
▁کەلوپەلی	-10.8573
▁هەورامان	-10.8579
▁ئەوروپاو	-10.8585
▁زانین	-10.8585
▁ڕزگاریان	-10.8585
▁گەنم	-10.8585
▁زەمەنی	-10.859
▁کەژاڵ	-10.859
▁گەڕایەوە	-10.859
▁خۆشم	-10.8596
▁دادی	-10.8596
▁دەستەڵات	-10.8596
▁فەرمانڕەوایی	-10.8602
▁پانتایی	-10.8602
▁ڕاشکاوانە	-10.8602
▁ڕۆژێ	-10.8602
▁کەمپی	-10.8608
▁سوریای	-10.8613
▁پێشمەرگه	-10.8613
▁دلێر	-10.8619
▁حەمەد	-10.8625
▁کەرکوکدا	-10.8625
▁هاوولاتی	-10.8631
▁نیوەڕۆ	-10.8636
▁خولێکی	-10.8642
▁دروستکردن	-10.8642
▁هاو	-10.8642
▁هەرکاتێک	-10.8642
▁توانیمان	-10.8648
▁تۆیە	-10.8648
▁جە	-10.8648
▁ها	-10.8648
▁ڕێنموویی	-10.8648
▁کەوتنی	-10.866
▁ئەرشیف	-10.8665
▁بابەتەکان	-10.8665
▁دهوکێ	-10.8665
▁لەرۆژی	-10.8665
▁لەوەکرد	-10.8665
▁ڕۆژنامەو	-10.8665
▁کافر	-10.8665
▁گەلەکەی	-10.8665
▁داری	-10.8671
▁چیدی	-10.8671
▁کاته	-10.8671
▁ئازادە	-10.8677
▁دێرسیم	-10.8677
▁حەوتەم	-10.8683
▁هەڵەبجەو	-10.8683
▁سووک	-10.8689
▁شوێنانەی	-10.8689
▁پێتان	-10.8689
▁گەورەش	-10.8689
▁دینارە	-10.8694
▁لەناوچەکانی	-10.8694
▁نالی	-10.8694
▁ئەدی	-10.87
▁بیروباوەڕی	-10.87
▁پێوەندیی	-10.87
▁پەرلەمانەوە	-10.87
▁هەتاوی	-10.8706
▁قسانەی	-10.8712
▁کێشەکەی	-10.8712
▁نەبەز	-10.8718
▁کوردێک	-10.8718
▁یاریزانێکی	-10.8718
▁بۆچونی	-10.8729
▁وڵاتەی	-10.8729
▁کوردستانن	-10.8729
▁لام	-10.8747
▁کارزان	-10.8747
▁یەکخستنی	-10.8747
▁جیاوازدا	-10.8753
▁وەستاوە	-10.8753
▁ئەمنیەکانی	-10.8758
▁ستراتیجی	-10.8758
▁قوتابخانەکان	-10.8758
▁پەیوەندیەکی	-10.8758
▁ئاماژەم	-10.8764
▁ئەوروپای	-10.8764
▁مانایەی	-10.8764
▁شارەدا	-10.877
▁تەقەیان	-10.8776
▁داوەتەوە	-10.8776
▁بەمەرجێک	-10.8782
▁ناوەندەکانی	-10.8788
▁ڤه	-10.8788
▁org	-10.8794
▁تورکیاش	-10.8794
▁تەقەی	-10.8794
▁دڵیان	-10.8794
▁لۆژیکی	-10.8794
▁هەیانە	-10.8794
▁یەکیتی	-10.8799
▁بڕۆن	-10.8805
▁ترین	-10.8805
▁مەهاباد	-10.8805
▁ڕۆژان	-10.8805
▁جەوهەری	-10.8811
▁ناسک	-10.8811
▁وەستان	-10.8817
▁یەکگرتوەکان	-10.8817
▁62	-10.8823
▁700	-10.8823
▁ئی	-10.8823
▁بەند	-10.8823
▁ڕۆژنامەکە	-10.8823
▁کەسەکان	-10.8823
▁یەپەگە	-10.8823
▁ال	-10.8835
▁تاوانەکان	-10.8835
▁سزاو	-10.8841
▁لەیەکێک	-10.8841
▁وەستا	-10.8841
▁کەسایەتییە	-10.8841
▁دوژمنان	-10.8847
▁دەستەواژەی	-10.8847
▁پەیمان	-10.8847
▁ڕاپۆرتە	-10.8847
▁1975	-10.8852
▁لەرێی	-10.8852
▁"ئەو	-10.8858
▁زەمینە	-10.8858
▁سـاڵی	-10.8858
▁لەخۆیدا	-10.8858
▁ئۆتۆمبیل	-10.8864
▁تۆپ	-10.887
▁خۆکوژی	-10.887
▁لەمەوپێش	-10.887
▁کۆتا	-10.8876
▁خوە	-10.8882
▁خەڵکەکە	-10.8882
▁ساغ	-10.8882
▁بەبەراورد	-10.8888
▁لێبێت	-10.8888
▁دەنگدەر	-10.8894
▁هەوڵدەدات	-10.8894
▁کم	-10.8894
▁ئایەتی	-10.89
▁باج	-10.89
▁بابەتێک	-10.8906
▁تاقمە	-10.8906
▁دیاریکراودا	-10.8906
▁کردار	-10.8912
▁هێناوە،	-10.8918
▁ماستەر	-10.8924
▁هاوپەیمانێتی	-10.8924
▁گەشتی	-10.8924
▁عیسا	-10.893
▁نەدرێت	-10.8935
▁چڕ	-10.8935
▁تاران،	-10.8941
▁پێشەکی	-10.8947
▁پێکردنی	-10.8947
▁بازرگانیی	-10.8953
▁کیمیاباران	-10.8953
▁دەنـگیـیانەی	-10.8959
▁سەلماندنی	-10.8959
▁هەشتەم	-10.8959
▁دڵنیاییەوە	-10.8965
▁دەیەی	-10.8965
▁شۆڕشە	-10.8965
▁وەزارەتەکان	-10.8965
▁بێئەوەی	-10.8971
▁سەرکۆماری	-10.8971
▁لەوانە:	-10.8971
▁پەرەی	-10.8971
▁پژاک	-10.8977
▁ڕۆڵیان	-10.8977
▁خانەنشین	-10.8983
▁درێژکردنەوەی	-10.8983
▁دەداتە	-10.8983
▁هەڵبژاردنێکی	-10.8983
▁هەڵوێستەی	-10.8983
▁سێدارە	-10.8989
▁لیژنەکە	-10.8989
▁نێوانی	-10.8989
▁وەزارەتەکانی	-10.8989
▁ڕکابەری	-10.8989
▁ڕۆمانە	-10.8989
▁کوردوستان	-10.8989
▁دیدارەکەدا	-10.8995
▁زاهیر	-10.8995
▁لەبارەوە	-10.8995
▁ڕۆژنامەگەریی	-10.8995
▁ئەجێندای	-10.9001
▁بادینان	-10.9001
▁جوگرافی	-10.9001
▁حوسنی	-10.9001
▁قسەیەکی	-10.9001
▁نمایشکرا	-10.9001
▁هەل	-10.9001
▁ڕامیاری	-10.9001
▁گرتوە	-10.9001
▁پاساوی	-10.9007
▁،]هەروەها	-10.9013
▁ئێمەوە	-10.9013
▁بێزار	-10.9013
▁چاوەڕێ	-10.9013
▁بەردەست	-10.9019
▁دامودەزگا	-10.9019
▁لە:	-10.9025
▁خراوەتە	-10.9031
▁خوێنەران	-10.9031
▁دەخرێتە	-10.9031
▁کاتژمێری	-10.9031
▁بەشداربوو	-10.9037
▁خۆماندا	-10.9037
▁نارەزایەتی	-10.9037
▁ئەگەرنا	-10.9055
▁تێیاندا	-10.9055
▁عەرەبیدا	-10.9055
▁وردەکاری	-10.9055
▁بەردەوامبوونی	-10.9061
▁جۆراوجۆرەکانی	-10.9061
▁خستەسەر	-10.9061
▁دەکەوێته	-10.9061
▁لەگەڵیاندا	-10.9061
▁هەستکردن	-10.9061
▁پلەو	-10.9061
▁چیرۆکە	-10.9061
▁چەکدارێکی	-10.9061
▁ڕێگەیەکی	-10.9061
▁کولتوری	-10.9061
▁بەرِێوەچوو	-10.9067
▁پایە	-10.9067
▁پێهات	-10.9067
▁ئەمنیی	-10.9073
▁بەهمەن	-10.9073
▁ناوێکی	-10.9073
▁ڕابگرێت	-10.9073
▁ئامادەیه	-10.9079
▁دۆخەکە	-10.9079
▁شێخان	-10.9079
▁1979	-10.9085
▁هۆ	-10.9085
▁وو	-10.9085
▁پێکدادانی	-10.9085
▁ڕزق	-10.9085
▁ڕێنماییەکانی	-10.9085
▁دەگرت	-10.9091
▁پێشوەخت	-10.9104
▁بایدن	-10.911
▁دراما	-10.911
▁لەچەندین	-10.911
▁موو	-10.911
▁ناگرێت	-10.911
▁هێزەکان	-10.911
▁چالاکیی	-10.911
▁ڕەوەندی	-10.911
▁پشووی	-10.9116
▁ئاهەنگ	-10.9122
▁بخات	-10.9122
▁قەوارەی	-10.9122
▁پاشای	-10.9122
▁ڕووناکبیری	-10.9122
▁کارێ	-10.9122
▁دراوی	-10.9128
▁شێواز	-10.9128
▁ملیارو	-10.9128
▁فریای	-10.9134
▁102	-10.914
▁ئاستێک	-10.914
▁بەڕێوەبچێت	-10.914
▁لەباری	-10.914
▁فیدرالی	-10.9146
▁قەزافی	-10.9146
▁کەسایەتیی	-10.9146
▁قبووڵ	-10.9152
▁ڕووداوانە	-10.9152
▁گەشتوگوزار	-10.9152
▁بووبوو	-10.9158
▁هەشتەمی	-10.9158
▁زەحمەت	-10.9164
▁شاجوانی	-10.9164
▁تاڵ	-10.917
▁جوتیاران	-10.917
▁داخوازییەکانی	-10.917
▁داگیرکەر	-10.9176
▁لەمەش	-10.9176
▁گرتە	-10.9183
▁ئیمزای	-10.9189
▁خێڵ	-10.9189
▁قەزا	-10.9189
▁لەسەریان	-10.9189
▁چاودێریکردنی	-10.9189
▁ڕووداوه	-10.9189
▁بەتۆمەتی	-10.9195
▁جی	-10.9195
▁زیاتریش	-10.9201
▁ڕایان	-10.9201
▁گەندەڵ	-10.9201
▁بەسەریدا	-10.9207
▁شێواندنی	-10.9207
▁پەرلەمانتارێکی	-10.9207
▁کەناری	-10.9207
▁ڕژێمەکەی	-10.9213
▁ئەنفالکراوان	-10.9219
▁وەربگیردرێت	-10.9219
▁مۆدێلی	-10.9225
▁بەشێکن	-10.9231
▁زووترین	-10.9231
▁نەهامەتی	-10.9231
▁خانی	-10.9238
▁ڕاگەیاندنەکان	-10.9238
▁ئەنجامبدرێت	-10.9244
▁نەوە	-10.9244
▁نەیان	-10.9244
▁پارەو	-10.9244
▁کراوەتە	-10.9244
▁بۆردومان	-10.925
▁خێرو	-10.925
▁ناڕازی	-10.925
▁کەمەوە	-10.925
▁دەستکەوتەکانی	-10.9262
▁گەیاندووە	-10.9262
▁ئاشتەوایی	-10.9268
▁بەرەبەیانی	-10.9268
▁جۆرەها	-10.9268
▁کەن	-10.9268
▁بەرێت	-10.9274
▁مەعنەوی	-10.9274
▁ئاماژەیدا	-10.9281
▁بڵند	-10.9281
▁دەکرێتە	-10.9281
▁بدەیت	-10.9287
▁تەلەفزیۆن	-10.9287
▁دانیشتنەکانی	-10.9287
▁نیاز	-10.9287
▁ڕوونە	-10.9287
▁حیزبەکەی	-10.9293
▁دەکوژرێن	-10.9293
▁هەستە	-10.9293
▁ڕێگەیەوە	-10.9293
▁کۆبوونەوەکەی	-10.9293
▁کۆمەڵگاو	-10.9293
▁پشتگوێ	-10.9299
▁حەزم	-10.9311
▁داگیرکەران	-10.9311
▁سەروەر	-10.9311
▁بەشیر	-10.9318
▁دەچوو	-10.9318
▁وەزارەتە	-10.9318
▁فەرمانەکانی	-10.9324
▁نەتوانن	-10.9324
▁ئێجگار	-10.933
▁بدۆزێتەوە	-10.933
▁سەرنووسەری	-10.933
▁ڕیشەیی	-10.933
▁دادو	-10.9336
▁شانبەشانی	-10.9336
▁ئایاری	-10.9349
▁زەحمەتە	-10.9349
▁نووسەرو	-10.9349
▁هەموار	-10.9349
▁نیوان	-10.9355
▁وام	-10.9355
▁ڕەزامەندیی	-10.9355
▁گروپه	-10.9355
▁63	-10.9361
▁ئامەد	-10.9361
▁بابان	-10.9361
▁بتوانم	-10.9361
▁نْ	-10.9361
▁لەوەودوا	-10.9367
▁بەقەد	-10.9373
▁هێنانەدی	-10.9373
▁باخی	-10.9386
▁دەگەڕێت	-10.9386
▁لەماوەیەکی	-10.9386
▁وبە	-10.9386
▁ڕێکخراوەکە	-10.9386
▁تاوانبارانی	-10.9392
▁گۆڕانە	-10.9392
▁پێشەوا	-10.9398
▁گفتوگۆو	-10.9398
▁دەخۆن	-10.9405
▁مەکە	-10.9405
▁گەمارۆی	-10.9405
▁بڵاویکردەوە،	-10.9411
▁بەرفراوانی	-10.9411
▁بەشێکیان	-10.9411
▁سازکردنی	-10.9411
▁شێعرە	-10.9411
▁مێژووییە	-10.9411
▁پێکدادان	-10.9411
▁کریم	-10.9411
▁تورکیا،	-10.9417
▁تێپەڕاندنی	-10.9417
▁تەلەفۆن	-10.9417
▁دەرفەتێکی	-10.9417
▁پەیوەندیە	-10.9417
▁ڕاگەیاندنەکانی	-10.9417
▁خەڵاته	-10.9423
▁ستەمی	-10.9423
▁چەکدارە	-10.9423
▁بەڕەسمی	-10.943
▁دەستەبەرکردنی	-10.943
▁فرۆشتن	-10.943
▁هەوای	-10.943
▁کەئەم	-10.943
▁بڵاوکرایەوە	-10.9436
▁درێژخایەن	-10.9436
▁دەکەون	-10.9436
▁ساڵەکانی	-10.9436
▁پێوەی	-10.9436
▁بەخێرایی	-10.9442
▁تایفی	-10.9442
▁تێکچوونی	-10.9442
▁حکومەتیش	-10.9442
▁کاکەیی	-10.9442
▁ئارەزوو	-10.9448
▁داوە،	-10.9448
▁دیوە	-10.9448
▁سەرسام	-10.9448
▁لەحکومەت	-10.9448
▁ویژدان	-10.9448
▁ئێستاو	-10.9455
▁لەوانەیه	-10.9455
▁ڕاستیەکان	-10.9455
▁گفتوگۆیان	-10.9455
▁توانرا	-10.9461
▁مسۆگەرکردنی	-10.9461
▁ناسیۆنالیزمی	-10.9467
▁ڕوونیشیکردەوە،	-10.9467
▁کەوابوو	-10.9467
▁گۆڵچی	-10.9467
▁سەرکەوتنیان	-10.9473
▁شێوه	-10.9473
▁عبداللە	-10.9473
▁پێکەوەژیان	-10.948
▁گفتوگۆکانی	-10.948
▁بباتەوە	-10.9492
▁جگەلەوەی	-10.9492
▁حزبایەتی	-10.9492
▁قەرز	-10.9492
▁لێبووردن	-10.9492
▁ناکاتەوە	-10.9492
▁هەناسە	-10.9492
▁گفتوگۆکان	-10.9492
▁ئازادانە	-10.9499
▁دەمەی	-10.9499
▁هۆڵەندی	-10.9499
▁هەموولایەک	-10.9499
▁خۆشمان	-10.9505
▁فیدراسیۆن	-10.9505
▁پێکهاتبوو	-10.9505
▁ئەنفالی	-10.9511
▁باسێکی	-10.9511
▁زەمەن	-10.9511
▁سەرەتاوە	-10.9511
▁نەبێت،	-10.9511
▁پشدەر	-10.9518
▁ئایەتەکانی	-10.9524
▁جەختیان	-10.9524
▁باسم	-10.953
▁زنجیره	-10.953
▁لێکردن	-10.953
▁ئەندازەی	-10.9536
▁تەکنەلۆژیای	-10.9536
▁لەتەمەنی	-10.9536
▁لەهەمبەر	-10.9536
▁تەرخانکراوە	-10.9543
▁جیاوازییەکی	-10.9543
▁لێدەکەوێتەوە	-10.9543
▁پیلان	-10.9543
▁ڕاپەرین	-10.9543
▁بارودۆخێکی	-10.9549
▁بردن	-10.9549
▁بەئاژانسی	-10.9549
▁زانای	-10.9549
▁ساتی	-10.9549
▁ڕووبدات	-10.9549
▁ئەمساڵی	-10.9555
▁گەش	-10.9555
▁بانگەشە	-10.9562
▁دەکەین،	-10.9562
▁بڕیارەکە	-10.9568
▁عەممار	-10.9568
▁ئاسا	-10.9574
▁وابێت	-10.9574
▁کەل	-10.9574
▁گیرا	-10.9574
▁حسێن	-10.9581
▁دابڕاوەکان	-10.9581
▁کایە	-10.9581
▁شک	-10.9587
▁میر	-10.9587
▁پیشەسازیی	-10.9587
▁1980	-10.9594
▁ئەکادیمیای	-10.9594
▁سووتەمەنی	-10.9594
▁زیاتریان	-10.96
▁شارەزوور	-10.96
▁دەستگیرکراون	-10.9606
▁شاراوە	-10.9606
▁عەتا	-10.9606
▁خۆڕاگر	-10.9613
▁سزایەکی	-10.9613
▁لایەنانەی	-10.9613
▁پەروەردگارت	-10.9613
▁کەبۆ	-10.9613
▁لێپرسینەوە	-10.9619
▁سۆسیالیستی	-10.9625
▁یادەوەری	-10.9625
▁جاش	-10.9632
▁سەرەرای	-10.9632
▁ئەکەین	-10.9638
▁دەنگۆی	-10.9638
▁سروود	-10.9638
▁سەرکوتکردنی	-10.9638
▁پارێزگەها	-10.9638
▁پشتیان	-10.9638
▁ڕادەگەیەنێت	-10.9638
▁لەمبارەیەوە،	-10.9645
▁خوادا	-10.9651
▁دەنێن	-10.9651
▁بابەتەکانی	-10.9657
▁تەکنەلۆژیا	-10.9657
▁هەندی	-10.9657
▁کەمن	-10.9657
▁800	-10.9664
▁دروشم	-10.9664
▁لەگەڵی	-10.9664
▁ڕەخنەگرتن	-10.9664
▁کوردیەکان	-10.9664
▁ئاوەدان	-10.967
▁باڵاکانی	-10.967
▁بەرزە	-10.967
▁حەسەن/	-10.967
▁سکاڵا	-10.967
▁دەستێوەردانی	-10.9677
▁نەکەیت	-10.9677
▁تێکستی	-10.9683
▁کەوتن	-10.9683
▁گۆڕانکارییە	-10.9683
▁بمێننەوە	-10.9696
▁بۆن	-10.9696
▁پێشکێش	-10.9696
▁بخۆن	-10.9702
▁سەردانێکی	-10.9702
▁نییەلە	-10.9702
▁بیکات	-10.9709
▁بەشێوازێکی	-10.9709
▁ڕوونیشی	-10.9709
▁هاوڕێکانی	-10.9722
▁یانیش	-10.9722
▁بەشێوازی	-10.9728
▁دەبرێت	-10.9728
▁هەرێمێکی	-10.9728
▁هەناسەی	-10.9728
▁پێشوودا	-10.9728
▁ئیسلامیدا	-10.9734
▁بەردەوامیش	-10.9734
▁توێژەکانی	-10.9734
▁تێی	-10.9734
▁ئەمجۆرە	-10.9741
▁چاودێران	-10.9741
▁جیابوونەوە	-10.9747
▁مێزی	-10.9747
▁پڕۆژەیەک	-10.9754
▁ڕو	-10.9754
▁گوشاری	-10.9754
▁بدۆزنەوە	-10.976
▁سور	-10.976
▁خەونە	-10.9767
▁سەرەکیەکانی	-10.9767
▁وەڵامدانەوەی	-10.9767
▁ڕاپۆرتەکە	-10.9767
▁لەیلا	-10.9773
▁تایبەتیان	-10.978
▁لەلیستی	-10.978
▁ڕۆژێکدا	-10.978
▁دەرهێنان	-10.9786
▁کەڵکی	-10.9786
▁بیریان	-10.9793
▁لەزانکۆی	-10.9793
▁ئۆتۆمبیلی	-10.9799
▁دێموکراسیی	-10.9799
▁قەیرانێکی	-10.9799
▁لەکوێ	-10.9799
▁ڕۆشن	-10.9799
▁دەستکەوتێکی	-10.9806
▁ئیمانداران	-10.9812
▁هەفته	-10.9812
▁گرفتەکان	-10.9812
▁یارمەتیی	-10.9812
▁61	-10.9819
▁ئامانجێکی	-10.9819
▁ئۆتۆمبێلێک	-10.9825
▁سەرا	-10.9825
▁لەکوردستانی	-10.9825
▁کولتوور	-10.9825
▁گووتیشی:	-10.9825
▁ساتە	-10.9832
▁هەناردەی	-10.9832
▁هەڵی	-10.9832
▁ڕادەیەکی	-10.9832
▁کامل	-10.9832
▁کەمئەندامان	-10.9832
▁بەرەوڕووی	-10.9838
▁بەڕێزیان	-10.9838
▁خوالێخۆشبوو	-10.9838
▁ڕەوشتی	-10.9838
▁ئیبن	-10.9845
▁بەختەوەری	-10.9845
▁خایاند	-10.9845
▁خۆمم	-10.9845
▁شەوێک	-10.9845
▁فەلەستینی	-10.9845
▁لیستەکەی	-10.9845
▁هەندێکجار	-10.9845
▁چۆتە	-10.9851
▁دواخرا	-10.9858
▁هەڵ	-10.9858
▁حمە	-10.9864
▁سەنگاوی	-10.9864
▁فۆتۆگرافی	-10.9864
▁چارەنووس	-10.9864
▁لەساڵانی	-10.9871
▁لەکۆبوونەوەی	-10.9877
▁چیا	-10.9877
▁پارەیەی	-10.9884
▁کوڕان	-10.9884
▁بەغدا،	-10.989
▁دەبوون	-10.989
▁عەقید	-10.989
▁ئادەم	-10.9897
▁پێشمەرگەدا	-10.9897
▁جێبەجێی	-10.9903
▁کەمبوونەوەی	-10.9903
▁ئەستێرە	-10.991
▁ڕووخاندنی	-10.991
▁نەیویست	-10.9917
▁چاوپۆشی	-10.9917
▁ئێراقی	-10.9923
▁بالا	-10.9923
▁پێنجەمی	-10.9923
▁لەسێدارەدانی	-10.993
▁هۆیەوه	-10.993
▁ڕەسەن	-10.993
▁دەسەڵاتداری	-10.9936
▁شەقامەکانی	-10.9936
▁لەوێش	-10.9936
▁77	-10.9943
▁ئەمنیەکان	-10.9943
▁دەبینیت	-10.9943
▁بەلجیکا	-10.9949
▁خەڵکیان	-10.9949
▁پێدان	-10.9949
▁کەمتەرخەمی	-10.9949
▁1970	-10.9956
▁لەسەرەتادا	-10.9956
▁ناوەندیی	-10.9956
▁ڕوخساری	-10.9956
▁کەمترە	-10.9956
▁ئینگلتەرا	-10.9963
▁دراوسێی	-10.9963
▁دەوام	-10.9963
▁گرانی	-10.9963
▁بەنداوی	-10.9969
▁شیعه	-10.9969
▁عێراقێکی	-10.9969
▁قوڵ	-10.9969
▁واتایەکی	-10.9969
▁چالاکوانانی	-10.9969
▁بۆوە	-10.9976
▁جیابوونەوەی	-10.9976
▁خۆڵ	-10.9976
▁گوتمان	-10.9976
▁ئەکا	-10.9982
▁زنجیرەیەک	-10.9982
▁گرنگییەکی	-10.9982
▁قورسە	-10.9989
▁مێردەکەی	-10.9989
▁ڕوبەڕوی	-10.9989
▁1000	-10.9996
▁جگەرە	-10.9996
▁لەئەنجامدا	-10.9996
▁وەرگرتنەوەی	-11.0002
▁ڕەوشت	-11.0002
▁بارزانی"	-11.0009
▁بەعسییەکان	-11.0009
▁تاوانێکی	-11.0016
▁بازاڕەکانی	-11.0022
▁دانان	-11.0022
▁چارەسەرکردن	-11.0022
▁کەواته	-11.0022
▁گوێبیستی	-11.0022
▁سەما	-11.0029
▁قۆڵی	-11.0029
▁بچووکی	-11.0035
▁دەمێننەوە	-11.0035
▁هەژموونی	-11.0035
▁بهێته	-11.0042
▁خزمەتێکی	-11.0042
▁سەعد	-11.0042
▁عیشق	-11.0042
▁قال	-11.0049
▁ناوچەکەی	-11.0049
▁کۆبوونەوه	-11.0049
▁میدیایی	-11.0055
▁بیمەی	-11.0062
▁شیعەو	-11.0062
▁بۆلای	-11.0069
▁ملم	-11.0069
▁ئاکام	-11.0075
▁ڕوسی	-11.0075
▁خوارەوەی	-11.0082
▁دیزاینی	-11.0082
▁ڕێگەگرتن	-11.0082
▁کۆبونەوە	-11.0082
▁بەکارهێناوە	-11.0089
▁دەستکەوتە	-11.0089
▁لەمافی	-11.0095
▁نەریت	-11.0095
▁هەژاران	-11.0095
▁پاشکۆی	-11.0095
▁پاڵەوانیتیه	-11.0095
▁لادن	-11.0102
▁بداتە	-11.0109
▁دەگیرێت	-11.0109
▁کرێ	-11.0109
▁بەهەمانشێوە	-11.0116
▁تفەنگ	-11.0116
▁دیکەشەوە	-11.0116
▁دەخات	-11.0116
▁پاککردنەوەی	-11.0116
▁کۆمپیوتەر	-11.0116
▁ئەرسناڵ	-11.0122
▁بڕۆ	-11.0122
▁ترمان	-11.0122
▁جەماوەریی	-11.0122
▁حیکمەت	-11.0122
▁زەرەر	-11.0122
▁عەبدولقادر	-11.0122
▁گۆڕاوە	-11.0122
▁گەیشتووە	-11.0122
▁یەکەوە	-11.0122
▁ئازادو	-11.0129
▁ئەکرەم	-11.0129
▁مەرجێک	-11.0129
▁پارکی	-11.0129
▁بیرە	-11.0136
▁بەزووترین	-11.0136
▁ئازارو	-11.0142
▁بزانە	-11.0142
▁بەکۆمەڵ	-11.0149
▁زانیاریانەی	-11.0149
▁نیشتەجێی	-11.0149
▁مەشقی	-11.0156
▁هەمبەر	-11.0156
▁دادگایەکی	-11.0163
▁مەعسوم	-11.0163
▁یانەکان	-11.0163
▁شارێک	-11.0169
▁لەسەرەوە	-11.0169
▁وتەکانی	-11.0169
▁دۆنم	-11.0176
▁ڕاپۆڕتی	-11.0176
▁ڕایگەیاندووە،	-11.0176
▁کراوی	-11.0176
▁ئاستەی	-11.0183
▁دەهێنرێت	-11.0189
▁گشتییەکانی	-11.0189
▁ئەوەیشی	-11.0196
▁بەردەمی	-11.0196
▁سەنگەری	-11.0196
▁ملکەچ	-11.0196
▁هەنگاوەی	-11.0196
▁بەسەرۆکایەتیی	-11.0203
▁پەیمانگا	-11.0203
▁دوەم	-11.021
▁دیموکراسیەت	-11.021
▁ئاسانکاری	-11.0223
▁مامەڵەیان	-11.0223
▁پێیدا	-11.0223
▁بریندارەکان	-11.023
▁ڕوونکردنەوەیەک	-11.023
▁1998	-11.0237
▁جلوبەرگی	-11.0237
▁دوورو	-11.0237
▁دەڕۆن	-11.0237
▁سینەماکانی	-11.0237
▁فازڵ	-11.0237
▁فەیسبووک	-11.0237
▁هێنایەوە	-11.0237
▁گۆڕانکارییەکانی	-11.0237
▁داگیرکەرانی	-11.0244
▁کردۆتەوه	-11.0244
▁قەڵادزێ	-11.025
▁دەوامی	-11.0257
▁هاوکێشە	-11.0257
▁جۆرێکە	-11.0264
▁شێت	-11.0264
▁کاربکەن	-11.0264
▁ئەژمار	-11.0271
▁بڵاوکردۆتەوە	-11.0271
▁دەکردن	-11.0271
▁نوح	-11.0271
▁هەبووەو	-11.0271
▁بەشه	-11.0278
▁خزم	-11.0278
▁هەرێم،	-11.0278
▁پڕوپاگەندەی	-11.0278
▁on	-11.0284
▁شایەتی	-11.0284
▁مۆسیقا	-11.0284
▁ڕۆمانەکە	-11.0284
▁ئایەت	-11.0291
▁،]ئەو	-11.0298
▁ئەوەن	-11.0298
▁سەرچاوەکە	-11.0298
▁پرێس	-11.0298
▁بۆنە	-11.0305
▁دێرینی	-11.0305
▁قسانە	-11.0305
▁کتێبەکانی	-11.0305
▁بارودۆخەی	-11.0312
▁دڵنیابن	-11.0312
▁دەربڕیوە	-11.0312
▁شێرپەنجە	-11.0312
▁ناڕاستەوخۆ	-11.0319
▁هەڵدەگرێت	-11.0319
▁کارانەی	-11.0319
▁دەیبینین	-11.0325
▁شوێنه	-11.0325
▁هەبن	-11.0325
▁کردوو	-11.0325
▁دەیویست	-11.0332
▁لاوازە	-11.0332
▁نەمسا	-11.0332
▁لەئەندامانی	-11.0339
▁ئاوێنەی	-11.0346
▁تۆکمە	-11.0346
▁خۆشیەوە	-11.0346
▁سینەماکارانی	-11.0346
▁کەوتوون	-11.0346
▁باڵاو	-11.0353
▁بەهێزترین	-11.0353
▁خاتری	-11.0353
▁هەڵسەنگاندن	-11.0353
▁گ	-11.0353
▁ئەمساڵیش	-11.036
▁ئەنجامه	-11.036
▁کچەکەی	-11.036
▁خۆشەویستیی	-11.0366
▁دەرخستنی	-11.0366
▁دەسەڵاتەوە	-11.0366
▁لێیە	-11.0366
▁فیلمەکەی	-11.0373
▁گەندەڵیی	-11.0373
▁یەکێتییە	-11.0373
▁بەواتای	-11.038
▁تەلەفۆنی	-11.038
▁یارییەدا	-11.038
▁دوێنێی	-11.0387
▁کەموکوڕی	-11.0387
▁بۆخۆیان	-11.0394
▁ژنەکەی	-11.0394
▁فیرعەون	-11.0401
▁میری	-11.0401
▁بۆنموونە	-11.0408
▁بەربەست	-11.0408
▁دەکرێنەوە	-11.0408
▁سەعدییە	-11.0408
▁پیادەکردنی	-11.0408
▁پیادەی	-11.0408
▁ئەز	-11.0415
▁بدات،	-11.0415
▁هۆش	-11.0415
▁گوناه	-11.0415
▁"ئەم	-11.0422
▁خراپترین	-11.0422
▁دۆڵی	-11.0422
▁دەقێکی	-11.0422
▁لەناوچەکە	-11.0422
▁پێغەمبەران	-11.0422
▁چەکە	-11.0422
▁تۆدا	-11.0428
▁مەرامی	-11.0428
▁ڕەخنەو	-11.0428
▁ئاشکراکرد	-11.0435
▁ڕۆژانەدا	-11.0435
▁قسەیە	-11.0442
▁نەبێتە	-11.0442
▁هاوشانی	-11.0442
▁چاوەکانی	-11.0442
▁بوێت	-11.0449
▁خیانەت	-11.0449
▁مۆندیالی	-11.0456
▁واژۆ	-11.0456
▁پارتەکەی	-11.0456
▁گیرفانی	-11.0456
▁خول	-11.0463
▁داوایکرد	-11.0463
▁مامەند	-11.0463
▁پەرلەمانتارە	-11.0463
▁ڕەمزی/	-11.0463
▁زادەی	-11.047
▁سروشتییەکان	-11.047
▁هێشتنەوەی	-11.047
▁ڕەوانە	-11.047
▁کوشتووە	-11.047
▁67	-11.0477
▁دەگەڕێنەوە	-11.0477
▁هالیوود	-11.0477
▁دنیایە	-11.0484
▁سوودمەند	-11.0484
▁عەلمانی	-11.0484
▁پێداگری	-11.0484
▁95	-11.0491
▁ئارارات	-11.0491
▁بروسک	-11.0491
▁لیژنەکانی	-11.0491
▁پرسیارەکە	-11.0491
▁68	-11.0498
▁ئێش	-11.0498
▁بەڕێ	-11.0498
▁سەربەرزی	-11.0498
▁دیکتاتۆرییەت	-11.0505
▁مەڕ	-11.0505
▁نایانەوێت	-11.0505
▁گەشەسەندنی	-11.0505
▁فاشیزم	-11.0512
▁نزم	-11.0512
▁هەفتەیه	-11.0512
▁مووسڵ	-11.0519
▁هاوتا	-11.0519
▁کەربەلا	-11.0519
▁ئەبێتە	-11.0526
▁جەعفەری	-11.0526
▁سەددام	-11.0526
▁لەراستیدا	-11.0526
▁یۆتۆبۆری	-11.0526
▁سەرف	-11.0533
▁نییەبۆ	-11.0533
▁کردۆته	-11.0533
▁کەرکوک،	-11.0533
▁1987	-11.054
▁مەی	-11.054
▁نزیکەوە	-11.054
▁هەڵبژاردنەکاندا	-11.054
▁ڕیفراندۆم	-11.054
▁ڕابەر	-11.0547
▁سنورەکانی	-11.0554
▁ڕێکخستنەکانی	-11.0554
▁ئیمامی	-11.0561
▁جەنگێکی	-11.0561
▁قەڵای	-11.0561
▁وەسفی	-11.0561
▁تەقە	-11.0568
▁هان	-11.0568
▁سەلاح	-11.0575
▁بۆچوونەکانی	-11.0582
▁درێژەدان	-11.0582
▁هەبو	-11.0582
▁قسه	-11.0589
▁کاڵ	-11.0589
▁بەبۆچوونی	-11.0596
▁شاردنەوەی	-11.0596
▁نائارامی	-11.0596
▁نوسراوە	-11.0596
▁نەتەوەییە	-11.0596
▁باقی	-11.0603
▁بایرن	-11.0603
▁تەوەرێکی	-11.0603
▁جۆ	-11.0603
▁دۆلارە	-11.0603
▁دیمەنەکانی	-11.0603
▁پێویستیمان	-11.0603
▁ڕۆلی	-11.0603
▁بایەخێکی	-11.061
▁لەگەڵیان	-11.061
▁مەترسییەکانی	-11.061
▁مەزنە	-11.061
▁هەستێکی	-11.061
▁ئەدای	-11.0617
▁تۆماربکات	-11.0617
▁لاتینی	-11.0617
▁ناگەیەنێت	-11.0617
▁هەموومانە	-11.0617
▁پایەی	-11.0617
▁کۆمەڵایەتییە	-11.0617
▁گەیشت	-11.0617
▁76	-11.0624
▁بناری	-11.0624
▁بکەینە	-11.0624
▁خستنەڕووی	-11.0624
▁66	-11.0631
▁سات	-11.0631
▁هەبووه	-11.0631
▁عەبدولمەهدی	-11.0638
▁قوباد	-11.0645
▁هەوادارانی	-11.0645
▁پارتیدا	-11.0645
▁پەنجە	-11.0645
▁گوندێکی	-11.0645
▁لەئێستاشدا	-11.0652
▁نووسینە	-11.0652
▁نەتەوەکان	-11.0652
▁هەستیار	-11.0652
▁چەشنی	-11.0652
▁بکەون	-11.0659
▁خوێنەرانی	-11.0659
▁نیزامی	-11.0659
▁پەروەرده	-11.0659
▁گشتیدا	-11.0659
▁تورکەکان	-11.0666
▁دروستبووە	-11.0666
▁هەقی	-11.0666
▁1994	-11.0673
▁ئامارێکی	-11.0673
▁دیپلۆماسی	-11.0673
▁عێراقەوه	-11.068
▁کارەکە	-11.068
▁کوردێکی	-11.068
▁گۆشەی	-11.068
▁گێمی	-11.068
▁باشه	-11.0688
▁بەردەستی	-11.0688
▁مەودای	-11.0688
▁گۆڤار	-11.0688
▁بەجێهێشت	-11.0695
▁سیستم	-11.0695
▁مانگرتن	-11.0695
▁پەیمانگەی	-11.0695
▁ئیدریس	-11.0702
▁ئەنتەرمیلان	-11.0702
▁باوی	-11.0702
▁توانایی	-11.0702
▁نیین	-11.0702
▁هێڵە	-11.0702
▁پەیوەندییه	-11.0702
▁گوێگرتن	-11.0702
▁بەیەکێک	-11.0709
▁تۆقاندن	-11.0709
▁قەرەبووکردنەوەی	-11.0709
▁ناسنامە	-11.0709
▁ڕەحمەت	-11.0709
▁یەنایەر	-11.0709
▁بەتوانا	-11.0716
▁دیارترین	-11.0716
▁شاعیرانی	-11.0716
▁شیعری	-11.0716
▁سنور	-11.0723
▁سوێندی	-11.0723
▁مەڵبەند	-11.0723
▁پێگەیاندنی	-11.0723
▁چاودێر	-11.0723
▁لەگەڕەکی	-11.073
▁چاوە	-11.073
▁گەیشتنه	-11.073
▁بکەین،	-11.0737
▁سەختە	-11.0737
▁پیاوەکانی	-11.0737
▁ڕەچاو	-11.0737
▁گوشار	-11.0737
▁بەڵگەیەکی	-11.0744
▁فێربوونی	-11.0744
▁پەرۆشی	-11.0744
▁ڕیفۆرم	-11.0744
▁تریشی	-11.0752
▁داعشدا	-11.0752
▁فریاکەوتن	-11.0752
▁وەستانی	-11.0752
▁چالاکیەکانی	-11.0752
▁ڕفیق	-11.0752
▁گفتوگۆیەک	-11.0752
▁تەوافوقی	-11.0759
▁پێداچوونەوە	-11.0759
▁گرتنەبەری	-11.0759
▁1996	-11.0766
▁سەرکوتی	-11.0766
▁شارەکه	-11.0766
▁شەهرستانی	-11.0766
▁کارم	-11.0766
▁دنیایەکی	-11.0773
▁ئاسن	-11.078
▁موزایەدەی	-11.078
▁وامان	-11.078
▁گەشەکردن	-11.078
▁شیری	-11.0787
▁عەبدول	-11.0787
▁فِی	-11.0787
▁ئاماژەمان	-11.0794
▁بنبڕکردنی	-11.0794
▁بەخەڵکی	-11.0794
▁دڵخۆش	-11.0794
▁دەگەن	-11.0794
▁شەپۆل	-11.0794
▁ڕاپۆرتەکەی	-11.0794
▁تۆزێک	-11.0802
▁خۆکوشتن	-11.0802
▁مەسیحییەکان	-11.0802
▁ڕوونیکردەوه	-11.0802
▁کتێبه	-11.0802
▁تێدەپەڕێت	-11.0809
▁داوی	-11.0809
▁ئاواتی	-11.0816
▁برسێتی	-11.0816
▁بەرامبەری	-11.0816
▁قەدری	-11.0816
▁1997	-11.0823
▁بگۆڕن	-11.0823
▁دەگوت	-11.0823
▁فرانس	-11.0823
▁مۆزەخانەی	-11.0823
▁ڕوداوەکانی	-11.0823
▁گۆشت	-11.0823
▁بەپێویستی	-11.083
▁نەدراوە	-11.083
▁یەخەی	-11.083
▁بزانرێت	-11.0838
▁بوەتە	-11.0838
▁دیسەمبەر	-11.0838
▁دەروون	-11.0838
▁گرنگیدان	-11.0838
▁خوێندنەوەیەکی	-11.0845
▁سەدە	-11.0845
▁ناساندن	-11.0845
▁حیزبانە	-11.0852
▁بەناچاری	-11.0859
▁سەراسەری	-11.0859
▁ڕێزلێنان	-11.0859
▁کادری	-11.0859
▁ئاوو	-11.0866
▁تیمێکی	-11.0866
▁حەج	-11.0866
▁ددان	-11.0866
▁شێوازێک	-11.0866
▁فێرکردن	-11.0866
▁هەڵسوڕاوی	-11.0866
▁پیتی	-11.0866
▁ئەدیب	-11.0874
▁بازاری	-11.0874
▁دیکەیە	-11.0874
▁ئاژانسەکان	-11.0881
▁قورسی	-11.0881
▁کۆمە	-11.0881
▁لێکراوە	-11.0888
▁کۆت	-11.0888
▁لەئارادایە	-11.0895
▁دەباغ	-11.0903
▁کەرەستە	-11.0903
▁سەربەست	-11.091
▁سەرەتاکانی	-11.091
▁شۆفێری	-11.091
▁مۆندیال	-11.091
▁نەبی	-11.091
▁بەدەیان	-11.0917
▁فاروق	-11.0917
▁هێرشه	-11.0917
▁پارتەکانی	-11.0917
▁چاکتر	-11.0917
▁ڕقی	-11.0917
▁برسی	-11.0924
▁جان	-11.0924
▁فلمێ	-11.0924
▁لەسێ	-11.0924
▁لەیەکێتی	-11.0924
▁دوورخستنەوەی	-11.0932
▁مێینە	-11.0932
▁نادر	-11.0932
▁وانییە	-11.0932
▁کرایەوه	-11.0932
▁ئەیلولی	-11.0939
▁باپیر	-11.0939
▁لەخەڵکی	-11.0939
▁بزانیت	-11.0946
▁بێزاری	-11.0946
▁بەزۆرینەی	-11.0946
▁جیاوازیان	-11.0946
▁1993	-11.0953
▁خۆیانیان	-11.0953
▁عە	-11.0953
▁پێکهاتەیەکی	-11.0953
▁سەرقاڵ	-11.0961
▁شوێنانە	-11.0961
▁هەڵوەشانەوەی	-11.0961
▁پۆسته	-11.0961
▁بەدیار	-11.0968
▁ژنانەی	-11.0968
▁گفتوگۆکه	-11.0968
▁بڕیارو	-11.0975
▁بەرازیلی	-11.0975
▁بەغداوە	-11.0975
▁تەقینەوەکانی	-11.0975
▁Friday	-11.0983
▁تێکست	-11.0983
▁خانمان	-11.0983
▁نەوتە	-11.0983
▁موڵک	-11.099
▁میللەتەکەمان	-11.099
▁پێکهێناوە	-11.099
▁داخراو	-11.0997
▁مەترسیدارە	-11.0997
▁توندڕەوی	-11.1005
▁خوایەکی	-11.1005
▁شەونم	-11.1005
▁پان	-11.1005
▁ڕەخساندنی	-11.1005
▁خەڵکانێک	-11.1012
▁دەستەیەک	-11.1012
▁شاهۆ	-11.1012
▁لایەکەوە	-11.1012
▁مەبەسته	-11.1012
▁کێشاوە	-11.1012
▁مۆسیقای	-11.1019
▁نەتەوەییەکان	-11.1019
▁هونەرمەندێکی	-11.1019
▁کەناڵێکی	-11.1019
▁بەدەنگی	-11.1027
▁دانیان	-11.1027
▁واش	-11.1027
▁پابەندبوون	-11.1027
▁کاتێکدایە	-11.1027
▁بەهۆیەوه	-11.1034
▁تەنیشت	-11.1034
▁جێهێشت	-11.1034
▁ڕەتی	-11.1034
▁دەمێک	-11.1041
▁زانیوە	-11.1041
▁ناودار	-11.1041
▁ڕووناک	-11.1041
▁کارەساتێکی	-11.1041
▁کۆتاییان	-11.1041
▁P	-11.1049
▁ببەخشێت	-11.1049
▁مرد	-11.1049
▁جێگە	-11.1056
▁سنوورە	-11.1056
▁می	-11.1056
▁هاوپەیمانەکانی	-11.1056
▁چێژی	-11.1056
▁ڕەنج	-11.1056
▁دەربکەوێت	-11.1063
▁لەخۆیان	-11.1063
▁نازم	-11.1063
▁هۆزی	-11.1063
▁ڕێککەوتنە	-11.1063
▁براوە	-11.1071
▁دووجار	-11.1071
▁سەرەکییە	-11.1071
▁هەمویان	-11.1071
▁وەی	-11.1071
▁ئاسەواری	-11.1078
▁بەکردەوە	-11.1078
▁میلیشیا	-11.1078
▁مەعریفە	-11.1078
▁چرکە	-11.1085
▁سۆفی	-11.1093
▁ناڤێ	-11.1093
▁ڕۆژنامەیەکی	-11.1093
▁گوتوویەتی	-11.1093
▁ئیحسان	-11.11
▁مانچستەرسیتی	-11.11
▁ڕووبار	-11.11
▁پڕۆژەیاسای	-11.1108
▁خولەکه	-11.1115
▁ئازایەتی	-11.113
▁بەسرە	-11.113
▁دامەزراند	-11.113
▁پڕۆسەی	-11.113
▁،]بۆ	-11.1137
▁ئاژانس	-11.1137
▁خودایە	-11.1137
▁دەهێنێتەوە	-11.1137
▁قابیلی	-11.1137
▁پەیامە	-11.1137
▁چونە	-11.1137
▁کێشەکانیان	-11.1137
▁کەمیی	-11.1137
▁یەکڕیزیی	-11.1137
▁بهێنێتە	-11.1145
▁لەوکاتەدا	-11.1145
▁کەسێ	-11.1145
▁کەسێکیش	-11.1145
▁false	-11.1152
▁بەلایەنی	-11.1152
▁سعودی	-11.1152
▁عەرەبستانی	-11.1159
▁پڕۆژەکەی	-11.1159
▁پەرلەمانە	-11.1159
▁ئیرادە	-11.1167
▁بڕیاریان	-11.1167
▁بەزۆری	-11.1167
▁کۆنتڕۆڵ	-11.1167
▁کۆڕی	-11.1167
▁ئادەمیزاد	-11.1174
▁ئەنجامدەدرێت	-11.1174
▁بەڕێوەبردن	-11.1174
▁لەبەرانبەر	-11.1174
▁ماڵپەرِی	-11.1174
▁ڕاستیی	-11.1174
▁تێپەڕی	-11.1182
▁لەبەیاننامەیەکدا	-11.1182
▁مەبەستمان	-11.1182
▁پەسند	-11.1182
▁کاریگەرییان	-11.1182
▁گروپێک	-11.1182
▁بارێکی	-11.1189
▁بنێین	-11.1189
▁وتووە	-11.1189
▁پرنسیپی	-11.1189
▁ببینە	-11.1197
▁دەخایەنێت	-11.1197
▁ساڵانێکی	-11.1197
▁پێدەدرێت	-11.1197
▁ڕەوشە	-11.1197
▁ژمارەیە	-11.1197
▁ئەفسەرێکی	-11.1204
▁نەرێنی	-11.1204
▁ڕۆیشتن	-11.1204
▁یەکێتیش	-11.1204
▁تەواویان	-11.1212
▁لێدوانەی	-11.1212
▁کامە	-11.1212
▁کەشێکی	-11.1212
▁سەرنجە	-11.1219
▁هەڕەشەکانی	-11.1219
▁پاڵێوراوی	-11.1219
▁پسپۆڕ	-11.1219
▁بنەڕەتدا	-11.1227
▁دەربکات	-11.1227
▁چەتری	-11.1227
▁کۆتاییهێنان	-11.1227
▁بەڵگه	-11.1234
▁سەرکردەو	-11.1234
▁شیعەی	-11.1234
▁ناسر	-11.1234
▁هێناوەتە	-11.1234
▁گوتە	-11.1234
▁ئەلعێراقیه	-11.1242
▁قانون	-11.1249
▁جولەکە	-11.1257
▁دەردەکەوێ	-11.1257
▁لەخۆدەگرێت	-11.1257
▁نەخۆشییەکانی	-11.1257
▁هێما	-11.1257
▁پەرلەمانیش	-11.1257
▁حسن	-11.1264
▁حیزبێکی	-11.1264
▁خاوێن	-11.1264
▁خاڵێک	-11.1272
▁سوتەمەنی	-11.1272
▁شارەزایان	-11.1272
▁ئاری	-11.1279
▁هەشتی	-11.1279
▁وت:	-11.1279
▁وەڵامێکی	-11.1279
▁چاندنی	-11.1279
▁زانیارییانەی	-11.1287
▁لێدێت	-11.1287
▁مەیلی	-11.1287
▁پشێوی	-11.1287
▁"عەلی	-11.1294
▁بەلاوە	-11.1294
▁ست	-11.1294
▁نامەوێت	-11.1294
▁هەبووبێت	-11.1294
▁ڕاستگۆیی	-11.1294
▁گونجاوە	-11.1294
▁بگاته	-11.1302
▁وتارەکەی	-11.1302
▁ڕەواندزی	-11.1302
▁73	-11.1309
▁کۆپی	-11.1309
▁بدرێن	-11.1317
▁دەبرد	-11.1317
▁دەگێڕێت	-11.1317
▁ناوەراستی	-11.1317
▁هن	-11.1317
▁خاو	-11.1324
▁خۆیانن	-11.1324
▁داستانی	-11.1324
▁نەجیب	-11.1324
▁تۆمەت	-11.1332
▁سونە	-11.1332
▁قارەمان	-11.1332
▁ناوچەیەدا	-11.1332
▁64	-11.134
▁زاتی	-11.134
▁قەدەر	-11.134
▁هەمی	-11.134
▁ڕێکخستنەوەی	-11.134
▁خەتەنەکردنی	-11.1347
▁عەبدولعەزیز	-11.1347
▁مایۆ	-11.1347
▁پرسیارانە	-11.1347
▁ئەمەریکادا	-11.1355
▁دیکەیش	-11.1355
▁شاردا	-11.1355
▁شیرینی	-11.1355
▁قوربانیی	-11.1355
▁هێرشبەری	-11.1355
▁کورد،	-11.1362
▁ئەشکەنجە	-11.137
▁ناهێڵێت	-11.137
▁کاتێکدایه	-11.137
▁حەقە	-11.1377
▁مامۆستایەکی	-11.1377
▁پاداشت	-11.1377
▁پێشکەوتووی	-11.1377
▁چارەنووسساز	-11.1377
▁گرنگیان	-11.1377
▁گەمە	-11.1377
▁ئەخلاق	-11.1385
▁بێشکچی	-11.1385
▁بکاتەوەو	-11.1393
▁زانکۆکان	-11.1393
▁هەوێنی	-11.1393
▁احمد	-11.14
▁بەڕێژەی	-11.14
▁جوگرافیای	-11.14
▁ئەفسانە	-11.1408
▁بەکورد	-11.1408
▁دەسەلمێنێت	-11.1408
▁سەیدسادق	-11.1408
▁ئیتاڵیا	-11.1415
▁بەکاریان	-11.1415
▁خەلیفە	-11.1415
▁وەهای	-11.1415
▁ئاگایی	-11.1423
▁ئەمیری	-11.1423
▁بارزان	-11.1423
▁بچینە	-11.1423
▁دۆستەکانی	-11.1423
▁پرۆگرامێکی	-11.1423
▁گرفتێکی	-11.1423
▁توێژینەوەیەکی	-11.1431
▁جیهانیش	-11.1431
▁جەزائیر	-11.1431
▁سەربازێکی	-11.1431
▁چاککردنی	-11.1431
▁کاربەدەسـتانی	-11.1431
▁کێشەیان	-11.1431
▁ئامادەین	-11.1438
▁دووەم/	-11.1438
▁شەر	-11.1438
▁مرۆڤەوە	-11.1438
▁هاتینه	-11.1438
▁یەکلا	-11.1438
▁بێته	-11.1446
▁باخ	-11.1454
▁باڵ	-11.1454
▁سەرای	-11.1454
▁قەوم	-11.1454
▁کەلتوور	-11.1454
▁ڕاگەیەنرا	-11.1461
▁ئێستاوە	-11.1469
▁1989	-11.1477
▁ئەسڵی	-11.1477
▁بۆکان	-11.1477
▁بەکۆی	-11.1477
▁بەیاننامەکەدا	-11.1477
▁دانیشتوانەکەی	-11.1477
▁سازی	-11.1477
▁سەلمان	-11.1477
▁وتارە	-11.1477
▁ئەمریکییەکان	-11.1484
▁بەئامانجی	-11.1484
▁بەهێزو	-11.1484
▁دەریایی	-11.1484
▁دەپارێزێت	-11.1484
▁میللەتە	-11.1484
▁کەمینە	-11.1484
▁بەهۆکاری	-11.1492
▁قۆناغەی	-11.1492
▁میترۆ	-11.1492
▁بونەتە	-11.15
▁تاوتوێکرد	-11.15
▁زیندانیانی	-11.15
▁شتێکدا	-11.15
▁پێکەوەژیانی	-11.15
▁گەورەکەی	-11.15
▁بەبەردەوامی	-11.1507
▁دامەزرێنەری	-11.1507
▁ڕۆژنامەنوسی	-11.1507
▁داخە	-11.1515
▁دامەزرا	-11.1515
▁داهاتوویەکی	-11.1515
▁دەستەو	-11.1515
▁یادە	-11.1515
▁ئەنجومەنە	-11.1523
▁دەگەرێتەوە	-11.1523
▁فرۆشی	-11.1523
▁نواندن	-11.1523
▁پسپۆری	-11.1523
▁F	-11.1531
▁بەرچاویان	-11.1531
▁مانگدا	-11.1531
▁چەمک	-11.1531
▁یاسایه	-11.1531
▁دەیتوانی	-11.1538
▁سەربەستی	-11.1538
▁فرۆکەخانەی	-11.1538
▁مێرد	-11.1538
▁شارەکەی	-11.1546
▁شێوەکار	-11.1546
▁لەمانە	-11.1546
▁پێبکات	-11.1546
▁پێکراوە	-11.1546
▁86	-11.1554
▁دووان	-11.1554
▁دەستپێکرد	-11.1554
▁سفر	-11.1554
▁لەنێوانیاندا	-11.1554
▁هێنانە	-11.1554
▁دزینی	-11.1561
▁دۆخەی	-11.1561
▁عاشق	-11.1561
▁هێناو	-11.1561
▁گوتەیەکی	-11.1561
▁خانووبەرە	-11.1569
▁پێنجشەممه	-11.1569
▁کۆنگرەکە	-11.1569
▁74	-11.1577
▁تەقینەوەکەی	-11.1577
▁دەخوات	-11.1577
▁سەرەتادا	-11.1577
▁هەبێت،	-11.1577
▁ئەمریکاش	-11.1585
▁بونیادی	-11.1585
▁دەکوژێت	-11.1585
▁سـاڵح	-11.1585
▁شەراکەتی	-11.1585
▁پیری	-11.1585
▁ڕواە	-11.1585
▁کێشا	-11.1585
▁کەوتەوە	-11.1585
▁بەرگ	-11.1592
▁بەهەند	-11.1592
▁حاڵ	-11.1592
▁ڕاشیگەیاند:	-11.1592
▁سنە	-11.16
▁بگەیەنن	-11.1608
▁بەناونیشانی	-11.1608
▁بەڵی	-11.1608
▁خستنی	-11.1608
▁سالانی	-11.1608
▁سەردانەی	-11.1608
▁ڕێککەوتنێکی	-11.1608
▁گاڵتە	-11.1608
▁گرینگە	-11.1608
▁باژێرێ	-11.1616
▁جەواد	-11.1616
▁حەمەڕەشید	-11.1616
▁خەڵاتەکانی	-11.1616
▁عەقڵییەتی	-11.1616
▁کۆک	-11.1616
▁بینا	-11.1624
▁خوارەوه	-11.1624
▁خەوی	-11.1624
▁ناکۆک	-11.1624
▁هۆشیاریی	-11.1624
▁کلیلی	-11.1624
▁ئاشتیانە	-11.1631
▁سیاسیش	-11.1631
▁شتێکە	-11.1631
▁نەبین	-11.1631
▁هاتووچۆی	-11.1631
▁ڕێژەیە	-11.1631
▁ڕەسول	-11.1631
▁ئێزدییەکان	-11.1639
▁خۆمدا	-11.1639
▁بارەگاکانی	-11.1647
▁دروستبونی	-11.1647
▁منیان	-11.1647
▁نەفرەت	-11.1647
▁ئێ	-11.1655
▁حکومەتێک	-11.1655
▁فێڵ	-11.1655
▁هەناوی	-11.1655
▁داوایەکی	-11.1663
▁فەرمانبەری	-11.1663
▁پەیامەکەی	-11.1663
▁چەندی	-11.1663
▁ئیسلامە	-11.167
▁ئەوانەشی	-11.167
▁بڵاویکردەوە	-11.167
▁کۆنەکان	-11.167
▁سەرەخۆشی	-11.1678
▁هەندەران	-11.1678
▁وتی	-11.1678
▁کارمەند	-11.1678
▁88	-11.1686
▁دروستبکات	-11.1686
▁دەدات،	-11.1686
▁ڕێکخست	-11.1686
▁بگوترێت	-11.1694
▁شانۆکار	-11.1694
▁هەستیان	-11.1694
▁پیشانی	-11.1694
▁کاسب	-11.1694
▁گەڕەک	-11.1694
▁خوێندنگە	-11.1702
▁سالانە	-11.1702
▁نەکراون	-11.1702
▁خوشکی	-11.171
▁لادانی	-11.171
▁وتیشی	-11.171
▁پێشووتر	-11.171
▁ئەلبومی	-11.1717
▁بەرژەوەندیە	-11.1717
▁بەڕوونی	-11.1717
▁نەبووه	-11.1717
▁پەیمانگاکان	-11.1717
▁گۆڕ	-11.1717
▁گەورەدا	-11.1717
▁یەکیەتیی	-11.1717
▁بەردەوامه	-11.1725
▁زێدی	-11.1725
▁سەقامگیر	-11.1725
▁پێستی	-11.1725
▁زانستیی	-11.1733
▁شاعیران	-11.1733
▁ڕۆژنامەکان	-11.1733
▁کۆمەڵایەتیەکان	-11.1733
▁یارییه	-11.1733
▁1968	-11.1741
▁ئۆڵۆمپی	-11.1741
▁دراوه	-11.1741
▁سوودیان	-11.1741
▁قورئانه	-11.1741
▁نۆڤەمبەر	-11.1741
▁دەخوازن	-11.1749
▁کیلۆ	-11.1749
▁گوی	-11.1749
▁دەوڵەتێک	-11.1757
▁لەجێی	-11.1757
▁ئامێرژەنی	-11.1765
▁توانایەکی	-11.1765
▁تیڤی	-11.1765
▁ئەسعەد	-11.1773
▁خزمەتگوزارییەکان	-11.1773
▁لەبوارەکانی	-11.1773
▁ڕۆما	-11.1773
▁قەد	-11.1781
▁لەقەزای	-11.1781
▁وێنەگرتن	-11.1789
▁ڕێڕەوی	-11.1789
▁ئێرانە	-11.1796
▁مەبەستیان	-11.1796
▁پێیەتی	-11.1796
▁پەی	-11.1796
▁کوێر	-11.1796
▁گوایه	-11.1796
▁ئیسلامیە	-11.1804
▁بدەن،	-11.1804
▁تۆڕە	-11.1804
▁دیدارێکی	-11.1804
▁مەدریدی	-11.1804
▁نێردراوە	-11.1804
▁دەکرێ	-11.1812
▁سووکایەتی	-11.1812
▁هەڵگرتووە	-11.1812
▁کادر	-11.1812
▁بایکۆتی	-11.182
▁دەخاته	-11.182
▁منداڵەکە	-11.182
▁کەرامەتی	-11.182
▁ئاماژەیەکی	-11.1828
▁حەقیقەتی	-11.1828
▁دەنگدەرانی	-11.1828
▁مەکتەب	-11.1828
▁یەکگرتوی	-11.1828
▁ئەندامێتی	-11.1836
▁چۆنیەتیی	-11.1836
▁کەهەموو	-11.1836
▁گەورەیەی	-11.1836
▁ئارادایە	-11.1844
▁بووایە	-11.1844
▁تازەیە	-11.1844
▁سەرتاپای	-11.1844
▁یەکگرتوەکانی	-11.1844
▁بەست	-11.1852
▁تەنێ	-11.1852
▁سەوزی	-11.1852
▁وێنەکانی	-11.1852
▁پەتی	-11.1852
▁دەستێکی	-11.186
▁نەقیب	-11.186
▁بینەران	-11.1868
▁زیندووی	-11.1868
▁کۆنفرانس	-11.1868
▁بابەته	-11.1876
▁قایل	-11.1876
▁هێزەی	-11.1876
▁هەڵەکانی	-11.1876
▁کۆشش	-11.1876
▁میرانی	-11.1884
▁کلاسیکی	-11.1884
▁بەلیستی	-11.1892
▁خواستە	-11.1892
▁هاتەوە	-11.1892
▁کێڵگەی	-11.1892
▁گوللە	-11.1892
▁71	-11.19
▁ڕۆژا	-11.19
▁ئینسانەکان	-11.1908
▁بابە	-11.1908
▁دەرێ	-11.1908
▁زەنگی	-11.1908
▁نەکردووەتەوە	-11.1908
▁پەروەردگارا	-11.1908
▁کرایە	-11.1908
▁کورسییەکانی	-11.1908
▁ئەنجامەکان	-11.1916
▁پێرس	-11.1916
▁کەوتوونەتە	-11.1916
▁دەگمەن	-11.1924
▁مەرجە	-11.1924
▁ژیانم	-11.1924
▁تووشبوون	-11.1932
▁سال	-11.1932
▁لەوێشەوە	-11.1932
▁هاندەرانی	-11.1932
▁هونەرییەکانی	-11.1932
▁چەندێ	-11.1932
▁کوردییەکاندا	-11.1932
▁بکەنەوه	-11.194
▁بۆمب	-11.194
▁دوژمنایەتی	-11.194
▁دەرچووانی	-11.194
▁لەشارەکانی	-11.194
▁پۆستەکەی	-11.194
▁ئەوەشکرد	-11.1948
▁گوتەنی	-11.1948
▁ئاسانە	-11.1956
▁بارزانیی	-11.1956
▁بەگەرمی	-11.1956
▁تیرۆرو	-11.1956
▁ئاژاوە	-11.1964
▁خزمەتکردن	-11.1964
▁ڕێکخراوەی	-11.1964
▁کوردمان	-11.1964
▁گرێبەست	-11.1964
▁بونە	-11.1972
▁سالم	-11.1972
▁91	-11.198
▁ئەبن	-11.198
▁بچێتەوە	-11.198
▁بەوپێیەی	-11.198
▁سەقامگیریی	-11.198
▁مردوو	-11.198
▁ئەکاتەوە	-11.1988
▁بەرِێوەبەرایەتی	-11.1988
▁فڕێ	-11.1988
▁میوە	-11.1988
▁کۆیی	-11.1988
▁زیاترو	-11.1997
▁پێمانوایە	-11.1997
▁ڕۆژنامەکانی	-11.1997
▁ژوورەوە	-11.1997
▁%ی	-11.2005
▁بودجه	-11.2005
▁دیاربەکر	-11.2005
▁دەمێ	-11.2005
▁سلێمانیش	-11.2005
▁گەشتیاران	-11.2005
▁حەقی	-11.2013
▁خۆمانی	-11.2013
▁داهاتێکی	-11.2013
▁وشەیەکی	-11.2013
▁ولا	-11.2013
▁ئامادەکردن	-11.2021
▁ستایش	-11.2021
▁لەوی	-11.2021
▁نوێنەر	-11.2021
▁پەیوەندیدارەکانی	-11.2021
▁گفتوگۆیەکدا	-11.2021
▁یۆنانی	-11.2021
▁تاوانباری	-11.2029
▁دابڕێنراوەکان	-11.2029
▁داخ	-11.2029
▁زەوت	-11.2029
▁لەشەڕی	-11.2029
▁ناوەکەی	-11.2029
▁هەندێکیشیان	-11.2029
▁ڕەشە	-11.2029
▁تاکێک	-11.2037
▁ترسناکە	-11.2037
▁سندوقەکانی	-11.2037
▁کوشندە	-11.2037
▁بریارە	-11.2045
▁بێوار	-11.2045
▁بەرۆکی	-11.2045
▁تۆمارکردووە	-11.2045
▁حەیدەری	-11.2045
▁سەگ	-11.2045
▁شاڵاوی	-11.2045
▁پێکهاتەکان	-11.2045
▁کۆبکاتەوە	-11.2045
▁Wednesday	-11.2053
▁بەحرەین	-11.2053
▁بەستووە	-11.2053
▁خاڵانەی	-11.2053
▁وتنی	-11.2053
▁وتووێژ	-11.2053
▁ڕسول	-11.2053
▁زەبری	-11.2061
▁قبوڵی	-11.2061
▁بەڕێوه	-11.207
▁تیمەکانی	-11.207
▁لق	-11.207
▁لەناکاو	-11.207
▁پەروەردگاریان	-11.207
▁ڕایگەیاندبوو	-11.207
▁لاسایی	-11.2078
▁هەموارکردنەوەی	-11.2078
▁69	-11.2086
▁تکریت	-11.2086
▁دەسەڵاتدارێتی	-11.2086
▁زەق	-11.2086
▁سه	-11.2086
▁شەرەفی	-11.2086
▁عومەری	-11.2086
▁نزار	-11.2086
▁نووسینەوەی	-11.2086
▁بڕگە	-11.2094
▁دوورن	-11.2094
▁دەهێنا	-11.2094
▁لەدەوری	-11.2094
▁هوشیار	-11.2094
▁چێندراو	-11.2094
▁ئەلقاعیدە	-11.2102
▁تورکیایە	-11.2102
▁توێژەران	-11.2102
▁خۆری	-11.211
▁داگیرکەری	-11.211
▁شەوانە	-11.211
▁لێکۆڵینەوەیەکی	-11.211
▁مەنووچێهر	-11.211
▁کردبوو،	-11.211
▁83	-11.2119
▁حەڤدەی	-11.2119
▁دارستان	-11.2119
▁دەوڵەمەندی	-11.2119
▁هەوڵدەدەین	-11.2119
▁سازش	-11.2127
▁ساڵانه	-11.2127
▁ڕەوایە	-11.2127
▁سمکۆ	-11.2135
▁شاکر	-11.2135
▁پردێ	-11.2135
▁ڕەگی	-11.2135
▁یار	-11.2135
▁دوبەی	-11.2143
▁ناحیەکانی	-11.2143
▁نارەزایی	-11.2143
▁بەڵگەوە	-11.2151
▁ناردووە	-11.2151
▁پاشانیش	-11.2151
▁پسپۆر	-11.2151
▁بەیانیان	-11.216
▁پراکتیکی	-11.216
▁بینەری	-11.2168
▁تریشیان	-11.2168
▁دەگرین	-11.2168
▁شۆک	-11.2168
▁هەرسێ	-11.2168
▁پاساو	-11.2168
▁ئازادییەکانی	-11.2176
▁عێراق)	-11.2176
▁غەیرە	-11.2176
▁گەرەکی	-11.2176
▁(ئەسوات	-11.2184
▁خەڵکانێکی	-11.2184
▁فراکسیۆنە	-11.2184
▁موحەمەدی	-11.2184
▁نامەیەک	-11.2184
▁وێنا	-11.2184
▁پێشان	-11.2184
▁1974	-11.2192
▁لەترسی	-11.2192
▁نادەین	-11.2192
▁پەری	-11.2192
▁گفت	-11.2192
▁News	-11.2201
▁داوەو[	-11.2201
▁دوازدە	-11.2201
▁مِنْ	-11.2201
▁پێشەنگ	-11.2201
▁بەجیا	-11.2209
▁شەفافییەت	-11.2209
▁لەعێراقدا	-11.2209
▁نزیکترین	-11.2209
▁هێرشکردنە	-11.2209
▁پێشێلکاری	-11.2209
▁بەرزتر	-11.2225
▁تێبگەن	-11.2225
▁دەگەڕێن	-11.2225
▁وکاری	-11.2225
▁پێداویستیەکانی	-11.2225
▁ڕونیکردەوە	-11.2225
▁کۆنگرەیە	-11.2225
▁الّ	-11.2234
▁بینیم	-11.2234
▁دایکان	-11.2234
▁فێربوون	-11.2234
▁لەبارەگای	-11.2234
▁محمد	-11.2234
▁نەبووەو	-11.2234
▁هەوڵیان	-11.2234
▁خولە	-11.2242
▁دانرا	-11.2242
▁لەخزمەتی	-11.2242
▁واقیعدا	-11.2242
▁بچوکی	-11.225
▁مەترسییەکی	-11.225
▁ئاستەنگ	-11.2259
▁لەسەدا	-11.2259
▁ڕامان	-11.2259
▁ڕەچاوکردنی	-11.2259
▁إلی	-11.2267
▁زەمین	-11.2267
▁نوسەری	-11.2267
▁کراوەیە	-11.2267
▁78	-11.2275
▁دەروێش	-11.2275
▁نابینێت	-11.2275
▁پێوەر	-11.2275
▁بەدەستبهێنێت	-11.2284
▁بەڕێزتان	-11.2284
▁هەڵەو	-11.2284
▁وەرگێڕان	-11.2284
▁کۆمپانیاکە	-11.2284
▁کۆمۆنیزم	-11.2284
▁دوعا	-11.2292
▁فیلمەدا	-11.2292
▁فەبرایەر	-11.2292
▁هەوڵدەدەن	-11.2292
▁چۆنییەتی	-11.2292
▁کەپێویستە	-11.2292
▁87	-11.23
▁بخوێنێت	-11.23
▁برینی	-11.23
▁بوین	-11.23
▁توێژی	-11.23
▁جارانی	-11.23
▁داواکردنی	-11.23
▁دڵەڕاوکێ	-11.23
▁کارگە	-11.23
▁مرۆڤەکانی	-11.2309
▁نوێیەی	-11.2309
▁کردەوەیەکی	-11.2309
▁79	-11.2317
▁وەر	-11.2317
▁پلانە	-11.2317
▁ڕۆیشت	-11.2317
▁ڕێباز	-11.2317
▁ژناندا	-11.2317
▁ژیاوە	-11.2317
▁ئەمریکایە	-11.2325
▁باوەڕم	-11.2325
▁بگرێتە	-11.2325
▁دژوار	-11.2325
▁دەردەکەون	-11.2325
▁زمانێک	-11.2325
▁ماوەیەی	-11.2325
▁مەحکوم	-11.2325
▁کردوویەتی	-11.2325
▁گرنگن	-11.2325
▁ئەنجامیان	-11.2334
▁دەخەینە	-11.2334
▁ذ	-11.2334
▁فریاد	-11.2334
▁نەبێتەوە	-11.2334
▁ڕێککەوتنێک	-11.2334
▁دیارو	-11.2342
▁نەزانی	-11.2342
▁و،	-11.2342
▁کوڕێکی	-11.2342
▁ببەستێت	-11.235
▁خوازی	-11.235
▁شیعرێکی	-11.235
▁لەسەرووی	-11.235
▁نووسەرێکی	-11.235
▁براوەکانی	-11.2359
▁تێبگەین	-11.2359
▁جاسم	-11.2359
▁خوارووی	-11.2359
▁نوێوە	-11.2359
▁پشوو	-11.2359
▁چیرۆکێکی	-11.2359
▁ڕوانگەیەوە	-11.2359
▁کەرکوکیش	-11.2359
▁10000000	-11.2367
▁ئێرانەوه	-11.2367
▁ئەوەشیان	-11.2367
▁تۆڵە	-11.2367
▁سەرەتاییەکانی	-11.2367
▁قاهیرە	-11.2367
▁لەدروستکردنی	-11.2367
▁لەیاسای	-11.2367
▁ئەندامە	-11.2375
▁بیانییەکان	-11.2375
▁بەشداربووانی	-11.2375
▁تیرۆرستان	-11.2375
▁دێموکراسیدا	-11.2375
▁گونجاوی	-11.2375
▁یەکجاری	-11.2375
▁بەمە	-11.2384
▁توێژەری	-11.2384
▁نازانیت	-11.2384
▁لێبکات	-11.2392
▁99	-11.2401
▁ئەیوب	-11.2401
▁تایمز	-11.2401
▁پەند	-11.2401
▁پەیوەند	-11.2401
▁دیکەوە،	-11.2409
▁زمانەوانی	-11.2409
▁سەروو	-11.2409
▁وڵاتەکە	-11.2409
▁ئازارەکانی	-11.2418
▁مەلای	-11.2418
▁کاریگەریان	-11.2418
▁110	-11.2426
▁ئەرکانی	-11.2426
▁خۆپیشاندەرانی	-11.2426
▁شایستە	-11.2426
▁میهرەبانی	-11.2426
▁بەتوانای	-11.2434
▁زمانەکانی	-11.2434
▁لوقمان	-11.2434
▁چێنراو	-11.2434
▁یانەیە	-11.2434
▁بەرەیەکی	-11.2443
▁داواش	-11.2443
▁دەستگیرکرا	-11.2443
▁فارسیی	-11.2443
▁ماوه	-11.2443
▁ئیداریی	-11.2451
▁بەبڕیاری	-11.2451
▁خۆڕاگری	-11.2451
▁دەرکردووە	-11.2451
▁مەعریفی	-11.2451
▁نێوەندی	-11.2451
▁هەوڵەکانیان	-11.2451
▁ڕاپۆرتێک	-11.2451
▁ڕۆژگاری	-11.2451
▁Tuesday	-11.246
▁مەخمور	-11.246
▁پەنایان	-11.246
▁ڕەهەندە	-11.246
▁کیشوەری	-11.246
▁خانە	-11.2468
▁دەڵێت،	-11.2468
▁فۆڕمی	-11.2468
▁نەکردن	-11.2468
▁بترسن	-11.2477
▁بدەینەوە	-11.2477
▁خرایه	-11.2477
▁سەرچاوە:	-11.2477
▁فە	-11.2477
▁ناوخۆییەکانی	-11.2477
▁پەرەپێدان	-11.2477
▁ئامێرە	-11.2485
▁بەردەوامەو	-11.2485
▁نیچە	-11.2485
▁تووڕە	-11.2494
▁لایێ	-11.2494
▁لێکدانەوە	-11.2494
▁ئەمانیش	-11.2502
▁ئەمەریکاو	-11.2502
▁بکاتەوه	-11.2502
▁بیناسازی	-11.2502
▁تایبەته	-11.2502
▁تێکەڵی	-11.2502
▁خوارێ	-11.2502
▁کراونەتەوە	-11.2502
▁بیرمان	-11.2511
▁بەپێ	-11.2511
▁جیهانییەکان	-11.2511
▁خەرجکردنی	-11.2511
▁لەهەمانکاتیشدا	-11.2511
▁پرەنسیپی	-11.2511
▁پێکبهێنرێت	-11.2511
▁بۆمبڕێژکراو	-11.2519
▁خەسڵەتی	-11.2519
▁دەستوورە	-11.2519
▁فکر	-11.2519
▁لەڕوی	-11.2519
▁مانچستەریۆنایتد	-11.2519
▁نوێنەرێکی	-11.2519
▁وەرزشکردن	-11.2519
▁کەرنەڤاڵی	-11.2519
▁یاسادا	-11.2519
▁ساردی	-11.2528
▁ماڵێک	-11.2528
▁هەڵبژاردنەکە	-11.2528
▁دڵە	-11.2536
▁سیاسیەوە	-11.2536
▁عەدالەتی	-11.2536
▁قسەم	-11.2536
▁بوویت	-11.2545
▁بگەڕێینەوە	-11.2545
▁بەبەشداری	-11.2545
▁نەقشبەندی	-11.2545
▁هەبیت	-11.2545
▁کاکی	-11.2545
▁a	-11.2553
▁بێگەرد	-11.2553
▁دژه	-11.2553
▁دیبەگەیی	-11.2553
▁دەسەڵاتەکان	-11.2553
▁پێشمەرگەکانی	-11.2553
▁ڕون	-11.2553
▁کوردییەکانی	-11.2553
▁ئەفغانی	-11.2562
▁بای	-11.2562
▁لەبەرژەوەندیی	-11.2562
▁مۆدێرنە	-11.2562
▁نیشتمانە	-11.2562
▁ڕۆیشتنی	-11.2562
▁Monday	-11.257
▁ئاغای	-11.257
▁درۆی	-11.257
▁دەسەڵاتێک	-11.257
▁ولاتێکی	-11.257
▁ڕەق	-11.257
▁ئاسوودەیی	-11.2579
▁ئاژانسەکانی	-11.2579
▁تیاییدا	-11.2579
▁تەنگ	-11.2579
▁دز	-11.2579
▁نائومێدی	-11.2579
▁إِنّ	-11.2588
▁بارو	-11.2588
▁لەسێدارەدان	-11.2588
▁لەشێوەی	-11.2588
▁ناوچەکەیان	-11.2588
▁باوەڕمان	-11.2596
▁لێکۆڵینەوەکان	-11.2596
▁وەرن	-11.2596
▁وەفدەکە	-11.2596
▁گیرانی	-11.2596
▁خاوەندارێتی	-11.2605
▁دارو	-11.2605
▁شۆڕشگێڕی	-11.2605
▁لەبەرچاوگرتنی	-11.2605
▁پەنابەر	-11.2605
▁کێوی	-11.2605
▁سوتاندنی	-11.2613
▁وازیان	-11.2613
▁Saturday	-11.2622
▁بۆش	-11.2622
▁تەڕ	-11.2622
▁لەولاتانی	-11.2622
▁81	-11.2631
▁ئازادیخوازان	-11.2631
▁ئاوە	-11.2631
▁دەمرێت	-11.2631
▁نیشانەکانی	-11.2631
▁توانییان	-11.2639
▁توڕە	-11.2639
▁دەسەڵاتەکەی	-11.2639
▁فەریق	-11.2639
▁نەتەوەیە	-11.2639
▁ڕۆناڵدۆ	-11.2639
▁ڕەتدەکاتەوە	-11.2639
▁ژیانیدا	-11.2639
▁PKK	-11.2648
▁گوڵە	-11.2648
▁"نوری	-11.2656
▁بایی	-11.2656
▁دەوڵەتدا	-11.2656
▁پێدەکەن	-11.2656
▁گرنگه	-11.2656
▁العرب	-11.2665
▁دروستە	-11.2665
▁نواندنی	-11.2665
▁نەکردبێت	-11.2665
▁کارمان	-11.2665
▁بوترێت	-11.2674
▁دیمانەی	-11.2674
▁دەکوژن	-11.2674
▁هەشتا	-11.2674
▁هەڵدەستێت	-11.2674
▁کوردییەوە	-11.2674
▁یەکلاکردنەوەی	-11.2674
▁بەسەرچوو	-11.2682
▁دیاره	-11.2682
▁لەبودجەی	-11.2682
▁هاوڕێیانی	-11.2682
▁پێنوسەکان	-11.2682
▁کۆمەڵێکی	-11.2682
▁جاره	-11.2691
▁جیاجیاکان	-11.2691
▁گوت:	-11.2691
▁84	-11.27
▁بارودۆخ	-11.27
▁دەستەیەکی	-11.27
▁فەرمانگەکانی	-11.27
▁لێرەو	-11.27
▁هەڤال	-11.27
▁وڵاتەکەمان	-11.27
▁پاڵەوان	-11.27
▁کۆبوونەوەکان	-11.27
▁کۆششی	-11.27
▁ئەلمانیا	-11.2708
▁بنرێت	-11.2708
▁دەگەنە	-11.2708
▁لادان	-11.2708
▁نزیکن	-11.2708
▁هەمومان	-11.2708
▁پەله	-11.2708
▁گوندە	-11.2708
▁تانک	-11.2717
▁تەرمەکەی	-11.2717
▁دەنگدانەوە	-11.2717
▁ببین	-11.2726
▁بەخشین	-11.2726
▁بەردەوامیی	-11.2726
▁خۆپیشاندانەکە	-11.2726
▁دادگاییکردنی	-11.2726
▁چۆنی	-11.2726
▁ژان	-11.2726
▁ئەلعێراقییە	-11.2734
▁توڕەیی	-11.2734
▁تەواوکەری	-11.2734
▁جێگرەکەی	-11.2734
▁پێکان	-11.2734
▁پەراوێزی	-11.2734
▁ڕامیاریی	-11.2734
▁گوێمان	-11.2734
▁گەشتوگوزاری	-11.2734
▁1983	-11.2743
▁بوارێکی	-11.2743
▁لینین	-11.2743
▁پێشنیاز	-11.2743
▁ڕابردوو،	-11.2743
▁ڕەخنەیان	-11.2743
▁بەخێرهاتنی	-11.2752
▁تاڵان	-11.2752
▁زووە	-11.2752
▁لەت	-11.2752
▁مەتری	-11.2752
▁ولاتەکەی	-11.2752
▁پێشمەرگایەتی	-11.2752
▁کچەکە	-11.2752
▁بێژەر	-11.2761
▁بەسره	-11.2761
▁داگیرکاری	-11.2761
▁سروودی	-11.2761
▁پەردە	-11.2761
▁کرابوون	-11.2761
▁دەترسن	-11.2769
▁دەگوزەرێت	-11.2769
▁نەخۆشخانه	-11.2769
▁نەکردووه	-11.2769
▁هۆیەشەوە	-11.2769
▁کۆنسێرتی	-11.2769
▁ئێواران	-11.2778
▁پاسەوانەکانی	-11.2778
▁بژاردەی	-11.2787
▁حەوتەمی	-11.2787
▁خانمه	-11.2787
▁شیعەکانی	-11.2787
▁ناوەندێکی	-11.2787
▁هاوینی	-11.2787
▁Thursday	-11.2796
▁ئابوریی	-11.2796
▁باسکردن	-11.2796
▁دایکە	-11.2796
▁لەئێستا	-11.2796
▁هەڵبگرێت	-11.2796
▁ژەهراوی	-11.2796
▁کردەوانەی	-11.2796
▁جلوبەرگ	-11.2804
▁سورەتی	-11.2804
▁هەریری	-11.2804
▁وێنای	-11.2804
▁ڕۆژنامەنوسانی	-11.2804
▁ئەمانەی	-11.2813
▁نەبووم	-11.2813
▁بدرێتە	-11.2822
▁تۆمارکراوە	-11.2822
▁بەوەوە	-11.2831
▁توانیویانه	-11.2831
▁شاهیدی	-11.2831
▁چووه	-11.2831
▁کۆشک	-11.2831
▁کۆمۆنیست	-11.2831
▁بەسەرهاتی	-11.2839
▁زەمان	-11.2839
▁نووسەرەکەی	-11.2839
▁هیندی	-11.2839
▁یەو	-11.2839
▁بەرپرسیاریەتی	-11.2848
▁سەرکەوتنە	-11.2848
▁عەدالەت	-11.2848
▁فیدرال	-11.2848
▁ناوچەکان	-11.2848
▁پاشایەتی	-11.2848
▁پرسەکانی	-11.2848
▁ڕووبەڕوو	-11.2848
▁کێشەیه	-11.2848
▁Sunday	-11.2857
▁دەڤەرە	-11.2857
▁شاخەوان	-11.2857
▁فیدراڵ،	-11.2857
▁چاومان	-11.2857
▁خێرای	-11.2866
▁شەوکەت	-11.2866
▁پێداویستییە	-11.2866
▁دێموکراسییە	-11.2875
▁دەستگیرکرد	-11.2875
▁نەرمی	-11.2875
▁پێنجی	-11.2875
▁ئاڵوگۆڕ	-11.2884
▁بوونێکی	-11.2884
▁خوه	-11.2884
▁دەردی	-11.2884
▁دەردەسەری	-11.2884
▁نابین	-11.2884
▁چاکترین	-11.2884
▁گۆڕانیش	-11.2884
▁view	-11.2892
▁ئەزانن	-11.2892
▁بەناوبانگ	-11.2892
▁خەسرەو	-11.2892
▁دەبینەوە	-11.2892
▁شتەکانی	-11.2892
▁هەواڵەکانی	-11.2892
▁هەژارو	-11.2892
▁ویستیان	-11.2892
▁وەدەست	-11.2892
▁کارەش	-11.2892
▁باڵەخانەی	-11.2901
▁لویس	-11.2901
▁چەوساندنەوەی	-11.2901
▁کردەیەکی	-11.2901
▁بەچ	-11.291
▁وەڵامدا	-11.291
▁چیک	-11.291
▁دەکوژرێت	-11.2919
▁قە	-11.2919
▁هەمە	-11.2919
▁هەڵبژاردنەدا	-11.2919
▁وەیە	-11.2919
▁ئەلیکترۆنی	-11.2928
▁ئەمڕۆکە	-11.2928
▁داعشی	-11.2928
▁دوکانی	-11.2928
▁سنه	-11.2928
▁شەشی	-11.2928
▁لەگوندی	-11.2928
▁ئەگەریش	-11.2937
▁بەعسدا	-11.2937
▁خومەینی	-11.2937
▁دۆزرایەوە	-11.2937
▁دۆستانی	-11.2937
▁مەغریب	-11.2937
▁هەستیاری	-11.2937
▁هەمانکاتدا	-11.2937
▁پەسەندی	-11.2937
▁بەسەدان	-11.2946
▁زیانەکانی	-11.2946
▁عێراق"	-11.2946
▁ناسراون	-11.2946
▁کوبانی	-11.2946
▁تائیفی	-11.2954
▁دانیشتوی	-11.2954
▁داون	-11.2954
▁دەرماڵەی	-11.2954
▁ساکار	-11.2954
▁ماوەیە	-11.2954
▁وڵاتەکه	-11.2954
▁کاربکات	-11.2954
▁بەیاننامەکەی	-11.2963
▁تێبگات	-11.2963
▁جەمسەری	-11.2963
▁حەسرەتی	-11.2963
▁زەمینی	-11.2963
▁سکی	-11.2963
▁نەتوانراوە	-11.2963
▁چێڵسی	-11.2963
▁ڕوونتر	-11.2963
▁گوتویەتی	-11.2963
▁گەڕاندەوە	-11.2963
▁تۆوی	-11.2972
▁دەرئەنجام	-11.2972
▁سەرکەوتووی	-11.2972
▁ناوەکانی	-11.2972
▁جوڵەی	-11.2981
▁سەربازییەکان	-11.2981
▁قەدەغه	-11.2981
▁چیان	-11.2981
▁گۆلەکانی	-11.2981
▁گەرەکە	-11.2981
▁براو	-11.299
▁بۆماوەی	-11.299
▁لیستەکانی	-11.299
▁مۆرکرد	-11.299
▁نەورۆزی	-11.299
▁هاوبیر	-11.299
▁وشەیە	-11.299
▁گەردوون	-11.299
▁ئامادەبووانی	-11.2999
▁خۆرهەلاتی	-11.2999
▁داهاتودا	-11.2999
▁فەڕەنسی	-11.2999
▁گێڕانەوە	-11.2999
▁گەرما	-11.2999
▁گەورەترە	-11.2999
▁برینداربوونی	-11.3008
▁سرووشتی	-11.3008
▁قەناعەت	-11.3008
▁لەیەکتری	-11.3008
▁موشەکی	-11.3008
▁نوێنەرایەتیی	-11.3008
▁هەرێمەکان	-11.3008
▁کوردۆساید	-11.3008
▁براکەی	-11.3017
▁دۆر	-11.3017
▁دەمانەوێ	-11.3017
▁دەکران	-11.3017
▁فرمێسکی	-11.3017
▁لامان	-11.3017
▁لۆس	-11.3017
▁منداڵەکان	-11.3017
▁پۆستەکانی	-11.3017
▁ڕۆژنامەنووسیدا	-11.3017
▁ڕۆژگار	-11.3017
▁ڤینۆس	-11.3017
▁گۆرانییەکی	-11.3017
▁یۆڤانتۆس	-11.3017
▁ئاوێنەنیوزی	-11.3026
▁ئاڕاستە	-11.3026
▁بیکەن	-11.3026
▁خواوه	-11.3026
▁دکەت	-11.3026
▁ستەمکار	-11.3026
▁فەرموو	-11.3026
▁کوردانەی	-11.3026
▁باڵادەستی	-11.3035
▁بگەین	-11.3035
▁پێکهاتوون	-11.3035
▁یەکەیان	-11.3035
▁بڕیاریشە	-11.3044
▁بەرەوپێشبردنی	-11.3044
▁خانمی	-11.3044
▁دێموکراتەکان	-11.3044
▁نو	-11.3044
▁ڕوبەروی	-11.3044
▁کەلوپەل	-11.3044
▁de	-11.3053
▁بردە	-11.3053
▁خولەکانی	-11.3053
▁زەوییە	-11.3053
▁هاوکێشەی	-11.3053
▁ئاریتما	-11.3062
▁بەوەیە	-11.3062
▁شکاند	-11.3062
▁ململانێیەکی	-11.3062
▁ناسیۆنالیزم	-11.3062
▁هەڵبژاردنەوە	-11.3062
▁پەیامنێر،	-11.3062
▁ڕوداوی	-11.3062
▁82	-11.3071
▁نەهات	-11.3071
▁ڕووبەرِووی	-11.3071
▁گەیشتۆته	-11.3071
▁باسکەی	-11.308
▁تازەترین	-11.308
▁تورکیە	-11.308
▁تەقاندنەوەی	-11.308
▁شانازیی	-11.308
▁مانگانەی	-11.308
▁ببەسترێت	-11.3089
▁بڵێیت	-11.3089
▁خوڵقاندنی	-11.3089
▁هه	-11.3089
▁is	-11.3098
▁بیرەوەری	-11.3098
▁دەخاتەڕوو	-11.3098
▁دەناڵێنن	-11.3098
▁وەزیرەکانی	-11.3098
▁ڕایگەیاند,	-11.3098
▁ڕەهای	-11.3098
▁کون	-11.3098
▁ئینگلیز	-11.3107
▁بەدەپە	-11.3107
▁تاقیکردنەوە	-11.3107
▁لەناوەڕاستی	-11.3107
▁لەڕوانگەی	-11.3107
▁نەتەوەییەکانی	-11.3107
▁هەڤاڵانی	-11.3107
▁1982	-11.3116
▁B	-11.3116
▁ئێسک	-11.3116
▁بەرگرتن	-11.3116
▁بەقسەی	-11.3116
▁تەختی	-11.3116
▁دیارەکانی	-11.3116
▁ڕاگەیاندنە	-11.3116
▁کۆنەپەرستی	-11.3116
▁کەوته	-11.3116
▁دەکرد،	-11.3125
▁سەنتەر	-11.3125
▁پەرستی	-11.3125
▁چیمان	-11.3125
▁ین	-11.3125
▁بونەوەی	-11.3134
▁تێڕوانین	-11.3134
▁نایاب	-11.3134
▁برادەرانی	-11.3143
▁ساڵ)	-11.3143
▁شۆڕشێکی	-11.3143
▁قوربان	-11.3143
▁وڵاتەوە	-11.3143
▁بەنهێنی	-11.3152
▁دەسەلاتە	-11.3152
▁سەردەمەی	-11.3152
▁هێناوەو	-11.3152
▁ڕێگایەک	-11.3152
▁کۆمەڵگەیە	-11.3152
▁یەکتریان	-11.3152
▁ناردنەوەی	-11.3161
▁نزیکبوونەوەی	-11.3161
▁نەبووبێت	-11.3161
▁ڕێبەر	-11.3161
▁کتێبەکە	-11.3161
▁W	-11.317
▁ئیسلامیش	-11.317
▁دزەی	-11.317
▁دەچێتەوە	-11.317
▁ند	-11.317
▁هەزارەها	-11.317
▁پسپۆڕانی	-11.317
▁کوردستانەوه	-11.317
▁بەشوێن	-11.3179
▁تیرۆریستییەکان	-11.3179
▁صاڵح	-11.3179
▁عیراقی	-11.3179
▁لیژنەیە	-11.3179
▁میتۆدی	-11.3179
▁نیازه	-11.3179
▁هێلی	-11.3179
▁ئۆمەران	-11.3188
▁هێنانەوەی	-11.3188
▁دەستپێشخەری	-11.3198
▁دەیوت	-11.3198
▁مەسیح	-11.3198
▁نەبوو،	-11.3198
▁کورستان	-11.3198
▁کۆڵان	-11.3198
▁خوی	-11.3207
▁زستان	-11.3207
▁زنجیرەی	-11.3207
▁لەئایندەدا	-11.3207
▁نەوەیەکی	-11.3207
▁ڕەشنووسی	-11.3207
▁بەڕاست	-11.3225
▁دەپرسم	-11.3225
▁لسەر	-11.3225
▁پرسیارەوە	-11.3225
▁کەتێیدا	-11.3225
▁جۆش	-11.3234
▁ئیرادەیە	-11.3243
▁ئێرانییەکان	-11.3243
▁فەیسبوک	-11.3243
▁چاوێکی	-11.3243
▁ڕاوێژ	-11.3243
▁ڕدە	-11.3243
▁1995	-11.3252
▁بوبێت	-11.3252
▁بەرێوەدەچێت	-11.3252
▁خۆمەوە	-11.3252
▁شەهرام	-11.3252
▁قانونی	-11.3252
▁هەمیشەو	-11.3252
▁ئازادییەکان	-11.3262
▁ببینم	-11.3262
▁توندڕەوەکان	-11.3262
▁زیانیان	-11.3262
▁عەشقی	-11.3262
▁لەمەو	-11.3262
▁مانگرتنی	-11.3262
▁ئێکێ	-11.3271
▁بەڕێوەبەر	-11.3271
▁سەردانە	-11.3271
▁لێتان	-11.3271
▁نەیەوێت	-11.3271
▁هاتووە:	-11.3271
▁ڕیشەی	-11.3271
▁Magazine	-11.328
▁تاکەکەسی	-11.328
▁جوانکاری	-11.328
▁لەبنەڕەتدا	-11.328
▁لەهەمو	-11.328
▁نانەوەی	-11.328
▁ناچێتە	-11.328
▁هاریکاریی	-11.328
▁هێزانەی	-11.328
▁بخوێنێتەوە	-11.3289
▁بەخشیوە	-11.3289
▁دانیشتنێکی	-11.3289
▁زۆربوونی	-11.3289
▁چوومە	-11.3289
▁کەر	-11.3289
▁ئاسۆس	-11.3298
▁ئیقلیمی	-11.3298
▁ئیمزاکردنی	-11.3298
▁ئێمەیش	-11.3298
▁توندڕەو	-11.3298
▁ڕۆژێکە	-11.3298
▁گۆرانییەکانی	-11.3298
▁ئاسانتر	-11.3308
▁بوەو	-11.3308
▁بەخت	-11.3308
▁شاشەی	-11.3308
▁لێپرسینەوەی	-11.3308
▁لەوپەڕی	-11.3308
▁نەهێناوە	-11.3308
▁هێنابوو	-11.3308
▁جیهانەوە	-11.3317
▁خولەی	-11.3317
▁ناسی	-11.3317
▁هەفتەیە	-11.3317
▁ساڵرۆژی	-11.3326
▁سەدەکانی	-11.3326
▁شەبەک	-11.3326
▁لم	-11.3326
▁لەلا	-11.3326
▁ناوبژیوان	-11.3326
▁هەربۆیەش	-11.3326
▁پرسیارەکانی	-11.3326
▁ستار	-11.3335
▁فیلمێک	-11.3335
▁پارێزەرانی	-11.3335
▁ئێسـتا	-11.3345
▁ئەمانه	-11.3345
▁بکەت	-11.3345
▁بەنیازی	-11.3345
▁شارەوانیی	-11.3345
▁هیج	-11.3345
▁پەرتووکی	-11.3345
▁1984	-11.3354
▁هێشت	-11.3354
▁پۆستەکان	-11.3354
▁کەپێشتر	-11.3354
▁تایبەتمەند	-11.3363
▁تووش	-11.3363
▁دەڵی	-11.3363
▁زێڕ	-11.3363
▁فیدڕاڵ	-11.3363
▁باسە،	-11.3372
▁تەمموزی	-11.3372
▁شانۆکاری	-11.3372
▁هەڵوێستەکانی	-11.3372
▁ڕێبەرایەتی	-11.3372
▁ئارادا	-11.3382
▁سیستانی	-11.3382
▁لەمیسر	-11.3382
▁مامۆستاو	-11.3382
▁تەسلیمی	-11.3391
▁پرۆژەیه	-11.3391
▁گیرۆدەی	-11.3391
▁جڵەوی	-11.34
▁لەیادی	-11.34
▁کامیرۆن	-11.34
▁گوتراوە	-11.34
▁"محەمەد	-11.341
▁ئەڵلا	-11.341
▁بامەرنی	-11.341
▁سیاسییەی	-11.341
▁سەرجەمیان	-11.341
▁فەرمیی	-11.341
▁نەدەکرا	-11.341
▁پێوویستە	-11.341
▁ڕۆزی	-11.341
▁کۆمەلانی	-11.341
▁مِن	-11.3419
▁نەبووەتە	-11.3419
▁ڕەگ	-11.3419
▁ژیانمان	-11.3419
▁یەکگرتوویی	-11.3419
▁یەکەیەکی	-11.3419
▁ئەویتر	-11.3428
▁بیانەوێت	-11.3428
▁بەچی	-11.3428
▁خەتی	-11.3428
▁شەڕەکە	-11.3428
▁فایق	-11.3428
▁ناوچەیەک	-11.3428
▁ڕایگەیاندووه	-11.3428
▁کازم	-11.3428
▁بخەن	-11.3437
▁بنێرن	-11.3437
▁بڕیوە	-11.3437
▁عەلمانییەت	-11.3437
▁ئینسایکلۆپیدیای	-11.3447
▁بڕوام	-11.3447
▁دەنێرێت	-11.3447
▁لەوەڵامی	-11.3447
▁مەکسیک	-11.3447
▁ناوچەگەریی	-11.3447
▁هەڵکەوت	-11.3447
▁چەن	-11.3447
▁کۆبوونەوەیەک	-11.3447
▁All	-11.3456
▁دیکەشیان	-11.3456
▁چەوری	-11.3456
▁کەسەکە	-11.3456
▁بکەوێتەوە	-11.3466
▁بەهاکانی	-11.3466
▁تاهیر/	-11.3466
▁جارێکیش	-11.3466
▁دابڕان	-11.3466
▁سەڵاحەدین	-11.3466
▁قاچی	-11.3466
▁لەگشت	-11.3466
▁وەرگرتوە	-11.3466
▁ڕوداوە	-11.3466
▁ڕونکردنەوەیەک	-11.3466
▁حکوومەتەکەی	-11.3475
▁ڕزگاربوون	-11.3475
▁ڕووەو	-11.3475
▁یارییەکەش	-11.3475
▁protected	-11.3484
▁الثانی	-11.3484
▁تەعریب	-11.3484
▁خۆشناو	-11.3484
▁مناڵان	-11.3484
▁موسلیم	-11.3484
▁چوونه	-11.3484
▁ڕێچکەی	-11.3484
▁کەمدا	-11.3484
▁ئاشکراو	-11.3494
▁باڵەکایەتی	-11.3494
▁تەئکیدیکردەوە	-11.3494
▁خێرخوازی	-11.3494
▁دەچێته	-11.3494
▁لیسته	-11.3494
▁ناگرێتەوە	-11.3494
▁ژاپۆنی	-11.3494
▁ئامادەکاریی	-11.3503
▁بەهادین	-11.3503
▁فۆرم	-11.3503
▁میرزا	-11.3503
▁نازانرێت	-11.3503
▁هەتایە	-11.3503
▁وێنەیی	-11.3503
▁پەکەکه	-11.3503
▁VOA	-11.3512
▁بنی	-11.3512
▁بهێنم	-11.3512
▁بپارێزین	-11.3512
▁بەنیازه	-11.3512
▁منداڵەکەی	-11.3512
▁میللەتێک	-11.3512
▁نەگەیشتنی	-11.3512
▁هەرزان	-11.3512
▁هەڵوێستیان	-11.3512
▁وردو	-11.3512
▁وەردەگیردرێت	-11.3512
▁89	-11.3522
▁ئامادەکردووە	-11.3522
▁باوکە	-11.3522
▁بەهاوکاریی	-11.3522
▁تام	-11.3522
▁دەستیپێکردووە	-11.3522
▁دەلێت	-11.3522
▁لەسەدەی	-11.3522
▁مالکی"	-11.3522
▁1976	-11.3531
▁فرەیی	-11.3531
▁هەواڵه	-11.3531
▁گوتار	-11.3531
▁ئیدارە	-11.3541
▁بەهاو	-11.3541
▁شیر	-11.3541
▁کارئاسانی	-11.3541
▁کۆکن	-11.3541
▁یەکشەممەی	-11.3541
▁بارەیەوە،	-11.355
▁خۆپیشاندانێکی	-11.355
▁دێرینەکان	-11.355
▁لڤین	-11.355
▁نەتەوەکەی	-11.355
▁ڕۆژەوە	-11.355
▁کانت	-11.355
▁کەهەر	-11.355
▁بەشداربن	-11.356
▁تاکەکەس	-11.356
▁ترسناکی	-11.356
▁داهاتوی	-11.356
▁شەفاف	-11.356
▁فیشەک	-11.356
▁هونەره	-11.356
▁هەڵبژاردووە	-11.356
▁وەرگێڕ	-11.356
▁پێشانگایه	-11.356
▁دابنێین	-11.3569
▁زانیارییەکی	-11.3569
▁سەرۆکجاشی	-11.3569
▁واقیعە	-11.3569
▁وەری	-11.3569
▁کارەیان	-11.3569
▁گشتگیر	-11.3569
▁بادی	-11.3579
▁بەچاکی	-11.3579
▁جەلیل	-11.3579
▁داواکارم	-11.3579
▁سەلەفی	-11.3579
▁لەچوار	-11.3579
▁هاوری	-11.3579
▁پێگەیشت	-11.3579
▁ڕوویەکەوە	-11.3579
▁دنیاوە	-11.3588
▁عەبدولرەحمان	-11.3588
▁فاکتەرێکی	-11.3588
▁ڕاستگۆ	-11.3588
▁گرێدانی	-11.3588
▁پێغەمبەرەکەی	-11.3597
▁ڕابەرایەتی	-11.3597
▁کوشتار	-11.3597
▁ئەوەکرد	-11.3607
▁فریشتەکان	-11.3607
▁لاوەکی	-11.3607
▁ناوخۆییەکان	-11.3607
▁ڕۆژئاوایی	-11.3607
▁May	-11.3616
▁gt	-11.3616
▁خۆپیشاندانە	-11.3616
▁کورتدا	-11.3616
▁ئافرەتدا	-11.3626
▁ئیسلامییەکانی	-11.3626
▁بنێرێت	-11.3626
▁بکەیتەوە	-11.3626
▁بەڵگەنامەی	-11.3626
▁حەزرەتی	-11.3626
▁زانایه	-11.3626
▁غەفور	-11.3626
▁میسردا	-11.3626
▁إِل	-11.3635
▁ئەفریقیا	-11.3635
▁ئەوەندەش	-11.3635
▁بۆنمونە	-11.3635
▁خەونەکانی	-11.3635
▁سەرەڕۆیی	-11.3635
▁نابەجێ	-11.3635
▁نەبینیوە	-11.3635
▁هاتبێت	-11.3635
▁کتێبەکەی	-11.3635
▁تیپە	-11.3645
▁دادپەروەریی	-11.3645
▁دوورگەی	-11.3645
▁دەخاتەوە	-11.3645
▁دەخوازم	-11.3645
▁سلێمانی-	-11.3645
▁شەریعەتی	-11.3645
▁قسەیەک	-11.3645
▁لەبەرنامەی	-11.3645
▁هەرچۆنێک	-11.3645
▁پێداوە	-11.3645
▁ڕستە	-11.3645
▁بنیاتنانەوەی	-11.3655
▁دێرینەکانی	-11.3655
▁دەستبەسەر	-11.3655
▁پەیڕەوکردنی	-11.3655
▁ڕێورِەسمی	-11.3655
▁کرمانجی	-11.3655
▁یادکردنەوەی	-11.3655
▁بەرنامەیە	-11.3664
▁بەرێ	-11.3664
▁قژ	-11.3664
▁ناساند	-11.3664
▁هاوڕێیەتی	-11.3664
▁ئەقڵ	-11.3674
▁تاڵە	-11.3674
▁لەبن	-11.3674
▁لەزمانی	-11.3674
▁نەکراو	-11.3674
▁وەڵامیان	-11.3674
▁پەلاماردانی	-11.3674
▁کودەتا	-11.3674
▁بەڕۆژ	-11.3683
▁بەکاردێت	-11.3683
▁زامنی	-11.3683
▁نەمری	-11.3683
▁پێکردن	-11.3683
▁پەیوەندیمان	-11.3683
▁دابەشبوونی	-11.3693
▁سعودیه	-11.3693
▁سۆنیا	-11.3693
▁قوڵایی	-11.3693
▁پێداچوونەوەی	-11.3693
▁پەیامنێر"ی	-11.3693
▁چوونەتە	-11.3693
▁کۆنفرانسێکی	-11.3693
▁بچنه	-11.3702
▁خێزانێکی	-11.3702
▁هۆکارەکەشی	-11.3702
▁کلیپ	-11.3702
▁"ئێمه	-11.3712
▁بازرگان	-11.3712
▁بێتاوان	-11.3712
▁بەئاوێنەی	-11.3712
▁سالح	-11.3712
▁پەروەردەکردنی	-11.3712
▁ژینگەیەکی	-11.3712
▁یەکینەکانی	-11.3712
▁"ئەسوات	-11.3722
▁ئۆپەراسیۆنی	-11.3722
▁بەعسیەکان	-11.3722
▁زاڵە	-11.3722
▁لێت	-11.3722
▁هاوبەشیان	-11.3722
▁کاتیش	-11.3722
▁گۆرانکاری	-11.3722
▁بەندەری	-11.3731
▁خەریکن	-11.3731
▁دیمەنێکی	-11.3731
▁زێتر	-11.3731
▁زەنگەنە	-11.3731
▁ڕۆنی	-11.3731
▁it	-11.3741
▁ئەمری	-11.3741
▁بەرایی	-11.3741
▁دەرکەوتن	-11.3741
▁سەرابی	-11.3741
▁شەرعییەت	-11.3741
▁نووسراوی	-11.3741
▁وەزعی	-11.3741
▁ڕۆستەم	-11.3741
▁کوردانە	-11.3741
▁حەڵاڵ	-11.375
▁دانیشتووان	-11.375
▁زە	-11.375
▁سەرنوسەری	-11.375
▁نەکە	-11.375
▁کۆدەکرێتەوە	-11.375
▁ئەمەشدا	-11.376
▁خوایان	-11.376
▁شوێنێکدا	-11.376
▁شەریک	-11.376
▁نموونەیی	-11.376
▁هێنا،	-11.376
▁بکەونە	-11.377
▁نێردەی	-11.377
▁پێناوەدا	-11.377
▁یاریکردن	-11.377
▁دیل	-11.3779
▁قوتابخانەکانی	-11.3779
▁مەرجەی	-11.3779
▁چیت	-11.3779
▁چینێکی	-11.3779
▁ڕووداوانەی	-11.3779
▁یاساکه	-11.3779
▁ئەمەو	-11.3789
▁دەکێشێت	-11.3789
▁مەسرور	-11.3789
▁وتووێژی	-11.3789
▁پابەندبوونی	-11.3789
▁کردووەتە	-11.3789
▁کەسایەتیەکی	-11.3789
▁@yahoo	-11.3799
▁ئۆتۆنۆمی	-11.3799
▁بەکاردەهێنن	-11.3799
▁زاناکان	-11.3799
▁لاشەی	-11.3799
▁نایەکسانی	-11.3799
▁هەڵمەت	-11.3799
▁پرسه	-11.3799
▁کەئەمەش	-11.3799
▁گووتیشی	-11.3799
▁ئێستاشدا	-11.3808
▁قسەمان	-11.3808
▁لەتەواوی	-11.3808
▁مەلیک	-11.3808
▁پاشگەز	-11.3808
▁ئاواش	-11.3818
▁تەسک	-11.3818
▁هەی	-11.3818
▁ئاساییشی	-11.3828
▁بەستنەوەی	-11.3828
▁توندتر	-11.3828
▁خواردووە	-11.3828
▁ساختەکاری	-11.3828
▁کۆمەلێک	-11.3828
▁کۆنگره	-11.3828
▁ڵام	-11.3828
▁بەراوردی	-11.3838
▁ناعەدالەتی	-11.3838
▁ناڵێم	-11.3838
▁هەلومەرجە	-11.3838
▁کۆبوونەوەکه	-11.3838
▁گوێڕایەڵی	-11.3838
▁بکوژانی	-11.3847
▁تارمایی	-11.3847
▁حکومییەکان	-11.3847
▁سوریاوە	-11.3847
▁چالاکیەک	-11.3847
▁ئاب/	-11.3857
▁ئاژەڵی	-11.3857
▁ئەلعێراقییه	-11.3857
▁بڵاویان	-11.3857
▁دەکاته	-11.3857
▁زوممار	-11.3857
▁سەمای	-11.3857
▁یاریگا	-11.3857
▁ئاکرێ	-11.3867
▁بسەلمێنێت	-11.3867
▁دوورکەوتنەوە	-11.3867
▁دەفەرموێ	-11.3867
▁ستەمیان	-11.3867
▁سەرنجڕاکێش	-11.3867
▁قیامەتدا	-11.3867
▁هیتلەر	-11.3867
▁ئەوین	-11.3876
▁دەگێڕن	-11.3876
▁سەرەکییەکان	-11.3876
▁لەوەوە	-11.3876
▁ناهێنێت	-11.3876
▁ڕوانینی	-11.3876
▁کۆتاییهاتنی	-11.3876
▁ئەلفوبێی	-11.3886
▁بوونەوەرێکی	-11.3886
▁زەحمەتکێشانی	-11.3886
▁لەهەندێ	-11.3886
▁نەبیت	-11.3886
▁کاتژمێرێک	-11.3886
▁یاساییمان	-11.3886
▁بەشەکەی	-11.3896
▁لەوبارەیەوه	-11.3896
▁ڕۆژەکانی	-11.3896
▁کۆلیژی	-11.3896
▁جوولەکە	-11.3906
▁فڕۆکەیەکی	-11.3906
▁نرخەکەی	-11.3906
▁کارەباو	-11.3906
▁بگێڕێت	-11.3916
▁بەنیازە	-11.3916
▁دیمۆکراسی	-11.3916
▁دەمێنیتەوە	-11.3916
▁سڵاوی	-11.3916
▁لەروی	-11.3916
▁لەماڵی	-11.3916
▁نامەکەی	-11.3916
▁پێویستییەکی	-11.3916
▁بخوات	-11.3925
▁بەبیانووی	-11.3925
▁تامی	-11.3925
▁حەفتا	-11.3925
▁دەستکە	-11.3925
▁سیاسییەکاندا	-11.3925
▁پارتیش	-11.3925
▁پارێزگایە	-11.3925
▁پلەکانی	-11.3925
▁ئەندامەکەی	-11.3935
▁بەعسەوە	-11.3935
▁سەندنەوەی	-11.3935
▁هاوارێک	-11.3935
▁هاوچەرخی	-11.3935
▁کتێبێک	-11.3935
▁تایبەتن	-11.3945
▁تیپ	-11.3945
▁جیدی	-11.3945
▁خێڵەکی	-11.3945
▁مەرگەیی	-11.3945
▁ڕفاندنی	-11.3945
▁ئامادەیبوون	-11.3955
▁ئاماژەیەک	-11.3955
▁بیرۆکە	-11.3955
▁تاوتوێی	-11.3955
▁خەڵکیدا	-11.3955
▁مرۆ	-11.3955
▁ولێر	-11.3955
▁ڕاوێژکار	-11.3955
▁گۆڕاندا	-11.3955
▁ستیڤان	-11.3965
▁سیاسەتەی	-11.3965
▁ناڕەوا	-11.3965
▁نوێیان	-11.3965
▁پاڵپشت	-11.3965
▁کوردسات	-11.3965
▁ئاداری	-11.3975
▁بخەمە	-11.3975
▁جێنۆسایدی	-11.3975
▁مەعروف	-11.3975
▁ناگونجێت	-11.3975
▁هاندان	-11.3975
▁هێزەکانیان	-11.3975
▁هەڵبژێردراوی	-11.3975
▁جوانەکان	-11.3984
▁جەختیشی	-11.3984
▁دەسکەوتی	-11.3984
▁سویسری	-11.3984
▁هونەرو	-11.3984
▁پێکهاتبوون	-11.3984
▁چاوەروانی	-11.3984
▁ڕووە	-11.3984
▁ژوور	-11.3984
▁ئەرجەنتین	-11.3994
▁حیزبەکە	-11.3994
▁لێبکرێت	-11.3994
▁مرۆییەکان	-11.3994
▁هاوسەر	-11.3994
▁هەبوایە	-11.3994
▁بودجەیەکی	-11.4004
▁زادە	-11.4004
▁سەرمان	-11.4004
▁عین	-11.4004
▁نەجم	-11.4004
▁هەڕەشەو	-11.4004
▁ڕەمەزانی	-11.4004
▁خست	-11.4014
▁دەخوازین	-11.4014
▁سیفەتی	-11.4014
▁مردووە	-11.4014
▁ناوه	-11.4014
▁هاورێ	-11.4014
▁پارێزگاکە	-11.4014
▁کاندیدەکان	-11.4014
▁کوالیتی	-11.4014
▁کۆریا	-11.4014
▁بکرایە	-11.4024
▁حەزیان	-11.4024
▁خوێندنگەی	-11.4024
▁دەبێتەوه	-11.4024
▁دەگەینە	-11.4024
▁سوپاو	-11.4024
▁نەی	-11.4024
▁هەواڵەکان	-11.4024
▁no	-11.4034
▁باشمان	-11.4034
▁تاکڕەوی	-11.4034
▁دادگاو	-11.4034
▁شەهیدە	-11.4034
▁عەبدولموتەللیب	-11.4034
▁میراتی	-11.4034
▁کۆمۆنیستەکان	-11.4034
▁ئامانجیان	-11.4044
▁باشکردنی	-11.4044
▁بەڵێنەکانی	-11.4044
▁دابەشی	-11.4044
▁سۆزو	-11.4044
▁سەردانەکەیدا	-11.4044
▁قوتابخانەو	-11.4044
▁مەترسییەوە	-11.4044
▁کۆمەڵگایەک	-11.4044
▁گفتوگۆکردنی	-11.4044
▁یاساییەوە	-11.4044
▁ەِ	-11.4044
▁Sport	-11.4054
▁بدەنە	-11.4054
▁دەگەڵ	-11.4054
▁لەمساڵدا	-11.4054
▁هات،	-11.4054
▁هەمووتان	-11.4054
▁ڕەوشەکە	-11.4054
▁ڵە	-11.4054
▁لەسەرۆک	-11.4064
▁هاوردە	-11.4064
▁کوردستانییەکانی	-11.4064
▁92	-11.4074
▁e	-11.4074
▁خێراتر	-11.4074
▁سنوورەکە	-11.4074
▁پێشڕەوی	-11.4074
▁چەوساندنەوە	-11.4074
▁کوشتاری	-11.4074
▁گەڕاوەتەوە	-11.4074
▁بەواتایەکی	-11.4083
▁بەڕێوەبەرانی	-11.4083
▁تایبەتەکان	-11.4083
▁تەقینەوەیەک	-11.4083
▁مارکسی	-11.4083
▁نەمابوو	-11.4083
▁هاتنەوەی	-11.4083
▁کاوسی	-11.4083
▁کەنداوی	-11.4083
▁گشتییە	-11.4083
▁ئیسلامەوە	-11.4093
▁بەهەرحاڵ	-11.4093
▁خەمخۆری	-11.4093
▁سەلماند	-11.4093
▁هەلویستی	-11.4093
▁ڤایرۆسی	-11.4093
▁یەکپارچەیی	-11.4093
▁ەو	-11.4093
▁بودجەو	-11.4103
▁بەسەرۆک	-11.4103
▁تاوانانە	-11.4103
▁سازکرا	-11.4103
▁سۆزان	-11.4103
▁ـی	-11.4103
▁مالی	-11.4103
▁موسلیمین	-11.4103
▁هاوسەرۆکی	-11.4103
▁هەریەکه	-11.4103
▁پزیشکانی	-11.4103
▁چەقۆ	-11.4103
▁ئاخاوتن	-11.4113
▁تەسکی	-11.4113
▁جڤاکی	-11.4113
▁قبووڵکردنی	-11.4113
▁پازدە	-11.4113
▁ڕێژە	-11.4113
▁کەسێکە	-11.4113
▁گۆڕانێکی	-11.4113
▁یەکەمە	-11.4113
▁بووک	-11.4123
▁بەهەڵە	-11.4123
▁تەقینەوه	-11.4123
▁داواکانی	-11.4123
▁سەرکردەکان	-11.4123
▁وەزیرە	-11.4123
▁پەیماننامەی	-11.4123
▁چوارشەممەی	-11.4123
▁ڕەخنەیی	-11.4123
▁کردنه	-11.4123
▁بزوتنەوەیەکی	-11.4133
▁حاڵەت	-11.4133
▁نەتەوەیەکگرتوەکان	-11.4133
▁بچمە	-11.4143
▁درەخت	-11.4143
▁نووسینەکانی	-11.4143
▁ژنەکە	-11.4143
▁کورده	-11.4143
▁حکومڕانی	-11.4153
▁دەردەچن	-11.4153
▁کۆنەکانی	-11.4153
▁کۆڵ	-11.4153
▁ئافرەتە	-11.4174
▁دواجاریش	-11.4174
▁ملیۆنان	-11.4174
▁ڕوناکی	-11.4174
▁ئاخ	-11.4184
▁ئۆکتۆبەری	-11.4184
▁بزانیین	-11.4184
▁تاڵی	-11.4184
▁ستی	-11.4184
▁موستەفا	-11.4184
▁کردۆتەوە	-11.4184
▁96	-11.4194
▁دەگێڕنەوە	-11.4194
▁لەئێران	-11.4194
▁لەلێدوانێکیدا	-11.4194
▁گەڕی	-11.4194
▁ئۆپۆزیسیۆنی	-11.4204
▁ئەکرێ	-11.4204
▁بنەمایە	-11.4204
▁بەرێوه	-11.4204
▁جیاوازییە	-11.4204
▁خولیای	-11.4204
▁دیلان	-11.4204
▁سادەو	-11.4204
▁نەکا	-11.4204
▁پزیشکان	-11.4204
▁کردەوەکانی	-11.4204
▁p	-11.4214
▁ئەمانەن	-11.4214
▁بهێنیت	-11.4214
▁بڵاویکردۆتەوە	-11.4214
▁بێتو	-11.4214
▁حەبیب	-11.4214
▁خۆمانەوە	-11.4214
▁وەرگرن	-11.4214
▁وەزیرو	-11.4214
▁بڵندی	-11.4224
▁بەغداد	-11.4224
▁حەمه	-11.4224
▁شاخی	-11.4224
▁فیکریی	-11.4224
▁پیاوەکە	-11.4224
▁کۆنگرێسی	-11.4224
▁جووتیاران	-11.4234
▁عبد	-11.4234
▁فڕۆکه	-11.4234
▁لەسیاسەتی	-11.4234
▁مایکل	-11.4234
▁مەترسییە	-11.4234
▁مەسەلەیه	-11.4234
▁هەڵەبجەیی	-11.4234
▁بلۆکی	-11.4244
▁داواکارییەکانیان	-11.4244
▁لەڕابردوودا	-11.4244
▁هەڵگیرسانی	-11.4244
▁ڕاگرت	-11.4244
▁ڕستەی	-11.4244
▁کادیری	-11.4244
▁کارای	-11.4244
▁کۆنفرانسەکە	-11.4244
▁تەحسین	-11.4254
▁شێوازەکانی	-11.4254
▁یەکگرتو	-11.4254
▁درک	-11.4264
▁شۆڕشەکانی	-11.4264
▁لیستێکی	-11.4264
▁لەپلەی	-11.4264
▁ماچی	-11.4264
▁ناوچانەدا	-11.4264
▁هەڵدەگرین	-11.4264
▁ڕووداوەکەی	-11.4264
▁ڕێزیان	-11.4264
▁ڕەوان	-11.4264
▁بیان	-11.4275
▁تشرین	-11.4275
▁جیاوازەوە	-11.4275
▁فراکسیۆنەکانی	-11.4275
▁نادروست	-11.4275
▁هاوپەیمان	-11.4275
▁هۆیەک	-11.4275
▁کرد:	-11.4275
▁1986	-11.4285
▁بەخشرا	-11.4285
▁بەردەکەوێت	-11.4285
▁جیددی	-11.4285
▁مەرجەعی	-11.4285
▁نەریتە	-11.4285
▁هاوکاریان	-11.4285
▁ڕاسپارد	-11.4285
▁یاوەر	-11.4285
▁130	-11.4295
▁ئۆتۆمبیلێکی	-11.4295
▁بابەتانە	-11.4295
▁ببرێت	-11.4295
▁بەلێ	-11.4295
▁تەقینەوەیەکی	-11.4295
▁لێکەوتووەتەوە	-11.4295
▁لەزاری	-11.4295
▁پلاندانانی	-11.4295
▁کانون	-11.4295
▁be	-11.4305
▁بەرزنرخاند	-11.4305
▁تاکتیکی	-11.4305
▁دابمەزرێت	-11.4305
▁دانیشتنەکەی	-11.4305
▁دەنـگیـیەی	-11.4305
▁شیعریی	-11.4305
▁فیستیڤاڵەدا	-11.4305
▁لەدایکبووە	-11.4305
▁الدین	-11.4315
▁تۆنی	-11.4315
▁حەوتی	-11.4315
▁دای	-11.4315
▁زل	-11.4315
▁لّ	-11.4315
▁هەڵبژاردەکانی	-11.4315
▁وێنەو	-11.4315
▁ڕێژەیی	-11.4315
▁180	-11.4325
▁ئەسەدی	-11.4325
▁بەهایەکی	-11.4325
▁دووبەرەکی	-11.4325
▁ندە	-11.4325
▁چالاکییەکی	-11.4325
▁گشتیەکان	-11.4325
▁بدۆزرێتەوە	-11.4336
▁خۆی،	-11.4336
▁دواییە	-11.4336
▁سەرەتاییەکان	-11.4336
▁فەیلی	-11.4336
▁مژدەی	-11.4336
▁نیگەرانیی	-11.4336
▁هەولێردا	-11.4336
▁ژوری	-11.4336
▁کەخۆی	-11.4336
▁کەوەک	-11.4336
▁ئەنجامەکەی	-11.4346
▁ئەنجومەنەکە	-11.4346
▁باوەڕان	-11.4346
▁برینداربوو	-11.4346
▁خوێنرایەوە	-11.4346
▁لەکاروباری	-11.4346
▁ماهر	-11.4346
▁ماوەتی	-11.4346
▁نۆژەنکردنەوەی	-11.4346
▁وەزیرەکان	-11.4346
▁پاره	-11.4346
▁پرسیارەی	-11.4346
▁پێکهێنا	-11.4346
▁کۆدەبنەوە	-11.4346
▁کەین	-11.4346
▁بەقەدەر	-11.4356
▁ناکەنەوە	-11.4356
▁بەرشلۆنەی	-11.4366
▁خەباتە	-11.4366
▁سنوورەکان	-11.4366
▁سەرمایەداران	-11.4366
▁هێورکردنەوەی	-11.4366
▁پەیتا	-11.4366
▁کاراکتەرە	-11.4366
▁الکردیة	-11.4377
▁جۆرەکان	-11.4377
▁داخست	-11.4377
▁سوک	-11.4377
▁قا	-11.4377
▁ناوچەکەش	-11.4377
▁نوێکردنەوەی	-11.4377
▁هەلێکی	-11.4377
▁کۆیلەی	-11.4377
▁900	-11.4387
▁باوکیان	-11.4387
▁دڕندە	-11.4387
▁دیمەنە	-11.4387
▁پەیامنێر"	-11.4387
▁ڕابردوودا،	-11.4387
▁2-	-11.4397
▁ئۆرگانەکانی	-11.4397
▁بڵاوکەرەوەی	-11.4397
▁خیانەتی	-11.4397
▁لایەنەی	-11.4397
▁مەولود	-11.4397
▁پارک	-11.4397
▁کاریگەرییەکانی	-11.4397
▁ئاشکراشیکرد	-11.4407
▁بیستەم	-11.4407
▁دانراون	-11.4407
▁دیاریی	-11.4407
▁ملیۆنێک	-11.4407
▁نەیارەکانی	-11.4407
▁پارتەکان	-11.4407
▁چارەسەریان	-11.4407
▁111	-11.4418
▁98	-11.4418
▁بکوژن	-11.4418
▁تێبینییەک	-11.4418
▁خۆرهەڵات	-11.4418
▁سلێمانییەوە	-11.4418
▁سەرهەڵدانە	-11.4418
▁سەرەتایەکی	-11.4418
▁فاتیح	-11.4418
▁لەیاریی	-11.4418
▁واشنتۆن	-11.4418
▁چاوپێکەوتنی	-11.4418
▁چوارچێوەیەکی	-11.4418
▁بەخێوکردنی	-11.4428
▁بەدرخان	-11.4428
▁بەرپرسیاری	-11.4428
▁سێدارەدانی	-11.4428
▁موسەوی	-11.4428
▁وەلید	-11.4428
▁پۆزەتیڤ	-11.4428
▁ئەنجامبدەن	-11.4438
▁بیرکردنەوەو	-11.4438
▁شارچێتی	-11.4438
▁قورئاندا	-11.4438
▁نابینن	-11.4438
▁ەُمْ	-11.4438
▁ئازا	-11.4449
▁ئۆغلو	-11.4449
▁اڵاول	-11.4449
▁بەکارەکانی	-11.4449
▁سەردەمێکی	-11.4449
▁قائیمقامی	-11.4449
▁لەوەرزی	-11.4449
▁پێوەرە	-11.4449
▁ئارامیی	-11.4459
▁بەرەوپێشچوونی	-11.4459
▁دێت،	-11.4459
▁دەنگێک	-11.4459
▁سەرەوە،	-11.4459
▁لەسەرۆکی	-11.4459
▁هاتبوون	-11.4459
▁هەلەیان	-11.4459
▁وەهمی	-11.4459
▁ڕاپەڕاندنی	-11.4459
▁ڕووبەروی	-11.4459
▁کەسایەتیە	-11.4459
▁بوژاندنەوەی	-11.4469
▁تەلەفیزیۆنی	-11.4469
▁درەختی	-11.4469
▁هەواڵەی	-11.4469
▁پەیوەستن	-11.4469
▁1-	-11.448
▁93	-11.448
▁بینیووە	-11.448
▁بەدرۆ	-11.448
▁دڵخۆشی	-11.448
▁لێبکەن	-11.448
▁میللەتانی	-11.448
▁چەنده	-11.448
▁کوەیت	-11.448
▁سووتا	-11.449
▁قەیرانەی	-11.449
▁وەلامێک	-11.449
▁پێشڕەو	-11.449
▁چارەسەرێک	-11.449
▁چەندینجار	-11.449
▁یەکسانیی	-11.449
▁بەراز	-11.45
▁خۆمانە	-11.45
▁دەبەخشێتەوە	-11.45
▁کلینتۆن	-11.45
▁کەدەبێت	-11.45
▁نەکاتەوە	-11.4511
▁ڕێسا	-11.4511
▁ئەلمالیکی	-11.4521
▁بوونەته	-11.4521
▁دیدارێکدا	-11.4521
▁نراوە	-11.4521
▁هەبوو،	-11.4521
▁کلی	-11.4521
▁کینە	-11.4521
▁دەنوێنێت	-11.4532
▁سەدو	-11.4532
▁مارکسیزم	-11.4532
▁پاڵی	-11.4532
▁کارکردنیان	-11.4532
▁گەمارۆ	-11.4532
▁بەژیانی	-11.4542
▁زەمانی	-11.4542
▁شاعیرێکی	-11.4542
▁لەلایەکەوە	-11.4542
▁مانگەی	-11.4542
▁هەڕەشەیەکی	-11.4542
▁هەژدە	-11.4542
▁هەڵه	-11.4542
▁بەبی	-11.4552
▁بەگرنگ	-11.4552
▁حیزبدا	-11.4552
▁دووپاتیکردەوە	-11.4552
▁دەڵێ	-11.4552
▁سەرۆککۆماری	-11.4552
▁نمونەیەکی	-11.4552
▁هەنگاونان	-11.4552
▁پارێزگارێکی	-11.4552
▁ڕائید	-11.4552
▁تایبەتیی	-11.4563
▁خەڵـکی	-11.4563
▁درێژه	-11.4563
▁دەترسم	-11.4563
▁سەنتەرێ	-11.4563
▁متمانەیان	-11.4563
▁ناگاتە	-11.4563
▁گۆ	-11.4563
▁زایینی	-11.4573
▁شارەکەیان	-11.4573
▁شتێکیان	-11.4573
▁ڕوودەدەن	-11.4573
▁کراوەی	-11.4573
▁ئەفغانسـتان	-11.4584
▁ئەوتۆیان	-11.4584
▁بۆند	-11.4584
▁بەسەرۆکی	-11.4584
▁دەکاتەوە،	-11.4584
▁لەناحیەی	-11.4584
▁پیسبوونی	-11.4584
▁ئەفسانەی	-11.4594
▁بەرو	-11.4594
▁تاکەی	-11.4594
▁خوانەناسان	-11.4594
▁دابەزاندنی	-11.4594
▁دکتۆرا	-11.4594
▁شەڕیان	-11.4594
▁قوربانییەکان	-11.4594
▁هەوڵانەی	-11.4594
▁ورە	-11.4594
▁Published	-11.4605
▁بەشداربووان	-11.4605
▁داهاتو	-11.4605
▁دیدێکی	-11.4605
▁دەرفەتە	-11.4605
▁دەستەوە	-11.4605
▁زیادە	-11.4605
▁لایکی	-11.4605
▁ڕفاندن	-11.4605
▁ڕێگایە	-11.4605
▁ئازیز	-11.4615
▁بانکەکان	-11.4615
▁بزوتنەوەیە	-11.4615
▁بەردەرکی	-11.4615
▁خێری	-11.4615
▁ناوزەد	-11.4615
▁نرخێکی	-11.4615
▁نەبون	-11.4615
▁from	-11.4626
▁،]تا	-11.4626
▁جیهانێکی	-11.4626
▁لێبوردەیی	-11.4626
▁ملیون	-11.4626
▁پێشوازییان	-11.4626
▁پێیەش	-11.4626
▁ڕایس	-11.4626
▁گەمژەکان	-11.4626
▁تالەبانی	-11.4636
▁دارستانی	-11.4636
▁دەزگایە	-11.4636
▁مانایەک	-11.4636
▁مەحاڵ	-11.4636
▁ئەتوانێت	-11.4647
▁تێدابوو	-11.4647
▁حکومەتا	-11.4647
▁دەدەنەوە	-11.4647
▁دەزگاو	-11.4647
▁دەگرم	-11.4647
▁هۆشبەرەکان	-11.4647
▁هیلاری	-11.4647
▁ڕۆژئاوادا	-11.4647
▁کوردستانیەکان	-11.4647
▁ئاڵۆزتر	-11.4657
▁لێهاتوویی	-11.4657
▁هۆنراوەی	-11.4657
▁هیند	-11.4657
▁ژیانەوە	-11.4657
▁بەکاربهێنرێت	-11.4668
▁تاڕادەیەکی	-11.4668
▁سیاسەتدا	-11.4668
▁سەرەرِای	-11.4668
▁فەرمانگە	-11.4668
▁قۆناغێک	-11.4668
▁موتڵەگ	-11.4668
▁ناپۆلی	-11.4668
▁وتارەکەیدا	-11.4668
▁کوێتی	-11.4668
▁گۆڕێ	-11.4668
▁Net	-11.4679
▁ئەمەریکاش	-11.4679
▁بەهێزبوونی	-11.4679
▁بەهێزەکانی	-11.4679
▁دنیایەک	-11.4679
▁زاخو	-11.4679
▁عەبادیدا	-11.4679
▁عەشیرەتی	-11.4679
▁لەدانیشتنی	-11.4679
▁مانەوەیان	-11.4679
▁هاتووەتە	-11.4679
▁هاوبەشەکانی	-11.4679
▁ڕێڤەبەریا	-11.4679
▁ڕەوایەتی	-11.4679
▁کامێرای	-11.4679
▁کردیان	-11.4679
▁ئەگەرێکی	-11.4689
▁بدرێتەوە	-11.4689
▁بدۆزینەوە	-11.4689
▁جوانیی	-11.4689
▁خەندەڕەش	-11.4689
▁دیمەنێک	-11.4689
▁شیکاری	-11.4689
▁ئەویان	-11.47
▁بواره	-11.47
▁بڕ	-11.47
▁بەرزکردەوە	-11.47
▁دوایەمین	-11.47
▁نوێیەکەی	-11.47
▁چاوێک	-11.47
▁"مەسعود	-11.471
▁ئاشتیانەی	-11.471
▁ئەمجارەش	-11.471
▁سیاسیانەی	-11.471
▁شێوەیەش	-11.471
▁ناوچەیه	-11.471
▁هۆرێن	-11.471
▁ورەی	-11.471
▁ڕێگەچارەی	-11.471
▁کۆبانییە	-11.471
▁ئەبوو	-11.4721
▁ئەنجامبدات	-11.4721
▁بایەخدان	-11.4721
▁بلاو	-11.4721
▁بگونجێت	-11.4721
▁بەنیازن	-11.4721
▁سەرچاوەیە	-11.4721
▁نائومێد	-11.4721
▁ڕوخاندنی	-11.4721
▁کاڵا	-11.4721
▁یە،	-11.4721
▁ئەردەن	-11.4732
▁ئەپرێل	-11.4732
▁بنکه	-11.4732
▁بچوکترین	-11.4732
▁بێتامی	-11.4732
▁داخۆ	-11.4732
▁دەزانیت	-11.4732
▁شەودا	-11.4732
▁لێهاتووە	-11.4732
▁مەرجێکی	-11.4732
▁نەخوازراو	-11.4732
▁کەسمان	-11.4732
▁ئەمرۆی	-11.4742
▁ئەکتەرە	-11.4742
▁بیانوی	-11.4742
▁تێکشکاندنی	-11.4742
▁داڕشتنەوەی	-11.4742
▁دۆستانەی	-11.4742
▁نیت	-11.4742
▁ڕاچەنینی	-11.4742
▁بڕگەکانی	-11.4753
▁بەوان	-11.4753
▁بەیاننامەکە	-11.4753
▁تاوانانەی	-11.4753
▁نەجات	-11.4753
▁وشەکان	-11.4753
▁پێکی	-11.4753
▁January	-11.4763
▁بده	-11.4763
▁بەئاراستەی	-11.4763
▁جەماوەرێکی	-11.4763
▁لاپەڕەکانی	-11.4763
▁لەسیستمی	-11.4763
▁هەناردە	-11.4763
▁وێنەکان	-11.4763
▁کێشەو[	-11.4763
▁ئەوەى	-11.4774
▁سێو	-11.4774
▁سەربازەکانی	-11.4774
▁شارستانییەت	-11.4774
▁لەژیان	-11.4774
▁ناونیشان	-11.4774
▁نەگرت	-11.4774
▁هاوڕێیەکی	-11.4774
▁پۆستێکی	-11.4774
▁بەرێوەبردنی	-11.4785
▁عەبدولڵا	-11.4785
▁لەلایەنی	-11.4785
▁نێردراوی	-11.4785
▁هەنوکە	-11.4785
▁پاکسـتان	-11.4785
▁ئاشکرایان	-11.4795
▁دەگەڕێتەوه	-11.4795
▁زار	-11.4795
▁سەوزایی	-11.4795
▁شەهاب	-11.4795
▁لەدەستگیرکردنی	-11.4795
▁متمانه	-11.4795
▁مەبەستێکی	-11.4795
▁نوسەران	-11.4795
▁چووم	-11.4795
▁کوردیە	-11.4795
▁کۆمەڵایەتیدا	-11.4795
▁تایبەتەوە	-11.4806
▁دروستیان	-11.4806
▁دەسەڵاتەی	-11.4806
▁دەورو	-11.4806
▁لێخۆشبوو	-11.4806
▁هۆشی	-11.4806
▁ڕیکلام	-11.4806
▁یانەیەکی	-11.4806
▁ئەستەم	-11.4817
▁زوڵملێکراو	-11.4817
▁شانشینی	-11.4817
▁مرۆڤیش	-11.4817
▁هەڤپەیڤین	-11.4817
▁پێشهاتەکانی	-11.4817
▁ئایینە	-11.4828
▁حکوومەتەکانی	-11.4828
▁هەڵدا	-11.4828
▁ڕابگرن	-11.4828
▁کۆدەبێتەوە	-11.4828
▁بردنەوە	-11.4838
▁بەبوونی	-11.4838
▁خانەخوێی	-11.4838
▁زێڕینی	-11.4838
▁قوڵتر	-11.4838
▁لاوازکردنی	-11.4838
▁ناهێنن	-11.4838
▁پێنجەمین	-11.4838
▁چانسی	-11.4838
▁گۆڵێکی	-11.4838
▁گەیشتووە،	-11.4838
▁1978	-11.4849
▁ئاواتەکەی	-11.4849
▁خەڵکه	-11.4849
▁ساتەکانی	-11.4849
▁سنووردار	-11.4849
▁چەواشە	-11.4849
▁یاساییان	-11.4849
▁ئایار/	-11.486
▁بگەینە	-11.486
▁بەئەنجام	-11.486
▁بەدڵ	-11.486
▁دادوەریی	-11.486
▁داوام	-11.486
▁داواکەی	-11.486
▁دەیانگوت	-11.486
▁ناسیونالیزمی	-11.486
▁rights	-11.4871
▁بازار	-11.4871
▁بەوانەی	-11.4871
▁فەزڵ	-11.4871
▁هەڵداوە	-11.4871
▁پێبدات	-11.4871
▁پێویستدا	-11.4871
▁گەرانەوەی	-11.4871
▁ئۆبامای	-11.4881
▁بنووسم	-11.4881
▁بەچەندین	-11.4881
▁دانوستانکاری	-11.4881
▁سارا	-11.4881
▁سەدی	-11.4881
▁قۆناخی	-11.4881
▁مەدەنییەکان	-11.4881
▁بانک	-11.4892
▁بخرێته	-11.4892
▁دەریان	-11.4892
▁زانیارییە	-11.4892
▁سەمیر	-11.4892
▁هەندێکیش	-11.4892
▁یاسادانان	-11.4892
▁ئەڵێم	-11.4903
▁بیەوێ	-11.4903
▁بەرشلۆنە	-11.4903
▁دروشمە	-11.4903
▁عیززەت	-11.4903
▁لۆڤ	-11.4903
▁نەوتدا	-11.4903
▁وەرزە	-11.4903
▁هۆتێل	-11.4914
▁پشتیوانیکردنی	-11.4914
▁ژوورە	-11.4914
▁کاروبارەکانی	-11.4914
▁Aziz	-11.4925
▁بەحوکمی	-11.4925
▁توێژەرانی	-11.4925
▁حنا	-11.4925
▁دەستووریی	-11.4925
▁شێوەش	-11.4925
▁لەمن	-11.4925
▁نێوی	-11.4925
▁هاوکارییان	-11.4925
▁هاوین	-11.4925
▁هەڵبژێرێت	-11.4925
▁ڕابردووەوە	-11.4925
▁ڕزگاریی	-11.4925
▁کابرا	-11.4925
▁پارێزگاریکردن	-11.4936
▁پەیداکردنی	-11.4936
▁چووەتە	-11.4936
▁کۆکردنەوە	-11.4936
▁بهێنه	-11.4946
▁ندی	-11.4946
▁هەتاو	-11.4946
▁ڕەخنەگر	-11.4946
▁ژینگەیی	-11.4946
▁ئەفسەر	-11.4957
▁ستاندارد	-11.4957
▁شورای	-11.4957
▁فیستیڤاڵە	-11.4957
▁قو	-11.4957
▁قەیرانەکانی	-11.4957
▁نامەوێ	-11.4957
▁وێنه	-11.4957
▁ڕەقیب	-11.4957
▁need	-11.4968
▁ئاکۆیی	-11.4968
▁بابل	-11.4968
▁بۆئەو	-11.4968
▁بەفەرمانی	-11.4968
▁زەردەشتی	-11.4968
▁سەرگەرمی	-11.4968
▁لەیانەی	-11.4968
▁نەیدەتوانی	-11.4968
▁پرسیارو	-11.4968
▁پێشمەرگەیەکی	-11.4968
▁پێشوازییەکی	-11.4968
▁گوتارە	-11.4968
▁گەڕەکە	-11.4968
▁1981	-11.4979
▁ئیستاش	-11.4979
▁ئەقڵی	-11.4979
▁ستەمکاری	-11.4979
▁لوتکە	-11.4979
▁ڕەخنەگرانی	-11.4979
▁ژینگەو	-11.4979
▁کە:	-11.4979
▁گریاوە	-11.4979
▁الی	-11.499
▁بەرپاکردنی	-11.499
▁حوزەیران/	-11.499
▁شیعرو	-11.499
▁لەپێکهێنانی	-11.499
▁منداڵانە	-11.499
▁منداڵانەی	-11.499
▁نیگەرانن	-11.499
▁هایدگێر	-11.499
▁کۆببنەوە	-11.499
▁کەسانەش	-11.499
▁1985	-11.5001
▁بگەیەنێتە	-11.5001
▁خۆپاراستن	-11.5001
▁دڕندانە	-11.5001
▁شارەی	-11.5001
▁مابوو	-11.5001
▁هاوڕێیان	-11.5001
▁پشتیوانیان	-11.5001
▁پەیامێک	-11.5001
▁ڕابردووشدا	-11.5001
▁کۆنگرێس	-11.5001
▁کەرکوکەوە	-11.5001
▁ئەرشیفی	-11.5012
▁بارەت	-11.5012
▁جێبەجێبکرێت	-11.5012
▁خەتای	-11.5012
▁داخراوی	-11.5012
▁غەیری	-11.5012
▁نەهێشتنەوەی	-11.5012
▁وەکی	-11.5012
▁پێبدەن	-11.5012
▁یۆرانیۆم	-11.5012
▁1963	-11.5023
▁350	-11.5023
▁ئەنجامدەرانی	-11.5023
▁دەناڵێنێت	-11.5023
▁زور	-11.5023
▁نزیکانه	-11.5023
▁هەریمی	-11.5023
▁ڕزگارمان	-11.5023
▁ڕێگایەوە	-11.5023
▁دەستت	-11.5034
▁دەمە	-11.5034
▁سەردان	-11.5034
▁فۆرمێکی	-11.5034
▁قەیرانەکان	-11.5034
▁لێرەشدا	-11.5034
▁پارته	-11.5034
▁ئەدەبیات	-11.5045
▁تیرۆریستەکان	-11.5045
▁خزمەتگوزارییەکانی	-11.5045
▁زۆرجاریش	-11.5045
▁سەرکرده	-11.5045
▁فڕۆکەکانی	-11.5045
▁مێژویی	-11.5045
▁ڕوناک	-11.5045
▁ڕووداوێک	-11.5045
▁یەکتردا	-11.5045
▁ئامرازەکانی	-11.5056
▁ئامریکا	-11.5056
▁ئۆپۆزسیۆنیش	-11.5056
▁ئەزانی	-11.5056
▁دەیانویست	-11.5056
▁فشارێکی	-11.5056
▁قوتابخانەیەکی	-11.5056
▁قەدەغەیە	-11.5056
▁لەفراکسیۆنی	-11.5056
▁وتوویەتی	-11.5056
▁وێنەیەک	-11.5056
▁پرِۆژه	-11.5056
▁کۆچکردوو	-11.5056
▁گۆڕانکارییەکی	-11.5056
▁ئەمەریکیەکان	-11.5067
▁خاکە	-11.5067
▁خۆشحاڵ	-11.5067
▁دەوەستێت	-11.5067
▁شارۆچکە	-11.5067
▁عەبدولخالق	-11.5067
▁لاساییکردنەوەیەکی	-11.5067
▁هەرێمەدا	-11.5067
▁جەرگەی	-11.5077
▁دانوستاندن	-11.5077
▁لێهاتوو	-11.5077
▁نێودەوڵەتیەکان	-11.5077
▁هەمانە	-11.5077
▁پلەیەکی	-11.5077
▁کۆبوونەوەیە	-11.5077
▁گۆڕانەوە	-11.5077
▁بنەماو	-11.5089
▁بچین	-11.5089
▁تریلیۆن	-11.5089
▁دەبەستن	-11.5089
▁دەردەکات	-11.5089
▁سەرکەوتنەکانی	-11.5089
▁قەتیس	-11.5089
▁نەخۆشخانەکانی	-11.5089
▁ئامێزی	-11.51
▁بزووتنەوەیەکی	-11.51
▁دهوک	-11.51
▁دیدە	-11.51
▁هەولێریش	-11.51
▁وڵامێک	-11.51
▁پارچەیەک	-11.51
▁پیشە	-11.51
▁چەمکێکی	-11.51
▁ببینەوە	-11.5111
▁بوون.	-11.5111
▁دروستکردوە	-11.5111
▁دیاربوو	-11.5111
▁ناکاو	-11.5111
▁ناکرێن	-11.5111
▁هەرێمایەتی	-11.5111
▁پاکستانی	-11.5111
▁پێشووتری	-11.5111
▁ڕەسمیی	-11.5111
▁گومانلێکراو	-11.5111
▁بێگەردی	-11.5122
▁بەرباس	-11.5122
▁ساڵیش	-11.5122
▁ساڵێکدا	-11.5122
▁ستران	-11.5122
▁نەیاری	-11.5122
▁پەتای	-11.5122
▁چەوسانەوە	-11.5122
▁ڕووەشەوە	-11.5122
▁ڕێکخراوانە	-11.5122
▁کۆمپانیایە	-11.5122
▁کەموکورتی	-11.5122
▁سەرسامی	-11.5133
▁صقر	-11.5133
▁معرکة	-11.5133
▁هێند	-11.5133
▁هەڵبژێرن	-11.5133
▁پارەیان	-11.5133
▁پیسی	-11.5133
▁ڕابگەیەنێت	-11.5133
▁گوندو	-11.5133
▁ئاهەنگێکی	-11.5144
▁بەرهەمهێنەری	-11.5144
▁جێگا	-11.5144
▁دامەزراوەیەکی	-11.5144
▁سروشتییەکانی	-11.5144
▁سەرەتایەک	-11.5144
▁شۆڕشگێڕ	-11.5144
▁نیعمەتی	-11.5144
▁چالاکوان	-11.5144
▁ڕێیانی	-11.5144
▁گرنگەکان	-11.5144
▁گۆرانیی	-11.5144
▁ئابوورییەوە	-11.5155
▁ئاسمانیی	-11.5155
▁فەیلەسوف	-11.5155
▁هەموی	-11.5155
▁هەڵیان	-11.5155
▁وڵامی	-11.5155
▁ئال	-11.5166
▁ئەیسی	-11.5166
▁بت	-11.5166
▁بەرنامەکه	-11.5166
▁قارەمانی	-11.5166
▁هێلکە	-11.5166
▁پێیوابوو	-11.5166
▁ئاسۆکمال	-11.5177
▁بنەماڵەکەی	-11.5177
▁بکوژی	-11.5177
▁تەفسیری	-11.5177
▁جیاجیای	-11.5177
▁دووبارەی	-11.5177
▁نێودەوڵەتیدا	-11.5177
▁ڕەگەزنامەی	-11.5177
▁کۆتاییەکانی	-11.5177
▁ئەبێتەوە	-11.5188
▁بچنەوە	-11.5188
▁دەربازبوون	-11.5188
▁ڕووناکبیر	-11.5188
▁Omar	-11.5199
▁بەشداربووی	-11.5199
▁بەڕێوەچوو،	-11.5199
▁جەنگییەکانی	-11.5199
▁دۆستانە	-11.5199
▁دەدەن.	-11.5199
▁دەمێنێت	-11.5199
▁لیژنەکان	-11.5199
▁ئەلبوومی	-11.521
▁بڕیارەکان	-11.521
▁جاوەروانی	-11.521
▁دوایدا	-11.521
▁ساردبوونی	-11.521
▁ستۆکهۆڵم	-11.521
▁عِفرین	-11.521
▁فڵان	-11.521
▁مەلاکان	-11.521
▁نەهێنا	-11.521
▁پێنچ	-11.521
▁گوندنشینانەی	-11.521
▁باڵندە	-11.5222
▁بخاتەوە	-11.5222
▁برەودان	-11.5222
▁بیروباوەڕ	-11.5222
▁جندیانی	-11.5222
▁دانوستانی	-11.5222
▁ذِین	-11.5222
▁لۆژیک	-11.5222
▁مارتن	-11.5222
▁وێنەیە	-11.5222
▁ڕیسوا	-11.5222
▁کلیپەکەم	-11.5222
▁ۆرکشۆپ	-11.5222
▁یەکەمجارە	-11.5222
▁إیلی	-11.5233
▁ئامارەکانی	-11.5233
▁ئەڵمانیای	-11.5233
▁بوم	-11.5233
▁بەهەماهەنگی	-11.5233
▁جارێکیان	-11.5233
▁دەڕوانن	-11.5233
▁قسەیەی	-11.5233
▁هەڵخەڵەتان	-11.5233
▁پێدەدات	-11.5233
▁چیرۆکەکانی	-11.5233
▁ڕێزلێنانەکەی	-11.5233
▁کارمەندان	-11.5233
▁کردەوەو[	-11.5233
▁بونەوە	-11.5244
▁بۆنەیەوە	-11.5244
▁بەغدادی	-11.5244
▁تقهر	-11.5244
▁دەردەبڕێت	-11.5244
▁دەستکەوتەکان	-11.5244
▁سەوزە	-11.5244
▁فراکسیۆنه	-11.5244
▁فەرموویەتی	-11.5244
▁نەهێڵن	-11.5244
▁وەختی	-11.5244
▁کۆنفرانسە	-11.5244
▁ئەتاتورک	-11.5255
▁سەبار	-11.5255
▁سەربەخۆیە	-11.5255
▁سەردانیان	-11.5255
▁عەباسی	-11.5255
▁لەمافەکانی	-11.5255
▁ویستم	-11.5255
▁پێگەو	-11.5255
▁چاکه	-11.5255
▁گەشتیار	-11.5255
▁members	-11.5266
▁إلا	-11.5266
▁بەرپرسه	-11.5266
▁بەرەمزی	-11.5266
▁جیهادی	-11.5266
▁زۆیا	-11.5266
▁فەرید	-11.5266
▁لەپڕ	-11.5266
▁مۆرکی	-11.5266
▁پتەوی	-11.5266
▁کێشانی	-11.5266
▁یەی	-11.5266
▁ئیتیلافی	-11.5278
▁دابەزی	-11.5278
▁هۆبەی	-11.5278
▁واژۆی	-11.5278
▁پارێزراوە	-11.5278
▁ڕەهەندێکی	-11.5278
▁کوردانگراد	-11.5278
▁گرنگترە	-11.5278
▁1960	-11.5289
▁تێدایەو	-11.5289
▁جەماوەرو	-11.5289
▁دەدرێتە	-11.5289
▁دەستپێکردووە	-11.5289
▁ساڵەو	-11.5289
▁سیخوڕی	-11.5289
▁عەرەبدا	-11.5289
▁لەڕۆژانی	-11.5289
▁نزمی	-11.5289
▁چەتەکانی	-11.5289
▁ڕێگەیەک	-11.5289
▁بێکار	-11.53
▁بەڕێزە	-11.53
▁تاوانبارە	-11.53
▁دەرفەتێک	-11.53
▁دەهاتە	-11.53
▁زەمینەیەکی	-11.53
▁سەلامی	-11.53
▁سەییدعەلی	-11.53
▁ڕادەگەیەنین	-11.53
▁کایەکانی	-11.53
▁کەمتەرخەمیمان	-11.53
▁گرێبەستە	-11.53
▁بەریتانیاو	-11.5311
▁تۆتنهام	-11.5311
▁دەنگدانیان	-11.5311
▁سەعدون	-11.5311
▁عەرەبیش	-11.5311
▁ملیۆنەها	-11.5311
▁وڵاتانەدا	-11.5311
▁ئەوەشمان	-11.5323
▁باب	-11.5323
▁فریشتە	-11.5323
▁مرۆڤانە	-11.5323
▁پەسەندکرا	-11.5323
▁ڕوانگە	-11.5323
▁کپ	-11.5323
▁ئیماندار	-11.5334
▁ئەڤین	-11.5334
▁بوژانەوەی	-11.5334
▁بگێڕن	-11.5334
▁بیابان	-11.5334
▁بەرپرسەکانی	-11.5334
▁تایبەتمەندیی	-11.5334
▁ستەمکاران	-11.5334
▁مۆری	-11.5334
▁یاسایانەی	-11.5334
▁ئەزانم	-11.5345
▁بینەرانی	-11.5345
▁تاراوگە	-11.5345
▁شەرمەزاری	-11.5345
▁فرەژنی	-11.5345
▁لیستەکان	-11.5345
▁لێهات	-11.5345
▁لەحاڵەتی	-11.5345
▁موسل	-11.5345
▁نەژادی	-11.5345
▁هاوڵاتیەکی	-11.5345
▁پەروەردگارتان	-11.5345
▁کاوه	-11.5345
▁گاتایەک	-11.5345
▁گۆرانییە	-11.5345
▁JavaScript	-11.5356
▁enabled	-11.5356
▁برایەکی	-11.5356
▁بکێشێت	-11.5356
▁بەرپرسەکان	-11.5356
▁بەهەزاران	-11.5356
▁تۆپبارانی	-11.5356
▁جەنگدا	-11.5356
▁دران	-11.5356
▁ساختە	-11.5356
▁ناشێت	-11.5356
▁هەڵویستی	-11.5356
▁پرۆلیتاریا	-11.5356
▁ڕەگەزپەرستی	-11.5356
▁کەیسە	-11.5356
▁بونیان	-11.5368
▁بەیاسا	-11.5368
▁درووستکردنی	-11.5368
▁دەبنه	-11.5368
▁هۆکارانەی	-11.5368
▁پرسەی	-11.5368
▁چەوسانەوەی	-11.5368
▁ڕێگەو	-11.5368
▁گۆلپی	-11.5368
▁گۆڕە	-11.5368
▁،]هیچ	-11.5379
▁ئابوورییە	-11.5379
▁ئێستاشی	-11.5379
▁ببڕێت	-11.5379
▁خەلافەتی	-11.5379
▁لێکراو	-11.5379
▁ماندووبوونی	-11.5379
▁مستەفای	-11.5379
▁موقەدەم	-11.5379
▁نّ	-11.5379
▁هەلە	-11.5379
▁هەڵبژێردرا	-11.5379
▁ڕاگەیاندنەوە	-11.5379
▁گۆڕانکارییەکان	-11.5379
▁Copyright	-11.539
▁لەپڕۆسەی	-11.539
▁هیواشی	-11.539
▁هەلوێستم	-11.539
▁ڕاستکردنەوەی	-11.539
▁ئاسوودە	-11.5402
▁ئەمجارەی	-11.5402
▁باشتری	-11.5402
▁بێتووشی	-11.5402
▁حازر	-11.5402
▁دەردەبڕن	-11.5402
▁ناوین	-11.5402
▁هەمەلایەنە	-11.5402
▁ئاییندەی	-11.5413
▁بووبوون	-11.5413
▁تەڵەیک	-11.5413
▁لەکۆنگرەی	-11.5413
▁هاوبەشە	-11.5413
▁هۆزان	-11.5413
▁هێواش	-11.5413
▁وڵاتێکدا	-11.5413
▁پێزانینی	-11.5413
▁ڕابردووش	-11.5413
▁کردون	-11.5413
▁94	-11.5424
▁بیرت	-11.5424
▁بەیەکجاری	-11.5424
▁شیعر	-11.5424
▁ناوچانه	-11.5424
▁نیشاندان	-11.5424
▁نیشانە	-11.5424
▁یاساییە	-11.5424
▁ئامێدی	-11.5436
▁ئاپۆوە	-11.5436
▁تێپەڕیوە	-11.5436
▁دانەوەی	-11.5436
▁شەق	-11.5436
▁نەداوه	-11.5436
▁پەروەردگارم	-11.5436
▁ئاگایان	-11.5447
▁بەئازادی	-11.5447
▁تیرۆریزم	-11.5447
▁حیزبایەتی	-11.5447
▁دروستدەکرێت	-11.5447
▁دەنوسێت	-11.5447
▁مارف	-11.5447
▁هاوشێوە	-11.5447
▁کۆنترین	-11.5447
▁ئەوەدان	-11.5459
▁بیرەوەرییەکانی	-11.5459
▁بەداخەوه	-11.5459
▁بەمافی	-11.5459
▁خستووەتە	-11.5459
▁دیکتاتۆرەکان	-11.5459
▁لەوتەیەکدا	-11.5459
▁لەیاد	-11.5459
▁هاوەڵ	-11.5459
▁هەیە.	-11.5459
▁ڕاپێچی	-11.5459
▁reserved	-11.547
▁©	-11.547
▁ئەنفلۆنزای	-11.547
▁بزر	-11.547
▁بڕیارەماندا	-11.547
▁هاتۆته	-11.547
▁ڕەوشێکی	-11.547
▁کوێی	-11.547
▁یاریزانەکانی	-11.547
▁یەکلاییکردنەوەی	-11.547
▁009647707681213	-11.5482
▁ئەتوانن	-11.5482
▁بەرنامەکە	-11.5482
▁بەگشتیی	-11.5482
▁تایبەتمەندییەکانی	-11.5482
▁خراپەکانی	-11.5482
▁دەربە	-11.5482
▁دەکاو	-11.5482
▁سەردەمیانە	-11.5482
▁قەبوڵ	-11.5482
▁ناسیۆنالیستی	-11.5482
▁نەوتییەکانی	-11.5482
▁کۆمپانیایەک	-11.5482
▁گەورەوە	-11.5482
▁Berprsî	-11.5493
▁Faris	-11.5493
▁Nêt	-11.5493
▁kurdistannet@hotmail	-11.5493
▁ئەردۆگان	-11.5493
▁سوپاسگوزاری	-11.5493
▁لێوی	-11.5493
▁مریشک	-11.5493
▁مەنسور	-11.5493
▁پێناد	-11.5493
▁ڕجیمکردن	-11.5493
▁گوارەکەیە	-11.5493
▁php	-11.5505
▁دوودڵی	-11.5505
▁مابێت	-11.5505
▁پیاوسالاری	-11.5505
▁ێکی	-11.5505
▁بەدەستەوەیە	-11.5516
▁تێگەیشتنە	-11.5516
▁جیاجیاکاندا	-11.5516
▁لیتر	-11.5516
▁هاوڵاتیەک	-11.5516
▁هێشتاش	-11.5516
▁وەزار	-11.5516
▁ڕادەکێشێت	-11.5516
▁کراوەو	-11.5516
▁کرۆکی	-11.5516
▁دەبەستێتەوە	-11.5528
▁دەستنیشانی	-11.5528
▁سەرۆکێکی	-11.5528
▁فەقێ	-11.5528
▁لەماڵەوە	-11.5528
▁میحوەری	-11.5528
▁هاووڵاتییەکی	-11.5528
▁@hotmail	-11.5539
▁بونیاد	-11.5539
▁بەئەرکی	-11.5539
▁تۆماس	-11.5539
▁خۆیەوە،	-11.5539
▁داهێنەر	-11.5539
▁سەرسەختی	-11.5539
▁منداڵیان	-11.5539
▁پیت	-11.5539
▁ڕاپەڕینە	-11.5539
▁کۆیلایەتی	-11.5539
▁ئەح	-11.5551
▁بێکاریی	-11.5551
▁بەوەدەکات	-11.5551
▁دەڕوانێت	-11.5551
▁شەرمەزار	-11.5551
▁لەناوخۆی	-11.5551
▁لەوەفدێکی	-11.5551
▁ڤیتامین	-11.5551
▁گیر	-11.5551
▁بەردەوامبوون	-11.5562
▁جەزا	-11.5562
▁حەدبا	-11.5562
▁داوایەی	-11.5562
▁زلهێزەکان	-11.5562
▁شێخی	-11.5562
▁عیرفان	-11.5562
▁قەڵەمی	-11.5562
▁لەباتی	-11.5562
▁نزیکانە	-11.5562
▁پشکۆنەجمەدین	-11.5562
▁کرێکاریی	-11.5562
▁بەرپرسیارە	-11.5574
▁زەرەرمەند	-11.5574
▁فرۆکە	-11.5574
▁پڕوپاگەندە	-11.5574
▁بڕیاریداوە	-11.5585
▁بەهرەمەند	-11.5585
▁تەرخانکردنی	-11.5585
▁زۆرداری	-11.5585
▁سەعاتێک	-11.5585
▁ململانێکان	-11.5585
▁ڕۆشنبیرە	-11.5585
▁کەهیچ	-11.5585
▁یاخوود	-11.5585
▁یەکن	-11.5585
▁بمێنێت	-11.5597
▁بڕیاردانی	-11.5597
▁بەنێو	-11.5597
▁دوەمی	-11.5597
▁دەوڵەمەندە	-11.5597
▁لەشارۆچکەی	-11.5597
▁ڕێنماییەکان	-11.5597
▁کودەتای	-11.5597
▁ئان	-11.5608
▁ئەنتی	-11.5608
▁بنەمایەک	-11.5608
▁بۆری	-11.5608
▁بەجێی	-11.5608
▁بەدەوری	-11.5608
▁جێبەجێدەکرێت	-11.5608
▁حەڤدایی	-11.5608
▁دەنووسێ	-11.5608
▁مینا	-11.5608
▁مەسڕن	-11.5608
▁وێرانکردنی	-11.5608
▁ژیاون	-11.5608
▁کاتیی	-11.5608
▁یازدە	-11.5608
▁co	-11.562
▁ئازادیەکانی	-11.562
▁ئامار	-11.562
▁ئاینە	-11.562
▁بەختەوەر	-11.562
▁بەرزان	-11.562
▁تووڕەیی	-11.562
▁حاکمی	-11.562
▁دێنێتە	-11.562
▁ماریا	-11.562
▁نوسیویەتی	-11.562
▁ورمێ	-11.562
▁چەورەکەتان	-11.562
▁گەڵای	-11.562
▁ئەکبەر	-11.5632
▁حە	-11.5632
▁دیوار	-11.5632
▁دەدەنە	-11.5632
▁سیاسیان	-11.5632
▁لەدەسەڵات	-11.5632
▁لەپارتی	-11.5632
▁لەیاریگای	-11.5632
▁هەره	-11.5632
▁ڕکێفی	-11.5632
▁ڤەکرن	-11.5632
▁کۆمەڵناسی	-11.5632
▁جوتیارانی	-11.5643
▁دەکرێتەوه	-11.5643
▁شتەی	-11.5643
▁هەولێرەوە	-11.5643
▁ولاتەدا	-11.5643
▁ئەیلول/	-11.5655
▁بەژنان	-11.5655
▁تۆپباران	-11.5655
▁شارەکەدا	-11.5655
▁قورستر	-11.5655
▁نەکرێن	-11.5655
▁چییان	-11.5655
▁یەکگرتنی	-11.5655
▁بەژێر	-11.5667
▁دانابوو	-11.5667
▁داهاتووش	-11.5667
▁فەیسەڵ	-11.5667
▁ناومان	-11.5667
▁پیشاندانی	-11.5667
▁چڕی	-11.5667
▁ڕونیشیکردەوە	-11.5667
▁کۆمەلگای	-11.5667
▁1500	-11.5678
▁ئەنفالکراوانی	-11.5678
▁بنە	-11.5678
▁بگرنە	-11.5678
▁بەرکەوتووە	-11.5678
▁توانیم	-11.5678
▁جێگر	-11.5678
▁سنوورێک	-11.5678
▁سەرمایەدار	-11.5678
▁ڕیش	-11.5678
▁ئامێرەکانی	-11.569
▁بەخێر	-11.569
▁بەرای	-11.569
▁دانوستانەکان	-11.569
▁شێعرێک	-11.569
▁ناوەکان	-11.569
▁کارەکانمان	-11.569
▁باشە،	-11.5702
▁بەمانا	-11.5702
▁لێدەکەین	-11.5702
▁هۆز	-11.5702
▁پەشیمانی	-11.5702
▁کەرتە	-11.5702
▁بەڕێوەی	-11.5713
▁دەستپێکردنەوەی	-11.5713
▁سەربازه	-11.5713
▁هەرکات	-11.5713
▁گرتنە	-11.5713
▁بەوشێوەیە	-11.5725
▁تەمموز/	-11.5725
▁حیزبەوە	-11.5725
▁خۆپێشاندان	-11.5725
▁دەربرِی	-11.5725
▁قەزاکە	-11.5725
▁هەواڵێک	-11.5725
▁چەپەکان	-11.5725
▁ڕێبازە	-11.5725
▁یەکێتییەوە	-11.5725
▁باوەش	-11.5737
▁بەدڵی	-11.5737
▁بەکاردەهێنرێت	-11.5737
▁جوتیار	-11.5737
▁گوتووە	-11.5737
▁دەرەوەدا	-11.5749
▁ڕادەیەی	-11.5749
▁ژەنەڕاڵ	-11.5749
▁گومانیان	-11.5749
▁بووبێ	-11.576
▁بەڕێزانە	-11.576
▁دیبلۆماسی	-11.576
▁دەرکی	-11.576
▁دەکەن.	-11.576
▁فەرماندە	-11.576
▁قەرەتەپە	-11.576
▁کابرای	-11.576
▁کوردی،	-11.576
▁ئیبراهیمی	-11.5772
▁بەرتەسک	-11.5772
▁بەردە	-11.5772
▁بەلا	-11.5772
▁دەبن،	-11.5772
▁زیرەکی	-11.5772
▁شۆڤێنی	-11.5772
▁لەبەرچاوی	-11.5772
▁نامێنێتەوە	-11.5772
▁ڕۆژوو	-11.5772
▁گڕ	-11.5772
▁بەجوانی	-11.5784
▁بەکاربهێنێت	-11.5784
▁تاوانەکە	-11.5784
▁تەلەفزیونی	-11.5784
▁جێگیرکردنی	-11.5784
▁درێغی	-11.5784
▁شوێندا	-11.5784
▁غەززه	-11.5784
▁مەحوی	-11.5784
▁نزیکەوه	-11.5784
▁هەڵگرت	-11.5784
▁کریستیانۆ	-11.5784
▁سەرۆکوەزیران	-11.5796
▁ناکۆکییەکانی	-11.5796
▁نەبووەتەوە	-11.5796
▁هاوسەنگ	-11.5796
▁ڕۆژاوا	-11.5796
▁کامێرا	-11.5796
▁گروپەکانی	-11.5796
▁گەرمەی	-11.5796
▁بەرهەمەکانیان	-11.5808
▁بەسەختی	-11.5808
▁تێکستە	-11.5808
▁تەکنیک	-11.5808
▁مزگەوتەکان	-11.5808
▁پێنجوێن	-11.5808
▁گۆڕین	-11.5808
▁ئەرزی	-11.5819
▁فیلمەکه	-11.5819
▁نیشانداوە	-11.5819
▁ڕوویانداوە	-11.5819
▁کیری	-11.5819
▁کەوتونەتە	-11.5819
▁بەرجەستەکردنی	-11.5831
▁بەرِێوەچوونی	-11.5831
▁بەرەوپێش	-11.5831
▁دەبڕێت	-11.5831
▁دەفەرمووێت	-11.5831
▁لەدونیای	-11.5831
▁نازی	-11.5831
▁وەلاتێ	-11.5831
▁بدرێت،	-11.5843
▁بچێته	-11.5843
▁دانیشتنەکە	-11.5843
▁داواکاریەکانی	-11.5843
▁گەڕانەوەیان	-11.5843
▁یەکجارەکی	-11.5843
▁"به	-11.5855
▁ئاکاری	-11.5855
▁جبوری	-11.5855
▁خوێنیان	-11.5855
▁دامەزراوه	-11.5855
▁سەرما	-11.5855
▁لەدیدارەکەدا	-11.5855
▁ڕێگاکانی	-11.5855
▁گۆڵێک	-11.5855
▁uk	-11.5867
▁ئەچێت	-11.5867
▁بازاڕو	-11.5867
▁بنچینەیی	-11.5867
▁بڕیاربوو	-11.5867
▁بگرم	-11.5867
▁حەمرین	-11.5867
▁خۆشتر	-11.5867
▁داخوازیەکانی	-11.5867
▁دەستەکانی	-11.5867
▁قوربانیدان	-11.5867
▁لەناویاندا	-11.5867
▁نەبینی	-11.5867
▁هێرشەکەی	-11.5867
▁ڕۆژئاواو	-11.5867
▁ڕۆژگارە	-11.5867
▁1958	-11.5879
▁ساڵانێکە	-11.5879
▁فیزیکی	-11.5879
▁لەدەسەڵاتی	-11.5879
▁ڕاکێشا	-11.5879
▁کاغەز	-11.5879
▁گوتارێکی	-11.5879
▁گوزەران	-11.5879
▁گێڕاوە	-11.5879
▁دووشەممەی	-11.5891
▁هەڵمەتەکانی	-11.5891
▁پێکدەهێنن	-11.5891
▁ڕواندز	-11.5891
▁ڕویدا	-11.5891
▁ڕەفتارە	-11.5891
▁لەبیری	-11.5903
▁نووسراو	-11.5903
▁هۆیەکانی	-11.5903
▁کۆتایدا	-11.5903
▁کەسوکار	-11.5903
▁ئامادەکراوە	-11.5915
▁ئەتوانین	-11.5915
▁جێناکۆکەکان	-11.5915
▁دابینکراوە	-11.5915
▁دروستدەبێت	-11.5915
▁دەباتە	-11.5915
▁دەدەن،	-11.5915
▁لەمێژە	-11.5915
▁وازهێنان	-11.5915
▁ڕاستییەی	-11.5915
▁کیانی	-11.5915
▁بەخەڵک	-11.5927
▁تەنگژەی	-11.5927
▁خۆشحاڵم	-11.5927
▁دەستداوە	-11.5927
▁ستایلی	-11.5927
▁سروشتیەکان	-11.5927
▁سەردانه	-11.5927
▁شەڕدا	-11.5927
▁نابینم	-11.5927
▁نەبووە،	-11.5927
▁هەواڵگریی	-11.5927
▁ببەستن	-11.5939
▁بڕوانین	-11.5939
▁دەبێتەوەو	-11.5939
▁شیلان	-11.5939
▁ڕادەگەیەنن	-11.5939
▁بگەڕێن	-11.5951
▁تارا	-11.5951
▁زانیم	-11.5951
▁سوننەو	-11.5951
▁نیشتەجێن	-11.5951
▁ڕۆژو	-11.5951
▁کەشی	-11.5951
▁دنیابینی	-11.5963
▁فەرموودەی	-11.5963
▁لێدەکەم	-11.5963
▁لەئێستاوە	-11.5963
▁پێدرا	-11.5963
▁گەیشتوونەتە	-11.5963
▁You	-11.5975
▁بارزانی)	-11.5975
▁بنبڕ	-11.5975
▁تەعبیر	-11.5975
▁جیاکاری	-11.5975
▁دەداتێ	-11.5975
▁دەپرسێت	-11.5975
▁شەشەمین	-11.5975
▁ماڵەکانیان	-11.5975
▁ملیارد	-11.5975
▁هەرێمێک	-11.5975
▁هەڵەبجەدا	-11.5975
▁چێ	-11.5975
▁یاسایەی	-11.5975
▁ئەبینین	-11.5987
▁تێدابێت	-11.5987
▁عێراقێ	-11.5987
▁هاتووەو	-11.5987
▁پێبەخشرا	-11.5987
▁کوڕانی	-11.5987
▁کوێوە	-11.5987
▁ببم	-11.5999
▁بەئارەزووی	-11.5999
▁مندالان	-11.5999
▁نەزان	-11.5999
▁پانتایییەکی	-11.5999
▁بیستنی	-11.6011
▁تایبە	-11.6011
▁توێژێکی	-11.6011
▁لەکابینەی	-11.6011
▁نیگای	-11.6011
▁هێڵێکی	-11.6011
▁هەرەسی	-11.6011
▁پایەکانی	-11.6011
▁ئازادیە	-11.6023
▁ئەکتەرێکی	-11.6023
▁بخاته	-11.6023
▁بەباشترین	-11.6023
▁دروستبکەن	-11.6023
▁سەربازە	-11.6023
▁هونەرمەندێک	-11.6023
▁هۆکارانە	-11.6023
▁وادا	-11.6023
▁ڕابوردوو	-11.6023
▁ڕۆژیش	-11.6023
▁1977	-11.6035
▁باسکرد	-11.6035
▁ترلیۆن	-11.6035
▁جەنەراڵ	-11.6035
▁ناکۆکییەکان	-11.6035
▁هاولاتی	-11.6035
▁گەورەن	-11.6035
▁،]هەر	-11.6047
▁ئەوانیتر	-11.6047
▁بەکاربردنی	-11.6047
▁دەبووایە	-11.6047
▁زۆریشی	-11.6047
▁سەعاتی	-11.6047
▁سەنگ	-11.6047
▁لەدایکبووی	-11.6047
▁ناڤبری	-11.6047
▁هەفتانە	-11.6047
▁چوارچێوە	-11.6047
▁کامکار	-11.6047
▁کلاسیک	-11.6047
▁گەیشتینە	-11.6047
▁:"	-11.6059
▁جیهانییە	-11.6059
▁جێگیری	-11.6059
▁شەقڵاوە	-11.6059
▁قەڵا	-11.6059
▁لەخەباتی	-11.6059
▁هەفتەنامەی	-11.6059
▁وەزارەتەکەی	-11.6059
▁ڕاشکاوی	-11.6059
▁ڕاوبۆچوونی	-11.6059
▁October	-11.6071
▁عەرەبیی	-11.6071
▁هاندەری	-11.6071
▁ڕۆژنامەوانان	-11.6071
▁ئیماراتی	-11.6084
▁بخوێنەرەوە	-11.6084
▁حامید	-11.6084
▁دڵت	-11.6084
▁سارکۆزی	-11.6084
▁مامەڵەکردنی	-11.6084
▁وەستاندنی	-11.6084
▁پاییزی	-11.6084
▁کاربەدەستان	-11.6084
▁کارتێکی	-11.6084
▁کەتیایدا	-11.6084
▁کەمئەندامانی	-11.6084
▁March	-11.6096
▁ئەکاد	-11.6096
▁خەباتیان	-11.6096
▁خەلکێ	-11.6096
▁شەکر	-11.6096
▁لة	-11.6096
▁نموونەیەک	-11.6096
▁ژنانیش	-11.6096
▁گەڵا	-11.6096
▁ئاشتیی	-11.6108
▁ئێوەدا	-11.6108
▁دەناسرێت	-11.6108
▁سەدەیەک	-11.6108
▁سەعیدی	-11.6108
▁قەیرانەکە	-11.6108
▁مەفرەزەی	-11.6108
▁هەتاکو	-11.6108
▁پێشمەرگەش	-11.6108
▁چاپەمەنی	-11.6108
▁گرانە	-11.6108
▁بچووکترین	-11.612
▁جیاوازتر	-11.612
▁دەگرێتە	-11.612
▁شێری	-11.612
▁هەمیشەش	-11.612
▁ڕژێمێکی	-11.612
▁ئاوێتەی	-11.6132
▁خاکەکەی	-11.6132
▁دەتەوێت	-11.6132
▁دەقیقە	-11.6132
▁عەبدولڕەحمان/	-11.6132
▁لەباشووری	-11.6132
▁نزیکەکانی	-11.6132
▁نەدەین	-11.6132
▁پوختەی	-11.6132
▁ئالای	-11.6145
▁ئاوەکە	-11.6145
▁تاو	-11.6145
▁جووت	-11.6145
▁سەیرکردنی	-11.6145
▁فیدڕاڵی	-11.6145
▁لەجێبەجێکردنی	-11.6145
▁مسلم	-11.6145
▁هەندێجار	-11.6145
▁ڕوەوە	-11.6145
▁ئامادەبوو	-11.6157
▁دووەمیشیان	-11.6157
▁دەمرن	-11.6157
▁دەکەینەوه	-11.6157
▁شرۆڤە	-11.6157
▁شێخانی	-11.6157
▁لێکەوتەوه	-11.6157
▁پێکهاتووه	-11.6157
▁ڕوسیای	-11.6157
▁گەورەمان	-11.6157
▁یاساییەکان	-11.6157
▁ئابوورییەکانی	-11.6169
▁ئافرەتانەی	-11.6169
▁ئامادەم	-11.6169
▁بەدەنگ	-11.6169
▁بەرپرسەی	-11.6169
▁حاڵەتەدا	-11.6169
▁دەردەخەن	-11.6169
▁دەگەیەنن	-11.6169
▁شیعی	-11.6169
▁قانوونی	-11.6169
▁قایم	-11.6169
▁قەرەباڵغی	-11.6169
▁لێو	-11.6169
▁پشتبەستن	-11.6169
▁گورزی	-11.6169
▁ێک	-11.6169
▁بەدیلی	-11.6181
▁بەرقەرار	-11.6181
▁خوله	-11.6181
▁شوناس	-11.6181
▁گۆرینی	-11.6181
▁ئەنقەست	-11.6194
▁بلاوکردنەوەی	-11.6194
▁لەجیهانی	-11.6194
▁ئامارەکان	-11.6206
▁ئەشرەف	-11.6206
▁بەوجۆرە	-11.6206
▁ترم	-11.6206
▁دڕندەیی	-11.6206
▁دید	-11.6206
▁دەستەبەری	-11.6206
▁سەرمایەداریی	-11.6206
▁سەرۆکە	-11.6206
▁سەلاحەدین	-11.6206
▁سەیرو	-11.6206
▁فڕۆکەوانی	-11.6206
▁لەشکرکێشی	-11.6206
▁ناوێک	-11.6206
▁نهێنییەکانی	-11.6206
▁پێویستییەکانی	-11.6206
▁کەمئەندام	-11.6206
▁گۆڕا	-11.6206
▁گەرِی	-11.6206
▁تۆمەتباری	-11.6218
▁خانەکانی	-11.6218
▁دەچم	-11.6218
▁سەرلەبەری	-11.6218
▁لەئاکامی	-11.6218
▁لەکۆمەڵگەی	-11.6218
▁نامیق	-11.6218
▁هاوتای	-11.6218
▁ڕوە	-11.6218
▁ئاپۆ	-11.6231
▁ئینتیمای	-11.6231
▁بگەڕێنەوه	-11.6231
▁داین	-11.6231
▁زانستیانە	-11.6231
▁سێدارەدان	-11.6231
▁شاوەیس	-11.6231
▁مەسەلەکانی	-11.6231
▁ژیری	-11.6231
▁کارەبایی	-11.6231
▁گرتووەتە	-11.6231
▁گەلاوێژ	-11.6231
▁یاریزانەکان	-11.6231
▁emrro	-11.6243
▁ئاسیای	-11.6243
▁خواز	-11.6243
▁خوێندندا	-11.6243
▁درابوو	-11.6243
▁دۆزیوەتەوە	-11.6243
▁لەئاستێکی	-11.6243
▁وشەیەک	-11.6243
▁چاوت	-11.6243
▁گەنجانە	-11.6243
▁یْەِ	-11.6243
▁إن	-11.6255
▁جموجۆڵی	-11.6255
▁لیستەکەیان	-11.6255
▁ماناو	-11.6255
▁نرخاند	-11.6255
▁پارێزگاکەی	-11.6255
▁ڕاستییەکی	-11.6255
▁کاراکردنی	-11.6255
▁کوردستانیشدا	-11.6255
▁گەرِەکی	-11.6255
▁بکەن.	-11.6268
▁بێلایەنی	-11.6268
▁بەسەری	-11.6268
▁بەوەزارەتی	-11.6268
▁بەکاربهێنن	-11.6268
▁تریشدا	-11.6268
▁حیزبیی	-11.6268
▁خەونێکی	-11.6268
▁قەوارەیەکی	-11.6268
▁مالیزیا	-11.6268
▁مرۆڤایەتیدا	-11.6268
▁هەوڵیداوە	-11.6268
▁وەبیر	-11.6268
▁ئەلقاعیده	-11.628
▁بڕه	-11.628
▁تێدەگات	-11.628
▁زاتەیه	-11.628
▁نوجەیفی	-11.628
▁هەولی	-11.628
▁چارەسەرکردنیان	-11.628
▁ڕاپەرینی	-11.628
▁کۆمەڵایەتییەکانی	-11.628
▁ینک	-11.628
▁December	-11.6293
▁بەکارهێنا	-11.6293
▁تاوانێک	-11.6293
▁دابەشکراوە	-11.6293
▁سەپاند	-11.6293
▁شەکرە	-11.6293
▁لەئارادا	-11.6293
▁لەهەڵبژاردنەکانی	-11.6293
▁نێوەندەدا	-11.6293
▁هەربۆیه	-11.6293
▁پێبکرێت	-11.6293
▁پێکبهێنێت	-11.6293
▁ڕاگەیاندو	-11.6293
▁ڕۆحانی	-11.6293
▁ڤە	-11.6293
▁کاردانەوەیەکی	-11.6293
▁بەنرخی	-11.6305
▁حاشا	-11.6305
▁دایان	-11.6305
▁سازە	-11.6305
▁شکۆی	-11.6305
▁لووتکەی	-11.6305
▁لەژمارەی	-11.6305
▁مریەم	-11.6305
▁ڕێکەوتننامەی	-11.6305
▁کاتەکانی	-11.6305
▁1961	-11.6317
▁دلاوەر	-11.6317
▁زێرەڤانی	-11.6317
▁قژی	-11.6317
▁لەکەرتی	-11.6317
▁ناوم	-11.6317
▁وەفدەکەی	-11.6317
▁ڕێکوپێک	-11.6317
▁گێڕایەوە	-11.6317
▁ئادار	-11.633
▁ئەمەشە	-11.633
▁ئەنجامدراون	-11.633
▁جگەلەوەش	-11.633
▁شۆڕ	-11.633
▁مانگێکی	-11.633
▁ملیۆنی	-11.633
▁هیواو	-11.633
▁پیاوانە	-11.633
▁پێشکەوتنە	-11.633
▁کردن،	-11.633
▁ئاوایی	-11.6342
▁دیت	-11.6342
▁دەبو	-11.6342
▁پەسندکردنی	-11.6342
▁ڕاسپاردەی	-11.6342
▁ڕوونکردنەوە	-11.6342
▁ئارەزوی	-11.6355
▁ئیراق	-11.6355
▁ئیلهام	-11.6355
▁خوێ	-11.6355
▁خەڵکەی	-11.6355
▁سەرگەردان	-11.6355
▁شۆڕشگێڕانە	-11.6355
▁هەڵمەتە	-11.6355
▁کۆمەڵگاوە	-11.6355
▁کێشان	-11.6355
▁97	-11.6367
▁ئیدانە	-11.6367
▁جەماوەرە	-11.6367
▁حیزبەکەیان	-11.6367
▁دەترسێت	-11.6367
▁سەلماندی	-11.6367
▁فەتوای	-11.6367
▁لەئەستۆی	-11.6367
▁مەسەلەکان	-11.6367
▁هەمین	-11.6367
▁پایز	-11.6367
▁پەرتووک	-11.6367
▁بەرِێوەدەچێت	-11.638
▁بەغداش	-11.638
▁خستووە	-11.638
▁دەیزانی	-11.638
▁سنورە	-11.638
▁سەرژمێریی	-11.638
▁شێر	-11.638
▁لێکردم	-11.638
▁لەمەسەلەی	-11.638
▁ناگرن	-11.638
▁نەکەم	-11.638
▁وەخت	-11.638
▁پرۆژەکه	-11.638
▁پەخشان	-11.638
▁ڕێکخراوێک	-11.638
▁گۆڕیوە	-11.638
▁گەیشتوون	-11.638
▁ئازادن	-11.6392
▁بەهەردوو	-11.6392
▁ترسە	-11.6392
▁حەلەب	-11.6392
▁زیندانەکانی	-11.6392
▁شەوانی	-11.6392
▁غیابی	-11.6392
▁فێرکردنی	-11.6392
▁قودس	-11.6392
▁وردتر	-11.6392
▁پەلامار	-11.6392
▁کۆمپانیاو	-11.6392
▁حزب	-11.6405
▁مادەیەکی	-11.6405
▁ناڕاست	-11.6405
▁نێوانمان	-11.6405
▁وایکردوە	-11.6405
▁پاڵاوتنی	-11.6405
▁چەکێکی	-11.6405
▁کتوپڕ	-11.6405
▁کێبڕکێ	-11.6405
▁جوڵە	-11.6418
▁دووای	-11.6418
▁سەردەمێک	-11.6418
▁هەروەسا	-11.6418
▁پێشوازیان	-11.6418
▁ڕوداو	-11.6418
▁بەروبوومی	-11.643
▁حاڵەتدا	-11.643
▁خۆپیشاندانیان	-11.643
▁سێبەر	-11.643
▁نیۆیۆرک	-11.643
▁پارێزگاو	-11.643
▁پڕن	-11.643
▁پێشمەرگەیە	-11.643
▁ڕاگرتووە	-11.643
▁ڕەخنەیەکی	-11.643
▁کۆمەڵدا	-11.643
▁ئیعدام	-11.6443
▁ئەنفالدا	-11.6443
▁بوختان	-11.6443
▁بەرێژەی	-11.6443
▁جیاوازو	-11.6443
▁حەوتەمین	-11.6443
▁دۆزییەوە	-11.6443
▁سادەی	-11.6443
▁هەمەلایەنەی	-11.6443
▁هەڵبژاردنەوەی	-11.6443
▁چا	-11.6443
▁ڕووخساری	-11.6443
▁بڵاویکردۆتەوە،	-11.6455
▁تورکە	-11.6455
▁خەڵاتە	-11.6455
▁دەڤەرا	-11.6455
▁ناڵێت	-11.6455
▁هۆیەکی	-11.6455
▁وەنەبێت	-11.6455
▁پرسەو	-11.6455
▁بارین	-11.6468
▁تیرۆرستی	-11.6468
▁جەڵتەی	-11.6468
▁خوێندکارە	-11.6468
▁عەزیزی	-11.6468
▁قوڕ	-11.6468
▁لەئێمە	-11.6468
▁نەکردووە،	-11.6468
▁پیشاندا	-11.6468
▁چارەسەرە	-11.6468
▁کەوتووەتە	-11.6468
▁گەڕاونەتەوە	-11.6468
▁ئوسامه	-11.6481
▁بەرنامەیەک	-11.6481
▁بەڵێنیان	-11.6481
▁حوسێنی	-11.6481
▁سۆشیالیستی	-11.6481
▁لەپشتی	-11.6481
▁هاواریان	-11.6481
▁هاوڕێم	-11.6481
▁وتارێک	-11.6481
▁پرسیارەکان	-11.6481
▁چۆمانی	-11.6481
▁ڕێگاوبان	-11.6481
▁کاریگەرە	-11.6481
▁ئەوانن	-11.6493
▁بنووسن	-11.6493
▁بەیاننامە	-11.6493
▁تەمەنم	-11.6493
▁مشتومڕی	-11.6493
▁نالەباری	-11.6493
▁ناچارە	-11.6493
▁ڕێکەوتنێک	-11.6493
▁ڕەوانەکردنی	-11.6493
▁August	-11.6506
▁This	-11.6506
▁ئەبی	-11.6506
▁باوو	-11.6506
▁دیکتاتۆرییەتی	-11.6506
▁زەرەری	-11.6506
▁پێوانەیی	-11.6506
▁پەل	-11.6506
▁پەیوەندیەکان	-11.6506
▁کەنار	-11.6506
▁باڵیۆز	-11.6519
▁ببیت	-11.6519
▁بەرزانی	-11.6519
▁تێڕامان	-11.6519
▁دووره	-11.6519
▁دیدارو	-11.6519
▁دەستپێک	-11.6519
▁سەرزەوی	-11.6519
▁نەزانێت	-11.6519
▁وشیاری	-11.6519
▁کەشناسی	-11.6519
▁گوزەر	-11.6519
▁net	-11.6531
▁تواناسازی	-11.6531
▁خراپه	-11.6531
▁شمشێر	-11.6531
▁شیخ	-11.6531
▁شەپۆلێکی	-11.6531
▁مەعریفەی	-11.6531
▁پیران	-11.6531
▁پێشمەرگەکان	-11.6531
▁گەشتیاریی	-11.6531
▁ئاگاداربوون	-11.6544
▁بسەپێنێت	-11.6544
▁بۆچوونێکی	-11.6544
▁بەخوێنی	-11.6544
▁تیدا	-11.6544
▁دیوێکی	-11.6544
▁سودێکی	-11.6544
▁سوننی	-11.6544
▁ووڵاته	-11.6544
▁پارەکەی	-11.6544
▁ڕێگەیە	-11.6544
▁ئەندێشەی	-11.6557
▁باوکان	-11.6557
▁بزووتنەوەیە	-11.6557
▁بڕیاردەری	-11.6557
▁بەدیدەکرێت	-11.6557
▁سیاسەتمەدارانی	-11.6557
▁شەقامە	-11.6557
▁لەناخی	-11.6557
▁پێویستن	-11.6557
▁پەیوەندییانە	-11.6557
▁ئاسۆیەکی	-11.657
▁ئاودێری	-11.657
▁بەندەی	-11.657
▁سەرسوڕمان	-11.657
▁ناوو	-11.657
▁پرەنسیپەکانی	-11.657
▁پێشمەرگەیەک	-11.657
▁ئامێرێکی	-11.6582
▁ئاکەپە	-11.6582
▁زانستییەکان	-11.6582
▁سوننەی	-11.6582
▁شانە	-11.6582
▁عەرەبەکانی	-11.6582
▁وردەکاریی	-11.6582
▁گوتی:"	-11.6582
▁ئامێز	-11.6595
▁ئەکتەره	-11.6595
▁بەرنامەکەی	-11.6595
▁تێکۆشەری	-11.6595
▁سنگی	-11.6595
▁نادیارە	-11.6595
▁وەلا	-11.6595
▁ڕێوە	-11.6595
▁کەمتەرخەم	-11.6595
▁February	-11.6608
▁بووبن	-11.6608
▁بەقازانجی	-11.6608
▁نیوزی	-11.6608
▁هەلبژاردنی	-11.6608
▁ڕابگەیەنن	-11.6608
▁کێشەکه	-11.6608
▁کەئەمە	-11.6608
▁یەکه	-11.6608
▁ئیخوانەکان	-11.6621
▁سیاسیەی	-11.6621
▁لاوازیی	-11.6621
▁لەمێژوودا	-11.6621
▁هاوخەمی	-11.6621
▁هیگل	-11.6621
▁هەردوکیان	-11.6621
▁هەستیارە	-11.6621
▁هەلەو	-11.6621
▁وزەو	-11.6621
▁وەرگر	-11.6621
▁پێوانەی	-11.6621
▁پێکهاتنی	-11.6621
▁پەنجەرەی	-11.6621
▁کۆیه	-11.6621
▁کێڵگە	-11.6621
▁ئەنادۆڵ	-11.6634
▁بخرێنە	-11.6634
▁بیلال	-11.6634
▁خاوی	-11.6634
▁دیکە،	-11.6634
▁ناخۆشە	-11.6634
▁هەرەشەی	-11.6634
▁ڕابکێشێت	-11.6634
▁ژەنەراڵ	-11.6634
▁کۆنتڕۆڵکردنی	-11.6634
▁کۆنەپەرست	-11.6634
▁تێکەڵاوی	-11.6647
▁جنێو	-11.6647
▁جیاوازییەک	-11.6647
▁حەزو	-11.6647
▁دامەزراو	-11.6647
▁داهاتوو،	-11.6647
▁سووریا،	-11.6647
▁لێواری	-11.6647
▁نوسیوە	-11.6647
▁هەواڵەکە	-11.6647
▁پەیامنێر)ی	-11.6647
▁ڕەتکردەوه	-11.6647
▁أو	-11.6659
▁بەخش	-11.6659
▁فەرمانبەرداری	-11.6659
▁لەسەروبەندی	-11.6659
▁مەردان	-11.6659
▁پیتاندنی	-11.6659
▁کاتەش	-11.6659
▁کونسوڵخانەی	-11.6659
▁بنەماڵەیی	-11.6672
▁خامنەیی	-11.6672
▁فەیلەسوفی	-11.6672
▁ناسیونالیستی	-11.6672
▁چالاکییه	-11.6672
▁ژمارەکا	-11.6672
▁گومانم	-11.6672
▁ئایەتە	-11.6685
▁بابەکر	-11.6685
▁بتوانی	-11.6685
▁بهێننە	-11.6685
▁تاوەکوو	-11.6685
▁تەلار	-11.6685
▁درکاند،	-11.6685
▁دەنووسم	-11.6685
▁مار	-11.6685
▁ئاوارەیی	-11.6698
▁تیپەکەی	-11.6698
▁دروستکراون	-11.6698
▁دەخوێنن	-11.6698
▁دەرکەوتووه	-11.6698
▁ماڵوێرانی	-11.6698
▁نۆیەم	-11.6698
▁کردووم	-11.6698
▁info	-11.6711
▁بدەمەوە	-11.6711
▁بڕۆین	-11.6711
▁بەپـێی	-11.6711
▁داهاتووشدا	-11.6711
▁دهۆکی	-11.6711
▁زۆرینەیان	-11.6711
▁سێشەممەی	-11.6711
▁قەدەری	-11.6711
▁ناوەڕۆک	-11.6711
▁هاتونەتە	-11.6711
▁پارەکە	-11.6711
▁گەشتێکی	-11.6711
▁بڵاوبۆتەوە	-11.6724
▁تێڕوانینە	-11.6724
▁دابەزیوە	-11.6724
▁دادگاکان	-11.6724
▁دیکەشی	-11.6724
▁لەسەد	-11.6724
▁هۆکارەکان	-11.6724
▁گرنگەو	-11.6724
▁باز	-11.6737
▁بەرجەستەی	-11.6737
▁شەریعەت	-11.6737
▁مانگێکە	-11.6737
▁نووسەره	-11.6737
▁هاوپشتی	-11.6737
▁پاسەوان	-11.6737
▁پێشمەرگەوە	-11.6737
▁پەلی	-11.6737
▁کاریگەرییە	-11.6737
▁کۆمەلگا	-11.6737
▁ئاساییش	-11.675
▁دابەشکرا	-11.675
▁داوەته	-11.675
▁دەورێکی	-11.675
▁سڵ	-11.675
▁هەڵس	-11.675
▁کوران	-11.675
▁بەسوود	-11.6763
▁جگەلە	-11.6763
▁دروستبکرێت	-11.6763
▁سیاسییەکەی	-11.6763
▁نوێیەکان	-11.6763
▁نەخۆشخانەیەکی	-11.6763
▁نەوتییەکان	-11.6763
▁‬	-11.6763
▁ئەوانەدا	-11.6776
▁بارەگا	-11.6776
▁باڵە	-11.6776
▁بەکارهێنان	-11.6776
▁دەگونجێت	-11.6776
▁شوێنیان	-11.6776
▁فێرکاری	-11.6776
▁قاسملوو	-11.6776
▁مادەیە	-11.6776
▁پـۆلیس	-11.6776
▁کوفر	-11.6776
▁ئێس	-11.6789
▁بنێ	-11.6789
▁بوێری	-11.6789
▁داعشیان	-11.6789
▁دامەزراوەیی	-11.6789
▁سەربازیەکانی	-11.6789
▁عەرەبییە	-11.6789
▁هەنگوین	-11.6789
▁پەسەندکرد	-11.6789
▁ڕابردوی	-11.6789
▁ڕاستییەکەی	-11.6789
▁بەنی	-11.6802
▁جیاوازەکاندا	-11.6802
▁داواکارییە	-11.6802
▁دەسەڵاتیش	-11.6802
▁دەور	-11.6802
▁لەریزی	-11.6802
▁ناوبانگ	-11.6802
▁نەریتێکی	-11.6802
▁چاپخانەی	-11.6802
▁چەوساوە	-11.6802
▁id	-11.6815
▁ئابوورییەکان	-11.6815
▁ئێرانیان	-11.6815
▁بدەنێ	-11.6815
▁خوداوەند	-11.6815
▁دەخەن	-11.6815
▁سوریا،	-11.6815
▁مامەڵەیەکی	-11.6815
▁ماڵیان	-11.6815
▁هاوبەشدا	-11.6815
▁کاردانەوە	-11.6815
▁کارمەندێکی	-11.6815
▁گوایا	-11.6815
▁گەرمای	-11.6815
▁گەشی	-11.6815
▁بووینە	-11.6828
▁بەختی	-11.6828
▁تان	-11.6828
▁ستە	-11.6828
▁سیاسییان	-11.6828
▁لەبەرەی	-11.6828
▁ناحیە	-11.6828
▁پەیمانگاکانی	-11.6828
▁key	-11.6841
▁بابم	-11.6841
▁جێبەجێکاری	-11.6841
▁دەرببڕن	-11.6841
▁سەرپەرشتیی	-11.6841
▁لێرەشەوە	-11.6841
▁نەکراوه	-11.6841
▁پارتییە	-11.6841
▁پووچ	-11.6841
▁ڕاستەو	-11.6841
▁ئارادایه	-11.6855
▁بەیەکێتی	-11.6855
▁تێکۆشەر	-11.6855
▁سوریاش	-11.6855
▁ماده	-11.6855
▁موسڵمانانی	-11.6855
▁نیسان/	-11.6855
▁ونە	-11.6855
▁کارکردنە	-11.6855
▁کتێبەکان	-11.6855
▁3-	-11.6868
▁ئەسوات	-11.6868
▁باشترو	-11.6868
▁بکاته	-11.6868
▁بەشداربوونی	-11.6868
▁توێژینەوەکە	-11.6868
▁جێگایەکی	-11.6868
▁ستانداردی	-11.6868
▁قائید	-11.6868
▁نەخشەو	-11.6868
▁هۆشیارکردنەوەی	-11.6868
▁وڵاتەکانی	-11.6868
▁being	-11.6881
▁بێکاران	-11.6881
▁جیهانیەکان	-11.6881
▁دورگەی	-11.6881
▁دیدو	-11.6881
▁زەحمەتکێش	-11.6881
▁لێڤەرپول	-11.6881
▁مخابن	-11.6881
▁مەمک	-11.6881
▁نووسەرێک	-11.6881
▁نەدانی	-11.6881
▁ڕاسته	-11.6881
▁کردوە،	-11.6881
▁کەرکوکە	-11.6881
▁گریمان	-11.6881
▁،]ئێستا	-11.6894
▁بەرشەلۆنه	-11.6894
▁بەشدارییەکی	-11.6894
▁تەقەکردن	-11.6894
▁دەروونیی	-11.6894
▁سیاسیانە	-11.6894
▁سیمبولی	-11.6894
▁میلانی	-11.6894
▁مەخابن	-11.6894
▁هەلومەرجێکی	-11.6894
▁ژیرانە	-11.6894
▁ئامرازێکی	-11.6907
▁ئاوەها	-11.6907
▁ئاڵ	-11.6907
▁بەدواداچونی	-11.6907
▁خەباتێکی	-11.6907
▁دەستکردی	-11.6907
▁دەژیت	-11.6907
▁ساڵحی	-11.6907
▁عەرەبییەکان	-11.6907
▁لەسەرو	-11.6907
▁مارک	-11.6907
▁مەحمودی	-11.6907
▁ناگۆڕێت	-11.6907
▁پێوه	-11.6907
▁ژەنیاری	-11.6907
▁کردووین	-11.6907
▁کەرکووکی	-11.6907
▁یاساوە	-11.6907
▁ئاستەکانی	-11.6921
▁ئەندێشە	-11.6921
▁دەستکرد	-11.6921
▁زەویی	-11.6921
▁لەجۆری	-11.6921
▁ڕەمەزاندا	-11.6921
▁کەسێکەوە	-11.6921
▁125	-11.6934
▁ئەنجامێک	-11.6934
▁ترسێکی	-11.6934
▁تێدایه	-11.6934
▁درۆو	-11.6934
▁فرۆید	-11.6934
▁لیژنه	-11.6934
▁پرۆسەیەدا	-11.6934
▁چار	-11.6934
▁ڕابەرانی	-11.6934
▁ڕیفۆرمی	-11.6934
▁ڕەفعەت	-11.6934
▁کۆبونەوەکە	-11.6934
▁کەسدا	-11.6934
▁ئەوها	-11.6947
▁ئەوەنده	-11.6947
▁باخچە	-11.6947
▁دەچێت،	-11.6947
▁سوپایەکی	-11.6947
▁سۆڤیەتی	-11.6947
▁فەرمانڕەوا	-11.6947
▁فەزا	-11.6947
▁لێدوانە	-11.6947
▁نین،	-11.6947
▁نەماوەو	-11.6947
▁پۆڵەندا	-11.6947
▁کاریگەریەکی	-11.6947
▁کەئەوان	-11.6947
▁گول	-11.6947
▁گەڕەکەکانی	-11.6947
▁بەرپرسێ	-11.696
▁دیلی	-11.696
▁دیموکراتیەت	-11.696
▁سلێمانییە	-11.696
▁سیمایەکی	-11.696
▁سەربازییەوە	-11.696
▁شارەزاو	-11.696
▁لێپرسینەوه	-11.696
▁لەبوونی	-11.696
▁ڕومادی	-11.696
▁کەلەلایەن	-11.696
▁گەشبینی	-11.696
▁ئارا	-11.6974
▁بوێرانە	-11.6974
▁بەرپرسن	-11.6974
▁دروشمەکانی	-11.6974
▁دەبەخشن	-11.6974
▁دەنگدەری	-11.6974
▁فەجر	-11.6974
▁فەزایەکی	-11.6974
▁لەبارەیەوە	-11.6974
▁لەدۆخی	-11.6974
▁وانیە	-11.6974
▁وردەکارییەکانی	-11.6974
▁پێکهاتەو	-11.6974
▁ڕازیکردنی	-11.6974
▁گرووپێکی	-11.6974
▁گرێی	-11.6974
▁یەکلاکەرەوە	-11.6974
▁بنووسێت	-11.6987
▁بکوژێت	-11.6987
▁بەخاوەنی	-11.6987
▁خانووە	-11.6987
▁لێسەندنەوەی	-11.6987
▁مەشهەدانی	-11.6987
▁نەرویژ	-11.6987
▁تەئکیدیان	-11.7
▁فەرمووی:	-11.7
▁هاوکاتیش	-11.7
▁پەروەر	-11.7
▁"بی	-11.7014
▁Comment	-11.7014
▁بەدەسەڵات	-11.7014
▁بەرامبەریان	-11.7014
▁جەنابت	-11.7014
▁میللەتێکی	-11.7014
▁مینی	-11.7014
▁مەدالیای	-11.7014
▁هەشتاکان	-11.7014
▁ووتی	-11.7014
▁کانتۆنی	-11.7014
▁بڵاوکردنەوە	-11.7027
▁بەمانایەکی	-11.7027
▁خامۆش	-11.7027
▁زیادیکردووە	-11.7027
▁لۆگۆی	-11.7027
▁لەتەوەرێکی	-11.7027
▁لەخەڵک	-11.7027
▁ناوبرد	-11.7027
▁نۆی	-11.7027
▁هونەرمەنده	-11.7027
▁چێوەی	-11.7027
▁گۆڕینەوەی	-11.7027
▁یارمەتیدەر	-11.7027
▁450	-11.704
▁ئەحزابی	-11.704
▁ئەوروپایی	-11.704
▁بەجێبەجێکردنی	-11.704
▁حەشار	-11.704
▁زەحمەتکێشان	-11.704
▁سوارە	-11.704
▁عیزەدین	-11.704
▁فراکسیۆنەکان	-11.704
▁پرۆژەیاسای	-11.704
▁ڕاگەیاندوە	-11.704
▁کل	-11.704
▁کۆنگرەیەدا	-11.704
▁Please	-11.7054
▁،]ئەم	-11.7054
▁بگەنه	-11.7054
▁بیانوو	-11.7054
▁جمهوری	-11.7054
▁سیما	-11.7054
▁شل	-11.7054
▁لەئەوروپا	-11.7054
▁لەبوارە	-11.7054
▁لەمبارەوه	-11.7054
▁هزرو	-11.7054
▁چەلەبی	-11.7054
▁ڕام	-11.7054
▁گوناهی	-11.7054
▁گەریلا	-11.7054
▁گەشتە	-11.7054
▁enter	-11.7067
▁ئاوڕ	-11.7067
▁تەمەنێکی	-11.7067
▁خێڵی	-11.7067
▁سووتان	-11.7067
▁لەناوچوونی	-11.7067
▁مسوڵمانان	-11.7067
▁وابزانم	-11.7067
▁یارییەکەدا	-11.7067
▁address	-11.7081
▁سازدەکرێت	-11.7081
▁سەرشەقام	-11.7081
▁شوێنەدا	-11.7081
▁میلیۆن	-11.7081
▁نیشتەجێبوونی	-11.7081
▁ڕەوایی	-11.7081
▁کولتووریی	-11.7081
▁API	-11.7094
▁بخرێت	-11.7094
▁برەو	-11.7094
▁بهێنێتەوە	-11.7094
▁جومگەکانی	-11.7094
▁حوکوومەتی	-11.7094
▁ستالین	-11.7094
▁شەوان	-11.7094
▁لەناوی	-11.7094
▁نەبووین	-11.7094
▁واقیعێکی	-11.7094
▁پەیوەندیکردن	-11.7094
▁کەچۆن	-11.7094
▁یاریزانه	-11.7094
▁یشدا	-11.7094
▁بگریت	-11.7107
▁ة	-11.7107
▁خستۆته	-11.7107
▁خوێندنەوەو	-11.7107
▁دانوستانەکانی	-11.7107
▁دەستبەکاربوونی	-11.7107
▁دەوڵەتەوە	-11.7107
▁سۆلاڤ	-11.7107
▁سێیەمیش	-11.7107
▁فەخامەتی	-11.7107
▁لەوجۆرە	-11.7107
▁هەرچ	-11.7107
▁پێشانگایەدا	-11.7107
▁کەحکومەتی	-11.7107
▁ئەلحەکیم	-11.7121
▁ئەنجامدەدەن	-11.7121
▁ئەژین	-11.7121
▁بڵاودەکاتەوە	-11.7121
▁بەنموونە	-11.7121
▁تێچووی	-11.7121
▁خودان	-11.7121
▁لێپێچینەوە	-11.7121
▁لەدادگای	-11.7121
▁وشەو	-11.7121
▁ڕاپەڕینەوە	-11.7121
▁ڕەنجی	-11.7121
▁گرنگترینیان	-11.7121
▁یانەکەمان	-11.7121
▁یوونایتد	-11.7121
▁plugin	-11.7134
▁بڵاوبونەوەی	-11.7134
▁خانەوادەکەی	-11.7134
▁غەمگین	-11.7134
▁قسەکردنی	-11.7134
▁لەنەخۆشخانەی	-11.7134
▁مەولەوی	-11.7134
▁هاتی	-11.7134
▁وشیار	-11.7134
▁پرۆگرام	-11.7134
▁کلنتن	-11.7134
▁Tweet	-11.7148
▁سەروی	-11.7148
▁نفوزی	-11.7148
▁نەدەدا	-11.7148
▁کەئێمە	-11.7148
▁correct	-11.7162
▁settings	-11.7162
▁بکاو	-11.7162
▁تێدەگەین	-11.7162
▁شێوەکان	-11.7162
▁فڕین	-11.7162
▁ماتەمینی	-11.7162
▁نەیار	-11.7162
▁هاوسۆزی	-11.7162
▁وانەکانی	-11.7162
▁ڕۆژێکیان	-11.7162
▁ئەیلوول	-11.7175
▁تراژیدیای	-11.7175
▁جێبەجی	-11.7175
▁داخراوە	-11.7175
▁سەرفرازی	-11.7175
▁عەبد	-11.7175
▁مایکڵ	-11.7175
▁مەدینە	-11.7175
▁هەڵدانەوەی	-11.7175
▁وادیارە	-11.7175
▁وڵاتەکەدا	-11.7175
▁ڕوداوەکە	-11.7175
▁ڕیکخراوی	-11.7175
▁کشانەوە	-11.7175
▁ئایدۆلۆژی	-11.7189
▁ئایدۆلۆژیا	-11.7189
▁بێت.	-11.7189
▁بەڵاو	-11.7189
▁تازەو	-11.7189
▁درێژخایەنی	-11.7189
▁سیاسەتمەداری	-11.7189
▁مەرزی	-11.7189
▁هەمووشیان	-11.7189
▁وەرنەگرتووە	-11.7189
▁پێناسەیەکی	-11.7189
▁چرای	-11.7189
▁spambots	-11.7202
▁ئەمساڵەوە	-11.7202
▁بیکاتە	-11.7202
▁بەرەسمی	-11.7202
▁دینە	-11.7202
▁سەرئەنجامی	-11.7202
▁سەربه	-11.7202
▁وەفا	-11.7202
▁پێتوایە	-11.7202
▁ڕیاز	-11.7202
▁کوڕم	-11.7202
▁کُمْ	-11.7202
▁گفتوگۆکرا	-11.7202
▁توندوتیژ	-11.7216
▁خاچی	-11.7216
▁دووبارەکردنەوەی	-11.7216
▁دەوڵەتان	-11.7216
▁لەندەنی	-11.7216
▁کابینەکەی	-11.7216
▁گوزارشتی	-11.7216
▁ییە	-11.7216
▁بەپێچەوانەشەوە	-11.7229
▁تارانی	-11.7229
▁مومارەسەی	-11.7229
▁ڕابوون	-11.7229
▁کردۆتەوە،	-11.7229
▁ئیسرایل	-11.7243
▁ئەستێرەکان	-11.7243
▁بێجگه	-11.7243
▁حیکایەتی	-11.7243
▁دەخەمە	-11.7243
▁ناز	-11.7243
▁ناوچەکەو[	-11.7243
▁نەمتوانی	-11.7243
▁نەکراوەتەوە	-11.7243
▁ووڵاتانی	-11.7243
▁پەیدابوونی	-11.7243
▁ئامارە	-11.7257
▁ئەڵقەی	-11.7257
▁بوو.	-11.7257
▁ته	-11.7257
▁دابەشکردن	-11.7257
▁پێنجوێنی	-11.7257
▁چۆنێتی	-11.7257
▁گۆڕستانی	-11.7257
▁ئارێز	-11.7271
▁ئەتلەتیکۆ	-11.7271
▁بێنه	-11.7271
▁بەجۆرێکی	-11.7271
▁بەڕێوەیە	-11.7271
▁جاک	-11.7271
▁جەژنە	-11.7271
▁حامد	-11.7271
▁شوێنەکەی	-11.7271
▁شەوێکی	-11.7271
▁فەرمانگەکان	-11.7271
▁هەوڵدەدەم	-11.7271
▁پورتوگال	-11.7271
▁چەواشەکاری	-11.7271
▁ئاڵۆزە	-11.7284
▁ئیسلامیەکانی	-11.7284
▁شاعیرو	-11.7284
▁شوکر	-11.7284
▁شەهیدەکان	-11.7284
▁هاتووم	-11.7284
▁گوێدانە	-11.7284
▁"جەلال	-11.7298
▁بردنە	-11.7298
▁بڕیاریاندا	-11.7298
▁دووسەد	-11.7298
▁سادەترین	-11.7298
▁هێزەکانمان	-11.7298
▁وێڵ	-11.7298
▁ڕێزدار	-11.7298
▁گوناە	-11.7298
▁گۆڤارە	-11.7298
▁ئەفسەرانی	-11.7312
▁ئەنجامەی	-11.7312
▁بابەتەی	-11.7312
▁سودمەند	-11.7312
▁لەوەیە	-11.7312
▁هەروەهاش	-11.7312
▁پـێـنجشەممه	-11.7312
▁چیی	-11.7312
▁چەکداران	-11.7312
▁کادرانی	-11.7312
▁یەکسانە	-11.7312
▁by	-11.7325
▁ئەشکەنجەی	-11.7325
▁بەندیخانەی	-11.7325
▁دڵنیاین	-11.7325
▁دەولەت	-11.7325
▁ماناکانی	-11.7325
▁نیشـتیمانی	-11.7325
▁نەشیاو	-11.7325
▁ڕێگایان	-11.7325
▁کز	-11.7325
▁html	-11.7339
▁ئەزموونەکانی	-11.7339
▁بەسەرجەم	-11.7339
▁تەک	-11.7339
▁دوری	-11.7339
▁دوورەوە	-11.7339
▁سورە	-11.7339
▁مولازم	-11.7339
▁مۆڵەتیان	-11.7339
▁وێستگەیەکی	-11.7339
▁چواردەوری	-11.7339
▁ئافرەته	-11.7353
▁ئۆپۆزسیۆنە	-11.7353
▁بخەنه	-11.7353
▁دادێت	-11.7353
▁دۆزرایەوه	-11.7353
▁وەردەگرت	-11.7353
▁پوچەڵ	-11.7353
▁پێبکەن	-11.7353
▁چارەسەریی	-11.7353
▁کۆدەنگی	-11.7353
▁یەعقوب	-11.7353
▁"من	-11.7367
▁بخوێنن	-11.7367
▁عەمار	-11.7367
▁نوسرە	-11.7367
▁گوله	-11.7367
▁خۆمی	-11.7381
▁داستان	-11.7381
▁دەیلی	-11.7381
▁سەنتەرێکی	-11.7381
▁ماوەیەکه	-11.7381
▁هەولێرە	-11.7381
▁پاراستووە	-11.7381
▁ڕوسیاو	-11.7381
▁کارل	-11.7381
▁ئەساسی	-11.7395
▁توێژەر	-11.7395
▁حتی	-11.7395
▁دێنه	-11.7395
▁دەخرێته	-11.7395
▁دەستکەوتنی	-11.7395
▁لیبراڵ	-11.7395
▁لێبکەوێتەوە	-11.7395
▁ماندووبوون	-11.7395
▁نایاتە	-11.7395
▁هاوکارییەکی	-11.7395
▁چیاکانی	-11.7395
▁ڕویداوە	-11.7395
▁ڕێزگرتنی	-11.7395
▁ڕێسای	-11.7395
▁ڕەخنەگران	-11.7395
▁C	-11.7408
▁ئامادەنین	-11.7408
▁خێزانێک	-11.7408
▁دۆستان	-11.7408
▁دەکری	-11.7408
▁لەشفرۆشی	-11.7408
▁نەگرتووە	-11.7408
▁هاووڵاتییانی	-11.7408
▁هیوایەی	-11.7408
▁هەند	-11.7408
▁کوردسـتانی	-11.7408
▁بخوێننەوە	-11.7422
▁بەڕێزی	-11.7422
▁تەقینەوەکه	-11.7422
▁جادە	-11.7422
▁خواناس	-11.7422
▁دەژمێردرێت	-11.7422
▁زیندووە	-11.7422
▁مارسی	-11.7422
▁ناڵە	-11.7422
▁پشتگیریکردنی	-11.7422
▁ڕێڤەبەرێ	-11.7422
▁کۆمسیۆن	-11.7422
▁گەنجەکان	-11.7422
▁بهێنینەوە	-11.7436
▁بەدر	-11.7436
▁تێدەگەن	-11.7436
▁خورشید	-11.7436
▁دیو	-11.7436
▁سەربازەکان	-11.7436
▁وات	-11.7436
▁پیتەر	-11.7436
▁ڕادەگەیەنرێت	-11.7436
▁ڕاپۆرتەی	-11.7436
▁بەزوویی	-11.745
▁تەئکیدیشی	-11.745
▁دانایی	-11.745
▁سادەیی	-11.745
▁سازان	-11.745
▁لایەکمان	-11.745
▁لەکارکێشانەوەی	-11.745
▁ناوخۆدا	-11.745
▁نەبوونە	-11.745
▁نەزانن	-11.745
▁هۆلا	-11.745
▁پسپۆرانی	-11.745
▁پەیوەندیم	-11.745
▁کەئەویش	-11.745
▁بودجەیە	-11.7464
▁خێزانەکان	-11.7464
▁سکرتارییەتی	-11.7464
▁مەم	-11.7464
▁ناخ	-11.7464
▁وشەکە	-11.7464
▁ڕونکردەوە	-11.7464
▁ڤیان	-11.7464
▁گرەنتی	-11.7464
▁جۆراوجۆرەکان	-11.7478
▁درێژەدا	-11.7478
▁لێکردووە	-11.7478
▁مسۆگەر	-11.7478
▁مەجلیسی	-11.7478
▁نوێبوونەوە	-11.7478
▁هەور	-11.7478
▁وانی	-11.7478
▁پرسیاریان	-11.7478
▁پێکبهێنن	-11.7478
▁پەکخستنی	-11.7478
▁ژنانەوە	-11.7478
▁باوەر	-11.7492
▁بۆمبێک	-11.7492
▁بەدیل	-11.7492
▁تاپۆ	-11.7492
▁خۆى	-11.7492
▁زۆریی	-11.7492
▁شانازییە	-11.7492
▁قوربانییەکانی	-11.7492
▁چوارچێوەیەشدا	-11.7492
▁،]دوای	-11.7506
▁ئاب/ئۆگۆست	-11.7506
▁جیاوازیەکی	-11.7506
▁خزمەتگوزارییە	-11.7506
▁دەهاتن	-11.7506
▁دەهێنین	-11.7506
▁لەدڵی	-11.7506
▁نیـیه	-11.7506
▁هێناون	-11.7506
▁هەڤاڵان	-11.7506
▁گێل	-11.7506
▁ئامرازێک	-11.752
▁ئاواره	-11.752
▁ئەوسای	-11.752
▁دواڕۆژی	-11.752
▁لەژیاندا	-11.752
▁لەکۆمەڵگای	-11.752
▁موسڵمانەکان	-11.752
▁مەسیحیەکان	-11.752
▁پەنجەکانی	-11.752
▁ڕۆژانەیان	-11.752
▁کوێستان	-11.752
▁تێکڕا	-11.7534
▁دەفتەری	-11.7534
▁مانی	-11.7534
▁مۆدێلێکی	-11.7534
▁ولاَتی	-11.7534
▁ئەوکەسانەی	-11.7548
▁تورکمانەکان	-11.7548
▁داناوه	-11.7548
▁فەخری	-11.7548
▁مامۆستایە	-11.7548
▁وەردەگرین	-11.7548
▁کاندیدە	-11.7548
▁گرفتەکە	-11.7548
▁ۆ	-11.7548
▁دەرهێنەره	-11.7562
▁هەرچییەک	-11.7562
▁هەژان	-11.7562
▁ڕاپۆرتەدا	-11.7562
▁ڕوویەکی	-11.7562
▁کانیان	-11.7562
▁گرتووه	-11.7562
▁ئاگادارن	-11.7577
▁بەدروستکردنی	-11.7577
▁بەشدارە	-11.7577
▁بەگوتەی	-11.7577
▁دۆزراوەتەوە	-11.7577
▁عێراقییه	-11.7577
▁لووت	-11.7577
▁لەگەرمیان	-11.7577
▁ناوبردنی	-11.7577
▁ڕایدەگەیەنن	-11.7577
▁ڕایی	-11.7577
▁ڕوداوەکان	-11.7577
▁ڕێزلێنانی	-11.7577
▁"دوای	-11.7591
▁تۆو	-11.7591
▁زمانەوە	-11.7591
▁منت	-11.7591
▁ناحیەکان	-11.7591
▁ناگەڕێتەوە	-11.7591
▁نەدان	-11.7591
▁پارچەیەکی	-11.7591
▁کامڵ	-11.7591
▁کرمانج	-11.7591
▁کەسەیە	-11.7591
▁گرێبەستێکی	-11.7591
▁العراق	-11.7605
▁بردەوەو[	-11.7605
▁دووپاتیکردەوە،	-11.7605
▁سەیرتر	-11.7605
▁مافەکان	-11.7605
▁نەزاهە	-11.7605
▁پێکهێنراوە	-11.7605
▁چیتان	-11.7605
▁کردەوه:	-11.7605
▁گومڕا	-11.7605
▁ئاکار	-11.7619
▁وابەستەی	-11.7619
▁وشەکانی	-11.7619
▁پرۆسه	-11.7619
▁ڕاسپاردەکانی	-11.7619
▁کتێبەدا	-11.7619
▁کۆمیتە	-11.7619
▁کیمیابارانکردنی	-11.7619
▁گەورەم	-11.7619
▁"ئەحمەد	-11.7633
▁بزوتنەوەکە	-11.7633
▁بووەته	-11.7633
▁بەبەرچاوی	-11.7633
▁بەفیڕۆ	-11.7633
▁بەنده	-11.7633
▁بەڵگەیەک	-11.7633
▁دروستبوو	-11.7633
▁دەس	-11.7633
▁سووتاندنی	-11.7633
▁قایمقام	-11.7633
▁لەئەمریکا	-11.7633
▁لەباربردنی	-11.7633
▁لەخاکی	-11.7633
▁لەدایکبوون	-11.7633
▁منم	-11.7633
▁هاوسەرگیریی	-11.7633
▁گوتی،	-11.7633
▁گوزاری	-11.7633
▁گێڕا	-11.7633
▁بەڵگەیە	-11.7647
▁حەویجە	-11.7647
▁دەستووردا	-11.7647
▁شرۆڤەی	-11.7647
▁شمەک	-11.7647
▁فەڵەستین	-11.7647
▁نەوتەوە	-11.7647
▁هێچ	-11.7647
▁پادشای	-11.7647
▁کەسێکدا	-11.7647
▁بەحکومەتی	-11.7662
▁دوزخورماتوو	-11.7662
▁سستی	-11.7662
▁شاندەکه	-11.7662
▁شکستیان	-11.7662
▁هەمووانە	-11.7662
▁پابەندە	-11.7662
▁چاوپێکەوتنێکی	-11.7662
▁گرفتێک	-11.7662
▁1969	-11.7676
▁بداتێ	-11.7676
▁بۆشایییە	-11.7676
▁بەئەنجامی	-11.7676
▁خۆشترین	-11.7676
▁دامەزراون	-11.7676
▁سەبری	-11.7676
▁ململانێکانی	-11.7676
▁مینێکی	-11.7676
▁هاولاَتیان	-11.7676
▁ڕاکردن	-11.7676
▁کارت	-11.7676
▁کۆنەوە	-11.7676
▁کێتی	-11.7676
▁تێزی	-11.769
▁دووانیان	-11.769
▁دەقەکە	-11.769
▁نەخۆشیە	-11.769
▁وەیان	-11.769
▁پاڵپشتیی	-11.769
▁پۆلیسێک	-11.769
▁چیرۆکەکە	-11.769
▁گڕی	-11.769
▁یاداشتی	-11.769
▁September	-11.7704
▁بەشانی	-11.7704
▁جووڵەی	-11.7704
[...]
